{
  "version": "1.0",
  "truncation": null,
  "padding": null,
  "added_tokens": [
    {
      "id": 0,
      "content": "<unk>",
      "single_word": false,
      "lstrip": false,
      "rstrip": false,
      "normalized": false,
      "special": true
    },
    {
      "id": 1,
      "content": "<pad>",
      "single_word": false,
      "lstrip": false,
      "rstrip": false,
      "normalized": false,
      "special": true
    },
    {
      "id": 2,
      "content": "<bos>",
      "single_word": false,
      "lstrip": false,
      "rstrip": false,
      "normalized": false,
      "special": true
    },
    {
      "id": 3,
      "content": "<eos>",
      "single_word": false,
      "lstrip": false,
      "rstrip": false,
      "normalized": false,
      "special": true
    }
  ],
  "normalizer": null,
  "pre_tokenizer": {
    "type": "ByteLevel",
    "add_prefix_space": true,
    "trim_offsets": true,
    "use_regex": true
  },
  "post_processor": null,
  "decoder": {
    "type": "ByteLevel",
    "add_prefix_space": true,
    "trim_offsets": true,
    "use_regex": true
  },
  "model": {
    "type": "BPE",
    "dropout": null,
    "unk_token": "<unk>",
    "continuing_subword_prefix": null,
    "end_of_word_suffix": null,
    "fuse_unk": false,
    "byte_fallback": false,
    "ignore_merges": false,
    "vocab": {
      "<unk>": 0,
      "<pad>": 1,
      "<bos>": 2,
      "<eos>": 3,
      "!": 4,
      "\"": 5,
      "#": 6,
      "$": 7,
      "%": 8,
      "&": 9,
      "'": 10,
      "(": 11,
      ")": 12,
      "*": 13,
      "+": 14,
      ",": 15,
      "-": 16,
      ".": 17,
      "/": 18,
      "0": 19,
      "1": 20,
      "2": 21,
      "3": 22,
      "4": 23,
      "5": 24,
      "6": 25,
      "7": 26,
      "8": 27,
      "9": 28,
      ":": 29,
      ";": 30,
      "<": 31,
      "=": 32,
      ">": 33,
      "?": 34,
      "@": 35,
      "A": 36,
      "B": 37,
      "C": 38,
      "D": 39,
      "E": 40,
      "F": 41,
      "G": 42,
      "H": 43,
      "I": 44,
      "J": 45,
      "K": 46,
      "L": 47,
      "M": 48,
      "N": 49,
      "O": 50,
      "P": 51,
      "Q": 52,
      "R": 53,
      "S": 54,
      "T": 55,
      "U": 56,
      "V": 57,
      "W": 58,
      "X": 59,
      "Y": 60,
      "Z": 61,
      "[": 62,
      "\\": 63,
      "]": 64,
      "^": 65,
      "_": 66,
      "`": 67,
      "a": 68,
      "b": 69,
      "c": 70,
      "d": 71,
      "e": 72,
      "f": 73,
      "g": 74,
      "h": 75,
      "i": 76,
      "j": 77,
      "k": 78,
      "l": 79,
      "m": 80,
      "n": 81,
      "o": 82,
      "p": 83,
      "q": 84,
      "r": 85,
      "s": 86,
      "t": 87,
      "u": 88,
      "v": 89,
      "w": 90,
      "x": 91,
      "y": 92,
      "z": 93,
      "{": 94,
      "|": 95,
      "}": 96,
      "~": 97,
      "¡": 98,
      "¢": 99,
      "£": 100,
      "¤": 101,
      "¥": 102,
      "¦": 103,
      "§": 104,
      "¨": 105,
      "©": 106,
      "ª": 107,
      "«": 108,
      "¬": 109,
      "®": 110,
      "¯": 111,
      "°": 112,
      "±": 113,
      "²": 114,
      "³": 115,
      "´": 116,
      "µ": 117,
      "¶": 118,
      "·": 119,
      "¸": 120,
      "¹": 121,
      "º": 122,
      "»": 123,
      "¼": 124,
      "½": 125,
      "¾": 126,
      "¿": 127,
      "Â": 128,
      "Ã": 129,
      "Ä": 130,
      "Å": 131,
      "Æ": 132,
      "Ç": 133,
      "È": 134,
      "É": 135,
      "Ê": 136,
      "Ë": 137,
      "Ì": 138,
      "Í": 139,
      "Î": 140,
      "Ï": 141,
      "Ð": 142,
      "Ñ": 143,
      "Ò": 144,
      "Ó": 145,
      "Ô": 146,
      "Õ": 147,
      "Ö": 148,
      "×": 149,
      "Ø": 150,
      "Ù": 151,
      "Ú": 152,
      "Û": 153,
      "Ü": 154,
      "Þ": 155,
      "à": 156,
      "á": 157,
      "â": 158,
      "ã": 159,
      "ä": 160,
      "å": 161,
      "æ": 162,
      "ç": 163,
      "è": 164,
      "é": 165,
      "ê": 166,
      "ë": 167,
      "ì": 168,
      "í": 169,
      "ï": 170,
      "ð": 171,
      "Ġ": 172,
      "Ģ": 173,
      "ģ": 174,
      "Ĥ": 175,
      "ĥ": 176,
      "Ħ": 177,
      "ħ": 178,
      "Ĩ": 179,
      "ĩ": 180,
      "Ī": 181,
      "ī": 182,
      "Ĭ": 183,
      "ĭ": 184,
      "Į": 185,
      "į": 186,
      "İ": 187,
      "ı": 188,
      "Ĳ": 189,
      "ĳ": 190,
      "Ĵ": 191,
      "ĵ": 192,
      "Ķ": 193,
      "ķ": 194,
      "ĸ": 195,
      "Ĺ": 196,
      "ĺ": 197,
      "Ļ": 198,
      "ļ": 199,
      "Ľ": 200,
      "ľ": 201,
      "Ŀ": 202,
      "ŀ": 203,
      "Ł": 204,
      "ł": 205,
      "Ń": 206,
      "Ã¡": 207,
      "Ã©": 208,
      "Ġa": 209,
      "sz": 210,
      "el": 211,
      "et": 212,
      "en": 213,
      "Ã³": 214,
      "er": 215,
      "Ã¶": 216,
      "Ġk": 217,
      "gy": 218,
      "Åĳ": 219,
      "Ġm": 220,
      "an": 221,
      "at": 222,
      "al": 223,
      "Ã©s": 224,
      "or": 225,
      "ek": 226,
      "Ġt": 227,
      "Ġv": 228,
      "ÃŃ": 229,
      "ol": 230,
      "on": 231,
      "es": 232,
      "ar": 233,
      "Ġf": 234,
      "Ã¡r": 235,
      "Ġh": 236,
      "Ã¼": 237,
      "Ã¡l": 238,
      "Ġsz": 239,
      "in": 240,
      "Ã¡s": 241,
      "ak": 242,
      "ĠA": 243,
      "Ã¡n": 244,
      "os": 245,
      "em": 246,
      "eg": 247,
      "is": 248,
      "Ġ1": 249,
      "ok": 250,
      "Ġn": 251,
      "tt": 252,
      "ik": 253,
      "ez": 254,
      "Ġaz": 255,
      "Ġ(": 256,
      "ĠÃ©s": 257,
      "Ã©n": 258,
      "Ġl": 259,
      "Ã¼l": 260,
      "egy": 261,
      "ban": 262,
      "Ãº": 263,
      "Ã©g": 264,
      "âĢ": 265,
      "cs": 266,
      "Ġel": 267,
      "ben": 268,
      "Ã©r": 269,
      "ett": 270,
      "Ã¡t": 271,
      "Ġb": 272,
      "Ã¡g": 273,
      "ĠM": 274,
      "oz": 275,
      "ĠS": 276,
      "om": 277,
      "il": 278,
      "ad": 279,
      "ap": 280,
      "Ã©l": 281,
      "Ġr": 282,
      "ÃŃt": 283,
      "ott": 284,
      "ai": 285,
      "Ġp": 286,
      "bb": 287,
      "ĠkÃ¶": 288,
      "us": 289,
      "Å±": 290,
      "Ã©t": 291,
      "agy": 292,
      "Ġs": 293,
      "ĠB": 294,
      "as": 295,
      "ed": 296,
      "szt": 297,
      "ĠK": 298,
      "Ġegy": 299,
      "âĢĵ": 300,
      "Ã©k": 301,
      "Ġ19": 302,
      "Ġd": 303,
      "Ġj": 304,
      "Ġ2": 305,
      "it": 306,
      "Ġmeg": 307,
      "Ã©p": 308,
      "ul": 309,
      "ĠE": 310,
      "aj": 311,
      "ut": 312,
      "sÃ©g": 313,
      "Ã©sz": 314,
      "ig": 315,
      "am": 316,
      "ja": 317,
      "Ã¡k": 318,
      "ĠT": 319,
      "ep": 320,
      "Ġis": 321,
      "ely": 322,
      "ag": 323,
      "ci": 324,
      "00": 325,
      "ĠP": 326,
      "re": 327,
      "Ã³l": 328,
      "Ã¶r": 329,
      "ĠF": 330,
      "Ġal": 331,
      "Ã¡ny": 332,
      "Ã©v": 333,
      "int": 334,
      "Ġcs": 335,
      "olt": 336,
      "ĠH": 337,
      "ĠC": 338,
      "ir": 339,
      "ev": 340,
      "id": 341,
      "ĠL": 342,
      "ĠkÃ¶z": 343,
      "ent": 344,
      "Ġfel": 345,
      "og": 346,
      "ot": 347,
      "ĠG": 348,
      "ra": 349,
      "Ã¡ll": 350,
      "ny": 351,
      "Ã©ny": 352,
      "ĠâĢĵ": 353,
      "Ã¡z": 354,
      "ĠN": 355,
      "ov": 356,
      "ĠI": 357,
      "19": 358,
      "od": 359,
      "ur": 360,
      "az": 361,
      "ta": 362,
      "ĠR": 363,
      "ĠD": 364,
      "end": 365,
      "ia": 366,
      "Åĳl": 367,
      "sÃ¡g": 368,
      "ch": 369,
      "ĠJ": 370,
      "Ã¡m": 371,
      "Ġki": 372,
      "ab": 373,
      "Ġszer": 374,
      "Ã¡lt": 375,
      "un": 376,
      "ei": 377,
      "ogy": 378,
      "ud": 379,
      "art": 380,
      "Ġvolt": 381,
      "ĠSz": 382,
      "Ġnem": 383,
      "agyar": 384,
      "um": 385,
      "ĠV": 386,
      "Ã³k": 387,
      "iz": 388,
      "est": 389,
      "Ġam": 390,
      "szer": 391,
      "ell": 392,
      "Ġc": 393,
      "Ã¡b": 394,
      "ni": 395,
      "Ġhogy": 396,
      "nak": 397,
      "zet": 398,
      "Ġtel": 399,
      "Ã¶l": 400,
      "ber": 401,
      "Ã¡ban": 402,
      "Ã¡ly": 403,
      "Ġg": 404,
      "nek": 405,
      "ej": 406,
      "Ã¶n": 407,
      "ĠAz": 408,
      "szÃ¡g": 409,
      "ÃŃr": 410,
      "Ã¶tt": 411,
      "Ã¶z": 412,
      "oly": 413,
      "Ã¼let": 414,
      "ĠÃ": 415,
      "orszÃ¡g": 416,
      "Ġny": 417,
      "te": 418,
      "orm": 419,
      "ĠÃ©v": 420,
      "01": 421,
      "ont": 422,
      "epÃ¼l": 423,
      "iv": 424,
      "sÅĳ": 425,
      "Ã¶s": 426,
      "Ã¡sok": 427,
      "ind": 428,
      "hat": 429,
      "Ã©rt": 430,
      "Ġgy": 431,
      "etÅĳ": 432,
      "Ġut": 433,
      "ĠÃº": 434,
      "len": 435,
      "eh": 436,
      "Ã¶k": 437,
      "Ġ200": 438,
      "ill": 439,
      "op": 440,
      "Ã¡bb": 441,
      "ran": 442,
      "ic": 443,
      "Ġ18": 444,
      "im": 445,
      "epÃ¼lÃ©s": 446,
      "ĠÃ¡ll": 447,
      "Ġak": 448,
      "asz": 449,
      "Ã³d": 450,
      "Ã©ben": 451,
      "Ã©ly": 452,
      "Ġde": 453,
      "Ã¡sa": 454,
      "Ã¼lt": 455,
      "Ġez": 456,
      "Ġter": 457,
      "Åĳk": 458,
      "ĠtelepÃ¼lÃ©s": 459,
      "Ã¶v": 460,
      "alm": 461,
      "ĠO": 462,
      "eszt": 463,
      "att": 464,
      "Ġjel": 465,
      "uk": 466,
      "Ã©m": 467,
      "Ã¡v": 468,
      "Ġleg": 469,
      "av": 470,
      "esz": 471,
      "bos": 472,
      "Ġrend": 473,
      "ri": 474,
      "Ġ<": 475,
      "eos": 476,
      "ÃŃn": 477,
      "hoz": 478,
      "Ġker": 479,
      "ug": 480,
      "Ã¡ci": 481,
      "Ã¡j": 482,
      "ĠelÅĳ": 483,
      "Ġhely": 484,
      "Ġer": 485,
      "Ġtart": 486,
      "zs": 487,
      "ĠW": 488,
      "Ġ3": 489,
      "Ã©nt": 490,
      "kor": 491,
      "Ã¡ros": 492,
      "Ã¡ra": 493,
      "Ġval": 494,
      "ort": 495,
      "ord": 496,
      "st": 497,
      "Ġnagy": 498,
      "ember": 499,
      "Ã©nek": 500,
      "Ġin": 501,
      "Ã¶rt": 502,
      "Ã©se": 503,
      "Ġszem": 504,
      "ang": 505,
      "Ã¡nak": 506,
      "kez": 507,
      "),": 508,
      "ikus": 509,
      "ert": 510,
      "ef": 511,
      "Ã¡sz": 512,
      "Åĳs": 513,
      "ĠszÃ¡m": 514,
      "Ã¶bb": 515,
      "ÃŃv": 516,
      "eti": 517,
      "orr": 518,
      "ba": 519,
      "Ã¡d": 520,
      "ĠâĢ": 521,
      "Ã¡bbi": 522,
      "Ġid": 523,
      "ult": 524,
      "ve": 525,
      "Ã©d": 526,
      "eb": 527,
      "ĠvÃ©g": 528,
      "Ġmagyar": 529,
      "Ġ199": 530,
      "mÅ±": 531,
      "ĠmÅ±": 532,
      "ÃŃtott": 533,
      "ĠÃ©l": 534,
      "ony": 535,
      "ette": 536,
      "and": 537,
      "Ġ201": 538,
      "eket": 539,
      "ob": 540,
      "essÃ©g": 541,
      "olg": 542,
      "ers": 543,
      "ĠelsÅĳ": 544,
      "Ã¼k": 545,
      "ikai": 546,
      "zÅĳ": 547,
      "Ã³s": 548,
      "osz": 549,
      "ĠmÃ¡s": 550,
      "ilÃ¡g": 551,
      "Ġamely": 552,
      "old": 553,
      "ĠrÃ©sz": 554,
      "elm": 555,
      "Ġz": 556,
      "nt": 557,
      "Ã¶rtÃ©n": 558,
      "Ġad": 559,
      "Ġhat": 560,
      "eny": 561,
      "nok": 562,
      "ajd": 563,
      "Ãºl": 564,
      "elt": 565,
      "he": 566,
      "alÃ¡l": 567,
      "ĠU": 568,
      "Âł": 569,
      "ĠtÃ¶bb": 570,
      "Ġvagy": 571,
      "ĠmÃ¡r": 572,
      "Ġo": 573,
      "Ġnev": 574,
      "hÃ¡z": 575,
      "unk": 576,
      "be": 577,
      "Ġkap": 578,
      "Ã³t": 579,
      "ĠZ": 580,
      "âĢĿ": 581,
      "ĠkÃ¶zÃ¶tt": 582,
      "ĠÃ©r": 583,
      "ond": 584,
      "ÃŃtÃ¡s": 585,
      "ĠvÃ¡lt": 586,
      "Az": 587,
      "ozat": 588,
      "ing": 589,
      "Ã¶ssz": 590,
      "iszt": 591,
      "Ġ4": 592,
      "pl": 593,
      "18": 594,
      "form": 595,
      "Ġmag": 596,
      "vez": 597,
      "hatÃ³": 598,
      "Ġ-": 599,
      "je": 600,
      "ĠÃ©p": 601,
      "mer": 602,
      "ete": 603,
      "ĠszemÃ©ly": 604,
      "ilm": 605,
      "ĠâĢŀ": 606,
      "Ġmind": 607,
      "200": 608,
      "Ã¶ld": 609,
      "Ġpr": 610,
      "ist": 611,
      "omÃ¡ny": 612,
      ").": 613,
      "ĠutÃ¡n": 614,
      "ĠÃ¡t": 615,
      "ĠÃºj": 616,
      "zetek": 617,
      "mÃ©ny": 618,
      "Ġtan": 619,
      "ĠkÃ©t": 620,
      "iai": 621,
      "Ã¡rt": 622,
      "ĠMagyar": 623,
      "Ġsor": 624,
      "ĠEgy": 625,
      "ĠcÃŃ": 626,
      "Ã¡rs": 627,
      "Ã©re": 628,
      "Ġkor": 629,
      "na": 630,
      "nd": 631,
      "alom": 632,
      "Ġmint": 633,
      "ĠfÅĳ": 634,
      "ebb": 635,
      "koz": 636,
      "kÃ¶z": 637,
      "aszt": 638,
      "gÃ³": 639,
      "ĠkÃ¶v": 640,
      "cia": 641,
      "ÃŃz": 642,
      "Ã©z": 643,
      "ĠÃ¶ssz": 644,
      "ĠAl": 645,
      "ĠkÃ¼l": 646,
      "obb": 647,
      "lÃ³": 648,
      "ĠkÃ¶r": 649,
      "isz": 650,
      "elÅĳ": 651,
      "irÃ¡ly": 652,
      "abd": 653,
      "bÃ³l": 654,
      "ac": 655,
      "egyzetek": 656,
      "ip": 657,
      "ĠkÃ©p": 658,
      "Ġmely": 659,
      "Ã¡val": 660,
      "nÃ¡l": 661,
      "tat": 662,
      "all": 663,
      "udap": 664,
      "ovÃ¡bbi": 665,
      "ĠEz": 666,
      "udapest": 667,
      "va": 668,
      "Ġ198": 669,
      "Jegyzetek": 670,
      "ion": 671,
      "Ġ5": 672,
      "lÅĳ": 673,
      "Ġjelent": 674,
      "Ġalap": 675,
      "||": 676,
      "Ġem": 677,
      ".)": 678,
      "erm": 679,
      "Ġellen": 680,
      "ikk": 681,
      "ĠÃŃr": 682,
      "orrÃ¡sok": 683,
      "Ã¡bor": 684,
      "Ãºt": 685,
      "okat": 686,
      "ĠvilÃ¡g": 687,
      "ĠlÃ©t": 688,
      "Ã©met": 689,
      "Ġkez": 690,
      "eng": 691,
      "Ġmegy": 692,
      "Ã³g": 693,
      "elv": 694,
      "ĠjÃ¡t": 695,
      "Ġalk": 696,
      "elet": 697,
      "Åĳz": 698,
      "formÃ¡ci": 699,
      "Ã¡ja": 700,
      "Ġbe": 701,
      "Ã¡st": 702,
      "Ġvis": 703,
      "utat": 704,
      "Ġcsak": 705,
      "Ġlak": 706,
      "asÃ¡g": 707,
      "Ã¡zad": 708,
      "Ġazon": 709,
      "arÃº": 710,
      "Ã¡rm": 711,
      "ĠinformÃ¡ci": 712,
      "bÅĳl": 713,
      "Ã¡lis": 714,
      "enc": 715,
      "Ġkis": 716,
      "etlen": 717,
      "abdarÃº": 718,
      "ĠvÃ¡ros": 719,
      "rancia": 720,
      "Ġvez": 721,
      "ajnok": 722,
      "ÃŃj": 723,
      "Ġmajd": 724,
      "ĠszemÃ©lyek": 725,
      "ForrÃ¡sok": 726,
      "uszt": 727,
      "ĠÃ¼": 728,
      "Ġ17": 729,
      "any": 730,
      "iÃ³": 731,
      "Ġvan": 732,
      "le": 733,
      "Ġ197": 734,
      "ÃŃtett": 735,
      "ozott": 736,
      "rÃ³": 737,
      "ĠÃģ": 738,
      "Ġok": 739,
      "ĠinformÃ¡ciÃ³k": 740,
      "kol": 741,
      "Ġfoly": 742,
      "ĠnÃ©p": 743,
      "TovÃ¡bbi": 744,
      "Ġ6": 745,
      "csol": 746,
      ".,": 747,
      "ĠvÃ¡l": 748,
      "Åĳr": 749,
      "kÃ¶": 750,
      "Ġfog": 751,
      "Ġszerint": 752,
      "ĠmÃ©g": 753,
      "nyv": 754,
      "kÃ©nt": 755,
      "hely": 756,
      "Ġmi": 757,
      "hez": 758,
      "ezÅĳ": 759,
      "ĠCs": 760,
      "Ġes": 761,
      "ĠGy": 762,
      "Ġlett": 763,
      "Ã©vel": 764,
      "let": 765,
      "kal": 766,
      "szak": 767,
      "jel": 768,
      "Sz": 769,
      "ro": 770,
      "Ġped": 771,
      "Ã¡p": 772,
      "ked": 773,
      "ter": 774,
      "atal": 775,
      "ub": 776,
      "esen": 777,
      "Ġir": 778,
      "199": 779,
      "ĠlabdarÃº": 780,
      "Ã¡ltal": 781,
      "ezÃ©s": 782,
      "ĠszÃ¼let": 783,
      "jÃ¡k": 784,
      "Ġleh": 785,
      "ĠBudapest": 786,
      "Ġle": 787,
      "ĠszÃ¡zad": 788,
      "Ġtud": 789,
      "Ã³p": 790,
      "ĠtÃ¶rtÃ©n": 791,
      "ogat": 792,
      "ant": 793,
      "rend": 794,
      "ard": 795,
      "alÃ¡d": 796,
      "Ġszerep": 797,
      "ĠkirÃ¡ly": 798,
      "apat": 799,
      "up": 800,
      "tak": 801,
      "Ġkezd": 802,
      "ay": 803,
      "Ġan": 804,
      "Åĳbb": 805,
      "vÃ¡n": 806,
      "Ġpedig": 807,
      "ck": 808,
      "jÃ¡n": 809,
      "201": 810,
      "ĠtalÃ¡l": 811,
      "Ġered": 812,
      "leg": 813,
      "ĠterÃ¼let": 814,
      "Ã¡si": 815,
      "ĠSt": 816,
      "Ġ20": 817,
      "Ġegyik": 818,
      "ĠszÃŃn": 819,
      "Ġkat": 820,
      "oh": 821,
      "abb": 822,
      "Ġi": 823,
      "jÃ¡t": 824,
      "erc": 825,
      "fi": 826,
      "20": 827,
      "ezt": 828,
      "Ġ15": 829,
      "org": 830,
      "kel": 831,
      "ĠÃī": 832,
      "dÃ©s": 833,
      "Ã©ter": 834,
      "rÃ³l": 835,
      "Ġ7": 836,
      "Ġvissz": 837,
      "Ã¶t": 838,
      "tÃ³": 839,
      "ĠÃ¡ltal": 840,
      "ikkek": 841,
      "Ġbel": 842,
      "ne": 843,
      "ĠtÃ¶r": 844,
      "ĠlÃ©tre": 845,
      "tÅĳl": 846,
      "ÃŃtÃ©s": 847,
      "vÃ©sz": 848,
      "etÃ©s": 849,
      "Ġah": 850,
      "Ġ196": 851,
      "Ġe": 852,
      "ellett": 853,
      "Ã¡ri": 854,
      "Ġtag": 855,
      "tÃ¡k": 856,
      "Ãī": 857,
      "ossz": 858,
      "ĠÃ©rt": 859,
      "ĠMar": 860,
      "Ġ8": 861,
      "Ġ16": 862,
      "ĠszÃ¼letett": 863,
      "usz": 864,
      "Ġig": 865,
      "almaz": 866,
      "lt": 867,
      "ĠnÃ©": 868,
      "alak": 869,
      "ost": 870,
      "ki": 871,
      "Ġfej": 872,
      "II": 873,
      "ĠkÃ©sz": 874,
      "ĠkÃ¶vet": 875,
      "ani": 876,
      "Ġvalam": 877,
      "ÃŃgy": 878,
      "ekben": 879,
      "Ã©sÅĳbb": 880,
      "Ã¡ba": 881,
      "plom": 882,
      "pont": 883,
      "ata": 884,
      "ĠlabdarÃºgÃ³": 885,
      "nÃ¶k": 886,
      "ĠkÃ¼lÃ¶n": 887,
      "Ġhasz": 888,
      "etett": 889,
      "Ġol": 890,
      "Ġfilm": 891,
      "odik": 892,
      "Ġbiz": 893,
      "ozÃ³": 894,
      "ib": 895,
      "Ġ\"": 896,
      "ĠCh": 897,
      "Ã¡rom": 898,
      "Ġar": 899,
      "Ã¶g": 900,
      "orszÃ¡gban": 901,
      "Ġof": 902,
      "Ã¶lt": 903,
      "Ġmunk": 904,
      "af": 905,
      "val": 906,
      "Ã¶nt": 907,
      "oll": 908,
      "ĠÃŃgy": 909,
      "Ġhar": 910,
      "uÃ¡r": 911,
      "Ġalak": 912,
      "ec": 913,
      "Ġst": 914,
      "Ġnyelv": 915,
      "Ã¡nos": 916,
      "arl": 917,
      "hu": 918,
      "vel": 919,
      "Ã¼tt": 920,
      "Ġill": 921,
      "Ã¡cs": 922,
      "Ã³r": 923,
      "Ġcsapat": 924,
      "olÃ³g": 925,
      "elem": 926,
      "ĠcsalÃ¡d": 927,
      "ass": 928,
      "ich": 929,
      "enek": 930,
      "ekt": 931,
      "emÃ©ny": 932,
      "Ġ194": 933,
      "Ġvon": 934,
      "nÅĳ": 935,
      "ati": 936,
      "azd": 937,
      "ĠcÃŃmÅ±": 938,
      "eli": 939,
      "ark": 940,
      "adÃ³": 941,
      "Ã©szt": 942,
      "hetÅĳ": 943,
      "urÃ³p": 944,
      "Ġ9": 945,
      "Ġnap": 946,
      "ezett": 947,
      "Ġ195": 948,
      "ĠidÅĳ": 949,
      "Ġold": 950,
      "atok": 951,
      "ĠjÃ¡r": 952,
      "Ġeml": 953,
      "orv": 954,
      "gg": 955,
      "tÃ³l": 956,
      "Ġtem": 957,
      "Ġaki": 958,
      "ika": 959,
      "ess": 960,
      "ezte": 961,
      "fel": 962,
      "ĠmÃ©r": 963,
      "arad": 964,
      "ium": 965,
      "ie": 966,
      "Ġazonban": 967,
      "Ã©tel": 968,
      "ĠEr": 969,
      "ĠvalÃ³": 970,
      "198": 971,
      "ĠtelepÃ¼lÃ©sei": 972,
      "etem": 973,
      "Ã¡bÃ³l": 974,
      "ius": 975,
      "ens": 976,
      "erseny": 977,
      "ern": 978,
      "Magyar": 979,
      "rit": 980,
      "Ġlakos": 981,
      "Ã¡borÃº": 982,
      "vÃ©ny": 983,
      "ĠjÃ¡tÃ©k": 984,
      "Ġalatt": 985,
      "ĠnÃ©met": 986,
      "Ġ10": 987,
      "Ġ14": 988,
      "ĠszÃ³": 989,
      "Ġvas": 990,
      "ex": 991,
      "Ġszak": 992,
      "lal": 993,
      "ron": 994,
      "17": 995,
      "ĠKÃ¶z": 996,
      "ĠÅĳ": 997,
      "Ã¡sÃ¡t": 998,
      "Ã³m": 999,
      "ista": 1000,
      "ĠEl": 1001,
      "Ġfi": 1002,
      "Ġsp": 1003,
      "ogr": 1004,
      "ikor": 1005,
      "ĠlÃ¡t": 1006,
      "Ġ12": 1007,
      "Ã³i": 1008,
      "gat": 1009,
      "Ġember": 1010,
      "oszt": 1011,
      "Ã©ld": 1012,
      "Ġmiatt": 1013,
      "ĠegyÃ¼tt": 1014,
      "iker": 1015,
      "Ã¼gg": 1016,
      "Ġ13": 1017,
      "ĠAn": 1018,
      "vÃ¡ny": 1019,
      "Ã³n": 1020,
      "ĠkÃ©sÅĳbb": 1021,
      "Ġnemzet": 1022,
      "Ġind": 1023,
      "ow": 1024,
      "Ġhiv": 1025,
      "Ġahol": 1026,
      "Ġfal": 1027,
      "ĠÃ©let": 1028,
      "ĠorszÃ¡g": 1029,
      "Ġminden": 1030,
      "ĠIst": 1031,
      "rÅĳl": 1032,
      "Ġterm": 1033,
      "Ġford": 1034,
      "Ã¡nd": 1035,
      "Ġtelj": 1036,
      "omb": 1037,
      "kÃ©p": 1038,
      "Ġ193": 1039,
      "Ġhad": 1040,
      "kod": 1041,
      "Ã¶vet": 1042,
      "zÃ©s": 1043,
      "dÃŃj": 1044,
      "Ġszab": 1045,
      "oport": 1046,
      "von": 1047,
      "ait": 1048,
      "10": 1049,
      "sor": 1050,
      "ĠkÃ¶vetkez": 1051,
      "ĠmÃ³d": 1052,
      "Ġazt": 1053,
      "Ã³ja": 1054,
      "osan": 1055,
      "ong": 1056,
      "vÃ©d": 1057,
      "ĠFer": 1058,
      "Ġsok": 1059,
      "tek": 1060,
      "ĠnÃ©v": 1061,
      "ĠlÃ©trehoz": 1062,
      "Ġvalamint": 1063,
      "Ġami": 1064,
      "ah": 1065,
      "sÃ³": 1066,
      "tel": 1067,
      "Ã©b": 1068,
      "Ġu": 1069,
      "197": 1070,
      "szerÅ±": 1071,
      "ĠkerÃ¼lt": 1072,
      "Ãºz": 1073,
      "ll": 1074,
      "inek": 1075,
      "sal": 1076,
      "ajnoksÃ¡g": 1077,
      "ĠAr": 1078,
      "Ã¡rÃ³l": 1079,
      "ĠThe": 1080,
      "gyan": 1081,
      "ozz": 1082,
      "egÃ©sz": 1083,
      "..": 1084,
      "jt": 1085,
      "ĠmÃ¡sodik": 1086,
      "ka": 1087,
      "Ġsem": 1088,
      "ivel": 1089,
      "Ġoszt": 1090,
      "adÃ¡s": 1091,
      "Ġhang": 1092,
      "atl": 1093,
      "atkoz": 1094,
      "Ġism": 1095,
      "eni": 1096,
      "Ã³zs": 1097,
      "ĠhÃ¡rom": 1098,
      "elÃ©s": 1099,
      "olit": 1100,
      "ĠNem": 1101,
      "Ġmegye": 1102,
      "zett": 1103,
      "Ġfrancia": 1104,
      "omÃ¡n": 1105,
      "ĠNagy": 1106,
      "ast": 1107,
      "zi": 1108,
      "ĠÃºt": 1109,
      "ĠcÃŃm": 1110,
      "ĠtÃ¡m": 1111,
      "Ġint": 1112,
      "etve": 1113,
      "ormÃ¡ny": 1114,
      "ĠOr": 1115,
      "ann": 1116,
      "szÃŃn": 1117,
      "ĠÃ³": 1118,
      "Ġoldal": 1119,
      "elmi": 1120,
      "if": 1121,
      "mÃ¡ny": 1122,
      "ĠY": 1123,
      "lov": 1124,
      "Ã©pessÃ©g": 1125,
      "ept": 1126,
      "Ã³z": 1127,
      "Ġhaj": 1128,
      "Ġszint": 1129,
      "Ã³dÃ³": 1130,
      "dÅĳ": 1131,
      "otta": 1132,
      "ĠÃ¡llam": 1133,
      "Ġfaj": 1134,
      "ĠÃ©sz": 1135,
      "ĠIstvÃ¡n": 1136,
      "ÃŃtotta": 1137,
      "Ã¡rsasÃ¡g": 1138,
      "Ã©szet": 1139,
      "ine": 1140,
      "alt": 1141,
      "ĠhÃ¡z": 1142,
      "Ġoly": 1143,
      "utÃ¡n": 1144,
      "szÃ¶r": 1145,
      "Ġthe": 1146,
      "Ġrendszer": 1147,
      "Ġkon": 1148,
      "Ġkereszt": 1149,
      "Ã¡szlÃ³": 1150,
      "ih": 1151,
      "szÃ¡m": 1152,
      "emez": 1153,
      "Ã¡hoz": 1154,
      "Ġmellett": 1155,
      "ÃŃtÃ³": 1156,
      "erikai": 1157,
      "ĠdÃ©l": 1158,
      "15": 1159,
      "izs": 1160,
      "ĠtalÃ¡lhatÃ³": 1161,
      "ce": 1162,
      "ĠpÃ©ld": 1163,
      "bum": 1164,
      "Ġlehet": 1165,
      "Ġtemplom": 1166,
      "ĠhasznÃ¡l": 1167,
      "ĠfÃ¶ld": 1168,
      "of": 1169,
      "Ġkapcsol": 1170,
      "ver": 1171,
      "sÃ©ge": 1172,
      "enn": 1173,
      "ĠvÃ¡ltoz": 1174,
      "Ã¶m": 1175,
      "irt": 1176,
      "NÃ©pessÃ©g": 1177,
      "ĠrÃ©g": 1178,
      "ĠSp": 1179,
      "jai": 1180,
      "ÃŃg": 1181,
      "fÃ©l": 1182,
      "und": 1183,
      "ezet": 1184,
      "16": 1185,
      "Ġgyak": 1186,
      "Ġilletve": 1187,
      "Ã¼r": 1188,
      "ĠlÃ©trehozott": 1189,
      "ĠJÃ¡nos": 1190,
      "iget": 1191,
      "ina": 1192,
      "ĠSzent": 1193,
      "apcsol": 1194,
      "Ġur": 1195,
      "inak": 1196,
      "ari": 1197,
      "ĠelÅĳtt": 1198,
      "Ġelm": 1199,
      "Ġsiker": 1200,
      "ĠPr": 1201,
      "Å±r": 1202,
      "ĠegÃ©sz": 1203,
      "ettÃ©k": 1204,
      "ĠkÃ¶t": 1205,
      "Ġzen": 1206,
      "Ġverseny": 1207,
      "esÃ©g": 1208,
      "Ã¼n": 1209,
      "JegyzetekTovÃ¡bbi": 1210,
      "erceg": 1211,
      "ĠsorÃ¡n": 1212,
      "ĠhatÃ¡r": 1213,
      "Ġcikkek": 1214,
      "erg": 1215,
      "lat": 1216,
      "nagy": 1217,
      "Ġolyan": 1218,
      "ĠvasÃºt": 1219,
      "Ġmegjel": 1220,
      "fog": 1221,
      "Ġany": 1222,
      "Ġsaj": 1223,
      "ÃŃl": 1224,
      "ĠkÃ¶lt": 1225,
      "uc": 1226,
      "ĠAnd": 1227,
      "ottal": 1228,
      "Ġdi": 1229,
      "mus": 1230,
      "Ã©si": 1231,
      "raj": 1232,
      "vÃ¡ros": 1233,
      "196": 1234,
      "vis": 1235,
      "Ġeset": 1236,
      "ilis": 1237,
      "oc": 1238,
      "sÃ¡ga": 1239,
      "omÃ¡s": 1240,
      "dÃ¶tt": 1241,
      "ason": 1242,
      "vÃ¡r": 1243,
      "jÃ¡r": 1244,
      "ford": 1245,
      "ker": 1246,
      "ontos": 1247,
      "nev": 1248,
      "ors": 1249,
      "ĠMagyarorszÃ¡g": 1250,
      "ori": 1251,
      "tÃ¡r": 1252,
      "urg": 1253,
      "12": 1254,
      "kÃ¼l": 1255,
      "Ġigaz": 1256,
      "sÃ©ges": 1257,
      "Ã©sek": 1258,
      "ester": 1259,
      "Ġakkor": 1260,
      "Bottal": 1261,
      "13": 1262,
      "odalom": 1263,
      "orn": 1264,
      "ovÃ¡bb": 1265,
      "ĠFerenc": 1266,
      "ĠnÅĳ": 1267,
      "sp": 1268,
      "sel": 1269,
      "imp": 1270,
      "ĠjÃ¡tsz": 1271,
      "Ġ192": 1272,
      "fÃ¶ld": 1273,
      "Ġbet": 1274,
      "Ġjelen": 1275,
      "almi": 1276,
      "Ġseg": 1277,
      "Ġlev": 1278,
      "ĠÃ©szak": 1279,
      "Ġjog": 1280,
      "ĠEgyes": 1281,
      "Ġmegt": 1282,
      "qu": 1283,
      "lap": 1284,
      "enger": 1285,
      "14": 1286,
      "ikl": 1287,
      "Ã¡ul": 1288,
      "ĠirÃ¡ny": 1289,
      "Ġamerikai": 1290,
      "Ã¡ciÃ³": 1291,
      "ejt": 1292,
      "ha": 1293,
      "ink": 1294,
      "ocs": 1295,
      "azdasÃ¡g": 1296,
      "Ġugyan": 1297,
      "Ġteljes": 1298,
      "Ġszolg": 1299,
      "Ã¡nt": 1300,
      "ĠtÃ©r": 1301,
      "ĠÃ¶n": 1302,
      "Ã¼gy": 1303,
      "eum": 1304,
      "ĠnÃ©pessÃ©g": 1305,
      "ĠkÃ¶rÃ¼l": 1306,
      "ottÃ¡k": 1307,
      "ian": 1308,
      "ĠLÃ¡szlÃ³": 1309,
      "okban": 1310,
      "Ġegyes": 1311,
      "Ġmarad": 1312,
      "haj": 1313,
      "ĠX": 1314,
      "mÃ©r": 1315,
      "ĠvÃ¡laszt": 1316,
      "iskol": 1317,
      "ly": 1318,
      "ĠpÃ¡ly": 1319,
      "ĠkÃ¶nyv": 1320,
      "Ġhossz": 1321,
      "cius": 1322,
      "ĠÃºgy": 1323,
      "Ã³zsef": 1324,
      "pus": 1325,
      "Ãºr": 1326,
      "Ġkom": 1327,
      "eztÃ©k": 1328,
      "Ã¡rmaz": 1329,
      "io": 1330,
      "âĢĻ": 1331,
      "ew": 1332,
      "Ġdal": 1333,
      "Ã¶rÃ¶k": 1334,
      "Ã¡jus": 1335,
      "kÃ¶zi": 1336,
      "tÃ³ber": 1337,
      "Ġsorozat": 1338,
      "Ġkell": 1339,
      "Ġmin": 1340,
      "ekv": 1341,
      "essz": 1342,
      "eptember": 1343,
      "ÃŃtottÃ¡k": 1344,
      "zel": 1345,
      "ĠJÃ³zsef": 1346,
      "udomÃ¡ny": 1347,
      "Ġtiszt": 1348,
      "ĠBr": 1349,
      "Ġitt": 1350,
      "ĠIn": 1351,
      "lÃ¡s": 1352,
      "olikus": 1353,
      "ejÃ©n": 1354,
      "Ġnov": 1355,
      "ey": 1356,
      "eked": 1357,
      "Kapcsol": 1358,
      "ĠNy": 1359,
      "Ġkit": 1360,
      "Ġhon": 1361,
      "ĠFrancia": 1362,
      "ily": 1363,
      "ĠtovÃ¡bb": 1364,
      "esek": 1365,
      "bajnoksÃ¡g": 1366,
      "ca": 1367,
      "Ġvisz": 1368,
      "kÅĳz": 1369,
      "ou": 1370,
      "ĠÃ©vekben": 1371,
      "Ġdolg": 1372,
      "ĠII": 1373,
      "KapcsolÃ³dÃ³": 1374,
      "ĠBp": 1375,
      "Ġkar": 1376,
      "ÃŃvÃ¼l": 1377,
      "Ã©st": 1378,
      "ĠkÃ¶zÃ©p": 1379,
      "mad": 1380,
      "Ġvoltak": 1381,
      "ĠdÃ¶nt": 1382,
      "Ġcsoport": 1383,
      "Ġnyug": 1384,
      "son": 1385,
      "het": 1386,
      "assz": 1387,
      "ĠmÅ±kÃ¶": 1388,
      "Ġmoz": 1389,
      "ĠrÃ©sze": 1390,
      "Ġjell": 1391,
      "ĠvÃŃz": 1392,
      "Åĳt": 1393,
      "Ġzs": 1394,
      "irtok": 1395,
      "bert": 1396,
      "nyt": 1397,
      "ĠvezetÅĳ": 1398,
      "ĠkÃ¶zsÃ©g": 1399,
      "ĠnÃ¶v": 1400,
      "Ġkiv": 1401,
      "ĠnÃ©gy": 1402,
      "gol": 1403,
      "Ġw": 1404,
      "ation": 1405,
      "ermek": 1406,
      "ĠrÃ©szt": 1407,
      "Ġap": 1408,
      "isÃ©g": 1409,
      "ebr": 1410,
      "uguszt": 1411,
      "egÃ©ny": 1412,
      "Ġ||": 1413,
      "ide": 1414,
      "ĠszÃ³c": 1415,
      "ogatott": 1416,
      "ekkel": 1417,
      "eit": 1418,
      "Ġamikor": 1419,
      "ĠmÃ¡jus": 1420,
      "194": 1421,
      "ton": 1422,
      "ĠtelepÃ¼lÃ©seiBottal": 1423,
      "anuÃ¡r": 1424,
      "ĠoktÃ³ber": 1425,
      "ugusztus": 1426,
      "ĠÃļ": 1427,
      "rom": 1428,
      "Ġfoglal": 1429,
      "ciÃ³": 1430,
      "Ġszeptember": 1431,
      "ĠfÃ©r": 1432,
      "JegyzetekForrÃ¡sok": 1433,
      "idÃ©k": 1434,
      "nius": 1435,
      "ĠEurÃ³p": 1436,
      "ĠÃģll": 1437,
      "Ġand": 1438,
      "ry": 1439,
      "iÃ¡ban": 1440,
      "195": 1441,
      "ics": 1442,
      "ĠÃ¶ssze": 1443,
      "ech": 1444,
      "ereg": 1445,
      "ĠÃ¡p": 1446,
      "Ġlist": 1447,
      "ĠKÃ¡r": 1448,
      "Ã¡rmegy": 1449,
      "ona": 1450,
      "ĠcÃ©l": 1451,
      "Ġmad": 1452,
      "Ãºnius": 1453,
      "Ġhivatal": 1454,
      "ĠalÃ¡bbi": 1455,
      "ae": 1456,
      "ĠmegyÃ©ben": 1457,
      "Ġpolit": 1458,
      "Ã©rÅĳl": 1459,
      "ĠjanuÃ¡r": 1460,
      "Ã¶nyv": 1461,
      "ĠmÃ¡rcius": 1462,
      "Ġelt": 1463,
      "ĠNemzet": 1464,
      "ĠÐ": 1465,
      "ĠvÃ¡r": 1466,
      "NÃ©pessÃ©gA": 1467,
      "fej": 1468,
      "Ã¡ndor": 1469,
      "Ãºlius": 1470,
      "ĠKis": 1471,
      "ehÃ©r": 1472,
      "ung": 1473,
      "th": 1474,
      "pr": 1475,
      "Ġelv": 1476,
      "Ġmagas": 1477,
      "ĠvÃ©d": 1478,
      "gyel": 1479,
      "Ġtagja": 1480,
      "Ġkl": 1481,
      "Ġha": 1482,
      "ĠszÃ¡rmaz": 1483,
      "ÃŃrÃ³": 1484,
      "ĠÃ¶t": 1485,
      "Ġbar": 1486,
      "ĠsajÃ¡t": 1487,
      "Ġhal": 1488,
      "nyi": 1489,
      "ĠTh": 1490,
      "Ġmegsz": 1491,
      "ĠemlÃ©k": 1492,
      "Ġszervez": 1493,
      "Ġ0": 1494,
      "Ġdec": 1495,
      "anyol": 1496,
      "ulÃ³": 1497,
      "orosz": 1498,
      "kori": 1499,
      "Ã¼nt": 1500,
      "ĠeredmÃ©ny": 1501,
      "rendszer": 1502,
      "nÃ©": 1503,
      "ĠszÃ¡mÃ¡ra": 1504,
      "Ġaut": 1505,
      "ĠlabdarÃºgÃ³i": 1506,
      "ock": 1507,
      "lovÃ¡k": 1508,
      "Ã¶vid": 1509,
      "ĠhalÃ¡l": 1510,
      "Ġen": 1511,
      "ÃŃtÅĳ": 1512,
      "ĠvÃ¡rmegy": 1513,
      "ĠlÃ©p": 1514,
      "Ġtest": 1515,
      "Ġhagy": 1516,
      "ĠÃ¡r": 1517,
      "Ġherceg": 1518,
      "Ġalbum": 1519,
      "gel": 1520,
      "ĠtÃ¡rs": 1521,
      "red": 1522,
      "Ġaugusztus": 1523,
      "itt": 1524,
      "Ã¶rgy": 1525,
      "Ã©cs": 1526,
      "Åĳket": 1527,
      "ĠszÃ³cikkek": 1528,
      "ĠÃ©rd": 1529,
      "Ġezt": 1530,
      "ozÃ¡s": 1531,
      "ĠÃ©vek": 1532,
      "dik": 1533,
      "Ġnovember": 1534,
      "ĠkÃ¶zel": 1535,
      "jobb": 1536,
      "Ġszabad": 1537,
      "ĠkÃ¼lÃ¶nb": 1538,
      "Ġfalu": 1539,
      "Ġakik": 1540,
      "ozs": 1541,
      "mÅ±vÃ©sz": 1542,
      "ĠszÃ³l": 1543,
      "mal": 1544,
      "ĠfÃ©l": 1545,
      "jÃ¡ban": 1546,
      "ÃŃtette": 1547,
      "Ġhason": 1548,
      "rilis": 1549,
      "olna": 1550,
      "ĠnÃ©ven": 1551,
      "sÃ©get": 1552,
      "Ã¡llÃ³": 1553,
      "ĠjÃºnius": 1554,
      "vas": 1555,
      "Ġpar": 1556,
      "Ġdecember": 1557,
      "ĠSch": 1558,
      "Ġform": 1559,
      "Ġ11": 1560,
      "oss": 1561,
      "ĠOl": 1562,
      "izmus": 1563,
      "au": 1564,
      "ier": 1565,
      "ĠÃ¡prilis": 1566,
      "ĠkormÃ¡ny": 1567,
      "ĠjÃºlius": 1568,
      "ula": 1569,
      "ĠfÃ¼gg": 1570,
      "ebruÃ¡r": 1571,
      "ĠEn": 1572,
      "tor": 1573,
      "ĠÃ©nek": 1574,
      "hÃ¡ny": 1575,
      "za": 1576,
      "ĠhÃ¡borÃº": 1577,
      "Ġvissza": 1578,
      "our": 1579,
      "ĠAm": 1580,
      "hunyt": 1581,
      "Ġ189": 1582,
      "Ã³mai": 1583,
      "Ġtanul": 1584,
      "ilyen": 1585,
      "ĠLe": 1586,
      "TÃ¶rtÃ©n": 1587,
      "vonal": 1588,
      "ign": 1589,
      "ust": 1590,
      "ĠkÃ¶vetÅĳ": 1591,
      "ĠkÃ¶zÃ¼l": 1592,
      "Ã¡ssal": 1593,
      "Ġalkot": 1594,
      "eken": 1595,
      "Ġhozz": 1596,
      "faj": 1597,
      "ĠNap": 1598,
      "Ã©hez": 1599,
      "ma": 1600,
      "Ġ25": 1601,
      "Ġpont": 1602,
      "ĠalapjÃ¡n": 1603,
      "ĠEm": 1604,
      "Ġbirtok": 1605,
      "Ġma": 1606,
      "ull": 1607,
      "Ġmegh": 1608,
      "incs": 1609,
      "ĠKi": 1610,
      "Ã©be": 1611,
      "Ġelhunyt": 1612,
      "000": 1613,
      "Ã©keny": 1614,
      "nagyobb": 1615,
      "ogram": 1616,
      "22": 1617,
      "ĠkÃ©szÃ¼lt": 1618,
      "ismer": 1619,
      "hÃ¡borÃº": 1620,
      "Ġalkalmaz": 1621,
      "Ġkapott": 1622,
      "ÃŃtÃ¡sa": 1623,
      "ĠMÃ¡r": 1624,
      "Ġbesz": 1625,
      "Ġrendel": 1626,
      "vilÃ¡g": 1627,
      "fal": 1628,
      "Ġ=": 1629,
      "Ã¡sÃ¡ra": 1630,
      "-|": 1631,
      "Ġmen": 1632,
      "km": 1633,
      "Ã¡tt": 1634,
      "okkal": 1635,
      "sÃ©gi": 1636,
      "ĠBar": 1637,
      "ĠNÃ©met": 1638,
      "jed": 1639,
      "Ġismer": 1640,
      "ĠkÃ¶rny": 1641,
      "juk": 1642,
      "Å±z": 1643,
      "ĠelnÃ¶k": 1644,
      "ĠezÃ©rt": 1645,
      "ĠkÃ©pvis": 1646,
      "Ġkil": 1647,
      "Ġ2010": 1648,
      "tÃ©k": 1649,
      "ĠtÃ¡r": 1650,
      "ekint": 1651,
      "ĠÃ©vi": 1652,
      "ÃŃtettÃ©k": 1653,
      "Ã¶rÃ¶g": 1654,
      "ĠfebruÃ¡r": 1655,
      "ĠÃ©rtÃ©k": 1656,
      "ottak": 1657,
      "Ã¡rd": 1658,
      "ĠÃģllam": 1659,
      "Ġkaton": 1660,
      "Ã¡lÃ³": 1661,
      "ĠgyÅĳz": 1662,
      "ĠÃ©pÃ¼let": 1663,
      "Ġfelt": 1664,
      "ĠÃ¼z": 1665,
      "Å±jt": 1666,
      "ach": 1667,
      "Ġangol": 1668,
      "ĠjÃ¡rÃ¡s": 1669,
      "atos": 1670,
      "leszt": 1671,
      "ĠmÃ©rkÅĳz": 1672,
      "11": 1673,
      "Ã©let": 1674,
      "Ġmert": 1675,
      "Ãºj": 1676,
      "eri": 1677,
      "Ġbev": 1678,
      "okon": 1679,
      "ulajd": 1680,
      "nap": 1681,
      "ĠmÃ¡sik": 1682,
      "193": 1683,
      "ĠZs": 1684,
      "ĠszÃŃnÃ©sz": 1685,
      "ĠosztÃ¡ly": 1686,
      "Ġegyetem": 1687,
      "ĠInt": 1688,
      "ĠtÃºl": 1689,
      "ĠmÅ±v": 1690,
      "Ã¡nc": 1691,
      "Ġ190": 1692,
      "Ġiskol": 1693,
      "Ġmell": 1694,
      "Ã¡i": 1695,
      "ĠkÃ¶zÃ¶s": 1696,
      "ĠkÃ¶zt": 1697,
      "lÃ¡t": 1698,
      "Ġgyermek": 1699,
      "ĠjÃ³": 1700,
      "ĠÃĸ": 1701,
      "ĠkÃ¶vetkezÅĳ": 1702,
      "21": 1703,
      "atot": 1704,
      "ĠAd": 1705,
      "ĠvÃ¡ltozat": 1706,
      "ĠjelentÅĳs": 1707,
      "Ġvett": 1708,
      "Ġmadar": 1709,
      "Ġ188": 1710,
      "ĠtÃ¶rvÃ©ny": 1711,
      "mel": 1712,
      "nÃ©l": 1713,
      "ĠelÅĳszÃ¶r": 1714,
      "ĠGyÃ¶rgy": 1715,
      "ĠJoh": 1716,
      "ĠÃ©pÃŃt": 1717,
      "ĠtÃ¡v": 1718,
      "%-": 1719,
      "rÃ³f": 1720,
      "ÃŃpus": 1721,
      "Ð¾": 1722,
      "Ã¡f": 1723,
      "Ãºly": 1724,
      "Ġismert": 1725,
      "ĠpÃ¡r": 1726,
      "Ġ2006": 1727,
      "ĠmÅ±vÃ©sz": 1728,
      "Ġment": 1729,
      "olsÃ³": 1730,
      "ĠKÃ¡roly": 1731,
      "Ġnagyobb": 1732,
      "ulajdon": 1733,
      "ĠÅ": 1734,
      "Ġmutat": 1735,
      "Ã¡jÃ¡t": 1736,
      "ork": 1737,
      "Ġ30": 1738,
      "Ġhaz": 1739,
      "ĠEgyesÃ¼lt": 1740,
      "Ġraj": 1741,
      "ĠsegÃŃt": 1742,
      "Ġkatolikus": 1743,
      "Ġ2008": 1744,
      "iss": 1745,
      "Ġbizony": 1746,
      "ĠkÃ©r": 1747,
      "rany": 1748,
      "Ġkiad": 1749,
      "Ġ2011": 1750,
      "ĠdÃŃj": 1751,
      "Ã©lkÃ¼l": 1752,
      "ini": 1753,
      "oci": 1754,
      "ajos": 1755,
      "alkod": 1756,
      "Ġpart": 1757,
      "pen": 1758,
      "kÃ©sz": 1759,
      "ĠÃ³ta": 1760,
      "ack": 1761,
      "vÃ¡lt": 1762,
      "ĠpÃ©ldÃ¡ul": 1763,
      "Ã¡llal": 1764,
      "ĠAnt": 1765,
      "Ã¶zÅĳ": 1766,
      "vezetÅĳ": 1767,
      "oni": 1768,
      "ÃŃs": 1769,
      "Ãºzeum": 1770,
      "Ġtal": 1771,
      "Ã¡gy": 1772,
      "burg": 1773,
      "Ġlegnagyobb": 1774,
      "Ã³b": 1775,
      "Ãģ": 1776,
      "film": 1777,
      "ĠegyhÃ¡z": 1778,
      "szik": 1779,
      "Ġfolyam": 1780,
      "jÃ¡nak": 1781,
      "Ð°": 1782,
      "orvÃ¡t": 1783,
      "sÃ¡gi": 1784,
      "Ġmivel": 1785,
      "ĠBal": 1786,
      "23": 1787,
      "arlang": 1788,
      "ancs": 1789,
      "Ġfest": 1790,
      "etek": 1791,
      "24": 1792,
      "ica": 1793,
      "almas": 1794,
      "Ġnyil": 1795,
      "ĠCl": 1796,
      "ht": 1797,
      "Ġforg": 1798,
      "lemez": 1799,
      "Ġamit": 1800,
      "tos": 1801,
      "eged": 1802,
      "Ġrendelkez": 1803,
      "ĠAk": 1804,
      "Ġek": 1805,
      "hy": 1806,
      "ecs": 1807,
      "Ġtartoz": 1808,
      "rÃ¡s": 1809,
      "Ġ2007": 1810,
      "Ġott": 1811,
      "Ã¡tus": 1812,
      "Ġbef": 1813,
      "ĠPÃ©ter": 1814,
      "ox": 1815,
      "Ġlesz": 1816,
      "ĠMÅ±": 1817,
      "anak": 1818,
      "ĠrÃ¶vid": 1819,
      "oj": 1820,
      "jÃº": 1821,
      "Ġ24": 1822,
      "inc": 1823,
      "ĠtartomÃ¡ny": 1824,
      "ĠfelesÃ©g": 1825,
      "ĠEd": 1826,
      "erek": 1827,
      "ĠFran": 1828,
      "Ġszerk": 1829,
      "Ã¡ig": 1830,
      "Ġegym": 1831,
      "Å±l": 1832,
      "ĠszÃ¡mos": 1833,
      "acs": 1834,
      "ĠbelÃ¼l": 1835,
      "li": 1836,
      "Ġ187": 1837,
      "Ġcsat": 1838,
      "boly": 1839,
      "Ġolimp": 1840,
      "per": 1841,
      "ĠrÃ³mai": 1842,
      "Ġhonlap": 1843,
      "merikai": 1844,
      "Ġtekint": 1845,
      "Ã¡sÃº": 1846,
      "Ġkev": 1847,
      "ĠszerzÅĳ": 1848,
      "ĠÃ©rdek": 1849,
      "ĠmÃŃg": 1850,
      "eform": 1851,
      "Ã¡llomÃ¡s": 1852,
      "Ġvesz": 1853,
      "izsg": 1854,
      "nem": 1855,
      "ĠszÃ©l": 1856,
      "Ġ/": 1857,
      "adÃ©m": 1858,
      "Ġ[": 1859,
      "Ġmond": 1860,
      "Ġgond": 1861,
      "ssz": 1862,
      "Ġmod": 1863,
      "arab": 1864,
      "ĠSÃ¡ndor": 1865,
      "ĠÃļj": 1866,
      "lÃ©k": 1867,
      "ĠSh": 1868,
      "ĠcsÃ¡sz": 1869,
      "edik": 1870,
      "Ġkeres": 1871,
      "akÃ©nt": 1872,
      "oy": 1873,
      "50": 1874,
      "Ãºlt": 1875,
      "Ġ2000": 1876,
      "Ġteh": 1877,
      "esebb": 1878,
      "ĠLajos": 1879,
      "Ġ2002": 1880,
      "Ġjut": 1881,
      "Ġnyom": 1882,
      "ĠerÅĳ": 1883,
      "ĠtÃ¶rtÃ©net": 1884,
      "elte": 1885,
      "lag": 1886,
      "Å±n": 1887,
      "ĠnÃ©lkÃ¼l": 1888,
      "ĠlehetÅĳ": 1889,
      "ĠDe": 1890,
      "itk": 1891,
      "ĠFranciaorszÃ¡gban": 1892,
      "Ġbajnok": 1893,
      "atlan": 1894,
      "Ã¡tor": 1895,
      "ore": 1896,
      "ky": 1897,
      "ĠerÅĳs": 1898,
      "uth": 1899,
      "Ã¶veg": 1900,
      "madik": 1901,
      "Ġhaszn": 1902,
      "Ġ2009": 1903,
      "ram": 1904,
      "ĠutolsÃ³": 1905,
      "rel": 1906,
      "TÃ¶rtÃ©nete": 1907,
      "apÃ¡n": 1908,
      "ga": 1909,
      "telen": 1910,
      "Ġhan": 1911,
      "Ġ2005": 1912,
      "Ġ186": 1913,
      "Ġforr": 1914,
      "sÃ©gek": 1915,
      "mÅ±v": 1916,
      "Ġ184": 1917,
      "ĠhasonlÃ³": 1918,
      "Ã©j": 1919,
      "Ġannak": 1920,
      "Ġ23": 1921,
      "osa": 1922,
      "amar": 1923,
      "hatÃ¡r": 1924,
      "):": 1925,
      "ĠrepÃ¼l": 1926,
      "elked": 1927,
      "Ġadott": 1928,
      "ĠnÃ©hÃ¡ny": 1929,
      "Ã©sÃ©t": 1930,
      "ĠhÃŃr": 1931,
      "Ġanyag": 1932,
      "ĠkÃŃvÃ¼l": 1933,
      "eki": 1934,
      "hasz": 1935,
      "ĠszÃ¡zadban": 1936,
      "Ġkult": 1937,
      "Ã¼z": 1938,
      "orl": 1939,
      "ĠvÃ¡logatott": 1940,
      "ĠÃºjra": 1941,
      "Ġkisebb": 1942,
      "lik": 1943,
      "ĠvilÃ¡ghÃ¡borÃº": 1944,
      "Ã³gy": 1945,
      "ĠTan": 1946,
      "ĠhosszÃº": 1947,
      "Ġvolna": 1948,
      "Ġtulajdon": 1949,
      "var": 1950,
      "Ã¡tÃ³l": 1951,
      "ÃŃsÃ©r": 1952,
      "ĠÃ©pÃ¼lt": 1953,
      "ax": 1954,
      "ath": 1955,
      "ita": 1956,
      "Ġkutat": 1957,
      "Ġuralkod": 1958,
      "Ġelfog": 1959,
      "engyel": 1960,
      "orszÃ¡gi": 1961,
      "Åĳleg": 1962,
      "Ã¡kat": 1963,
      "ĠSzer": 1964,
      "ĠtanulmÃ¡ny": 1965,
      "ĠvÃ©gÃ©n": 1966,
      "Ġharc": 1967,
      "Ġpl": 1968,
      "dÃ©ly": 1969,
      "Ġlegjobb": 1970,
      "Ð¸": 1971,
      "ozta": 1972,
      "igaz": 1973,
      "ĠismÃ©t": 1974,
      "ele": 1975,
      "ĠkÃ¶zpont": 1976,
      "land": 1977,
      "Ġfelv": 1978,
      "Ġfolytat": 1979,
      "tal": 1980,
      "Ġszen": 1981,
      "Ã¡llÃŃtÃ¡s": 1982,
      "ĠEgyetem": 1983,
      "azdasÃ¡gi": 1984,
      "Ã¶rÃ¶s": 1985,
      "ĠromÃ¡n": 1986,
      "ĠgÃ©p": 1987,
      "Ġ26": 1988,
      "Ã¼nk": 1989,
      "Ã©nz": 1990,
      "ĠalÃ¡": 1991,
      "jÃ¡tÃ©k": 1992,
      "Ã©rtÃ©k": 1993,
      "Ã¡ciÃ³s": 1994,
      "rat": 1995,
      "Ġed": 1996,
      "iÃ³s": 1997,
      "ĠKirÃ¡ly": 1998,
      "iklÃ³s": 1999,
      "ĠBl": 2000,
      "ĠkÃ¶vetÅĳen": 2001,
      "fr": 2002,
      "ĠvÃ¡rmegye": 2003,
      "ebben": 2004,
      "Ã¡nya": 2005,
      "ÃŃk": 2006,
      "Ðµ": 2007,
      "ĠlÃ©g": 2008,
      "Ġhanem": 2009,
      "leked": 2010,
      "ĠmÃ©ter": 2011,
      "ettek": 2012,
      "Åĳi": 2013,
      "cz": 2014,
      "Ġver": 2015,
      "ity": 2016,
      "ĠSzÃŃn": 2017,
      "gÃ³k": 2018,
      "ĠmÃ³don": 2019,
      "nal": 2020,
      "Ã¡bban": 2021,
      "lete": 2022,
      "ĠNew": 2023,
      "ĠDr": 2024,
      "ĠÃ¼gy": 2025,
      "jegy": 2026,
      "ĠKar": 2027,
      "ner": 2028,
      "Ġ2004": 2029,
      "emutat": 2030,
      "ĠkÃ¼lÃ¶nbÃ¶zÅĳ": 2031,
      "ĠvÃ¡ltozÃ¡sa": 2032,
      "Ġolasz": 2033,
      "Ġhegy": 2034,
      "Ġmegjelent": 2035,
      "etÅ±": 2036,
      "Ġszent": 2037,
      "ĠtÃ¡mogat": 2038,
      "olta": 2039,
      "mag": 2040,
      "illag": 2041,
      "ĠHar": 2042,
      "uh": 2043,
      "Ġ22": 2044,
      "ĠbÃ¡r": 2045,
      "olÃ³giai": 2046,
      "ment": 2047,
      "Ã¡sÃ¡r": 2048,
      "ĠHa": 2049,
      "Ġamelyek": 2050,
      "Ã¶lgy": 2051,
      "Ġszerzett": 2052,
      "Ġben": 2053,
      "ff": 2054,
      "Ġfed": 2055,
      "ĠÅĳket": 2056,
      "Ġekkor": 2057,
      "mÃ©nyek": 2058,
      "Ñģ": 2059,
      "esi": 2060,
      "Ġtervez": 2061,
      "Ġkelet": 2062,
      "Ġ1990": 2063,
      "ww": 2064,
      "de": 2065,
      "Ġelem": 2066,
      "ĠlistÃ¡ja": 2067,
      "ĠnÃ©pessÃ©gÃ©nek": 2068,
      "ĠSzab": 2069,
      "Ġhivatalos": 2070,
      "Ġmai": 2071,
      "Ġ28": 2072,
      "ĠKr": 2073,
      "Ġfoglalkoz": 2074,
      "ĠvÃ©gÃ¼l": 2075,
      "Ġab": 2076,
      "ĠfelÃ©": 2077,
      "Ġjellem": 2078,
      "Egy": 2079,
      "ĠÃ¡llt": 2080,
      "ĠtÃ¶lt": 2081,
      "Ġ(âĢ": 2082,
      "Ġtenger": 2083,
      "tÃ¡rsasÃ¡g": 2084,
      "Ġop": 2085,
      "ĠtudomÃ¡ny": 2086,
      "Al": 2087,
      "Ã¶vetsÃ©g": 2088,
      "atkozÃ¡sok": 2089,
      "Ġide": 2090,
      "ileg": 2091,
      "ÃŃm": 2092,
      "ezik": 2093,
      "ĠIs": 2094,
      "ĠFel": 2095,
      "uz": 2096,
      "man": 2097,
      "Ġmadarai": 2098,
      "dig": 2099,
      "ĠMind": 2100,
      "rÃ¡n": 2101,
      "ct": 2102,
      "ĠszintÃ©n": 2103,
      "ĠdÃŃ": 2104,
      "Ġ27": 2105,
      "sÃ¡got": 2106,
      "ke": 2107,
      "ĠnemzetkÃ¶zi": 2108,
      "Cs": 2109,
      "Ġezek": 2110,
      "ĠmagÃ¡t": 2111,
      "Ġmegfel": 2112,
      "vÃ¡ri": 2113,
      "evÃ©keny": 2114,
      "Ġ2012": 2115,
      "Ġbiztos": 2116,
      "Ġtartalmaz": 2117,
      "Ã¡zs": 2118,
      "ĠIm": 2119,
      "30": 2120,
      "ĠszÃ©k": 2121,
      "25": 2122,
      "Ġfut": 2123,
      "Ġorosz": 2124,
      "ĠBe": 2125,
      "Ġ100": 2126,
      "ĠszÃ¼k": 2127,
      "Ġmegny": 2128,
      "ĠtartozÃ³": 2129,
      "ĠgÃ¶rÃ¶g": 2130,
      "Ġsport": 2131,
      "beli": 2132,
      "har": 2133,
      "Ã¡ltÃ¡k": 2134,
      "ĠMag": 2135,
      "Ġ&": 2136,
      "ene": 2137,
      "Ġ21": 2138,
      "echn": 2139,
      "ÃŃtÃ©se": 2140,
      "ese": 2141,
      "ĠMeg": 2142,
      "ovj": 2143,
      "Ġamelyet": 2144,
      "Ġmill": 2145,
      "ĠegyÃ©b": 2146,
      "ĠhÃ¡t": 2147,
      "ĠÃ©lÅĳ": 2148,
      "mond": 2149,
      "ĠMi": 2150,
      "Ġbal": 2151,
      "Ã©bÅĳl": 2152,
      "ick": 2153,
      "ans": 2154,
      "ĠÅ±r": 2155,
      "Ã©tÅĳl": 2156,
      "gal": 2157,
      "ĠÃ©vben": 2158,
      "ĠNemzeti": 2159,
      "Ã¡ni": 2160,
      "iszter": 2161,
      "Ġneve": 2162,
      "ĠelÃ©r": 2163,
      "ler": 2164,
      "Ġsziget": 2165,
      "ÃŃlus": 2166,
      "ue": 2167,
      "Ã©zet": 2168,
      "Ġjav": 2169,
      "ĠnevÅ±": 2170,
      "ĠszÃ¡r": 2171,
      "Ã¼lÅĳ": 2172,
      "Ã©szeti": 2173,
      "Ġ2001": 2174,
      "Ġfontos": 2175,
      "ĠfolyÃ³": 2176,
      "ĠgÃ³l": 2177,
      "Ġesz": 2178,
      "amp": 2179,
      "Ġmegjelen": 2180,
      "ĠÃ¡l": 2181,
      "attÃ¡k": 2182,
      "oszl": 2183,
      "hasznÃ¡l": 2184,
      "Ġharmadik": 2185,
      "szÃŃnÅ±": 2186,
      "la": 2187,
      "leges": 2188,
      "Ġmelyet": 2189,
      "rÃ¡k": 2190,
      "jabb": 2191,
      "ÃŃtja": 2192,
      "Ġarra": 2193,
      "ulÃ¡s": 2194,
      "szerep": 2195,
      "szerzÅĳ": 2196,
      "ĠEurÃ³pa": 2197,
      "ĠPÃ¡l": 2198,
      "SZ": 2199,
      "igazgat": 2200,
      "ĠÃ©ves": 2201,
      "ĠKÃ¶nyv": 2202,
      "ĠtÃ¶rÃ¶k": 2203,
      "ĠAndrÃ¡s": 2204,
      "ĠjelÃ¶l": 2205,
      "ĠJohn": 2206,
      "KÃ¼l": 2207,
      "ĠtermÃ©szet": 2208,
      "Ġkellett": 2209,
      "Ã³ri": 2210,
      "ĠAp": 2211,
      "elen": 2212,
      "ĠMih": 2213,
      "usztr": 2214,
      "Ġgyors": 2215,
      "hegy": 2216,
      "Ã¶lcs": 2217,
      "ĠGr": 2218,
      "Ã¡lat": 2219,
      "Ġbej": 2220,
      "Ġ2003": 2221,
      "Ã¡sokat": 2222,
      "Ġreform": 2223,
      "anyag": 2224,
      "ĠÃ¡llÃ³": 2225,
      "tart": 2226,
      "ice": 2227,
      "Ġfok": 2228,
      "apot": 2229,
      "Ã¡sban": 2230,
      "ulat": 2231,
      "ĠtÃ¡rgy": 2232,
      "Ã¤": 2233,
      "odalmi": 2234,
      "ala": 2235,
      "Ġ1998": 2236,
      "ence": 2237,
      "gyÅ±l": 2238,
      "Ġkonc": 2239,
      "adalom": 2240,
      "Ġkialak": 2241,
      "Ġlel": 2242,
      "lan": 2243,
      "com": 2244,
      "Ã¼t": 2245,
      "Ġvisszat": 2246,
      "Ġ2014": 2247,
      "Ġmaradt": 2248,
      "ĠMiklÃ³s": 2249,
      "ĠnÃ¶vÃ©ny": 2250,
      "era": 2251,
      "gÃ©p": 2252,
      "enged": 2253,
      "ĠfÃ©ny": 2254,
      "ovjet": 2255,
      "fÃ©le": 2256,
      "Ã¶kk": 2257,
      "ĠtevÃ©keny": 2258,
      "vidÃ©k": 2259,
      "Ġ185": 2260,
      "Ġdr": 2261,
      "Ã©vÅĳ": 2262,
      "berg": 2263,
      "hagy": 2264,
      "ĠLeg": 2265,
      "ĠLa": 2266,
      "Ġhelyen": 2267,
      "Ġszez": 2268,
      "ĠtÃŃpus": 2269,
      "oda": 2270,
      "align": 2271,
      "tan": 2272,
      "aton": 2273,
      "Ġjobb": 2274,
      "Ġfelad": 2275,
      "Ġezzel": 2276,
      "ĠTr": 2277,
      "Ġ29": 2278,
      "Ġpolg": 2279,
      "Ã©li": 2280,
      "ĠszÃ¡ll": 2281,
      "ĠGe": 2282,
      "eztek": 2283,
      "erl": 2284,
      "ĠrendezÅĳ": 2285,
      "kezett": 2286,
      "ĠÃ¶rÃ¶k": 2287,
      "ĠgrÃ³f": 2288,
      "irodalom": 2289,
      "ĠszÃ³lÃ³": 2290,
      "Ġvannak": 2291,
      "Ġkifej": 2292,
      "//": 2293,
      "ĠFÅĳ": 2294,
      "hal": 2295,
      "esztÅĳ": 2296,
      "olozs": 2297,
      "dÃŃjas": 2298,
      "orvos": 2299,
      "Ġfia": 2300,
      "ekszik": 2301,
      "27": 2302,
      "Ġat": 2303,
      "alap": 2304,
      "ere": 2305,
      "sereg": 2306,
      "Ġtor": 2307,
      "Ã¡laszt": 2308,
      "Ã³bb": 2309,
      "urÃ³pai": 2310,
      "erte": 2311,
      "fÃ¼gg": 2312,
      "ĠmÃ©rkÅĳzÃ©s": 2313,
      "ĠhÃ©t": 2314,
      "Ġ|": 2315,
      "ĠÅĳs": 2316,
      "Ġegyetlen": 2317,
      "29": 2318,
      "Ġfiz": 2319,
      "ĠhagyomÃ¡ny": 2320,
      "ora": 2321,
      "ĠGÃ¡bor": 2322,
      "ĠbarÃ¡t": 2323,
      "Ġkik": 2324,
      "ĠÃŃrÃ³": 2325,
      "ttp": 2326,
      "egyver": 2327,
      "ĠkÃ©z": 2328,
      "ĠkorÃ¡bbi": 2329,
      "Ġvizsg": 2330,
      "Ġprogram": 2331,
      "Ġfiatal": 2332,
      "adi": 2333,
      "://": 2334,
      "kÃ©t": 2335,
      "tÃ¶bb": 2336,
      "Ġrendelet": 2337,
      "mun": 2338,
      "ĠRo": 2339,
      "Ġnagyon": 2340,
      "Meg": 2341,
      "ĠkÃŃsÃ©r": 2342,
      "osztÃ¡ly": 2343,
      "Ġlegy": 2344,
      "Ġszerepelt": 2345,
      "Ġbemutat": 2346,
      "eleti": 2347,
      "ĠrÃ©gi": 2348,
      "Ã¶meg": 2349,
      "Ġun": 2350,
      "ĠelejÃ©n": 2351,
      "szab": 2352,
      "oltÃ¡k": 2353,
      "atem": 2354,
      "Ã¡sra": 2355,
      "Ġfr": 2356,
      "sziget": 2357,
      "ight": 2358,
      "zÅĳk": 2359,
      "ekÃ©nt": 2360,
      "Ġszob": 2361,
      "Ġezen": 2362,
      "Ãºcs": 2363,
      "ikon": 2364,
      "Ã¡sÃ¡val": 2365,
      "ĠhÃŃv": 2366,
      "atban": 2367,
      "Ġazonos": 2368,
      "Ġhall": 2369,
      "ĠFÃ¶ld": 2370,
      "ÃŃtani": 2371,
      "ila": 2372,
      "ĠmegfelelÅĳ": 2373,
      "ĠlakossÃ¡g": 2374,
      "Ãºd": 2375,
      "ĠMÃ¡ria": 2376,
      "Ġmelynek": 2377,
      "Ġ2013": 2378,
      "rÃ©sz": 2379,
      "Ġnegy": 2380,
      "Ġfenn": 2381,
      "Ġspanyol": 2382,
      "ered": 2383,
      "ĠfÃ©rfi": 2384,
      "ĠterÃ¼letÃ©n": 2385,
      "olc": 2386,
      "ald": 2387,
      "Ġeredeti": 2388,
      "Ã©ssel": 2389,
      "Å±nt": 2390,
      "ĠszabÃ¡ly": 2391,
      "28": 2392,
      "evÃŃz": 2393,
      "ÃīlÅĳ": 2394,
      "Ð½": 2395,
      "Ġlap": 2396,
      "Ã¡sÃ¡nak": 2397,
      "ĠMagyarorszÃ¡gon": 2398,
      "ĠpÃ©nz": 2399,
      "onn": 2400,
      "ilag": 2401,
      "ekete": 2402,
      "ars": 2403,
      "ive": 2404,
      "rÃ³n": 2405,
      ".âĢĿ": 2406,
      "Ġhelyi": 2407,
      "Budapest": 2408,
      "olÃ³": 2409,
      "Ġ1999": 2410,
      "ĠgyÃ¡rt": 2411,
      "ĠKiadÃ³": 2412,
      "enz": 2413,
      "ĠbÃ©k": 2414,
      "ida": 2415,
      "Ġkett": 2416,
      "26": 2417,
      "kÃ¶r": 2418,
      "Ã¼gyi": 2419,
      "Ġgyakran": 2420,
      "ith": 2421,
      "adt": 2422,
      "Ġindult": 2423,
      "afut": 2424,
      "ĠstÃŃlus": 2425,
      "Ġnincs": 2426,
      "Ġ:": 2427,
      "ĠvasÃºtÃ¡llomÃ¡s": 2428,
      "dÃ¶nt": 2429,
      "Ġtur": 2430,
      "usok": 2431,
      "szÃ³": 2432,
      "ĠÃŃrt": 2433,
      "Ġszav": 2434,
      "szor": 2435,
      "ĠidÅĳszak": 2436,
      "sÃ©gÃ©t": 2437,
      "ĠQ": 2438,
      "ĠcsÃ¡szÃ¡r": 2439,
      "Ġszerepel": 2440,
      "Ã¼sp": 2441,
      "Ġutca": 2442,
      "Ġper": 2443,
      "onban": 2444,
      "alk": 2445,
      "zat": 2446,
      "upa": 2447,
      "Ġtartozik": 2448,
      "ĠkÃ¶zv": 2449,
      "Ġegyen": 2450,
      "arch": 2451,
      "ĠkeresztÃ¼l": 2452,
      "ĠtalÃ¡lkoz": 2453,
      "Ġtr": 2454,
      "ĠÅĳr": 2455,
      "irÃ¡g": 2456,
      "Ġgyakor": 2457,
      "kap": 2458,
      "pÃ¡ly": 2459,
      "ĠIII": 2460,
      "rd": 2461,
      "ella": 2462,
      "Ã©rm": 2463,
      "co": 2464,
      "Ġdarab": 2465,
      "El": 2466,
      "ĠSzÃŃnhÃ¡z": 2467,
      "ana": 2468,
      "189": 2469,
      "ĠEzt": 2470,
      "nn": 2471,
      "Ġfejleszt": 2472,
      "ĠlabdarÃºgÃ³iA": 2473,
      "enekar": 2474,
      "hang": 2475,
      "kÃ¶nyv": 2476,
      "kos": 2477,
      "ĠPet": 2478,
      "ĠvÃ¡llal": 2479,
      "ĠTer": 2480,
      "inn": 2481,
      "Ãºra": 2482,
      "vÃ©r": 2483,
      "Ġmelyek": 2484,
      "ĠrÃ¡": 2485,
      "ĠÃį": 2486,
      ".:": 2487,
      "ĠÃ¼zem": 2488,
      "rist": 2489,
      "Ġev": 2490,
      "ĠidejÃ©n": 2491,
      "nyug": 2492,
      "enni": 2493,
      "Ġtiz": 2494,
      "ĠkÃ¶zleked": 2495,
      "Ġ1994": 2496,
      "Ġolimpiai": 2497,
      "ĠAkadÃ©m": 2498,
      "Ġet": 2499,
      "Ã¼spÃ¶k": 2500,
      "Ġlemez": 2501,
      "Ġvall": 2502,
      "Å¡": 2503,
      "Ġbrit": 2504,
      "akt": 2505,
      "olÃ³gia": 2506,
      "Ġszemben": 2507,
      "Ã¼st": 2508,
      "iÃ¡n": 2509,
      "ĠCom": 2510,
      "se": 2511,
      "enet": 2512,
      "amb": 2513,
      "csak": 2514,
      "Ġneh": 2515,
      "ĠvÃ¡ltozott": 2516,
      "ĠfejlÅĳ": 2517,
      "eci": 2518,
      "bben": 2519,
      "ĠBÃ©l": 2520,
      "enci": 2521,
      "tes": 2522,
      "Ã¡lta": 2523,
      "Ġviszony": 2524,
      "Ġviszont": 2525,
      "oknak": 2526,
      "ĠZolt": 2527,
      "Ġarany": 2528,
      "ĠpÃ¡rt": 2529,
      "Ġjegy": 2530,
      "ĠkorÃ¡bban": 2531,
      "ge": 2532,
      "andÃ³": 2533,
      "atÃŃv": 2534,
      "Ġdok": 2535,
      "akat": 2536,
      "Ġder": 2537,
      "Ġfor": 2538,
      "Ġmot": 2539,
      "ĠtÃ¶bbi": 2540,
      "ĠregÃ©ny": 2541,
      "ral": 2542,
      "Ġked": 2543,
      "rab": 2544,
      "ĠPa": 2545,
      "Ġilyen": 2546,
      "ezÃ©se": 2547,
      ");": 2548,
      "Ġvette": 2549,
      "ĠZoltÃ¡n": 2550,
      "utt": 2551,
      "ura": 2552,
      "fÃ¶ldi": 2553,
      "ĠlÃ©vÅĳ": 2554,
      "lev": 2555,
      "ĠkÃŃn": 2556,
      "erv": 2557,
      "ĠkÃ¶zÃ¶tti": 2558,
      "Ġennek": 2559,
      "ĠMihÃ¡ly": 2560,
      "ĠÃ©rint": 2561,
      "obban": 2562,
      "tÃ¶rtÃ©n": 2563,
      "ĠvÃ©gzett": 2564,
      "ĠUni": 2565,
      "60": 2566,
      "KÃ¼lsÅĳ": 2567,
      "ĠIr": 2568,
      "Ġpap": 2569,
      "Ġkapta": 2570,
      "III": 2571,
      "ĠItt": 2572,
      "sch": 2573,
      "Ġmaga": 2574,
      "ĠMÃºzeum": 2575,
      "eltÃ©k": 2576,
      "Ġvers": 2577,
      "Ã©lt": 2578,
      "nny": 2579,
      "Ġbarlang": 2580,
      "ĠszÃ¶veg": 2581,
      "min": 2582,
      "ĠegyÃ¼ttes": 2583,
      "da": 2584,
      "ĠtovÃ¡bbi": 2585,
      "ĠlÃ¡thatÃ³": 2586,
      "ĠrÃ©szÃ©n": 2587,
      "Ã¼lÃ©s": 2588,
      "Ġkisboly": 2589,
      "ĠkezdÅĳ": 2590,
      "ĠEzek": 2591,
      "Ġszakasz": 2592,
      "ĠÃ¡ltalÃ¡ban": 2593,
      "Ġell": 2594,
      "ph": 2595,
      "ĠfehÃ©r": 2596,
      "Ġmet": 2597,
      "Ġteljesen": 2598,
      "ĠnyilvÃ¡n": 2599,
      "ĠHe": 2600,
      "fer": 2601,
      "vÃ©": 2602,
      "ogrÃ¡f": 2603,
      "ĠhivatkozÃ¡sok": 2604,
      "Ġhelyzet": 2605,
      "sorban": 2606,
      "ĠtÃ¶rt": 2607,
      "Ã¡sai": 2608,
      "Ġlov": 2609,
      "Ã³kat": 2610,
      "Ġakar": 2611,
      "ĠkÃ©pviselÅĳ": 2612,
      "Ġpolitikai": 2613,
      "ara": 2614,
      "ĠMa": 2615,
      "Ġneki": 2616,
      "Ġmegb": 2617,
      "zÃ³": 2618,
      "etben": 2619,
      "jÃ©t": 2620,
      "ĠlÃ¡ny": 2621,
      "ĠszÃ¡ma": 2622,
      "ĠdÃŃsz": 2623,
      "rem": 2624,
      "rec": 2625,
      "imn": 2626,
      "40": 2627,
      "Ġoktat": 2628,
      "ĠhÃ¡zas": 2629,
      "emlÃ©k": 2630,
      "zal": 2631,
      "ottsÃ¡g": 2632,
      "Ġhelyett": 2633,
      "Ġ,": 2634,
      "ĠkÃ¶zep": 2635,
      "188": 2636,
      "ĠintÃ©z": 2637,
      "ĠTudomÃ¡ny": 2638,
      "ÃŃti": 2639,
      "fordul": 2640,
      "Ġfekszik": 2641,
      "ĠMan": 2642,
      "ukat": 2643,
      "ĠTam": 2644,
      "raf": 2645,
      "ÑĢ": 2646,
      "Ãīlet": 2647,
      "Ġep": 2648,
      "ĠsegÃŃtsÃ©g": 2649,
      "amos": 2650,
      "190": 2651,
      "Ġkal": 2652,
      "Ġex": 2653,
      "ĠÃīszak": 2654,
      "ĠkirÃ¡lyi": 2655,
      "Ġtartozott": 2656,
      "bajnok": 2657,
      "ĠkÃ¶zÃ©": 2658,
      "Ford": 2659,
      "lak": 2660,
      "ero": 2661,
      "Ġ1997": 2662,
      "Äĩ": 2663,
      "=\"": 2664,
      "ĠszolgÃ¡lt": 2665,
      "Ġlakosa": 2666,
      "ĠtÃ¶rtÃ©nete": 2667,
      "one": 2668,
      "ĠsikerÃ¼lt": 2669,
      "itÃ¡r": 2670,
      "ĠkerÃ¼let": 2671,
      "oln": 2672,
      "ĠkerÃ¼l": 2673,
      "eft": 2674,
      "szÃ©k": 2675,
      "Ġci": 2676,
      "eth": 2677,
      "Ã¼ket": 2678,
      "ĠrepÃ¼lÅĳ": 2679,
      "dÃ©lyi": 2680,
      "Ġ1992": 2681,
      "Ġ1996": 2682,
      "ĠGal": 2683,
      "Ġfigy": 2684,
      "ÃŃtvÃ¡ny": 2685,
      "ellem": 2686,
      "Ġvad": 2687,
      "ĠkisbolygÃ³": 2688,
      "Ġbeteg": 2689,
      "Ġigen": 2690,
      "ĠellenÃ©re": 2691,
      "Ã³nap": 2692,
      "ĠDÃ©l": 2693,
      "pal": 2694,
      "ĠCar": 2695,
      "ĠDun": 2696,
      "Ġalakult": 2697,
      "ĠjÃ¡tszott": 2698,
      "St": 2699,
      "edett": 2700,
      "idae": 2701,
      "ood": 2702,
      "evÅĳ": 2703,
      "ĠEnnek": 2704,
      "Ãºjt": 2705,
      "Ġzene": 2706,
      "ĠNaprendszer": 2707,
      "ĠszlovÃ¡k": 2708,
      "eje": 2709,
      "rajz": 2710,
      "erd": 2711,
      "Ġdolgozott": 2712,
      "Ġirodalom": 2713,
      "olland": 2714,
      "Ġne": 2715,
      "ĠPh": 2716,
      "Ġmozg": 2717,
      "ĠkÃ¶nny": 2718,
      "ĠOlasz": 2719,
      "ĠMon": 2720,
      "ĠkÃ¶rnyÃ©k": 2721,
      "ĠtanÃ¡r": 2722,
      "Ġegyed": 2723,
      "kÃ³": 2724,
      "isch": 2725,
      "ĠjÃ¡tÃ©kos": 2726,
      "ivÃ¡l": 2727,
      "ĠcsÃ¶kk": 2728,
      "Ġbor": 2729,
      "van": 2730,
      "ĠMad": 2731,
      "Ġim": 2732,
      "zÃ©k": 2733,
      "obl": 2734,
      "ĠlegtÃ¶bb": 2735,
      "ĠÅĳt": 2736,
      "ĠBÃ©la": 2737,
      "ument": 2738,
      "33": 2739,
      "FordÃŃtÃ¡s": 2740,
      "Ġigazgat": 2741,
      "alommal": 2742,
      "ÃŃd": 2743,
      "ĠVal": 2744,
      "ĠÃºjabb": 2745,
      "irat": 2746,
      "ĠgyÅ±jt": 2747,
      "Ġtechn": 2748,
      "ino": 2749,
      "Ġgazd": 2750,
      "Ã¡jÃ¡ban": 2751,
      "ĠInd": 2752,
      "Ġparancs": 2753,
      "ĠpÃ¼spÃ¶k": 2754,
      "iam": 2755,
      "Ġjelleg": 2756,
      "helye": 2757,
      "ĠelmÃºlt": 2758,
      "Ãºs": 2759,
      "adta": 2760,
      "ĠmeghatÃ¡r": 2761,
      "Ġseb": 2762,
      "ĠnÅĳi": 2763,
      "ire": 2764,
      "...": 2765,
      "ĠÅĲ": 2766,
      "ĠbajnoksÃ¡g": 2767,
      "ĠAmerikai": 2768,
      "ĠfÃ¶l": 2769,
      "ĠesemÃ©ny": 2770,
      "Ġ1991": 2771,
      "49": 2772,
      "ien": 2773,
      "dal": 2774,
      "ĠImre": 2775,
      "elek": 2776,
      "atlak": 2777,
      "Ġtesz": 2778,
      "Ã©ria": 2779,
      "ya": 2780,
      "szerk": 2781,
      "Ãīlete": 2782,
      "ins": 2783,
      "Ġkrit": 2784,
      "Ġink": 2785,
      "vÃ©delmi": 2786,
      "Ġkeresked": 2787,
      "Ã¶tte": 2788,
      "mÃ¡n": 2789,
      "kÃ¶zel": 2790,
      "35": 2791,
      "Ã©ig": 2792,
      "Äį": 2793,
      "ĠÃ¡llom": 2794,
      "ezni": 2795,
      "ĠGyula": 2796,
      "Ġhi": 2797,
      "Ġkatonai": 2798,
      "|-|": 2799,
      "Ġtelep": 2800,
      "Ġ2015": 2801,
      "ĠmezÅĳ": 2802,
      "left": 2803,
      "37": 2804,
      "Ġelleni": 2805,
      "Ġamelynek": 2806,
      "2006": 2807,
      "ĠYork": 2808,
      "ĠNÃ©p": 2809,
      "fed": 2810,
      "vers": 2811,
      "Ġ1980": 2812,
      "iÃ¡t": 2813,
      "ĠGu": 2814,
      "ĠmÃ³dos": 2815,
      "Ġhadsereg": 2816,
      "ĠÃ¡b": 2817,
      "ĠmilliÃ³": 2818,
      "ĠjÃ³l": 2819,
      "SA": 2820,
      "ĠutÃ³bb": 2821,
      "ĠÃ¶sszes": 2822,
      "Ġorvos": 2823,
      "Ġegyre": 2824,
      "Ã¨": 2825,
      "Ġelekt": 2826,
      "ĠtanÃ¡cs": 2827,
      "einek": 2828,
      "fÅĳ": 2829,
      "ĠfÃ¼ggetlen": 2830,
      "Ġ1993": 2831,
      "Ã¡ty": 2832,
      "ĠhÃ³nap": 2833,
      "ĠVas": 2834,
      "ĠÃ¼t": 2835,
      "Ġ(*": 2836,
      "Ġ1989": 2837,
      "ĠvalÃ³szÃŃnÅ±": 2838,
      "Ġfil": 2839,
      "ĠAtt": 2840,
      "apja": 2841,
      "ÃŃtmÃ©ny": 2842,
      "ĠtÃ¡vol": 2843,
      "ĠÃ¶r": 2844,
      "ĠgyÃ³gy": 2845,
      "rand": 2846,
      "2010": 2847,
      "ĠsÃºly": 2848,
      "ary": 2849,
      "Gy": 2850,
      "tag": 2851,
      "The": 2852,
      "Ġfegyver": 2853,
      "Ġmindig": 2854,
      "Ġegyetemi": 2855,
      "Or": 2856,
      "talan": 2857,
      "Ġenged": 2858,
      "Ã³ta": 2859,
      "ĠpÃ¡p": 2860,
      "etet": 2861,
      "ley": 2862,
      "mai": 2863,
      "port": 2864,
      "ĠWill": 2865,
      "erk": 2866,
      "Ġreg": 2867,
      "ĠtÃ¡bor": 2868,
      "Ġnyert": 2869,
      "Ġakt": 2870,
      "atra": 2871,
      "sÃ¡gban": 2872,
      "Ã¡lÃ¡s": 2873,
      "ÅĳkÃ©nt": 2874,
      "ekvÃ©se": 2875,
      "Ġhit": 2876,
      "Ġtett": 2877,
      "âĢĿ,": 2878,
      "ish": 2879,
      "Ġcsatlak": 2880,
      "ĠÃ©szaki": 2881,
      "ĠÃ©lt": 2882,
      "ĠkÃ¶sz": 2883,
      "eknek": 2884,
      "urÃ¡lis": 2885,
      "Ġ1995": 2886,
      "Ġnyugati": 2887,
      "ĠâĢĵ)": 2888,
      "ĠdÃ©li": 2889,
      "Åĳben": 2890,
      "Ġcsillag": 2891,
      "ĠElsÅĳ": 2892,
      "idÃ³": 2893,
      "mÃ³d": 2894,
      "ory": 2895,
      "Ġperc": 2896,
      "ĠÃ©rtelm": 2897,
      "ĠrÃ©szÃ©t": 2898,
      "ham": 2899,
      "80": 2900,
      "csoport": 2901,
      "Ã¡ltak": 2902,
      "attal": 2903,
      "ekvÅĳ": 2904,
      "Ġ50": 2905,
      "udvar": 2906,
      "nnep": 2907,
      "ĠÃ©vvel": 2908,
      "ĠjellemzÅĳ": 2909,
      "ĠHen": 2910,
      "Ġadat": 2911,
      "Ã³dik": 2912,
      "âĢĿ.": 2913,
      "ons": 2914,
      "Ġmintegy": 2915,
      "ĠÃ¡m": 2916,
      "Ġhom": 2917,
      "atin": 2918,
      "avar": 2919,
      "lott": 2920,
      "ĠÃŃrta": 2921,
      "Ã©ni": 2922,
      "ĠcÃ©g": 2923,
      "ĠvÃ©l": 2924,
      "39": 2925,
      "ĠfelsÅĳ": 2926,
      "ĠSan": 2927,
      "'s": 2928,
      "ÃŃtik": 2929,
      "KÃ¶z": 2930,
      "Ġ(âĢł": 2931,
      "ris": 2932,
      "foly": 2933,
      "ĠszÃ¡mÃŃt": 2934,
      "ĠKon": 2935,
      "kÃŃvÃ¼l": 2936,
      "Åĳsebb": 2937,
      "sÃ©k": 2938,
      "ĠBen": 2939,
      "ĠMus": 2940,
      "ÃŃtettek": 2941,
      "verseny": 2942,
      "Ã©szek": 2943,
      "olog": 2944,
      "70": 2945,
      "ĠkÃ©sÅĳbbi": 2946,
      "ĠBiz": 2947,
      "ĠnÃ©pessÃ©ge": 2948,
      "ÃŃtottak": 2949,
      "Ã³dott": 2950,
      "ĠeurÃ³pai": 2951,
      "ĠKl": 2952,
      "esztivÃ¡l": 2953,
      "atak": 2954,
      "iak": 2955,
      "ola": 2956,
      "ĠKÃ¶ztÃ¡rsasÃ¡g": 2957,
      "Ã¡vÃ¡": 2958,
      "ĠUn": 2959,
      "ism": 2960,
      "sorozat": 2961,
      "Ġiz": 2962,
      "Ġ31": 2963,
      "ĠBud": 2964,
      "olf": 2965,
      "Ġvill": 2966,
      "Ġterv": 2967,
      "ĠtÃ¶meg": 2968,
      "ira": 2969,
      "omÃ©ter": 2970,
      "ĠszÃ¶vet": 2971,
      "Ġmegv": 2972,
      "Ġfelett": 2973,
      "elent": 2974,
      "Ġant": 2975,
      "jÃ¡val": 2976,
      "Ġutaz": 2977,
      "alma": 2978,
      "ĠPl": 2979,
      "ĠhozzÃ¡": 2980,
      "ĠHorvÃ¡t": 2981,
      "ĠMich": 2982,
      "fÃ©lÃ©k": 2983,
      "ĠÃ³r": 2984,
      "Ġcsap": 2985,
      "2002": 2986,
      "enÅĳ": 2987,
      "Ġzenekar": 2988,
      "ĠinkÃ¡bb": 2989,
      "okra": 2990,
      "ĠreformÃ¡tus": 2991,
      "oth": 2992,
      "ament": 2993,
      "sh": 2994,
      "ale": 2995,
      "ĠÃºjsÃ¡g": 2996,
      "Ã¡sos": 2997,
      "Ġmester": 2998,
      "udomÃ¡nyi": 2999,
      "ĠnevÃ©t": 3000,
      "ĠmegÃ¡ll": 3001,
      "Ġtartott": 3002,
      "ĠÃ¶nÃ¡llÃ³": 3003,
      "ĠkiadÃ¡s": 3004,
      "elnÃ¶k": 3005,
      "Ã©sÃ©re": 3006,
      "ttal": 3007,
      "ezked": 3008,
      "rid": 3009,
      "ĠprÃ³b": 3010,
      "gl": 3011,
      "99": 3012,
      "ĠKor": 3013,
      "ezi": 3014,
      "ĠCol": 3015,
      "ivatal": 3016,
      "rik": 3017,
      "marad": 3018,
      "csapat": 3019,
      "etÃ©ben": 3020,
      "ĠLu": 3021,
      "ĠâĢĻ": 3022,
      "Ġminiszter": 3023,
      "ĠKer": 3024,
      "ĠRomÃ¡n": 3025,
      "ĠkÃ©ny": 3026,
      "fjÃº": 3027,
      "ace": 3028,
      "ekre": 3029,
      "Ã©csi": 3030,
      "rÃ¡z": 3031,
      "endÅĳ": 3032,
      "Ã¡zium": 3033,
      "ĠRe": 3034,
      "Ġhonlapja": 3035,
      "ain": 3036,
      "ĠmÃ¡sod": 3037,
      "imnÃ¡zium": 3038,
      "Ġvit": 3039,
      "afutÃ¡sa": 3040,
      "arm": 3041,
      "ĠkÅĳ": 3042,
      "ĠeszkÃ¶z": 3043,
      "Ġfell": 3044,
      "ĠÃ¡llapot": 3045,
      "ĠOrszÃ¡g": 3046,
      "etileg": 3047,
      "ĠEk": 3048,
      "Ãºak": 3049,
      "anad": 3050,
      "par": 3051,
      "rajzi": 3052,
      "elep": 3053,
      "jÃ¼k": 3054,
      "hetÅĳen": 3055,
      "fÃ¼ggetlen": 3056,
      "ĠTamÃ¡s": 3057,
      "ĠDav": 3058,
      "ĠmÃ©ly": 3059,
      "ean": 3060,
      "Ġvegy": 3061,
      "Ġkiem": 3062,
      "ossÃ¡g": 3063,
      "egen": 3064,
      "Ġalkalommal": 3065,
      "ĠvilÃ¡gbajnoksÃ¡g": 3066,
      "Ar": 3067,
      "ĠÃ©g": 3068,
      "olja": 3069,
      "FekvÃ©se": 3070,
      "Ġtagjai": 3071,
      "Åĳv": 3072,
      "jÃ¡bÃ³l": 3073,
      "Ġnemzeti": 3074,
      "astÃ©ly": 3075,
      "okk": 3076,
      "Ġazaz": 3077,
      "Ġ1970": 3078,
      "sa": 3079,
      "Ġmon": 3080,
      "ĠMT": 3081,
      "ous": 3082,
      "eiben": 3083,
      "dolg": 3084,
      "2001": 3085,
      "ĠbeszÃ©l": 3086,
      "ĠbelsÅĳ": 3087,
      "ĠkÃ¶szÃ¶n": 3088,
      "ĠtÃ¶rtÃ©nt": 3089,
      "Ã©kony": 3090,
      "ĠvÃ©gre": 3091,
      "ElÅĳ": 3092,
      "Ã©nyi": 3093,
      "ĠÃ¡ltalÃ¡nos": 3094,
      "atemat": 3095,
      "Ġjelenleg": 3096,
      "Ġutc": 3097,
      "ĠAb": 3098,
      "oph": 3099,
      "ate": 3100,
      "ĠkÃ©pes": 3101,
      "Ġcseh": 3102,
      "atott": 3103,
      "2008": 3104,
      "elmet": 3105,
      "Ġport": 3106,
      "Ã¼ntetÃ©s": 3107,
      "ĠÃ¼nnep": 3108,
      "rian": 3109,
      "47": 3110,
      "ĠtÅ±z": 3111,
      "ĠBo": 3112,
      "Ġmegszer": 3113,
      "usztrÃ¡l": 3114,
      "oros": 3115,
      "Ġvisszav": 3116,
      "ÃŃlt": 3117,
      "raz": 3118,
      "oldal": 3119,
      "oblÃ©m": 3120,
      "FA": 3121,
      "jelent": 3122,
      "ĠszÃ¡zadi": 3123,
      "are": 3124,
      "hatÃ³k": 3125,
      "szolg": 3126,
      "rich": 3127,
      "ronz": 3128,
      "Ã¡jÃ¡nak": 3129,
      "jÃ©n": 3130,
      "Ġip": 3131,
      "szint": 3132,
      "Ġlegf": 3133,
      "2007": 3134,
      "ure": 3135,
      "meg": 3136,
      "ĠmellÃ©k": 3137,
      "Ġszenv": 3138,
      "ĠesetÃ©n": 3139,
      "ĠÂ": 3140,
      "Ġnyolc": 3141,
      "Ġ40": 3142,
      "der": 3143,
      "Ġkeleti": 3144,
      "ĠBel": 3145,
      "orld": 3146,
      "terjed": 3147,
      "Ġmik": 3148,
      "ettel": 3149,
      "nie": 3150,
      "ĠVer": 3151,
      "2011": 3152,
      "sk": 3153,
      "ipt": 3154,
      "nia": 3155,
      "szent": 3156,
      "Ġvide": 3157,
      "rÃ©t": 3158,
      "Ã¡nyi": 3159,
      "adalmi": 3160,
      "Ġtizen": 3161,
      "Äĥ": 3162,
      "Ġrom": 3163,
      "ĠLov": 3164,
      "-,": 3165,
      "Ġnyit": 3166,
      "ĠkÃ¼lÃ¶nÃ¶s": 3167,
      "Ġprod": 3168,
      "Ġbek": 3169,
      "ĠegyszerÅ±": 3170,
      "45": 3171,
      "ĠegÃ©szen": 3172,
      "36": 3173,
      "ĠigÃ©ny": 3174,
      "ĠÃ©vad": 3175,
      "Ġkol": 3176,
      "gr": 3177,
      "ener": 3178,
      "str": 3179,
      "ĠfelhasznÃ¡l": 3180,
      "jÃ¡ra": 3181,
      "ĠSc": 3182,
      "ĠrÃ©giÃ³": 3183,
      "187": 3184,
      "ĠÃģr": 3185,
      "ĠakÃ¡r": 3186,
      "kormÃ¡ny": 3187,
      "ĠFl": 3188,
      "An": 3189,
      "Ġsug": 3190,
      "uel": 3191,
      "Nev": 3192,
      "pÃ¡r": 3193,
      "olÃ³gus": 3194,
      "Ġvonal": 3195,
      "jei": 3196,
      "||-|": 3197,
      "ĠMin": 3198,
      "magyar": 3199,
      "ves": 3200,
      "ĠmÅ±sor": 3201,
      "Ġhoz": 3202,
      "jÃ¡ba": 3203,
      "Ġlengyel": 3204,
      "Ġhisz": 3205,
      "lÃ©t": 3206,
      "ĠSzeged": 3207,
      "bel": 3208,
      "arc": 3209,
      "38": 3210,
      "enes": 3211,
      "Ġkoncert": 3212,
      "ĠÃģllamok": 3213,
      "ĠzÃ¡r": 3214,
      "Ġklub": 3215,
      "Ġrak": 3216,
      "ĠelÃ©g": 3217,
      "riszt": 3218,
      "Ġviz": 3219,
      "Ġjutott": 3220,
      "Ez": 3221,
      "ĠÃ¡g": 3222,
      "ĠtudomÃ¡nyos": 3223,
      "ĠtelevÃŃz": 3224,
      "ij": 3225,
      "EurÃ³p": 3226,
      "ix": 3227,
      "Ã¡nÃ¡l": 3228,
      "2009": 3229,
      "sc": 3230,
      "ĠvidÃ©k": 3231,
      "atÃ¡r": 3232,
      "ĠelsÅĳsorban": 3233,
      "Ġist": 3234,
      "Ġebben": 3235,
      "Ġfolyamat": 3236,
      "szich": 3237,
      "ĠvallÃ¡s": 3238,
      "ainak": 3239,
      "ĠhalÃ¡la": 3240,
      "Ġazok": 3241,
      "ĠkeresztÃ©ny": 3242,
      "Ch": 3243,
      "Ġkislemez": 3244,
      "Ġre": 3245,
      "nÃ©v": 3246,
      "Ã©rium": 3247,
      "elÅĳtt": 3248,
      "ĠkevÃ©s": 3249,
      "ĠÃ©d": 3250,
      "ĠÃ¡llat": 3251,
      "Ġaszt": 3252,
      "sen": 3253,
      "erÅĳ": 3254,
      "adÃ©k": 3255,
      "Ġlem": 3256,
      "Ġsokkal": 3257,
      "Ġutal": 3258,
      "ĠPest": 3259,
      "Ġemberek": 3260,
      "ova": 3261,
      "ĠkÃ¶zben": 3262,
      "ĠAt": 3263,
      "izÃ³d": 3264,
      "itÃ¡s": 3265,
      "Ġto": 3266,
      "zetes": 3267,
      "Ġolvas": 3268,
      "ĠvÃ©r": 3269,
      "ĠnÃ©pszerÅ±": 3270,
      "Ã©ri": 3271,
      "ĠPÃ¡r": 3272,
      "2000": 3273,
      "oszk": 3274,
      "Ġcser": 3275,
      "Ã¡tum": 3276,
      "Ã¡lja": 3277,
      "ĠkilomÃ©ter": 3278,
      "ĠmiutÃ¡n": 3279,
      "ota": 3280,
      "Ġpuszt": 3281,
      "ĠFC": 3282,
      "Ð¾Ð": 3283,
      "ĠszÃ¼l": 3284,
      "ĠsegÃŃtsÃ©gÃ©vel": 3285,
      "ente": 3286,
      "Ġvezet": 3287,
      "Ġ1988": 3288,
      "ikusok": 3289,
      "ena": 3290,
      "Ã¡c": 3291,
      "TE": 3292,
      "jÃ©nek": 3293,
      "ĠKÃ©t": 3294,
      "ĠidÅĳk": 3295,
      "Ã¡ns": 3296,
      "ĠajÃ¡n": 3297,
      "Ã¡diÃ³": 3298,
      "uzs": 3299,
      "besz": 3300,
      "kutat": 3301,
      "Ġelnev": 3302,
      "Ġelismer": 3303,
      "akor": 3304,
      "ash": 3305,
      "ĠFri": 3306,
      "2004": 3307,
      "Ġegykori": 3308,
      "Ġvonatkoz": 3309,
      "2005": 3310,
      "pe": 3311,
      "angÃ©l": 3312,
      "ĠAttila": 3313,
      "ikÃ¡ban": 3314,
      "31": 3315,
      "Ġkezdett": 3316,
      "ĠkÃ¶vetkezt": 3317,
      "age": 3318,
      "ĠfelesÃ©ge": 3319,
      "uÃ¡lis": 3320,
      "Ġdob": 3321,
      "Å±rÅ±": 3322,
      "ĠtÃ¡j": 3323,
      "ĠfÅĳvÃ¡ros": 3324,
      "ĠMe": 3325,
      "Nagy": 3326,
      "ĠeltÃ©r": 3327,
      "ĠjapÃ¡n": 3328,
      "ĠmÃ³dszer": 3329,
      "ĠMik": 3330,
      "ĠtrÃ³n": 3331,
      "ĠlÃ©pett": 3332,
      "ĠTerm": 3333,
      "Ã©vÃ©": 3334,
      "dony": 3335,
      "Ã³ra": 3336,
      "ĠoldalÃ¡n": 3337,
      "90": 3338,
      "48": 3339,
      "ĠTÃ¶bb": 3340,
      "ĠKÃ©p": 3341,
      "67": 3342,
      "ĠSzÃ©k": 3343,
      "Nem": 3344,
      "Ġmenny": 3345,
      "Ġszezon": 3346,
      "res": 3347,
      "ĠÃ¶sszef": 3348,
      "Ã©pÃŃtÃ©s": 3349,
      "ĠgazdasÃ¡gi": 3350,
      "ĠszÃŃv": 3351,
      "edÃ©k": 3352,
      "Ġtisztelet": 3353,
      "ĠTib": 3354,
      "ise": 3355,
      "Ġhttp": 3356,
      "ĠElÅĳ": 3357,
      "Ġellent": 3358,
      "ank": 3359,
      "elme": 3360,
      "ĠelnÃ¶ke": 3361,
      "ama": 3362,
      "di": 3363,
      "ĠkÃŃnai": 3364,
      "yl": 3365,
      "ĠnyelvÅ±": 3366,
      "Ã¡zis": 3367,
      "din": 3368,
      "ĠlabdarÃºgÃ³k": 3369,
      "ĠproblÃ©m": 3370,
      "istÃ¡k": 3371,
      "Ã¡llÃ¡s": 3372,
      "ĠPar": 3373,
      "ÑĤ": 3374,
      "ĠcÃŃmmel": 3375,
      "Ġlet": 3376,
      "ĠIg": 3377,
      "Ã¡ris": 3378,
      "Ġ.": 3379,
      "kelet": 3380,
      "Ġ2016": 3381,
      "ael": 3382,
      "ĠfeltÃ©tel": 3383,
      "ĠMart": 3384,
      "met": 3385,
      "ger": 3386,
      "ĠÃ¶": 3387,
      "55": 3388,
      "ĠÃ©rkez": 3389,
      "ria": 3390,
      "Ġkin": 3391,
      "kiadÃ³": 3392,
      "ĠrÃ©szben": 3393,
      "Ġvele": 3394,
      "ĠKÃ©sÅĳbb": 3395,
      "ĠkÃ¶ltÅĳ": 3396,
      "Ġhid": 3397,
      "Ã©sÃ©vel": 3398,
      "Ġpal": 3399,
      "omi": 3400,
      "rop": 3401,
      "ĠIl": 3402,
      "Ġte": 3403,
      "ÃŃciÃ³": 3404,
      "emplom": 3405,
      "olÃ¡s": 3406,
      "kÃ¼lÃ¶n": 3407,
      "almat": 3408,
      "ĠKorm": 3409,
      "agÃ³g": 3410,
      "Ġszok": 3411,
      "ti": 3412,
      "ĠÃ©nekes": 3413,
      "ÃŃtjÃ¡k": 3414,
      "ĠMil": 3415,
      "Ġforgat": 3416,
      "ĠszerzÅĳdÃ©s": 3417,
      "ĠCon": 3418,
      "ĠâĢ¢": 3419,
      "ĠCo": 3420,
      "ajor": 3421,
      "Ġgondol": 3422,
      "ĠtÃ©ny": 3423,
      "mÃ¡r": 3424,
      "Ġmodern": 3425,
      "ĠtÃ¡mad": 3426,
      "Ã¡bl": 3427,
      "Ġkezdte": 3428,
      "Ġhazai": 3429,
      "Ã¡pl": 3430,
      "uss": 3431,
      "1998": 3432,
      "ival": 3433,
      "tein": 3434,
      "ĠÃ©des": 3435,
      "ĠtÃ¶bbek": 3436,
      "Ã¶zben": 3437,
      "ĠSal": 3438,
      "eph": 3439,
      "ĠszÃ¡z": 3440,
      "Ã¡lÃ³z": 3441,
      "ĠBirodalom": 3442,
      "ĠDi": 3443,
      "szk": 3444,
      "ĠterÃ¼lete": 3445,
      "omp": 3446,
      "ird": 3447,
      "Ġideig": 3448,
      "ĠEkkor": 3449,
      "Ġon": 3450,
      "ĠvezÃ©r": 3451,
      "oztat": 3452,
      "ÃŃteni": 3453,
      "oli": 3454,
      "34": 3455,
      "ĠSpanyol": 3456,
      "Ġkid": 3457,
      "ĠkÃ¶zvetlen": 3458,
      "ĠGeorg": 3459,
      "ĠMc": 3460,
      "aur": 3461,
      "exik": 3462,
      "esk": 3463,
      "32": 3464,
      "Åĳle": 3465,
      "ĠszereplÅĳ": 3466,
      "dÃ©se": 3467,
      "97": 3468,
      "Ġsereg": 3469,
      "Ġ1960": 3470,
      "ovÃ¡cs": 3471,
      "ĠosztrÃ¡k": 3472,
      "ĠezÃ¼st": 3473,
      "Ġ1986": 3474,
      "me": 3475,
      "ÅĳsÃ©g": 3476,
      "hÃ¡zi": 3477,
      "Ġdolgoz": 3478,
      "Amerikai": 3479,
      "nes": 3480,
      "Ġrang": 3481,
      "encs": 3482,
      "Ġadta": 3483,
      "aw": 3484,
      "Ã³c": 3485,
      "ÃŃtva": 3486,
      "endÃ©g": 3487,
      "ĠIntÃ©zet": 3488,
      "Ġlehetett": 3489,
      "erÅĳs": 3490,
      "ĠKolozs": 3491,
      "ĠRich": 3492,
      "ĠbÃŃr": 3493,
      "Ġ1987": 3494,
      "Ġ180": 3495,
      "Ġszerepet": 3496,
      "Ðº": 3497,
      "kl": 3498,
      "ille": 3499,
      "Ġpoz": 3500,
      "Ġstb": 3501,
      "65": 3502,
      "Ġhelyet": 3503,
      "ĠvezetÃ©s": 3504,
      "illa": 3505,
      "nyve": 3506,
      "ĠÃĵ": 3507,
      "Ġ1984": 3508,
      "ĠCseh": 3509,
      "Ġtette": 3510,
      "Ã³ban": 3511,
      "ĠÃ¡brÃ¡z": 3512,
      "ontosabb": 3513,
      "ĠlÃ©ny": 3514,
      "ĠUgyan": 3515,
      "ĠPark": 3516,
      "vonalak": 3517,
      "ss": 3518,
      "Ãĸ": 3519,
      "ozza": 3520,
      "zsÃ©b": 3521,
      "Ġkapcsolat": 3522,
      "lav": 3523,
      "2014": 3524,
      "ational": 3525,
      "cion": 3526,
      "ĠtÃ©m": 3527,
      "omsz": 3528,
      "ĠIV": 3529,
      "Ġrek": 3530,
      "men": 3531,
      "Ġazzal": 3532,
      "MÅ±": 3533,
      "Ġakit": 3534,
      "ĠdÃ¶ntÅĳ": 3535,
      "ĠkÃ©rdÃ©s": 3536,
      "Ġfekete": 3537,
      "lÅĳk": 3538,
      "hajt": 3539,
      "Ġber": 3540,
      "ĠmegtalÃ¡l": 3541,
      "Ġkommun": 3542,
      "ĠJos": 3543,
      "fa": 3544,
      "Ã©sre": 3545,
      "Ġtav": 3546,
      "arkas": 3547,
      "ĠPer": 3548,
      "Ġhamar": 3549,
      "kat": 3550,
      "Ġrajz": 3551,
      "Ġszoci": 3552,
      "Ġmegs": 3553,
      "acsony": 3554,
      "nyire": 3555,
      "Ġsemm": 3556,
      "ĠszÃ©p": 3557,
      "ĠSim": 3558,
      "ĠWorld": 3559,
      "rak": 3560,
      "ĠAlap": 3561,
      "orb": 3562,
      "Ġegyszer": 3563,
      "ossuth": 3564,
      "puszt": 3565,
      "Ġ1982": 3566,
      "ĠFilm": 3567,
      "Ġaddig": 3568,
      "abdarÃºgÃ³": 3569,
      "ĠkÃ¶tet": 3570,
      "2012": 3571,
      "ĠleÃŃr": 3572,
      "ano": 3573,
      "cent": 3574,
      "iga": 3575,
      "sÃ¡gÃ¡t": 3576,
      "ĠTel": 3577,
      "Ġutas": 3578,
      "Ġmatemat": 3579,
      "ĠDon": 3580,
      "jon": 3581,
      "ĠÃ¡ld": 3582,
      "ĠutÃ³bbi": 3583,
      "Ġtitk": 3584,
      "Ġfelfed": 3585,
      "ite": 3586,
      "issz": 3587,
      "szÃ¶vetsÃ©g": 3588,
      "iÄĩ": 3589,
      "ĠPaul": 3590,
      "ĠBer": 3591,
      "Ãºsz": 3592,
      "2003": 3593,
      "onyi": 3594,
      "58": 3595,
      "ĠPro": 3596,
      "Ġhatalmas": 3597,
      "ĠszemÃ©lyekÃīlÅĳ": 3598,
      "hon": 3599,
      "ĠrepÃ¼lÅĳgÃ©p": 3600,
      "ical": 3601,
      "ĠtÃŃz": 3602,
      "esztette": 3603,
      "ĠjÃ¡rt": 3604,
      "adott": 3605,
      "ux": 3606,
      "Ġszinte": 3607,
      "Ġmed": 3608,
      "vetÅĳ": 3609,
      "mÅ±vÃ©szeti": 3610,
      "Ġszovjet": 3611,
      "Ġmer": 3612,
      "ĠkÃ¼ld": 3613,
      "olgÃ¡r": 3614,
      "57": 3615,
      "Ġparancsnok": 3616,
      "zen": 3617,
      "Ġelfoglal": 3618,
      "ĠOrosz": 3619,
      "ĠNe": 3620,
      "csalÃ¡d": 3621,
      "Ġ1985": 3622,
      "ubl": 3623,
      "zÃ©se": 3624,
      "ĠAmer": 3625,
      "Ġ1978": 3626,
      "ĠsÃŃr": 3627,
      "ĠDeb": 3628,
      "Ġ1981": 3629,
      "umb": 3630,
      "ĠMivel": 3631,
      "ĠhÅĳ": 3632,
      "eld": 3633,
      "ĠGi": 3634,
      "ĠnehÃ©z": 3635,
      "ĠepizÃ³d": 3636,
      "magas": 3637,
      "ĠLond": 3638,
      "ĠHam": 3639,
      "Ġla": 3640,
      "ward": 3641,
      "ĠNemzetkÃ¶zi": 3642,
      "ĠkÃ¶zelÃ©ben": 3643,
      "ames": 3644,
      "Ġbronz": 3645,
      "ĠszÃ¡mÃº": 3646,
      "album": 3647,
      "edelem": 3648,
      "Ġcsapatok": 3649,
      "Ġ1945": 3650,
      "ÃŃci": 3651,
      "ĠfÅĳleg": 3652,
      "ĠkÃ¶tÃ¶tt": 3653,
      "ĠfekvÅĳ": 3654,
      "Ġ2019": 3655,
      "ĠkÃ©szÃŃtett": 3656,
      "ĠÃ¶sszesen": 3657,
      "ĠkÃ³r": 3658,
      "ĠAkadÃ©mia": 3659,
      "jut": 3660,
      "ĠKom": 3661,
      "ĠjÃ¶v": 3662,
      "ĠmunkÃ¡s": 3663,
      "ĠzsidÃ³": 3664,
      "Ġenerg": 3665,
      "ĠKirÃ¡lysÃ¡g": 3666,
      "ĠfÅĳszerep": 3667,
      "ĠjÃ¶tt": 3668,
      "Ġfokozat": 3669,
      "Ġ1977": 3670,
      "ĠvirÃ¡g": 3671,
      "Ġ'": 3672,
      "ĠVar": 3673,
      "ozÃ³f": 3674,
      "emes": 3675,
      "Ġezer": 3676,
      "ĠMed": 3677,
      "ozÃ¡sa": 3678,
      "ĠidÅĳben": 3679,
      "1994": 3680,
      "Ġugyanis": 3681,
      "ĠFr": 3682,
      "ĠkÃ¶ltÃ¶z": 3683,
      "sÃ©gben": 3684,
      "Ġtap": 3685,
      "Ġprof": 3686,
      "Ġnyelven": 3687,
      "okbÃ³l": 3688,
      "ĠfestÅĳ": 3689,
      "ĠTÃ¡rsasÃ¡g": 3690,
      "col": 3691,
      "hÃ¡za": 3692,
      "les": 3693,
      "Ġund": 3694,
      "ĠAnna": 3695,
      "Ġfelel": 3696,
      "que": 3697,
      "ĠhajÃ³": 3698,
      "Ġav": 3699,
      "ĠÃ©j": 3700,
      "ĠsÃ¡r": 3701,
      "uch": 3702,
      "biz": 3703,
      "igÃ¡ny": 3704,
      "ĠOtt": 3705,
      "ĠWilliam": 3706,
      "Ġmegold": 3707,
      "szaki": 3708,
      "Ol": 3709,
      "ĠtÃ¶rzs": 3710,
      "ĠÃŃt": 3711,
      "Ġkics": 3712,
      "2013": 3713,
      "Mar": 3714,
      "Ã¡Ã©rt": 3715,
      "87": 3716,
      "ĠcsÃºcs": 3717,
      "ze": 3718,
      "Ġban": 3719,
      "ĠWil": 3720,
      "ĠtartomÃ¡nyban": 3721,
      "ĠcsÃ¶kkent": 3722,
      "cel": 3723,
      "Ġelterjed": 3724,
      "iskola": 3725,
      "www": 3726,
      "Ġvezetett": 3727,
      "Ġszim": 3728,
      "dÅĳk": 3729,
      "aki": 3730,
      "Ġmegl": 3731,
      "emok": 3732,
      "ĠmÃ©rtÃ©k": 3733,
      "Ã¡zat": 3734,
      "Ġmodell": 3735,
      "Ã©ves": 3736,
      "69": 3737,
      "ĠQu": 3738,
      "omszÃ©d": 3739,
      "onnan": 3740,
      "ĠNÃ©metorszÃ¡gban": 3741,
      "ĠBÃ¡r": 3742,
      "rÃ©": 3743,
      "zsÃ©bet": 3744,
      "ĠpÃ©ldÃ¡ny": 3745,
      "dh": 3746,
      "ĠcÃŃmet": 3747,
      "ĠkÃ¶tel": 3748,
      "ĠMÃ¡s": 3749,
      "Ã¡llom": 3750,
      "Ġmenek": 3751,
      "Ġszervezet": 3752,
      "gyÅ±lÃ©si": 3753,
      "Ã¶p": 3754,
      "ĠlakosÃ¡bÃ³l": 3755,
      "ĠMÅ±vÃ©sz": 3756,
      "ĠrÃ¶g": 3757,
      "alÃ©k": 3758,
      "âĢ¦": 3759,
      "ĠellÃ¡t": 3760,
      "ney": 3761,
      "Ġoper": 3762,
      "Ġ1950": 3763,
      "Ġdin": 3764,
      "ĠVilÃ¡g": 3765,
      "och": 3766,
      "Ã©sÃ©nek": 3767,
      "ĠszÃ¼ksÃ©g": 3768,
      "Ã©sei": 3769,
      "ĠHung": 3770,
      "Ãļ": 3771,
      "ĠuralkodÃ³": 3772,
      "EurÃ³pa": 3773,
      "Ġ2017": 3774,
      "Ġ1976": 3775,
      "ĠnÃ©z": 3776,
      "orf": 3777,
      "Ġlista": 3778,
      "Ġ1979": 3779,
      "ĠYou": 3780,
      "ĠtÃ¶rtÃ©nelmi": 3781,
      "hi": 3782,
      "esked": 3783,
      "ilkos": 3784,
      "ĠUr": 3785,
      "atÃ¡rs": 3786,
      "eltek": 3787,
      "prÃ³": 3788,
      "Ġ1983": 3789,
      "ĠKÃ¶zÃ©p": 3790,
      "uv": 3791,
      "ezÃ©st": 3792,
      "app": 3793,
      "essÃ©ge": 3794,
      "Åĳje": 3795,
      "ĠEnd": 3796,
      "ĠNyug": 3797,
      "jelen": 3798,
      "bo": 3799,
      "Ġkir": 3800,
      "Ã¡nia": 3801,
      "szabad": 3802,
      "ÃŃtÃ¡sÃ¡rÃ³l": 3803,
      "ĠGl": 3804,
      "ĠevangÃ©l": 3805,
      "ultak": 3806,
      "kar": 3807,
      "Ġbefej": 3808,
      "ĠEur": 3809,
      "Ã³ni": 3810,
      "ĠÃ©rdekÃ©ben": 3811,
      "vÃ¡j": 3812,
      "tatiszt": 3813,
      "itz": 3814,
      "esÃ¼lt": 3815,
      "ĠRom": 3816,
      "Ġklassz": 3817,
      "ĠelÅĳad": 3818,
      "Ġdes": 3819,
      "rÃ©szt": 3820,
      "Ġfran": 3821,
      "MagyarorszÃ¡g": 3822,
      "zik": 3823,
      "ikat": 3824,
      "ĠhasznÃ¡lt": 3825,
      "Ġdiplom": 3826,
      "ĠneveztÃ©k": 3827,
      "PÃ¡ly": 3828,
      "43": 3829,
      "ernet": 3830,
      "ĠTim": 3831,
      "ĠKat": 3832,
      "ĠNev": 3833,
      "ĠvalÃ³szÃŃnÅ±leg": 3834,
      "elÅĳk": 3835,
      "ĠszolgÃ¡l": 3836,
      "59": 3837,
      "ĠTom": 3838,
      "Ġzenei": 3839,
      "ĠHivatal": 3840,
      "ĠSo": 3841,
      "mÃ¡s": 3842,
      "dÃ©si": 3843,
      "Ġeredetileg": 3844,
      "ĠelÅĳbb": 3845,
      "kereszt": 3846,
      "unt": 3847,
      "ĠegymÃ¡s": 3848,
      "Ġiskola": 3849,
      "ĠFranciaorszÃ¡g": 3850,
      "tebb": 3851,
      "ĠvezetÅĳje": 3852,
      "ĠRobert": 3853,
      "ĠmÃ¶g": 3854,
      "ies": 3855,
      "ĠtehÃ¡t": 3856,
      "Ġszobr": 3857,
      "Ġterjed": 3858,
      "Ġbenne": 3859,
      "tiz": 3860,
      "endszer": 3861,
      "ĠPal": 3862,
      "ĠEx": 3863,
      "ĠÃīrd": 3864,
      "41": 3865,
      "anc": 3866,
      "ĠÃ¡llandÃ³": 3867,
      "ĠkÃ¶rnyezet": 3868,
      "ĠTibor": 3869,
      "63": 3870,
      "fajok": 3871,
      "Ġvezette": 3872,
      "ÃŃtÃ¡sok": 3873,
      "Ġch": 3874,
      "vÃŃz": 3875,
      "ĠÃ©vig": 3876,
      "Ġmegrend": 3877,
      "udapesti": 3878,
      "Ã©sÅ±": 3879,
      "oha": 3880,
      "ulÃ¡sa": 3881,
      "ĠszÃ©les": 3882,
      "ĠKal": 3883,
      "ĠbÅ±n": 3884,
      "jÃ©be": 3885,
      "ĠUt": 3886,
      "Ġ1956": 3887,
      "atta": 3888,
      "ĠSzabÃ³": 3889,
      "ĠtÃ¶bbszÃ¶r": 3890,
      "ĠfelÅĳl": 3891,
      "ĠEzen": 3892,
      "ĠÃ¼l": 3893,
      "ĠveszÃ©ly": 3894,
      "Ã¶tÃ©t": 3895,
      "alog": 3896,
      "ĠszÃ¼ksÃ©ges": 3897,
      "Ġhet": 3898,
      "szÃ¶g": 3899,
      "ostor": 3900,
      "ĠkÃ¼lsÅĳ": 3901,
      "Ġlatin": 3902,
      "ĠNÃ©": 3903,
      "Ġelhagy": 3904,
      "Ã³gÃ©p": 3905,
      "ĠhorvÃ¡t": 3906,
      "ĠelkÃ©sz": 3907,
      "gazdasÃ¡gi": 3908,
      "ĠazÃ©rt": 3909,
      "ĠKÃ¡l": 3910,
      "Ġbele": 3911,
      "Ġgazdag": 3912,
      "fehÃ©r": 3913,
      "Ġlef": 3914,
      "Ġnegyedik": 3915,
      "Ġ60": 3916,
      "Ġmegk": 3917,
      "Ð»": 3918,
      "aba": 3919,
      "ĠszÃ¡rmazÃ¡sÃº": 3920,
      "Ġemberi": 3921,
      "ÃºdiÃ³": 3922,
      "Ġgyerek": 3923,
      "Ã³kÃ©nt": 3924,
      "ĠlÃ¡b": 3925,
      "Ġszerb": 3926,
      "Ã¼v": 3927,
      "NÃ©met": 3928,
      "asztal": 3929,
      "ĠhasonlÃ³an": 3930,
      "Ġbudapesti": 3931,
      "iter": 3932,
      "emt": 3933,
      "uf": 3934,
      "Ã©vÃ©n": 3935,
      "ĠvisszatÃ©r": 3936,
      "ÃŃtve": 3937,
      "reg": 3938,
      "ame": 3939,
      "aut": 3940,
      "Ġkb": 3941,
      "Ã¡nk": 3942,
      "Ġvet": 3943,
      "Ġ+": 3944,
      "Ã©rfi": 3945,
      "ile": 3946,
      "Ġesetben": 3947,
      "Ġmutatja": 3948,
      "Ã©ldÃ¡ul": 3949,
      "Ġszempont": 3950,
      "Ġapja": 3951,
      "hatott": 3952,
      "Ġszor": 3953,
      "fok": 3954,
      "Ġnevet": 3955,
      "Ã¶ssze": 3956,
      "iet": 3957,
      "68": 3958,
      "ĠrendkÃŃvÃ¼l": 3959,
      "aint": 3960,
      "row": 3961,
      "ĠmÅ±kÃ¶dÃ¶tt": 3962,
      "its": 3963,
      "arlament": 3964,
      "Ny": 3965,
      "Ġlevel": 3966,
      "zÃ¡s": 3967,
      "ĠâĢĶ": 3968,
      "Ġprot": 3969,
      "Ġbizonyos": 3970,
      "ĠPÃ¡rizs": 3971,
      "ĠvÃ¶rÃ¶s": 3972,
      "mm": 3973,
      "ĠgitÃ¡r": 3974,
      "Ġakkori": 3975,
      "oltak": 3976,
      "bl": 3977,
      "Ġ2018": 3978,
      "vit": 3979,
      "ĠegysÃ©g": 3980,
      "bor": 3981,
      "Ġfordul": 3982,
      "Ã¡rmester": 3983,
      "ĠhatÃ¡rozat": 3984,
      "ĠlÃ¡tt": 3985,
      "ĠinformÃ¡ciÃ³kForrÃ¡sok": 3986,
      "Ġ1975": 3987,
      "ĠKossuth": 3988,
      "ĠOrszÃ¡gos": 3989,
      "Ġassz": 3990,
      "Ã©ve": 3991,
      "1999": 3992,
      "Ġ1974": 3993,
      "regÃ©ny": 3994,
      "szervez": 3995,
      "ĠGÃ©z": 3996,
      "ĠbÅĳv": 3997,
      "ĠArt": 3998,
      "Å±k": 3999,
      "Ġbefoly": 4000,
      "ĠErzsÃ©bet": 4001,
      "ven": 4002,
      "ĠSzak": 4003,
      "ĠhÃŃres": 4004,
      "Ġrossz": 4005,
      "eivel": 4006,
      "bar": 4007,
      "ĠÃįgy": 4008,
      "98": 4009,
      "Ġtet": 4010,
      "ĠautÃ³": 4011,
      "ĠRec": 4012,
      "szky": 4013,
      "ĠEbben": 4014,
      "ĠJan": 4015,
      "uj": 4016,
      "ĠUnivers": 4017,
      "ĠAlex": 4018,
      "Ġpolitikus": 4019,
      "rÃ¡d": 4020,
      "Ġhiszen": 4021,
      "osi": 4022,
      "ĠszÃ©t": 4023,
      "ĠrÃ©t": 4024,
      "Ġ1973": 4025,
      "ĠrÃ³l": 4026,
      "Ġmegalap": 4027,
      "Ġabban": 4028,
      "ĠÃģg": 4029,
      "ped": 4030,
      "eteg": 4031,
      "Ġlex": 4032,
      "Ġkateg": 4033,
      "Ġkiz": 4034,
      "ĠJapÃ¡n": 4035,
      "Ġhol": 4036,
      "61": 4037,
      "Ġ1972": 4038,
      "sÃºly": 4039,
      "Ġkezdve": 4040,
      "ys": 4041,
      "ĠRÃ³m": 4042,
      "eznek": 4043,
      "ezÅĳk": 4044,
      "alista": 4045,
      "med": 4046,
      "rog": 4047,
      "ĠÃ©rte": 4048,
      "mar": 4049,
      "ĠJack": 4050,
      "44": 4051,
      "ĠWe": 4052,
      "ĠAntal": 4053,
      "akkor": 4054,
      "Ġkomp": 4055,
      "ĠSom": 4056,
      "Ġszellem": 4057,
      "ĠkorÃ¡ban": 4058,
      "kÅĳ": 4059,
      "Ã¡vol": 4060,
      "ĠmegÃ¡llap": 4061,
      "Ġdu": 4062,
      "Ã¡plÃ¡l": 4063,
      "ru": 4064,
      "ĠszomszÃ©d": 4065,
      "Ġgyakorlat": 4066,
      "vÃ¡": 4067,
      "ĠVol": 4068,
      "Ġest": 4069,
      "sÃ¡gok": 4070,
      "Ġhajt": 4071,
      "Ġge": 4072,
      "ĠLev": 4073,
      "egyetem": 4074,
      "iver": 4075,
      "ĠvendÃ©g": 4076,
      "ĠCharl": 4077,
      "1996": 4078,
      "helyi": 4079,
      "Ġalacsony": 4080,
      "ĠkÃ©m": 4081,
      "ĠtemetÅĳ": 4082,
      "ĠifjÃº": 4083,
      "Ġ1968": 4084,
      "ball": 4085,
      "tized": 4086,
      "pÃ¡t": 4087,
      "git": 4088,
      "kÃ¶t": 4089,
      "Ġbud": 4090,
      "Ã¡juk": 4091,
      "irÅĳl": 4092,
      "szki": 4093,
      "ĠvisszatÃ©rt": 4094,
      "95": 4095,
      "ĠChrist": 4096,
      "prÃ³b": 4097,
      "Ġmunka": 4098,
      "kan": 4099,
      "Ġfogy": 4100,
      "ecsk": 4101,
      "ĠfelvÃ©tel": 4102,
      "ltal": 4103,
      "ft": 4104,
      "ilt": 4105,
      "chen": 4106,
      "Ġkih": 4107,
      "Ġmar": 4108,
      "iac": 4109,
      "ĠkulturÃ¡lis": 4110,
      "umentum": 4111,
      "Ġbejelent": 4112,
      "Ġnyerte": 4113,
      "77": 4114,
      "ĠkastÃ©ly": 4115,
      "64": 4116,
      "ĠMy": 4117,
      "ĠMont": 4118,
      "ĠnemzetisÃ©g": 4119,
      "Ġkup": 4120,
      "Ġspeci": 4121,
      "1997": 4122,
      "Ġoklev": 4123,
      "osok": 4124,
      "Szer": 4125,
      "nÅĳtt": 4126,
      ".),": 4127,
      "ĠTur": 4128,
      "filmek": 4129,
      "yn": 4130,
      "Ġudvar": 4131,
      "Ã¡sÃ¡ban": 4132,
      "ĠmagyarorszÃ¡gi": 4133,
      "1990": 4134,
      "ĠszerkesztÅĳ": 4135,
      "ĠhÅ±": 4136,
      "pÃ¡d": 4137,
      "Ã¡jÃ¡n": 4138,
      "ĠkÃŃv": 4139,
      "ĠtelevÃŃziÃ³s": 4140,
      "cm": 4141,
      "ĠszÃŃnÃ©sznÅĳ": 4142,
      "olni": 4143,
      "ĠmagÃ¡n": 4144,
      "ĠeljÃ¡r": 4145,
      "ĠszÃ¡rny": 4146,
      "ĠVÃ©g": 4147,
      "ĠnyÃºjt": 4148,
      "100": 4149,
      "ĠmegbÃŃz": 4150,
      "isp": 4151,
      "ĠkÃ¶szÃ¶nhetÅĳen": 4152,
      "mann": 4153,
      "âĪ": 4154,
      "ĠkÃ¶vetkeztÃ©ben": 4155,
      "ĠfiÃº": 4156,
      "ĠhelyszÃŃn": 4157,
      "Ġhallgat": 4158,
      "ĠtovÃ¡bbÃ¡": 4159,
      "ĠÃ©lete": 4160,
      "Ġirodalmi": 4161,
      "ami": 4162,
      "ĠkÃ¼lÃ¶nÃ¶sen": 4163,
      "vÃ¡rosi": 4164,
      "ipp": 4165,
      "nyom": 4166,
      "Ġalkalm": 4167,
      "line": 4168,
      "Ġelk": 4169,
      "fut": 4170,
      "Ġbi": 4171,
      "ĠLengyel": 4172,
      "asi": 4173,
      "rier": 4174,
      "jog": 4175,
      "ĠmennyisÃ©g": 4176,
      "Ġtanult": 4177,
      "Ġweb": 4178,
      "ĠvilÃ¡gbajnok": 4179,
      "Ġ1910": 4180,
      "ÃŃtt": 4181,
      "Ġszerkez": 4182,
      "Ġmeggy": 4183,
      "ĠKÃŃn": 4184,
      "itÃ¡ny": 4185,
      "vÃ¡l": 4186,
      "ĠtÃ¶ltÃ¶tt": 4187,
      "Ġsik": 4188,
      "Ġerre": 4189,
      "lenes": 4190,
      "Å±kÃ¶": 4191,
      "imÃ©ter": 4192,
      "Ã¡poly": 4193,
      "ĠIz": 4194,
      "ĠTÃ³t": 4195,
      "ĠjelÃ¶lt": 4196,
      "Ġamelyben": 4197,
      "vilÃ¡gbajnoksÃ¡g": 4198,
      "vÃ©g": 4199,
      "maradt": 4200,
      "ĠbÃ©ke": 4201,
      "oldog": 4202,
      "Ġindul": 4203,
      "Ġmozdony": 4204,
      "Fel": 4205,
      "ĠEzutÃ¡n": 4206,
      "ĠkÃ¡p": 4207,
      "ĠkÃ¶l": 4208,
      "ĠegymÃ¡st": 4209,
      "gyÅ±jt": 4210,
      "ĠKÃ¶zpont": 4211,
      "ĠPort": 4212,
      "ĠÃľ": 4213,
      "Ġagy": 4214,
      "ovics": 4215,
      "che": 4216,
      "remÅ±kÃ¶": 4217,
      "ĠTudomÃ¡nyos": 4218,
      "erÃ¼lt": 4219,
      "megy": 4220,
      "Ġcent": 4221,
      "ĠerdÃ©lyi": 4222,
      "Ġbajnoki": 4223,
      "ĠszÃ¡rmazik": 4224,
      "Ġakinek": 4225,
      "ezÃ©sek": 4226,
      "ĠArany": 4227,
      "Ġadatok": 4228,
      "Ġelhely": 4229,
      "ĠÃģllamokban": 4230,
      "SC": 4231,
      "ĠadomÃ¡ny": 4232,
      "51": 4233,
      "keleti": 4234,
      "ĠGÃ©za": 4235,
      "ĠjÃ©g": 4236,
      "ĠcigÃ¡ny": 4237,
      "ĠfÅĳh": 4238,
      "ĠSam": 4239,
      "Amer": 4240,
      "ĠhÃ¡tt": 4241,
      "ĠAlbert": 4242,
      "atkozott": 4243,
      "Ã©h": 4244,
      "elik": 4245,
      "elle": 4246,
      "Ġlegal": 4247,
      "Ġ1971": 4248,
      "ĠMichael": 4249,
      "ĠDebrec": 4250,
      "arr": 4251,
      "ĠezutÃ¡n": 4252,
      "olÃ³gi": 4253,
      "ĠvadÃ¡sz": 4254,
      "ĠSzlovÃ¡k": 4255,
      "ĠmÃºzeum": 4256,
      "kezd": 4257,
      "IV": 4258,
      "ĠJo": 4259,
      "nyal": 4260,
      "ĠDavid": 4261,
      "ĠkÃ¶zigazgat": 4262,
      "templom": 4263,
      "ĠsugÃ¡r": 4264,
      "ĠfejlÅĳdÃ©s": 4265,
      "ĠWh": 4266,
      "my": 4267,
      "encia": 4268,
      "eik": 4269,
      "Ġebb": 4270,
      "ĠvÃ©gezte": 4271,
      "Ġhangszer": 4272,
      "ĠSzem": 4273,
      "ĠHu": 4274,
      "ĠNov": 4275,
      "ĠOn": 4276,
      "ĠnyÃ¡ri": 4277,
      "isztÃ©rium": 4278,
      "ĠtÃ©rkÃ©p": 4279,
      "ĠBÃ©cs": 4280,
      "mester": 4281,
      "hatatlan": 4282,
      "part": 4283,
      "ect": 4284,
      "mÃ©rnÃ¶k": 4285,
      "ensis": 4286,
      "ĠÃ©vtized": 4287,
      "iskolai": 4288,
      "Ġcikk": 4289,
      "ski": 4290,
      "Ġ1969": 4291,
      "jes": 4292,
      "urt": 4293,
      "Ġcsata": 4294,
      "Pr": 4295,
      "1992": 4296,
      "Francia": 4297,
      "upÃ¡n": 4298,
      "orna": 4299,
      "ĠMunk": 4300,
      "ĠtÃ¡rsasÃ¡g": 4301,
      "igmond": 4302,
      "ĠkÃ¼z": 4303,
      "66": 4304,
      "Ã¡szt": 4305,
      "ĠtÃ¡nc": 4306,
      "akk": 4307,
      "ĠÃ©pÃŃtÃ©s": 4308,
      "Ġhelyezett": 4309,
      "Ġinter": 4310,
      "etÃ©t": 4311,
      "Ġrag": 4312,
      "ĠSzil": 4313,
      "Ġhull": 4314,
      "Ã¡ma": 4315,
      "esszor": 4316,
      "rip": 4317,
      "ater": 4318,
      "Ġvillamos": 4319,
      "ĠJenÅĳ": 4320,
      "ĠkÃŃsÃ©rlet": 4321,
      "ĠÃ¡llomÃ¡sok": 4322,
      "ĠKÃ¼l": 4323,
      "ĠÃ¡llami": 4324,
      "vi": 4325,
      "Ġkont": 4326,
      "ĠvÃ¡rosi": 4327,
      "ĠTe": 4328,
      "lÃ¡m": 4329,
      "Ġkomoly": 4330,
      "53": 4331,
      "elve": 4332,
      "ĠsÃ©r": 4333,
      "Ġszavaz": 4334,
      "ĠHal": 4335,
      "ĠversenyzÅĳ": 4336,
      "ĠnÅĳk": 4337,
      "Ġ1944": 4338,
      "szlovÃ¡k": 4339,
      "Ġfeladat": 4340,
      "hossz": 4341,
      "ĠkÃ¶ztÃ¼k": 4342,
      "ĠalsÃ³": 4343,
      "ĠszÃ¡raz": 4344,
      "ĠszolgÃ¡ltat": 4345,
      "Ġszerezte": 4346,
      "Ã©sben": 4347,
      "Ġproduc": 4348,
      "Ġdel": 4349,
      "Ã©rmes": 4350,
      "ĠTanÃ¡cs": 4351,
      "mÃ©rsÃ©k": 4352,
      "tenger": 4353,
      "ocsÃ¡t": 4354,
      "ĠÃ¡ldozat": 4355,
      "ĠlÃ¡togat": 4356,
      "ĠÃ¡tlag": 4357,
      "szem": 4358,
      "1995": 4359,
      "ogrÃ¡fia": 4360,
      "Ġpszich": 4361,
      "Ġ80": 4362,
      "ĠtÃ¶rtÃ©nÅĳ": 4363,
      "ĠKatal": 4364,
      "ĠrÃ©szlet": 4365,
      "ĠHad": 4366,
      "elly": 4367,
      "ĠÅ±rhaj": 4368,
      "ĠtermÃ©k": 4369,
      "etni": 4370,
      "ĠnyÃŃlt": 4371,
      "ster": 4372,
      "PÃ¡lyafutÃ¡sa": 4373,
      "Ġmeghalt": 4374,
      "odott": 4375,
      "ĠMal": 4376,
      "ĠrÃ³la": 4377,
      "Ã¡kkal": 4378,
      "Ġfogad": 4379,
      "89": 4380,
      "1991": 4381,
      "ĠeredetÅ±": 4382,
      "ĠhÃºz": 4383,
      "ĠvÃ¡lasz": 4384,
      "46": 4385,
      "inÃ¡l": 4386,
      "ĠÃģrpÃ¡d": 4387,
      "ĠÃ¶sszek": 4388,
      "adÃ¡ly": 4389,
      "ĠForm": 4390,
      "Ã¶mb": 4391,
      "ĠbÃŃrÃ³": 4392,
      "ĠhercegnÅĳ": 4393,
      "Ġegyben": 4394,
      "vad": 4395,
      "ĠplÃ©b": 4396,
      "ĠBor": 4397,
      "Ġhord": 4398,
      "ĠBill": 4399,
      "lok": 4400,
      "dt": 4401,
      "Ã¡zÃ³": 4402,
      "izÃ¡l": 4403,
      "Ã¼m": 4404,
      "ĠKap": 4405,
      "Ġ1930": 4406,
      "hol": 4407,
      "Ã¡tÃ©k": 4408,
      "ĠÃ¡tt": 4409,
      "Ġjavas": 4410,
      "jakÃ©nt": 4411,
      "ĠtelepÃ¼lÃ©sen": 4412,
      "uper": 4413,
      "ÃŃrÃ¡s": 4414,
      "ĠkÃ¶zÃ¶n": 4415,
      "ĠEurÃ³pai": 4416,
      ".\"": 4417,
      "erlin": 4418,
      "aival": 4419,
      "Ġhelyre": 4420,
      "75": 4421,
      "leti": 4422,
      "ĠintÃ©zmÃ©ny": 4423,
      "ĠmegerÅĳs": 4424,
      "ĠRÃ¡k": 4425,
      "Ġ1967": 4426,
      "Ġmikor": 4427,
      "vÃ©re": 4428,
      "ukt": 4429,
      "jeszt": 4430,
      "ĠRad": 4431,
      "ein": 4432,
      "ĠHon": 4433,
      "ĠhÃŃd": 4434,
      "atikus": 4435,
      "enk": 4436,
      "ĠkÃ¶zponti": 4437,
      "ĠmegelÅĳ": 4438,
      "Ġkelt": 4439,
      "Ġkiter": 4440,
      "ĠZsigmond": 4441,
      "ĠfÅ±": 4442,
      "oft": 4443,
      "ĠmegvÃ¡lt": 4444,
      "ĠorszÃ¡gos": 4445,
      "Ġmit": 4446,
      "pad": 4447,
      "Ġfot": 4448,
      "jait": 4449,
      "ĠDom": 4450,
      "ĠhagyomÃ¡nyos": 4451,
      "ĠÃ³k": 4452,
      "ĠfellÃ©p": 4453,
      "bÃ¡n": 4454,
      "ĠkorlÃ¡t": 4455,
      "ublik": 4456,
      "Ġhelyezked": 4457,
      "ĠLi": 4458,
      "ĠMiutÃ¡n": 4459,
      "ĠlehetÅĳvÃ©": 4460,
      "ava": 4461,
      "ugÃ¡l": 4462,
      "Ġtudott": 4463,
      "etÃ©se": 4464,
      "ima": 4465,
      "ĠDo": 4466,
      "85": 4467,
      "ĠVÃ¶rÃ¶s": 4468,
      "ĠszÃ³t": 4469,
      "Ã©lete": 4470,
      "Ã³kÃ¶nyv": 4471,
      "ĠkeretÃ©ben": 4472,
      "Ã¡sd": 4473,
      "ĠrÃ©vÃ©n": 4474,
      "42": 4475,
      "ĠGre": 4476,
      "ĠkÃ©s": 4477,
      "sÃ©ggel": 4478,
      "ombat": 4479,
      "ĠAmikor": 4480,
      "ĠedzÅĳ": 4481,
      "ÃŃtÃ¡sÃ¡t": 4482,
      "Ġfedezte": 4483,
      "sburg": 4484,
      "ĠSe": 4485,
      "ĠszÃ¡rmazÃ³": 4486,
      "ĠszolgÃ¡lat": 4487,
      "web": 4488,
      "ĠrendÅĳr": 4489,
      "ĠsebessÃ©g": 4490,
      "ĠJul": 4491,
      "ĠzÃ¶ld": 4492,
      "ĠHer": 4493,
      "ĠEszt": 4494,
      "ĠSy": 4495,
      "onc": 4496,
      ".-": 4497,
      "Ġdeb": 4498,
      "ĠteljesÃŃtmÃ©ny": 4499,
      "ĠhasznÃ¡ljÃ¡k": 4500,
      "ĠalapÃŃtott": 4501,
      "Ġvel": 4502,
      "orvÃ©g": 4503,
      "ico": 4504,
      "nen": 4505,
      "ÃŃthatÃ³": 4506,
      "ĠpÃ¡pa": 4507,
      "ĠkultÃºr": 4508,
      "Ã©dia": 4509,
      "ĠellentÃ©t": 4510,
      "ĠkerÃ¼ltek": 4511,
      "ĠevangÃ©likus": 4512,
      "ĠkÃ¶lcs": 4513,
      "rus": 4514,
      "Ġahogy": 4515,
      "ĠmindkÃ©t": 4516,
      "mutat": 4517,
      "ĠtÃ¡rsadalmi": 4518,
      "omas": 4519,
      "Ġ2020": 4520,
      "cl": 4521,
      "ĠEgyesÃ¼let": 4522,
      "ĠkÃ¶zepÃ©n": 4523,
      "Ã¶rtÃ¶n": 4524,
      "ĠNÃ©metorszÃ¡g": 4525,
      "Ġlegfontosabb": 4526,
      "Ġidej": 4527,
      "assa": 4528,
      "1993": 4529,
      "ĠBudapesten": 4530,
      "Ġzong": 4531,
      "tab": 4532,
      "ĠMo": 4533,
      "ccs": 4534,
      "Ġfen": 4535,
      "2015": 4536,
      "ĠDuna": 4537,
      "ĠbeszÃ©d": 4538,
      "ĠPhil": 4539,
      "Ġproj": 4540,
      "Ġmost": 4541,
      "rad": 4542,
      "Ġveszt": 4543,
      "belÃ¼l": 4544,
      "tatÃ¡s": 4545,
      "Ã³val": 4546,
      "forg": 4547,
      "ĠKriszt": 4548,
      "ĠemlÅĳs": 4549,
      "ĠUSA": 4550,
      "ĠPÃ¡rt": 4551,
      "gazd": 4552,
      "Ġbuk": 4553,
      "Ġlegyen": 4554,
      "ĠengedÃ©ly": 4555,
      "ĠAndre": 4556,
      "ĠCent": 4557,
      "%,": 4558,
      "arn": 4559,
      "gyak": 4560,
      "uni": 4561,
      "ozni": 4562,
      "56": 4563,
      "Ġforradalom": 4564,
      "moz": 4565,
      "inus": 4566,
      "ĠIt": 4567,
      "elni": 4568,
      "akter": 4569,
      "Åĳen": 4570,
      "ĠlegyÅĳz": 4571,
      "Ã¶vÃ©ny": 4572,
      ".;": 4573,
      "ĠMet": 4574,
      "ĠHab": 4575,
      "anna": 4576,
      "Ġzaj": 4577,
      "ĠkettÅĳs": 4578,
      "sÃ¡gÃº": 4579,
      "ĠÃ©rvÃ©ny": 4580,
      "ĠLak": 4581,
      "bolygÃ³k": 4582,
      "ĠsÃ¶tÃ©t": 4583,
      "03": 4584,
      "ĠjÃ¡rÃ¡sban": 4585,
      "Ã©tt": 4586,
      "1989": 4587,
      "Ġkorszak": 4588,
      "Ġbecs": 4589,
      "ĠkiÃ¡ll": 4590,
      "ĠAll": 4591,
      "Ã¶d": 4592,
      "elejt": 4593,
      "ĠKolozsvÃ¡r": 4594,
      "Ġpol": 4595,
      "utas": 4596,
      "ĠfilozÃ³f": 4597,
      "Ã©ta": 4598,
      "ennyi": 4599,
      "ĠaktÃŃv": 4600,
      "ĠkÃ¶lcsÃ¶n": 4601,
      "ĠSzovjet": 4602,
      "ĠvÃ¶lgy": 4603,
      "arnok": 4604,
      "tÃ¡rs": 4605,
      "Em": 4606,
      "Ġmegfi": 4607,
      "Le": 4608,
      "Ġbizton": 4609,
      "Ġkorai": 4610,
      "ĠfordulÃ³": 4611,
      "ĠFarkas": 4612,
      "ĠJak": 4613,
      "ĠadtÃ¡k": 4614,
      "ĠÃ¡talak": 4615,
      "ebbi": 4616,
      "ĠhiÃ¡ny": 4617,
      "tani": 4618,
      "ĠvÃ¡sÃ¡r": 4619,
      "esti": 4620,
      "ĠszabadsÃ¡g": 4621,
      "dÃ¶ntÅĳ": 4622,
      "ĠkiÃ¡llÃŃtÃ¡s": 4623,
      "Ġvisszavon": 4624,
      "hÃ¶z": 4625,
      "ressz": 4626,
      "ĠGo": 4627,
      "mÃ©nyei": 4628,
      "Ġ1966": 4629,
      "ĠterÃ¼leten": 4630,
      "Ġost": 4631,
      "szÃ¡ml": 4632,
      "rajza": 4633,
      "ĠlÃ©nyeg": 4634,
      "szeg": 4635,
      "ĠmunkatÃ¡rs": 4636,
      "zott": 4637,
      "Ġhib": 4638,
      "Ġfeny": 4639,
      "ĠlÅĳ": 4640,
      "ĠÃ©ppen": 4641,
      "ĠKisbolygÃ³k": 4642,
      "Ġprojekt": 4643,
      "sy": 4644,
      "harc": 4645,
      "ĠsÃºlyos": 4646,
      "Ġeszt": 4647,
      "ĠerdÅĳ": 4648,
      "ĠRaj": 4649,
      "ÈĻ": 4650,
      "dÃŃjasok": 4651,
      "Ġ1964": 4652,
      "ĠRecord": 4653,
      "arag": 4654,
      "Ir": 4655,
      "aph": 4656,
      "ĠveresÃ©g": 4657,
      "ĠÃ¡llomÃ¡s": 4658,
      "ĠfÃ¼r": 4659,
      "Ġmagyarok": 4660,
      "ĠarrÃ³l": 4661,
      "ros": 4662,
      "orÃº": 4663,
      "ĠWal": 4664,
      "almak": 4665,
      "Ġlovag": 4666,
      "Ġ1920": 4667,
      "nim": 4668,
      "ĠarÃ¡ny": 4669,
      "ĠKovÃ¡cs": 4670,
      "urn": 4671,
      "ĠcsalÃ¡djÃ¡ba": 4672,
      "eim": 4673,
      "ĠvizsgÃ¡l": 4674,
      "ĠÃŃrÃ³k": 4675,
      "ĠkÃ¶nyvtÃ¡r": 4676,
      "ĠkisbolygÃ³i": 4677,
      "test": 4678,
      "ĠellenÅĳr": 4679,
      "Ã³rium": 4680,
      "ĠfelelÅĳs": 4681,
      "ĠNo": 4682,
      "54": 4683,
      "ĠmÃ©gis": 4684,
      "ĠmÃ©rkÅĳzÃ©sen": 4685,
      "ĠtÃŃpusÃº": 4686,
      "Ġlemond": 4687,
      "07": 4688,
      "ĠReg": 4689,
      "ĠkÃ¼lfÃ¶ldi": 4690,
      "onok": 4691,
      "ĠÃŃz": 4692,
      "ĠtÃ¡plÃ¡l": 4693,
      "Ġ(âĢŀ": 4694,
      "oljÃ¡k": 4695,
      "si": 4696,
      "ĠmÃ³dosÃŃtÃ¡sÃ¡rÃ³l": 4697,
      "Ã³lag": 4698,
      "ĠAc": 4699,
      "ĠelÅĳzÅĳ": 4700,
      "88": 4701,
      "Ã³di": 4702,
      "ĠkÃ©nyszer": 4703,
      "Ã³nak": 4704,
      "munk": 4705,
      "oszlop": 4706,
      "ĠÃ¡tv": 4707,
      "ĠesetÃ©ben": 4708,
      "gyes": 4709,
      "Ã¶dik": 4710,
      "ĠpolgÃ¡r": 4711,
      "ÃŃtÃ¡sÃ¡ra": 4712,
      "Ã¶tÅĳ": 4713,
      "ĠTÃ¡rs": 4714,
      "ĠAngel": 4715,
      "mon": 4716,
      "ĠFi": 4717,
      "ĠMinden": 4718,
      "Ġkapcsolatos": 4719,
      "Ã¡sÃ¡rÃ³l": 4720,
      "ict": 4721,
      "ĠrendjÃ©be": 4722,
      "elÃ©se": 4723,
      "uck": 4724,
      "odox": 4725,
      "Ġmel": 4726,
      "ĠhatÃ¡sÃ¡ra": 4727,
      "Ġfl": 4728,
      "ĠelÅĳk": 4729,
      "Ġoldala": 4730,
      "we": 4731,
      "ĠpÃ¡ros": 4732,
      "Ã¶zt": 4733,
      "ĠforrÃ¡sok": 4734,
      "52": 4735,
      "ĠmindÃ¶ssze": 4736,
      "ild": 4737,
      "ĠÃģltal": 4738,
      "ĠvallÃ¡si": 4739,
      "ekbÅĳl": 4740,
      "vÃ¡sÃ¡r": 4741,
      "ĠdiÃ¡k": 4742,
      "ĠÃ¶sszet": 4743,
      "ĠÃ¡ram": 4744,
      "Ġnyar": 4745,
      "Ġszenved": 4746,
      "inkÃ¡bb": 4747,
      "ĠSzabad": 4748,
      "Ġkoron": 4749,
      "ĠszÃŃnhÃ¡z": 4750,
      "Ġelh": 4751,
      "Ã¶ny": 4752,
      "ĠvÃ¡lasztottÃ¡k": 4753,
      "ĠTor": 4754,
      "Ġfunk": 4755,
      "ismert": 4756,
      "ivat": 4757,
      "ĠtudÃ³s": 4758,
      "ĠgyÅĳztes": 4759,
      "gazdasÃ¡g": 4760,
      "ĠLondon": 4761,
      "ezetessÃ©g": 4762,
      "oszlÃ¡v": 4763,
      "Ã¶vÃ©ben": 4764,
      "ulmÃ¡ny": 4765,
      "Ã©gi": 4766,
      "ĠErdÃ©ly": 4767,
      "anni": 4768,
      "ĠkategÃ³ri": 4769,
      "ĠSm": 4770,
      "05": 4771,
      "usi": 4772,
      "jÃ©ben": 4773,
      "ĠkezdÅĳdÃ¶tt": 4774,
      "gyÃ¡r": 4775,
      "ĠegyedÃ¼l": 4776,
      "Ġtran": 4777,
      "out": 4778,
      "ĠegyhÃ¡zi": 4779,
      "Ġrem": 4780,
      "Ã¡kban": 4781,
      "alizmus": 4782,
      "hold": 4783,
      "Ġ1940": 4784,
      "ĠOszt": 4785,
      "ĠsÅĳt": 4786,
      "ĠVilm": 4787,
      "Ã©Ã©rt": 4788,
      "hetett": 4789,
      "ĠtÃ¼": 4790,
      "ase": 4791,
      "ĠalakÃº": 4792,
      "ĠÃīlet": 4793,
      "magasabb": 4794,
      "ĠsÃŃk": 4795,
      "Ġ1965": 4796,
      "ĠpartjÃ¡n": 4797,
      "abban": 4798,
      "Ġmegkap": 4799,
      "ĠcsupÃ¡n": 4800,
      "ĠCarl": 4801,
      "ĠÃ©rkezett": 4802,
      "\",": 4803,
      "ocsi": 4804,
      "emÃ©nyek": 4805,
      "ĠtermÃ©szetes": 4806,
      "ĠIsten": 4807,
      "off": 4808,
      "ĠlabdarÃºgÃ³iAz": 4809,
      "Ġidegen": 4810,
      "gyÅ±lÃ©s": 4811,
      "ĠmentÃ©n": 4812,
      "Ġ1848": 4813,
      "Ã©ch": 4814,
      "ĠEzzel": 4815,
      "Ġnapja": 4816,
      "Ġort": 4817,
      "tÃ©r": 4818,
      "Ġvagyis": 4819,
      "Åĳri": 4820,
      "86": 4821,
      "aik": 4822,
      "Ġhasonl": 4823,
      "ĠdÃ¶ntÃ¶tt": 4824,
      "ĠTest": 4825,
      "ĠvasÃºtÃ¡llom": 4826,
      "ĠKatalin": 4827,
      "Ġkereskedelmi": 4828,
      "itÃŃv": 4829,
      "asszus": 4830,
      "odÃ¡s": 4831,
      "Ã©lyes": 4832,
      "ĠDan": 4833,
      "icz": 4834,
      "ement": 4835,
      "ÃŃtÃ¡st": 4836,
      "jegyzÃ©s": 4837,
      "Ġasztero": 4838,
      "ĠsvÃ©d": 4839,
      "hÃ¡t": 4840,
      "Ġkop": 4841,
      "Ġelpuszt": 4842,
      "ĠgazdasÃ¡g": 4843,
      "hetetlen": 4844,
      "szal": 4845,
      "ĠMiskol": 4846,
      "sÃ¡gos": 4847,
      "Ġdomb": 4848,
      "Ġmegf": 4849,
      "Ġeddig": 4850,
      "Ġpark": 4851,
      "Â°": 4852,
      "Ġegyike": 4853,
      "Ġinternet": 4854,
      "Ã¡it": 4855,
      "ĠmÅ±kÃ¶dÃ©s": 4856,
      "83": 4857,
      "http": 4858,
      "opron": 4859,
      "Vas": 4860,
      "ĠebbÅĳl": 4861,
      "ĠkiadÃ³": 4862,
      "ĠutÃ³d": 4863,
      "vÃ¶lgy": 4864,
      "ĠfelesÃ©gÃ¼l": 4865,
      "jÃ¡tÃ³l": 4866,
      "Ġ1948": 4867,
      "azin": 4868,
      "Ġhalad": 4869,
      "ĠbÃ¡rm": 4870,
      "ĠlegalÃ¡bb": 4871,
      "ĠSport": 4872,
      "Ġvar": 4873,
      "Ġrab": 4874,
      "ĠVik": 4875,
      "ĠÃ©jszak": 4876,
      "09": 4877,
      "Ã©szett": 4878,
      "Sp": 4879,
      "Ã¡mos": 4880,
      "iros": 4881,
      "ilabd": 4882,
      "....": 4883,
      "szÃ¡zad": 4884,
      "ihar": 4885,
      "ĠmÅ±ve": 4886,
      "ĠÃŃrÃ¡s": 4887,
      "Ãºttal": 4888,
      "ĠerÅĳd": 4889,
      "Ġemelked": 4890,
      "ĠLove": 4891,
      "esett": 4892,
      "ĠtartottÃ¡k": 4893,
      "ĠtiszteletÃ©re": 4894,
      "oztÃ¡k": 4895,
      "Ġparlament": 4896,
      "ĠmÃ¶gÃ¶tt": 4897,
      "ĠvÃ¡rosban": 4898,
      "ĠAg": 4899,
      "ool": 4900,
      "own": 4901,
      "Ã¡szat": 4902,
      "tr": 4903,
      "isc": 4904,
      "Ġtudta": 4905,
      "ĠAir": 4906,
      "engely": 4907,
      "Ġdoll": 4908,
      "Ġhold": 4909,
      "ĠtestvÃ©r": 4910,
      "ĠMak": 4911,
      "62": 4912,
      "ĠJames": 4913,
      "yr": 4914,
      "LabdarÃºgÃ³": 4915,
      "Ġbusz": 4916,
      "fin": 4917,
      "Ġnegyed": 4918,
      "ĠszÃ¡mÃŃtÃ³gÃ©p": 4919,
      "kett": 4920,
      "ĠcÃ©lja": 4921,
      "ntart": 4922,
      "Ġob": 4923,
      "patak": 4924,
      "ĠVÃ¡ros": 4925,
      "Ġmegyei": 4926,
      "ĠHenrik": 4927,
      "ĠegyÃ©ni": 4928,
      "Ġfelh": 4929,
      "ĠÃ¡s": 4930,
      "Ã¶lte": 4931,
      "Ġaszteroida": 4932,
      "ĠtÃ¡bornok": 4933,
      "usa": 4934,
      "Ġ1938": 4935,
      "iatt": 4936,
      "1980": 4937,
      "ĠFranc": 4938,
      "Ã¡szok": 4939,
      "Ã³nia": 4940,
      "ĠfelnÅĳtt": 4941,
      "Film": 4942,
      "erÃ¼let": 4943,
      "nyugati": 4944,
      "mÅ±kÃ¶": 4945,
      "TA": 4946,
      "ĠmÅ±vei": 4947,
      "ĠPat": 4948,
      "Å±ek": 4949,
      "Ġlass": 4950,
      "ekezet": 4951,
      "lovÃ©n": 4952,
      "ĠÃºn": 4953,
      "Ġpontos": 4954,
      "ĠTermÃ©szet": 4955,
      "Ġpil": 4956,
      "ĠfÅĳkÃ©nt": 4957,
      "Å±nik": 4958,
      "ĠminiszterelnÃ¶k": 4959,
      "Ġdb": 4960,
      "ĠRichard": 4961,
      "Ġhalt": 4962,
      "Ã¡rton": 4963,
      "attak": 4964,
      "Ġrov": 4965,
      "ington": 4966,
      "kÃ¡ny": 4967,
      "Ġkolostor": 4968,
      "ĠvonatkozÃ³": 4969,
      "ĠlakÃ³": 4970,
      "sek": 4971,
      "ĠBudapesti": 4972,
      "Ġfelb": 4973,
      "1988": 4974,
      "ĠIskol": 4975,
      "Ġkib": 4976,
      "jÃ¡": 4977,
      "Ġy": 4978,
      "gyal": 4979,
      "ĠkÃ©k": 4980,
      "Ġbir": 4981,
      "Ġalkalmas": 4982,
      "ania": 4983,
      "ĠelÅĳre": 4984,
      "Ġsikeres": 4985,
      "ĠtÃ¡rgyal": 4986,
      "ĠBrit": 4987,
      "ĠKÃ¶r": 4988,
      "ĠhelyÃ©n": 4989,
      "lant": 4990,
      "ĠjelentÃ©se": 4991,
      "Ġ1962": 4992,
      "ĠtartÃ³": 4993,
      "ĠFrank": 4994,
      "ĠtevÃ©kenysÃ©g": 4995,
      "ĠKÃ¡lmÃ¡n": 4996,
      "Am": 4997,
      "ĠvÃ¡g": 4998,
      "Ġgraf": 4999,
      "lett": 5000,
      "ĠMac": 5001,
      "igh": 5002,
      "ĠirÃ¡nt": 5003,
      "angol": 5004,
      "Ġipar": 5005,
      "ail": 5006,
      "ĠkÃŃvÃ¡n": 5007,
      "ĠBizottsÃ¡g": 5008,
      "inger": 5009,
      "ĠÅĳsz": 5010,
      "ĠFelsÅĳ": 5011,
      "Ġ1957": 5012,
      "Ġsikert": 5013,
      "ĠVan": 5014,
      "Ã¡suk": 5015,
      "02": 5016,
      "els": 5017,
      "apor": 5018,
      "Ġmut": 5019,
      "ĠmegfelelÅĳen": 5020,
      "ehetÅĳ": 5021,
      "ĠCr": 5022,
      "kozott": 5023,
      "Ġkilenc": 5024,
      "gent": 5025,
      "csk": 5026,
      "Ġ1939": 5027,
      "79": 5028,
      "ĠBalÃ¡zs": 5029,
      "ĠMegy": 5030,
      "ĠOlaszorszÃ¡gban": 5031,
      "Ġleb": 5032,
      "eccs": 5033,
      "uniÃ³": 5034,
      "DÃŃj": 5035,
      "ĠÃīr": 5036,
      "ĠkÃ©pzÅĳ": 5037,
      "Ġelny": 5038,
      "ĠXX": 5039,
      "ii": 5040,
      "vÃ¶s": 5041,
      "ĠhadjÃ¡r": 5042,
      "Megjelen": 5043,
      "ĠHat": 5044,
      "Ġmelyben": 5045,
      "ike": 5046,
      "Ġ()": 5047,
      "ĠkisbolygÃ³Ã¶vÃ©ben": 5048,
      "orok": 5049,
      "Ġrendelkezik": 5050,
      "ÃŃtÃ³ja": 5051,
      "ĠXV": 5052,
      "ĠhÃ¡zassÃ¡g": 5053,
      "ĠosztÃ¡lyÃ¡nak": 5054,
      "ĠmegprÃ³b": 5055,
      "Ġoldalon": 5056,
      "eksz": 5057,
      "Ã³f": 5058,
      "ĠFor": 5059,
      "almÃ¡t": 5060,
      "Ġ1958": 5061,
      "ĠhonlapjÃ¡n": 5062,
      "ĠlegkÃ¶zel": 5063,
      "08": 5064,
      "nevezett": 5065,
      "Ġfa": 5066,
      "yle": 5067,
      "air": 5068,
      "rÃ³pus": 5069,
      "Ġlegend": 5070,
      "Ġdokumentum": 5071,
      "ĠJean": 5072,
      "ezve": 5073,
      "Ã¡jÃº": 5074,
      "Ġteszi": 5075,
      "Ġrit": 5076,
      "ĠzeneszerzÅĳ": 5077,
      "Ġkapcsolatban": 5078,
      "term": 5079,
      "Ġsk": 5080,
      "ĠSte": 5081,
      "rum": 5082,
      "Ãºti": 5083,
      "Ġholland": 5084,
      "ĠmÃºlt": 5085,
      "Ġgyeng": 5086,
      "ĠrÃ¡diÃ³": 5087,
      "ezsÅĳ": 5088,
      "ĠKÃ¶nyvkiadÃ³": 5089,
      "Ġismeretlen": 5090,
      "ĠtartÃ³z": 5091,
      "ĠCD": 5092,
      "Ã³busz": 5093,
      "ollÃ©g": 5094,
      "ikÃ¡t": 5095,
      "ugh": 5096,
      "Ġklasszikus": 5097,
      "asszony": 5098,
      "ĠkÃ©tszer": 5099,
      "ĠÃ¶nkormÃ¡ny": 5100,
      "âĢĵ)": 5101,
      "ĠkÃ©szÃ¼l": 5102,
      "way": 5103,
      "kedett": 5104,
      "ĠszÃ³r": 5105,
      "Ġ1941": 5106,
      "olaj": 5107,
      "enne": 5108,
      "ĠnevÃ©n": 5109,
      "Ġrokon": 5110,
      "iszk": 5111,
      "Ġakart": 5112,
      "opter": 5113,
      "Ġ1963": 5114,
      "Ġfilmben": 5115,
      "lÃ¡v": 5116,
      "ĠJon": 5117,
      "szÃ¡ll": 5118,
      "des": 5119,
      "aszk": 5120,
      "szerzÅĳdÃ©s": 5121,
      "ĠRob": 5122,
      "vagy": 5123,
      "ĠleÃ¡ny": 5124,
      "Munk": 5125,
      "ortÃ¡rs": 5126,
      "polit": 5127,
      "ĠTisz": 5128,
      "ĠLip": 5129,
      "ĠÃ©letÃ©t": 5130,
      "96": 5131,
      "ĠHÃ¡rom": 5132,
      "Ġrep": 5133,
      "ĠGer": 5134,
      "Ġboly": 5135,
      "enti": 5136,
      "ÃŃrÃ³k": 5137,
      "vin": 5138,
      "Ġtehet": 5139,
      "Ġfeldolg": 5140,
      "Ġfolyamatosan": 5141,
      "bÃ©": 5142,
      "epp": 5143,
      "ĠRos": 5144,
      "Ġkiemelked": 5145,
      "ĠgyÅ±jtemÃ©ny": 5146,
      "ĠrÃ¶gz": 5147,
      "ici": 5148,
      "ziÃ³": 5149,
      "inkron": 5150,
      "NevezetessÃ©g": 5151,
      "ĠmÅ±kÃ¶dik": 5152,
      "eve": 5153,
      "Ġgener": 5154,
      "ĠelÅĳfordul": 5155,
      "93": 5156,
      "ĠCal": 5157,
      "Ġ35": 5158,
      "ĠvÃ¡d": 5159,
      "Ġrajta": 5160,
      "ĠgÃ³lt": 5161,
      "ĠvasÃºti": 5162,
      "ĠkÃ¶rÃ¼lbelÃ¼l": 5163,
      "mÃ©rsÃ©klet": 5164,
      "ĠBab": 5165,
      "ĠelmÃ©let": 5166,
      "prÃ©m": 5167,
      "Ġkedv": 5168,
      "ÃŃlia": 5169,
      "ĠpÃ¡lyÃ¡ra": 5170,
      "ĠtovÃ¡bbra": 5171,
      "span": 5172,
      "kezÅĳ": 5173,
      "vei": 5174,
      "ĠemlÃŃtik": 5175,
      "kÃ¶zsÃ©g": 5176,
      "Ã¡sainak": 5177,
      "ĠTÃ³th": 5178,
      "nival": 5179,
      "ĠÃºton": 5180,
      "ĠforrÃ¡s": 5181,
      "emm": 5182,
      "04": 5183,
      "arÃ¡nt": 5184,
      "Ġcsatlakozott": 5185,
      "73": 5186,
      "ĠSok": 5187,
      "Ã¡la": 5188,
      "vezetÃ©s": 5189,
      "fordulÃ³": 5190,
      "ĠFÃ¼l": 5191,
      "Ġhozott": 5192,
      "ĠFre": 5193,
      "Ġmeghal": 5194,
      "ĠThomas": 5195,
      "Ã©sÃ©ben": 5196,
      "Ġcsom": 5197,
      "Ġtorn": 5198,
      "ĠhasznÃ¡ltÃ¡k": 5199,
      "\".": 5200,
      "Ġmegalak": 5201,
      "kÃ¶zÃ©p": 5202,
      "06": 5203,
      "Ġszig": 5204,
      "ĠFehÃ©r": 5205,
      "kis": 5206,
      "ĠMÃ¡ty": 5207,
      "ĠCity": 5208,
      "Ġx": 5209,
      "ĠkÃ³d": 5210,
      "akar": 5211,
      "ings": 5212,
      "aja": 5213,
      "ander": 5214,
      "nÃ©p": 5215,
      "ĠnÃ©pszÃ¡ml": 5216,
      "ital": 5217,
      "ĠvÃ©grehajt": 5218,
      "ĠelÅĳadÃ¡s": 5219,
      "Ġ1961": 5220,
      "ĠÃ¡gy": 5221,
      "ĠfelÃºj": 5222,
      "iglenes": 5223,
      "ĠlehetÅĳsÃ©g": 5224,
      "del": 5225,
      "Ġostrom": 5226,
      "pÃ¡rt": 5227,
      "1985": 5228,
      "ĠEndre": 5229,
      "ĠKiss": 5230,
      "Er": 5231,
      "ĠEg": 5232,
      "ĠlelkÃ©sz": 5233,
      "Ã©nyes": 5234,
      "Ġortodox": 5235,
      "beszÃ©l": 5236,
      "91": 5237,
      "ĠBart": 5238,
      "egyhÃ¡z": 5239,
      "Ġlog": 5240,
      "ĠlÃ©tes": 5241,
      "Ã¡rÃ³lag": 5242,
      "ĠcÃŃmer": 5243,
      "Ã¼gymin": 5244,
      "orozat": 5245,
      "elemben": 5246,
      "Ġnorm": 5247,
      "Ġrendezett": 5248,
      "Ġ1949": 5249,
      "ili": 5250,
      "Ġhosszabb": 5251,
      "hatnak": 5252,
      "sztÃ¶n": 5253,
      "Ġjelentette": 5254,
      "ĠRend": 5255,
      "ĠTÃ¶rÃ¶k": 5256,
      "ÐµÐ": 5257,
      "ĠnÃ¶veked": 5258,
      "ĠNyugat": 5259,
      "ĠVÃ¡r": 5260,
      "Ġrock": 5261,
      "ĠBi": 5262,
      "ĠvÃ¡rost": 5263,
      "ĠHorvÃ¡th": 5264,
      "zsa": 5265,
      "ffy": 5266,
      "ĠEv": 5267,
      "Ġhum": 5268,
      "ĠgyÃ³gyszer": 5269,
      "etik": 5270,
      "âĨ": 5271,
      "ĠÃ³ra": 5272,
      "Ġritk": 5273,
      "81": 5274,
      "huz": 5275,
      "her": 5276,
      "kÃ¶zpont": 5277,
      "Ã¼ltek": 5278,
      "vai": 5279,
      "ury": 5280,
      "kert": 5281,
      "ĠpÃ¡lya": 5282,
      "Ġposzt": 5283,
      "ĠmÃºl": 5284,
      "ĠjÃ¡rÃ¡sÃ¡hoz": 5285,
      "ĠegyarÃ¡nt": 5286,
      "ane": 5287,
      "ĠfelÃ¼l": 5288,
      "ĠFI": 5289,
      "ĠBerlin": 5290,
      "amerikai": 5291,
      "rÃ³pusi": 5292,
      "eredmÃ©ny": 5293,
      "ĠRecords": 5294,
      "ĠrepÃ¼lÃ©s": 5295,
      "ĠPeter": 5296,
      "ugoszlÃ¡v": 5297,
      "Ġtapasztal": 5298,
      "Ġkiadott": 5299,
      "ĠkiegÃ©sz": 5300,
      "ols": 5301,
      "ĠtanulmÃ¡nyait": 5302,
      "Ġkm": 5303,
      "71": 5304,
      "jekt": 5305,
      "ĠlakossÃ¡gÃ¡nak": 5306,
      "ĠJud": 5307,
      "ĠVilmos": 5308,
      "Ġtemploma": 5309,
      "Ġlexikon": 5310,
      "ceÃ¡n": 5311,
      "ttÃ³l": 5312,
      "Ġfogyaszt": 5313,
      "ĠbÃ¡ny": 5314,
      "eff": 5315,
      "Leg": 5316,
      "Ered": 5317,
      "ĠkÃ©pessÃ©g": 5318,
      "Ġtit": 5319,
      "ĠÃºgynevezett": 5320,
      "ĠGeorge": 5321,
      "ĠkÃ©pest": 5322,
      "92": 5323,
      "Ã¡di": 5324,
      "94": 5325,
      "1987": 5326,
      "ĠjÃ¡tÃ©kvezetÅĳ": 5327,
      "no": 5328,
      "ĠhÃ¡lÃ³z": 5329,
      "ĠkÃ¶zÃ©pkori": 5330,
      "Ġfutam": 5331,
      "ĠkÃ¶zeli": 5332,
      "sÃ©": 5333,
      "Ġesett": 5334,
      "Ã¡ciÃ³k": 5335,
      "ÃŃnek": 5336,
      "ĠÃ¡llÃŃt": 5337,
      "ĠÃ©rz": 5338,
      "dÃŃjat": 5339,
      "ĠmegszÅ±nt": 5340,
      "Ġ32": 5341,
      "1984": 5342,
      "dr": 5343,
      "Ġeg": 5344,
      "Ġman": 5345,
      "Ġnek": 5346,
      "Ġkaland": 5347,
      "Ã¡szati": 5348,
      "Ġezeket": 5349,
      "Ġkam": 5350,
      "ĠhasznÃ¡lat": 5351,
      "den": 5352,
      "ĠtÃ©v": 5353,
      "Ġtalaj": 5354,
      "Nemzet": 5355,
      "Ġdiag": 5356,
      "ĠvÃ©gig": 5357,
      "Ġhatalom": 5358,
      "ĠszÃ©n": 5359,
      "tattÃ¡k": 5360,
      "Ġelektrom": 5361,
      "kÃ¼lÃ¶nb": 5362,
      "ĠGerg": 5363,
      "ĠgÃ¡z": 5364,
      "Ġ2021": 5365,
      "Ġkut": 5366,
      "nevek": 5367,
      "aga": 5368,
      "csÅĳ": 5369,
      "rix": 5370,
      "ÃŃtÃ¡si": 5371,
      "szob": 5372,
      "ĠlÃ©trej": 5373,
      "Ã©seket": 5374,
      "ĠFerdin": 5375,
      "aiban": 5376,
      "Ġnevezte": 5377,
      "kÃ¶ztÃ¡rsasÃ¡g": 5378,
      "ada": 5379,
      "lo": 5380,
      "rof": 5381,
      "Ġmaguk": 5382,
      "ĠlehetsÃ©ges": 5383,
      "1986": 5384,
      "ĠTran": 5385,
      "ĠBak": 5386,
      "ĠÃ¶sszefÃ¼gg": 5387,
      "atÃ³rium": 5388,
      "Ġezred": 5389,
      "Kis": 5390,
      "Ġmadarak": 5391,
      "ogatÃ¡s": 5392,
      "ĠMur": 5393,
      "vÃ©tel": 5394,
      "ezred": 5395,
      "Ã§": 5396,
      "ĠGar": 5397,
      "Ġ2022": 5398,
      "ĠÃ³ri": 5399,
      "AR": 5400,
      "ĠJelen": 5401,
      "ekrÅĳl": 5402,
      "nyelv": 5403,
      "ĠorszÃ¡gban": 5404,
      "ĠhÃŃm": 5405,
      "Ġfin": 5406,
      "Ġlegmagasabb": 5407,
      "tus": 5408,
      "egÅĳ": 5409,
      "ĠPress": 5410,
      "gyÃ¡rt": 5411,
      "anadai": 5412,
      "fejleszt": 5413,
      "Ã©rtel": 5414,
      "ĠjelÃ¶lÃ©ssel": 5415,
      "ĠSzÃ¶vetsÃ©g": 5416,
      "Ġpill": 5417,
      "valÃ³s": 5418,
      "Ã³czi": 5419,
      "ĠkÃ¶ltÃ¶zÃ¶tt": 5420,
      "Ġelektron": 5421,
      "ĠÃºjsÃ¡gÃŃrÃ³": 5422,
      "84": 5423,
      "ĠzÃ¡rt": 5424,
      "ĠalapvetÅĳ": 5425,
      "ĠMel": 5426,
      "ĠforgatÃ³kÃ¶nyv": 5427,
      "ĠÃ¶v": 5428,
      "ĠBern": 5429,
      "ĠmÃ©teres": 5430,
      "ĠfÃ¡j": 5431,
      "ĠrÃ©teg": 5432,
      "csap": 5433,
      "Ġlez": 5434,
      "Ġ1959": 5435,
      "ĠhÅĳs": 5436,
      "ĠnÃ©lkÃ¼li": 5437,
      "Ġrendez": 5438,
      "Ġgr": 5439,
      "ĠtÃ¡rsadalom": 5440,
      "orth": 5441,
      "enny": 5442,
      "adion": 5443,
      "ĠcsÃ¡szÃ¡ri": 5444,
      "ĠGold": 5445,
      "ĠtÃ¡madÃ¡s": 5446,
      "ĠjÃ¡tÃ©kok": 5447,
      "ĠHolland": 5448,
      "Ġbl": 5449,
      "ĠtÃ¡bl": 5450,
      "ozik": 5451,
      "Ġ70": 5452,
      "ret": 5453,
      "ĠvÃ¡ltozata": 5454,
      "ĠhatÃ³": 5455,
      "hid": 5456,
      "Ã´": 5457,
      "ÃŃtÃ³k": 5458,
      "Ġbasszus": 5459,
      "barlang": 5460,
      "fesztivÃ¡l": 5461,
      "ĠMTA": 5462,
      "ĠszemÃ©lyekA": 5463,
      "ĠkÃ¶rben": 5464,
      "adik": 5465,
      "ĠÃ©rdeklÅĳ": 5466,
      "adÃ¡r": 5467,
      "ĠLou": 5468,
      "ĠÃŃtÃ©l": 5469,
      "ĠfelÃ©p": 5470,
      "Ġelind": 5471,
      "âĢĿ)": 5472,
      "76": 5473,
      "ĠMat": 5474,
      "orral": 5475,
      "alis": 5476,
      "ĠFormula": 5477,
      "enyi": 5478,
      "ÅĤ": 5479,
      "ĠAth": 5480,
      "Åĳztes": 5481,
      "ĠVel": 5482,
      "ĠleginkÃ¡bb": 5483,
      "kodott": 5484,
      "ĠrendeztÃ©k": 5485,
      "perc": 5486,
      "elmÃ©t": 5487,
      "Ġtartotta": 5488,
      "Ã¡th": 5489,
      "2019": 5490,
      "ĠkezelÃ©s": 5491,
      "dy": 5492,
      "Ġmondta": 5493,
      "ĠbejÃ¡r": 5494,
      "Ġ1918": 5495,
      "veg": 5496,
      "riai": 5497,
      "ĠMÃ¡tyÃ¡s": 5498,
      "Ġjelenti": 5499,
      "jen": 5500,
      "Ð°Ð": 5501,
      "ĠRÃ³": 5502,
      "Tel": 5503,
      "azz": 5504,
      "ĠFÃ©rfi": 5505,
      "Ġrejt": 5506,
      "Ġkarakter": 5507,
      "ĠMÃ¼n": 5508,
      "Ã©rÃ©s": 5509,
      "Ã©di": 5510,
      "Ġmegtart": 5511,
      "eset": 5512,
      "ĠhÃ¡ttÃ©r": 5513,
      "78": 5514,
      "erson": 5515,
      "1981": 5516,
      "azon": 5517,
      "ĠtartjÃ¡k": 5518,
      "Ġigy": 5519,
      "Ġfelkel": 5520,
      "lex": 5521,
      "ĠtÃ¶bbnyire": 5522,
      "ĠSpanyolorszÃ¡gban": 5523,
      "szÃ¡r": 5524,
      "ezhetÅĳ": 5525,
      "Ġberend": 5526,
      "Ġ90": 5527,
      "orrend": 5528,
      "ĠRock": 5529,
      "Ġpop": 5530,
      "lÃ©s": 5531,
      "ĠvÃ©get": 5532,
      "epÃ¼lÅĳ": 5533,
      "ois": 5534,
      "czy": 5535,
      "Ġ000": 5536,
      "ĠSzovjetuniÃ³": 5537,
      "Ġmegegy": 5538,
      "ĠelÅĳtti": 5539,
      "echan": 5540,
      "ĠGalÃ©ria": 5541,
      "oglal": 5542,
      "osaur": 5543,
      "eszi": 5544,
      "ĠstÃºdiÃ³": 5545,
      "ĠÃ©pÃŃtettÃ©k": 5546,
      "ĠÃ©ven": 5547,
      "ĠfelÃ©ben": 5548,
      "Ġokoz": 5549,
      "chn": 5550,
      "Ġszil": 5551,
      "ĠÃ¼zemelt": 5552,
      "ideiglenes": 5553,
      "Ġpublik": 5554,
      "Ã¼mÃ¶lcs": 5555,
      "Ã©i": 5556,
      "ĠidÅĳszakban": 5557,
      "ĠkifejezÃ©s": 5558,
      "ui": 5559,
      "Ġ)": 5560,
      "adja": 5561,
      "ÃŃtÃ©st": 5562,
      "ĠTV": 5563,
      "ĠIll": 5564,
      "Ġmes": 5565,
      "arok": 5566,
      "Ġdalt": 5567,
      "Ġnagylemez": 5568,
      "ĠbÅĳr": 5569,
      "ĠBÃ©k": 5570,
      "Ã©nyek": 5571,
      "SS": 5572,
      "birtok": 5573,
      "Ã¡son": 5574,
      "ÃŃni": 5575,
      "ĠGra": 5576,
      "ĠrÃ©giÃ³ban": 5577,
      "Ġgal": 5578,
      "Ġkif": 5579,
      "Ġanim": 5580,
      "ĠigazgatÃ³ja": 5581,
      "ĠnÃ©m": 5582,
      "ĠMor": 5583,
      "Ã©leti": 5584,
      "rov": 5585,
      "Ġ1954": 5586,
      "Ġkonf": 5587,
      "ĠDal": 5588,
      "aud": 5589,
      "ĠrendelkezÅĳ": 5590,
      "ĠPi": 5591,
      "Ġnyilatkozott": 5592,
      "Å¾": 5593,
      "ĠvÃ¡logatottban": 5594,
      "ĠbÃ¶rtÃ¶n": 5595,
      "Ġkinev": 5596,
      "Ġviszonylag": 5597,
      "Ġgyalog": 5598,
      "ĠKereszt": 5599,
      "ĠÄ": 5600,
      "Ġtavasz": 5601,
      "Ġger": 5602,
      "Ġszerepe": 5603,
      "1970": 5604,
      "plex": 5605,
      "terÃ¼let": 5606,
      "ĠÃ©ve": 5607,
      "apt": 5608,
      "ĠMusic": 5609,
      "Ġoda": 5610,
      "ĠOlaszorszÃ¡g": 5611,
      "Ġfilmek": 5612,
      "Ġ1943": 5613,
      "ĠhÃ³d": 5614,
      "1982": 5615,
      "rt": 5616,
      "ade": 5617,
      "2016": 5618,
      "Ġbevez": 5619,
      "ĠMax": 5620,
      "hÃŃr": 5621,
      "ĠfelszÃŃn": 5622,
      "onyol": 5623,
      "emÃ©t": 5624,
      "ĠmÅ±emlÃ©k": 5625,
      "ĠMark": 5626,
      "ozsony": 5627,
      "Ġkegy": 5628,
      "Ġteszt": 5629,
      "Ġ500": 5630,
      "rendezÅĳ": 5631,
      "Ġideje": 5632,
      "ĠutÃ¡ni": 5633,
      "ute": 5634,
      "72": 5635,
      "ĠvalÃ³s": 5636,
      "ĠRud": 5637,
      "gar": 5638,
      "erny": 5639,
      "NÅĳi": 5640,
      "ĠmÃ©rnÃ¶k": 5641,
      "alit": 5642,
      "Ġhamarosan": 5643,
      "Ã¢": 5644,
      "ĠKÃ¡rpÃ¡t": 5645,
      "1979": 5646,
      "Ġelmond": 5647,
      "ĠBon": 5648,
      "olat": 5649,
      "Ġmotor": 5650,
      "Ñı": 5651,
      "ĠÃºjjÃ¡": 5652,
      "olÃ¡sa": 5653,
      "ĠHist": 5654,
      "Ġazokat": 5655,
      "ĠfÃ©m": 5656,
      "ĠlevÃ©l": 5657,
      "Ġor": 5658,
      "ĠKelet": 5659,
      "hÃ¡rom": 5660,
      "dtek": 5661,
      "Ġazonnal": 5662,
      "iek": 5663,
      "ĠTudomÃ¡nyegyetem": 5664,
      "emp": 5665,
      "Ã©ka": 5666,
      "ezs": 5667,
      "iny": 5668,
      "ĠWest": 5669,
      "asztia": 5670,
      "In": 5671,
      "heti": 5672,
      "Ġnapon": 5673,
      "ĠÎ": 5674,
      "rai": 5675,
      "Ġ1936": 5676,
      "1978": 5677,
      "korban": 5678,
      "ĠSzt": 5679,
      "ĠLos": 5680,
      "ĠfelÃ¼let": 5681,
      "ĠtelepÃ¼lÃ©seiTovÃ¡bbi": 5682,
      "tern": 5683,
      "Ã¡ncÃ©l": 5684,
      "ĠmegtalÃ¡lhatÃ³": 5685,
      "ĠJer": 5686,
      "Ġbuddh": 5687,
      "ĠmÃ¡sok": 5688,
      "Ġlakott": 5689,
      "anyja": 5690,
      "ited": 5691,
      "ĠvÃ©dett": 5692,
      "Â²": 5693,
      "cu": 5694,
      "ĠPÃ©cs": 5695,
      "ĠmegvalÃ³s": 5696,
      "akkal": 5697,
      "ĠsajtÃ³": 5698,
      "ĠmÅ±kÃ¶dÅĳ": 5699,
      "arvas": 5700,
      "1983": 5701,
      "tabil": 5702,
      "ĠAngl": 5703,
      "ÃīletpÃ¡ly": 5704,
      "onna": 5705,
      "ĠelnevezÃ©s": 5706,
      "ĠkizÃ¡rÃ³lag": 5707,
      "Ġkert": 5708,
      "1975": 5709,
      "folyam": 5710,
      "ĠHÃ¡z": 5711,
      "tÃ¶rtÃ©neti": 5712,
      "Ã¡ltat": 5713,
      "oka": 5714,
      "Ġkora": 5715,
      "ipar": 5716,
      "ĠHivatalos": 5717,
      "ĠkivÃ©tel": 5718,
      "bach": 5719,
      "ÃŃtÃ©sÃ©re": 5720,
      "Ġac": 5721,
      "ĠpolgÃ¡rmester": 5722,
      "center": 5723,
      "Ġnehez": 5724,
      "Ġzongor": 5725,
      "ions": 5726,
      "Ġbarokk": 5727,
      "ĠkÃ¶zvetlenÃ¼l": 5728,
      "ozÃ¡sok": 5729,
      "alan": 5730,
      "esse": 5731,
      "olnok": 5732,
      "ĠMÃ¡rton": 5733,
      "ĠvÃ¡rosa": 5734,
      "Ġkonz": 5735,
      "ĠigazgatÃ³": 5736,
      "ezz": 5737,
      "Ġaminek": 5738,
      "Ġtervezett": 5739,
      "ĠaztÃ¡n": 5740,
      "Ãĵ": 5741,
      "ElsÅĳ": 5742,
      "ĠgimnÃ¡zium": 5743,
      "zati": 5744,
      "ĠÃ¶sszeh": 5745,
      "lin": 5746,
      "una": 5747,
      "ĠÃ¶tÃ¶dik": 5748,
      "Ġ1942": 5749,
      "ĠnemzetsÃ©g": 5750,
      "ĠmaradvÃ¡ny": 5751,
      "rael": 5752,
      "ĠmegkÃ¶zel": 5753,
      "ĠAlapÃŃtvÃ¡ny": 5754,
      "ĠfÅĳszereplÅĳ": 5755,
      "ĠTak": 5756,
      "Ġfajok": 5757,
      "1976": 5758,
      "Ġ1946": 5759,
      "vegy": 5760,
      "Bar": 5761,
      "ĠPol": 5762,
      "ulcs": 5763,
      "erman": 5764,
      "Ġvitt": 5765,
      "Ġmeccs": 5766,
      "ĠazÃ³ta": 5767,
      "Ġalig": 5768,
      "Ġ1952": 5769,
      "ĠÃ¶lt": 5770,
      "Ã¶b": 5771,
      "ukrÃ¡n": 5772,
      "ĠMarc": 5773,
      "alkot": 5774,
      "ĠJohann": 5775,
      "ĠAnton": 5776,
      "ĠelÃ©rhetÅĳ": 5777,
      "mÅ±vek": 5778,
      "uhÃ¡z": 5779,
      "ĠeszkÃ¶zÃ¶k": 5780,
      "ĠKÃ¶nyvtÃ¡r": 5781,
      "ĠkÃ¶zÃ¶ssÃ©g": 5782,
      "ĠSzÃ©kely": 5783,
      "tatta": 5784,
      "Ã©telt": 5785,
      "kupa": 5786,
      "vezÅĳ": 5787,
      "ĠMartin": 5788,
      "itel": 5789,
      "Ġanny": 5790,
      "Ã¡rok": 5791,
      "ĠErdÃ©lyi": 5792,
      "ĠkivÃ¡lÃ³": 5793,
      "ĠAusztrÃ¡l": 5794,
      "Ã©ket": 5795,
      "Ġ1953": 5796,
      "ĠHÃŃr": 5797,
      "Ġ1947": 5798,
      "ĠautÃ³busz": 5799,
      "ĠÃ¶sszeg": 5800,
      "RomÃ¡n": 5801,
      "ĠkirÃ¡lynÅĳ": 5802,
      "Ġfolytatta": 5803,
      "ĠdÃ©lre": 5804,
      "ĠpÃ¡rhuz": 5805,
      "act": 5806,
      "ĠSer": 5807,
      "Ã¡h": 5808,
      "iket": 5809,
      "rÃ¡ny": 5810,
      "ĠWar": 5811,
      "tudomÃ¡nyi": 5812,
      "eon": 5813,
      "Ġjogi": 5814,
      "ĠClub": 5815,
      "ecskemÃ©t": 5816,
      "ali": 5817,
      "ĠAfr": 5818,
      "ĠFej": 5819,
      "ellen": 5820,
      "ĠkÃ¶zÃ¶sen": 5821,
      "ĠhelyeztÃ©k": 5822,
      "ĠIly": 5823,
      "ĠtÃ¼k": 5824,
      "ĠPe": 5825,
      "74": 5826,
      "ko": 5827,
      "ĠegyÃ¼ttmÅ±kÃ¶": 5828,
      "ĠpolgÃ¡ri": 5829,
      "ÅĳtÃ©r": 5830,
      "Ġalakul": 5831,
      "ajt": 5832,
      "olcs": 5833,
      "Ġbr": 5834,
      "ĠtÃ¶rtÃ©nelem": 5835,
      "cht": 5836,
      "Ġfigyelem": 5837,
      "Ġgyorsan": 5838,
      "ĠOk": 5839,
      "Ġfejedelem": 5840,
      "ĠFrigyes": 5841,
      "ĠvÃ©ge": 5842,
      "Ġszezonban": 5843,
      "lÃ¡g": 5844,
      "jÃ¡rÃ³": 5845,
      "ĠÃ¡llatok": 5846,
      "ĠbÃ©keszerzÅĳdÃ©s": 5847,
      "ĠkÃ¶zpontja": 5848,
      "olnÃ¡r": 5849,
      "ĠkÃ¼zd": 5850,
      "82": 5851,
      "ezd": 5852,
      "ĠÃĸssz": 5853,
      "ĠMod": 5854,
      "ĠSzÃ©ch": 5855,
      "ĠGyÅĳr": 5856,
      "Ġ1955": 5857,
      "Ġfenyeg": 5858,
      "ĠszÅĳl": 5859,
      "Ġfenntart": 5860,
      "ĠkÃ¼lÃ¶nleges": 5861,
      "ĠnemzetisÃ©gÅ±": 5862,
      "Ġforgalom": 5863,
      "ĠelkÃ©p": 5864,
      "ĠHall": 5865,
      "Ġkr": 5866,
      "ĠszemÃ©lyekMagyar": 5867,
      "ĠDebrecen": 5868,
      "Ġnyugat": 5869,
      "ĠUniversity": 5870,
      "ĠOper": 5871,
      "Ġnemcsak": 5872,
      "ĠCor": 5873,
      "ĠStud": 5874,
      "vÃ¡laszt": 5875,
      "ĠSzÃ©p": 5876,
      "Ġmax": 5877,
      "Ã©ppen": 5878,
      "ĠTra": 5879,
      "ezete": 5880,
      "ĠGergely": 5881,
      "ĠlÃ¡nya": 5882,
      "alakÃºak": 5883,
      "vÃ¡nyos": 5884,
      "ĠidÃ©ny": 5885,
      "essen": 5886,
      "Ġ45": 5887,
      "etnek": 5888,
      "EFA": 5889,
      "ikÃ¡ja": 5890,
      "formes": 5891,
      "ĠRomÃ¡niÃ¡ban": 5892,
      "Ġlelk": 5893,
      "Ġerd": 5894,
      "ĠVall": 5895,
      "ÃŃthetÅĳ": 5896,
      "ĠtalÃ¡lt": 5897,
      "ĠdebÃ¼t": 5898,
      "mat": 5899,
      "ovÃ¡": 5900,
      "Ġlegr": 5901,
      "ĠelÅĳadÃ³": 5902,
      "anda": 5903,
      "Ġirod": 5904,
      "Ã¶mÃ¶r": 5905,
      "zy": 5906,
      "ĠvÃŃv": 5907,
      "ĠesÅĳ": 5908,
      "ĠFekete": 5909,
      "Ãºk": 5910,
      "Ġfajt": 5911,
      "sÃ©gÃ©nek": 5912,
      "abeli": 5913,
      "ĠMoz": 5914,
      "felv": 5915,
      "Ġnevezik": 5916,
      "pa": 5917,
      "Brit": 5918,
      "iana": 5919,
      "Ġfesz": 5920,
      "irÃ¡ny": 5921,
      "BC": 5922,
      "ĠkiadvÃ¡ny": 5923,
      "zÃ¡k": 5924,
      "ĠOroszorszÃ¡g": 5925,
      "tÃ¶r": 5926,
      "egr": 5927,
      "ĠvezetÃ©sÃ©vel": 5928,
      "rk": 5929,
      "inte": 5930,
      "ĠÃºtvonal": 5931,
      "akban": 5932,
      "emokr": 5933,
      "ĠGab": 5934,
      "ĠszÃ¼lÅĳ": 5935,
      "ĠnÃ©pszÃ¡mlÃ¡lÃ¡s": 5936,
      "ĠMargit": 5937,
      "Ġlettek": 5938,
      "Ġkeletkez": 5939,
      "AC": 5940,
      "amis": 5941,
      "ĠJac": 5942,
      "ĠfelÃ¼gy": 5943,
      "ĠkÃ¼lÃ¶nfÃ©le": 5944,
      "Ġ1935": 5945,
      "nÃ©met": 5946,
      "pÃ©ldÃ¡ul": 5947,
      "kodÃ¡s": 5948,
      "iller": 5949,
      "ĠZsuzs": 5950,
      "Ã³zsa": 5951,
      "itÃ¡lis": 5952,
      "gÃ¡s": 5953,
      "ikÃ¡k": 5954,
      "1974": 5955,
      "Ġ1937": 5956,
      "ĠÃīva": 5957,
      "ĠSzerb": 5958,
      "mod": 5959,
      "ĠvettÃ©k": 5960,
      "ican": 5961,
      "Ġnapig": 5962,
      "ciÃ³s": 5963,
      "alatt": 5964,
      "ĠIntern": 5965,
      "ĠfÃ©rje": 5966,
      "Irodalom": 5967,
      "ĠtÃ¶ltÃ¶tte": 5968,
      "ime": 5969,
      "ĠÅĳk": 5970,
      "ĠBad": 5971,
      "iptom": 5972,
      "AT": 5973,
      "eder": 5974,
      "rianoni": 5975,
      "ĠÃ³kori": 5976,
      "Ġ1934": 5977,
      "ĠlÃ¶v": 5978,
      "ales": 5979,
      "Ġler": 5980,
      "ĠÃ¶rÃ¶kÃ¶s": 5981,
      "hogy": 5982,
      "ismertebb": 5983,
      "Ġnappal": 5984,
      "âĢĿ-": 5985,
      "ĠhatÃ¡s": 5986,
      "Ġszenvedett": 5987,
      "keletre": 5988,
      "ren": 5989,
      "wood": 5990,
      "ĠkÃ¶zremÅ±kÃ¶": 5991,
      "ĠjellegÅ±": 5992,
      "ĠbelÅĳle": 5993,
      "gitÃ¡r": 5994,
      "szkij": 5995,
      ")|": 5996,
      "Ġhas": 5997,
      "ĠGimnÃ¡zium": 5998,
      "ĠfolyamÃ¡n": 5999,
      "MegjelenÃ©se": 6000,
      "jev": 6001,
      "MÃ¡s": 6002,
      "vÃ¡jci": 6003,
      "ĠÃīrdem": 6004,
      "ĠbÃ©csi": 6005,
      "ĠorszÃ¡ggyÅ±lÃ©si": 6006,
      "Ġszerkeszt": 6007,
      "Ã©zia": 6008,
      "Ġlep": 6009,
      "Ã©je": 6010,
      "Ãļj": 6011,
      "egyÃ¼tt": 6012,
      "Ġsejt": 6013,
      "egedÅ±": 6014,
      "elsÅĳ": 6015,
      "ĠFÃ¼lÃ¶p": 6016,
      "ĠnyÃŃl": 6017,
      "ows": 6018,
      "uma": 6019,
      "Ġhusz": 6020,
      "ĠÃīv": 6021,
      "Ġsorozatban": 6022,
      "OrszÃ¡g": 6023,
      "ĠPan": 6024,
      "ĠÃ©pÃŃtett": 6025,
      "forr": 6026,
      "szerkesztÅĳ": 6027,
      "napi": 6028,
      "ĠLig": 6029,
      "vÃ¡ltozat": 6030,
      "egyes": 6031,
      "ago": 6032,
      "Ã©nny": 6033,
      "roc": 6034,
      "ĠEurÃ³pÃ¡ban": 6035,
      "ĠHol": 6036,
      "igy": 6037,
      "Ġszakmai": 6038,
      "ĠkÃ¶nyve": 6039,
      "ĠlakossÃ¡ga": 6040,
      "ĠHot": 6041,
      "Ã¡kon": 6042,
      "ext": 6043,
      "ello": 6044,
      "ever": 6045,
      "ĠjÃ³val": 6046,
      "ÃŃb": 6047,
      "Ġbank": 6048,
      "\"|": 6049,
      "ĠjelentÅĳsen": 6050,
      "ĠelvÃ©g": 6051,
      "Ġkeret": 6052,
      "ĠPetÅĳ": 6053,
      "Ġviselked": 6054,
      "ance": 6055,
      "ĠEred": 6056,
      "Ã¡ciÃ³t": 6057,
      "mÃ©rkÅĳz": 6058,
      "hatja": 6059,
      "ĠkÃ¶ltsÃ©g": 6060,
      "ĠmÅ±vÃ©szeti": 6061,
      "umi": 6062,
      "Ġproducer": 6063,
      "1972": 6064,
      "ĠKol": 6065,
      "jÃ¡vÃ¡": 6066,
      "ĠKft": 6067,
      "Ã¡zott": 6068,
      "ĠNic": 6069,
      "Ġ1919": 6070,
      "Ġ1929": 6071,
      "Ã½": 6072,
      "ĠtÃ¼z": 6073,
      "ForrÃ¡sokTovÃ¡bbi": 6074,
      "KÃ©p": 6075,
      "Ġolt": 6076,
      "Ġko": 6077,
      "Ġsorrend": 6078,
      "szigetek": 6079,
      "Ġtudja": 6080,
      "eszprÃ©m": 6081,
      "ĠvideÃ³": 6082,
      "katolikus": 6083,
      "ĠegymÃ¡ssal": 6084,
      "onz": 6085,
      "fÃ¶ldÃ¶n": 6086,
      "ĠÃ©szakra": 6087,
      "ĠeltÃ©rÅĳ": 6088,
      "omer": 6089,
      "stant": 6090,
      "ĠmikÃ¶zben": 6091,
      "Ġideg": 6092,
      "Ġtoj": 6093,
      "ĠKult": 6094,
      "jal": 6095,
      "Ġtrianoni": 6096,
      "Ġth": 6097,
      "ĠOs": 6098,
      "ĠerÅĳsen": 6099,
      "1977": 6100,
      "ĠCap": 6101,
      "ĠkultÃºra": 6102,
      "bÃ¡ny": 6103,
      "ĠSl": 6104,
      "ĠkÃ¶vette": 6105,
      "odor": 6106,
      "ĠZsolt": 6107,
      "mÃ©rÅĳ": 6108,
      "Ã¡ga": 6109,
      "Ã©pett": 6110,
      "edi": 6111,
      "Ã¡nok": 6112,
      "NE": 6113,
      "ĠtÃ©rt": 6114,
      "ĠkÃ¶zigazgatÃ¡si": 6115,
      "ĠverziÃ³": 6116,
      "ĠfÃ¼ggvÃ©ny": 6117,
      "ĠkapitÃ¡ny": 6118,
      "ouse": 6119,
      "ĠDezsÅĳ": 6120,
      "oot": 6121,
      "ĠAzonban": 6122,
      "ĠtÃ©li": 6123,
      "emi": 6124,
      "ĠkÃ¶zÃ©psÅĳ": 6125,
      "Ġmagasabb": 6126,
      "essÃ©": 6127,
      "ĠEmlÃ©k": 6128,
      "ĠZen": 6129,
      "ĠbÃ¶lcs": 6130,
      "ÃŃgjÃ¡tÃ©k": 6131,
      "ĠsegÃ©d": 6132,
      "ĠMÃ©g": 6133,
      "ibli": 6134,
      "Ġsors": 6135,
      "Ġfranci": 6136,
      "Ġszub": 6137,
      "ĠDV": 6138,
      "ĠnÅĳtt": 6139,
      "ĠTy": 6140,
      "1945": 6141,
      "1971": 6142,
      "Ð¾Ñģ": 6143,
      "ĠtalÃ¡n": 6144,
      "Ġszikl": 6145,
      "Ġjobban": 6146,
      "Ġalatti": 6147,
      "ĠgyÃ¶k": 6148,
      "ĠgyÃ¡r": 6149,
      "ĠVÃ©gÃ¼l": 6150,
      "2022": 6151,
      "ĠCharles": 6152,
      "lor": 6153,
      "kai": 6154,
      "kÃ©ppen": 6155,
      "vÃ¡z": 6156,
      "ĠÃ©vesen": 6157,
      "MÅ±vei": 6158,
      "atur": 6159,
      "Ã¶ngy": 6160,
      "Ġ#": 6161,
      "encei": 6162,
      "ÃīletpÃ¡lyÃ¡ja": 6163,
      "szÃ¼l": 6164,
      "Ġfoglalkozott": 6165,
      "szel": 6166,
      "ĠDel": 6167,
      "1910": 6168,
      "ĠÂ½": 6169,
      "ĠPo": 6170,
      "1968": 6171,
      "1969": 6172,
      "1973": 6173,
      "kirÃ¡ly": 6174,
      "ĠSimon": 6175,
      "ĠRem": 6176,
      "Ãºgy": 6177,
      "Ġasszony": 6178,
      "ĠkÃ¶rÃ¼li": 6179,
      "ĠdÃŃjat": 6180,
      "helyett": 6181,
      "ĠAward": 6182,
      "vil": 6183,
      "ÅĳzÅĳ": 6184,
      "olozsvÃ¡ri": 6185,
      "Ġselejt": 6186,
      "Ã©c": 6187,
      "ĠLor": 6188,
      "ĠÃºr": 6189,
      "Ġolaj": 6190,
      "ĠSar": 6191,
      "ĠBur": 6192,
      "ĠkÃŃvÃ¼li": 6193,
      "Ġcsapata": 6194,
      "ĠMaros": 6195,
      "csat": 6196,
      "Ġisten": 6197,
      "ĠIgaz": 6198,
      "ĠmÃ¡g": 6199,
      "ĠkirÃ¡lynÃ©": 6200,
      "Ã¡lni": 6201,
      "izÃ¡lt": 6202,
      "Ġpiac": 6203,
      "Ã¶rg": 6204,
      "Ġkiterjed": 6205,
      "dÃ¡m": 6206,
      "Ġnemes": 6207,
      "Ã¡ndÃ©k": 6208,
      "nyugatra": 6209,
      "oid": 6210,
      "Ġfelsz": 6211,
      "ĠÃ©vszÃ¡zad": 6212,
      "ĠtelepÃ¼lÃ©sek": 6213,
      "isztikai": 6214,
      "Ġ1928": 6215,
      "ĠkÃ¶rzet": 6216,
      "ĠpedagÃ³g": 6217,
      "hegysÃ©g": 6218,
      "erb": 6219,
      "Ġanyja": 6220,
      "ĠBra": 6221,
      "Ġarab": 6222,
      "ĠTÃ¶rtÃ©n": 6223,
      "Ġ33": 6224,
      "ĠKing": 6225,
      "ĠalkotmÃ¡ny": 6226,
      "Ġugyanakkor": 6227,
      "Ġfront": 6228,
      "Ãºton": 6229,
      "ĠCsak": 6230,
      "XII": 6231,
      "Ã¡ria": 6232,
      "ĠMoszk": 6233,
      "amin": 6234,
      "ÃŃrt": 6235,
      "Ġhivatalosan": 6236,
      "eres": 6237,
      "ĠegyesÃ¼let": 6238,
      "ĠÃ©pÃŃtÃ©sz": 6239,
      "Ġbirtoka": 6240,
      "ollÃ©gium": 6241,
      "Ġfelszer": 6242,
      "ĠgÅĳz": 6243,
      "elÃ©si": 6244,
      "ĠBuk": 6245,
      "ĠszÃ©khelye": 6246,
      "Ġby": 6247,
      "Ã©tele": 6248,
      "annon": 6249,
      "enty": 6250,
      "ezer": 6251,
      "ĠÃīp": 6252,
      "ĠEgyetemen": 6253,
      "Ġcsel": 6254,
      "ipari": 6255,
      "szav": 6256,
      "Ġgyakori": 6257,
      "ĠvÃ¡llalkoz": 6258,
      "ĠmÅ±vÃ©szet": 6259,
      "Ġimp": 6260,
      "ĠrÃ©szÃ©re": 6261,
      "ea": 6262,
      "ĠlÃ©tezik": 6263,
      "ĠmÅ±hold": 6264,
      "ĠÃ©pÃŃtettek": 6265,
      "ĠÃ¼veg": 6266,
      "Ġ1951": 6267,
      "ĠvÃ¡ltak": 6268,
      "ĠkÃ¶rnyÃ©kÃ©n": 6269,
      "ĠgyÃ¼mÃ¶lcs": 6270,
      "Ãģll": 6271,
      "ektor": 6272,
      "ĠÃ©nekesnÅĳ": 6273,
      "korong": 6274,
      "Siker": 6275,
      "zsi": 6276,
      "2017": 6277,
      "sze": 6278,
      "ĠstÃŃlusban": 6279,
      "ĠfÃ©nykÃ©p": 6280,
      "ĠfÃ¶lÃ¶tt": 6281,
      "ĠRÃ³bert": 6282,
      "ĠmÃ©l": 6283,
      "szabÃ¡ly": 6284,
      "Ġels": 6285,
      "scar": 6286,
      "Ã¡ciÃ³ja": 6287,
      "velÅĳ": 6288,
      "Ġ1900": 6289,
      "Ã©nÃ©l": 6290,
      "fl": 6291,
      "Ġisz": 6292,
      "ĠComp": 6293,
      "Ġtil": 6294,
      "ĠPart": 6295,
      "ĠSzal": 6296,
      "abor": 6297,
      "ĠÃ¼zlet": 6298,
      "rag": 6299,
      "ĠcsatÃ¡ban": 6300,
      "ĠElek": 6301,
      "ĠgyÅĳzelem": 6302,
      "ĠrÃ©sztv": 6303,
      "ĠhozzÃ¡j": 6304,
      "falu": 6305,
      "ĠÃģltalÃ¡nos": 6306,
      "ozÃ³k": 6307,
      "erÃ¼l": 6308,
      "Ġtartalmazza": 6309,
      "Ã¶bben": 6310,
      "vek": 6311,
      "ĠcsalÃ¡di": 6312,
      "Ġkapu": 6313,
      "zÅĳi": 6314,
      "egysÃ©g": 6315,
      "szÃ¡ma": 6316,
      "olly": 6317,
      "ĠkatonÃ¡k": 6318,
      "ĠNob": 6319,
      "wig": 6320,
      "Ġmegkapta": 6321,
      "Ġleggyak": 6322,
      "Ġkur": 6323,
      "ĠjelentÅĳ": 6324,
      "ĠBu": 6325,
      "imÃ¡lis": 6326,
      "ĠminÅĳs": 6327,
      "ĠszÃ¼r": 6328,
      "ElÅĳfordul": 6329,
      "JegyzetekFordÃŃtÃ¡s": 6330,
      "Mag": 6331,
      "dok": 6332,
      "atÅĳr": 6333,
      "Ġamelyeket": 6334,
      "Ġkaptak": 6335,
      "ĠAlsÃ³": 6336,
      "ĠKn": 6337,
      "ettÅĳl": 6338,
      "Ġelvesz": 6339,
      "ĠÃģllami": 6340,
      "ĠCan": 6341,
      "ĠszenÃ¡tor": 6342,
      "ĠCsaba": 6343,
      "ĠtÅĳle": 6344,
      "Ġjelentek": 6345,
      "asok": 6346,
      "lÃ³k": 6347,
      "ĠBlack": 6348,
      "Ġalakban": 6349,
      "ĠkÃ¼ldÃ¶tt": 6350,
      "ĠlevÅĳ": 6351,
      "Ġopera": 6352,
      "Th": 6353,
      "ĠkÃ¶rÃ©ben": 6354,
      "Ñĥ": 6355,
      "Ġnevezett": 6356,
      "Ġ*": 6357,
      "Ġejt": 6358,
      "Ã©lÃ©k": 6359,
      "ĠHabsburg": 6360,
      "Ġrendezte": 6361,
      "ĠlÃ¡zad": 6362,
      "Ġelej": 6363,
      "htm": 6364,
      "ĠÃ¶sztÃ¶n": 6365,
      "ife": 6366,
      "âĢŀ": 6367,
      "viz": 6368,
      "ĠId": 6369,
      "anyelv": 6370,
      "JegyzetekForrÃ¡sokTovÃ¡bbi": 6371,
      "Ġ36": 6372,
      "ĠMexik": 6373,
      "ĠArch": 6374,
      "ÅĻ": 6375,
      "ĠHom": 6376,
      "ĠTour": 6377,
      "ĠÃ©lÃ©n": 6378,
      "Ġox": 6379,
      "ĠdrÃ¡m": 6380,
      "ĠkemÃ©ny": 6381,
      "ĠDie": 6382,
      "yom": 6383,
      "ĠvÃ¡llalat": 6384,
      "ĠkerÃ©k": 6385,
      "Ġfelk": 6386,
      "ĠKarl": 6387,
      "ĠalapÃŃtottÃ¡k": 6388,
      "Ġalkalmazott": 6389,
      "ukciÃ³": 6390,
      "idÅĳ": 6391,
      "ĠbetegsÃ©g": 6392,
      "Olasz": 6393,
      "Ġgyakorl": 6394,
      "omet": 6395,
      "Rendszer": 6396,
      "Ġzsin": 6397,
      "jÃ©k": 6398,
      "ĠcentimÃ©ter": 6399,
      "eletek": 6400,
      "ĠszÃŃnÅ±": 6401,
      "ĠvalÃ³jÃ¡ban": 6402,
      "Ġadtak": 6403,
      "osta": 6404,
      "Ã©zus": 6405,
      "ĠbizottsÃ¡g": 6406,
      "ĠÃĸn": 6407,
      "Ã©rd": 6408,
      "Ãºg": 6409,
      "Ġteremt": 6410,
      "ĠTar": 6411,
      "Ġarc": 6412,
      "ĠbetÅ±": 6413,
      "fest": 6414,
      "nter": 6415,
      "IX": 6416,
      "Ġhu": 6417,
      "Ġpat": 6418,
      "Ġszerinti": 6419,
      "ĠvÃ©gzÅĳ": 6420,
      "2018": 6421,
      "IS": 6422,
      "kutatÃ³": 6423,
      "ĠhullÃ¡m": 6424,
      "NevezetessÃ©gei": 6425,
      "iae": 6426,
      "ĠnagydÃŃj": 6427,
      "ĠhÅĳmÃ©rsÃ©klet": 6428,
      "Ġharang": 6429,
      "ĠbÃŃz": 6430,
      "ĠfÅĳt": 6431,
      "ĠvÃ©delm": 6432,
      "Ġotthon": 6433,
      "Ġerej": 6434,
      "Ġ1933": 6435,
      "Ad": 6436,
      "hetnek": 6437,
      "jÃ¡hoz": 6438,
      "opp": 6439,
      "techn": 6440,
      "ĠHold": 6441,
      "ĠRed": 6442,
      "Ġmegn": 6443,
      "ĠFerdinÃ¡nd": 6444,
      "ĠmegÅĳr": 6445,
      "Ġlej": 6446,
      "Ġsokat": 6447,
      "ĠÃ©rsek": 6448,
      "Ġ1932": 6449,
      "Ã©rem": 6450,
      "sÃ¡ggal": 6451,
      "lub": 6452,
      "Ġtengely": 6453,
      "ĠhangsÃºly": 6454,
      "ĠjelzÃ©s": 6455,
      "ĠvÃ¡lasztotta": 6456,
      "Ġfeletti": 6457,
      "Åĳd": 6458,
      "FÃ¶ld": 6459,
      "ĠMÃ¼nchen": 6460,
      "ĠUo": 6461,
      "ĠelÅĳl": 6462,
      "mÃ³dja": 6463,
      "ĠReform": 6464,
      "Ġkarrier": 6465,
      "Afr": 6466,
      "Szent": 6467,
      "ĠEzÃ©rt": 6468,
      "Ġtartoznak": 6469,
      "ĠbefolyÃ¡s": 6470,
      "HÃŃr": 6471,
      "oo": 6472,
      "ĠÃ©vre": 6473,
      "Kar": 6474,
      "szerte": 6475,
      "ElÅĳfordulÃ¡sa": 6476,
      "ĠKÃ¼lÃ¶n": 6477,
      "ĠszÃ¶vetsÃ©ges": 6478,
      "jelentÅĳsebb": 6479,
      "ivatkozÃ¡sok": 6480,
      "entr": 6481,
      "Ġ1931": 6482,
      "Ã¡fi": 6483,
      "Ã©gy": 6484,
      "ĠAng": 6485,
      "Ġvastag": 6486,
      "eter": 6487,
      "Ã¡lia": 6488,
      "Ġszeret": 6489,
      "ĠjÃ¡tÃ©kosa": 6490,
      "ĠVic": 6491,
      "ĠprÃ³bÃ¡l": 6492,
      "elmÃ©let": 6493,
      "ĠkettÅĳ": 6494,
      "Ġ1914": 6495,
      "ekhez": 6496,
      "Ã©nnyel": 6497,
      "ĠfesztivÃ¡l": 6498,
      "irg": 6499,
      "Ġmeleg": 6500,
      "Ġfolytatott": 6501,
      "Ġelkezd": 6502,
      "Ġahhoz": 6503,
      "Ġversenyt": 6504,
      "ĠvÃ¡lik": 6505,
      "ÑĮ": 6506,
      ".).": 6507,
      "Ġbemutatott": 6508,
      "lad": 6509,
      "Ġhelyettes": 6510,
      "1967": 6511,
      "ĠVI": 6512,
      "ĠkilomÃ©terre": 6513,
      "rib": 6514,
      "ĠAug": 6515,
      "Ġboldog": 6516,
      "ĠelÅĳny": 6517,
      "ferenci": 6518,
      "gyÅ±jtemÃ©ny": 6519,
      "ĠukrÃ¡n": 6520,
      "ĠSzÃ¶vet": 6521,
      "jÃ©vel": 6522,
      "Ġadja": 6523,
      "ĠhozzÃ¡jÃ¡r": 6524,
      "ĠÃ©rzÃ©k": 6525,
      "ezÃ©sÃ©t": 6526,
      "ĠadÃ³": 6527,
      "ĠStar": 6528,
      "Ã±": 6529,
      "Is": 6530,
      "ĠMari": 6531,
      "atus": 6532,
      "Ġ1913": 6533,
      "Ã³tÃ³l": 6534,
      "ĠMaria": 6535,
      "enkÃ©nt": 6536,
      "akciÃ³": 6537,
      "omba": 6538,
      "ozzÃ¡k": 6539,
      "ĠCa": 6540,
      "ĠMÃ¡t": 6541,
      "ĠEgyhÃ¡z": 6542,
      "etta": 6543,
      "HivatkozÃ¡sok": 6544,
      "ĠvilÃ¡ghÃ¡borÃºban": 6545,
      "Ð¸Ð": 6546,
      "ĠakadÃ©m": 6547,
      "Ġhalmaz": 6548,
      "Ġabb": 6549,
      "ĠbÃ©r": 6550,
      "esch": 6551,
      "Ġtorony": 6552,
      "ĠelÃ©": 6553,
      "oztak": 6554,
      "ĠkevÃ©sbÃ©": 6555,
      "ĠspeciÃ¡lis": 6556,
      "Ġdoktor": 6557,
      "Ġbot": 6558,
      "oul": 6559,
      "Ġkorabeli": 6560,
      "ole": 6561,
      "ÃŃja": 6562,
      "Ġmagazin": 6563,
      "Br": 6564,
      "ĠMot": 6565,
      "Ġszt": 6566,
      "ĠPap": 6567,
      "Ã³pÃ¡ly": 6568,
      "Ġ1925": 6569,
      "ĠnyarÃ¡n": 6570,
      "Ãį": 6571,
      "iptomi": 6572,
      "Ġ1926": 6573,
      "ĠdÃŃja": 6574,
      "ĠBay": 6575,
      "Ġpor": 6576,
      "ĠEbb": 6577,
      "Ġpp": 6578,
      "SE": 6579,
      "ream": 6580,
      "Ġ1927": 6581,
      "Ġdom": 6582,
      "ĠpÃ¡ncÃ©l": 6583,
      "jÃ¡rÃ³l": 6584,
      "ĠmÃ©rtÃ©kben": 6585,
      "ĠSk": 6586,
      "Ġ1912": 6587,
      "vidÃ©ki": 6588,
      "Ġelektromos": 6589,
      "ĠWind": 6590,
      "ĠegÃ©szsÃ©g": 6591,
      "ĠÃģdÃ¡m": 6592,
      "Szerep": 6593,
      "mi": 6594,
      "ĠRÃ¡kÃ³czi": 6595,
      "ues": 6596,
      "ĠMÅ±vÃ©szeti": 6597,
      "menet": 6598,
      "ĠMÃ³r": 6599,
      "olv": 6600,
      "ĠigazsÃ¡g": 6601,
      "ĠkezdemÃ©ny": 6602,
      "ĠerÅĳk": 6603,
      "elmes": 6604,
      "Ġrobban": 6605,
      "ĠMiskolc": 6606,
      "ĠSaint": 6607,
      "umok": 6608,
      "--": 6609,
      "ibl": 6610,
      "ĠkÃ©sÅĳ": 6611,
      "emmis": 6612,
      "ĠjÃ¡tÃ©kokon": 6613,
      "atai": 6614,
      "ciÃ³k": 6615,
      "zsia": 6616,
      "Ġipari": 6617,
      "Ã¼lÃ©se": 6618,
      "ĠlegkÃ¶zelebb": 6619,
      "ĠapÃ¡t": 6620,
      "Ġelker": 6621,
      "rukt": 6622,
      "ĠesemÃ©nyek": 6623,
      "ĠÅĳsi": 6624,
      "ĠkÃ³rhÃ¡z": 6625,
      "ispÃ¡n": 6626,
      "ĠkÃ¶ztÃ¡rsasÃ¡g": 6627,
      "Ġpatak": 6628,
      "Ġcsont": 6629,
      "Ġzavar": 6630,
      "Ġfolyt": 6631,
      "Ġfizikai": 6632,
      "ĠMay": 6633,
      "Ġ37": 6634,
      "irk": 6635,
      "rav": 6636,
      "Ġfelekezet": 6637,
      "ĠmÃºlva": 6638,
      "fajta": 6639,
      "ehet": 6640,
      "ĠSeb": 6641,
      "egyen": 6642,
      "ady": 6643,
      "Ã©rtelmÅ±": 6644,
      "Ã¡nci": 6645,
      "ĠAkadÃ©miai": 6646,
      "Ã¡li": 6647,
      "Ġatom": 6648,
      "ĠterÃ¼letek": 6649,
      "ĠAs": 6650,
      "Ġjelenlegi": 6651,
      "ĠLuk": 6652,
      "Ã¼h": 6653,
      "Ġorg": 6654,
      "ajÃ¡t": 6655,
      "ĠvizsgÃ¡lat": 6656,
      "La": 6657,
      "br": 6658,
      "Ġproc": 6659,
      "eles": 6660,
      "ĠLo": 6661,
      "ĠDzs": 6662,
      "iber": 6663,
      "Ġgl": 6664,
      "igur": 6665,
      "Ġmenet": 6666,
      "ĠkivÃ¡lt": 6667,
      "Ġlek": 6668,
      "Ġhelyezkedik": 6669,
      "Szab": 6670,
      "ĠInter": 6671,
      "ĠPetÅĳfi": 6672,
      "Ġvonult": 6673,
      "ĠkÃ¶zÃ¶nsÃ©g": 6674,
      "fÃ¼r": 6675,
      "kun": 6676,
      "elekmÃ©ny": 6677,
      "ube": 6678,
      "keresked": 6679,
      "Ġeny": 6680,
      "ĠmÃ©retÅ±": 6681,
      "jÃ¡rÃ¡s": 6682,
      "nel": 6683,
      "ĠvÃ©lemÃ©ny": 6684,
      "ĠAut": 6685,
      "vezÃ©r": 6686,
      "okba": 6687,
      "ĠhatÃ¡sa": 6688,
      "ÃŃtÃ¡sÃ¡val": 6689,
      "ĠmellÃ©": 6690,
      "ĠPozsony": 6691,
      "ĠvÃ©gÃ©ig": 6692,
      "ĠkiemelkedÅĳ": 6693,
      "ĠkÃ©szÃŃtette": 6694,
      "izÃ¡ciÃ³": 6695,
      "ĠGir": 6696,
      "ĠtartalmazÃ³": 6697,
      "rey": 6698,
      "Ġmegnyerte": 6699,
      "Ġkocs": 6700,
      "Ġmajdnem": 6701,
      "Ġnemesi": 6702,
      "Ġtemplomot": 6703,
      "kot": 6704,
      "empl": 6705,
      "ĠHit": 6706,
      "ĠDor": 6707,
      "ĠformÃ¡ban": 6708,
      "Ġigazi": 6709,
      "ua": 6710,
      "Ã©sÃ¼k": 6711,
      "udv": 6712,
      "gyilkos": 6713,
      "ellyel": 6714,
      "ĠnyomÃ¡n": 6715,
      "Ġident": 6716,
      "1944": 6717,
      "Ġ38": 6718,
      "ĠalapÃŃtÃ³": 6719,
      "Ġbejelentette": 6720,
      "Ã©rmet": 6721,
      "iki": 6722,
      "elli": 6723,
      "round": 6724,
      "ĠjÃ¡rmÅ±": 6725,
      "2020": 6726,
      "okÃ¡l": 6727,
      "ĠlÃ¡tta": 6728,
      "ĠÃ©rtek": 6729,
      "Ġlenne": 6730,
      "AF": 6731,
      "kov": 6732,
      "ĠlÃ©l": 6733,
      "csarnok": 6734,
      "oma": 6735,
      "ĠvasÃºtvonalak": 6736,
      "Ġversenyen": 6737,
      "archia": 6738,
      "ĠBÃ¡n": 6739,
      "ĠGond": 6740,
      "ĠIlyen": 6741,
      "ĠbolygÃ³": 6742,
      "Ġbes": 6743,
      "had": 6744,
      "Ġalakja": 6745,
      "uli": 6746,
      "ĠkÃ¡rt": 6747,
      "ĠOp": 6748,
      "ĠNÃ©hÃ¡ny": 6749,
      "ĠKÅĳ": 6750,
      "field": 6751,
      "Ã¡llt": 6752,
      "Ġeleg": 6753,
      "eml": 6754,
      "Ġkincs": 6755,
      "ĠkÃ¶nyvek": 6756,
      "adtÃ¡k": 6757,
      "Ġhasznos": 6758,
      "Mind": 6759,
      "atty": 6760,
      "ops": 6761,
      "Ġrajt": 6762,
      "Ġorvosi": 6763,
      "ogrÃ¡fi": 6764,
      "Ã¼ntetÅĳ": 6765,
      "ĠEdit": 6766,
      "Ġmozgalom": 6767,
      "ĠUnited": 6768,
      "eai": 6769,
      "Ġesk": 6770,
      "icus": 6771,
      "Ġszinkron": 6772,
      "ĠtanÃŃtvÃ¡ny": 6773,
      "Ġ1921": 6774,
      "Ġoszlop": 6775,
      "Ġ34": 6776,
      "Ġ1924": 6777,
      "Ġten": 6778,
      "Ġcivil": 6779,
      "ĠMiss": 6780,
      "ĠUk": 6781,
      "Ġrendszeresen": 6782,
      "ĠkezdtÃ©k": 6783,
      "ĠmadÃ¡r": 6784,
      "emokrat": 6785,
      "ĠRÃ³mai": 6786,
      "Ġinnen": 6787,
      "ĠnÃ©metek": 6788,
      "Ġsokszor": 6789,
      "ĠÃ¶k": 6790,
      "Ġmem": 6791,
      "ĠszerepÃ©t": 6792,
      "falva": 6793,
      "ĠGÃ¶rÃ¶g": 6794,
      "ĠÃ©rett": 6795,
      "Ġemiatt": 6796,
      "osszÃº": 6797,
      "Ġmilyen": 6798,
      "VI": 6799,
      "cser": 6800,
      "ĠÃ©rtÃ©kes": 6801,
      "Ġkanadai": 6802,
      "ope": 6803,
      "rev": 6804,
      "ĠrÃ©szes": 6805,
      "Ġkard": 6806,
      "anya": 6807,
      "ĠmunkÃ¡ja": 6808,
      "ĠSoci": 6809,
      "Ġ2024": 6810,
      "mot": 6811,
      "ĠlÃ©trejÃ¶tt": 6812,
      "ĠÃ¡ltala": 6813,
      "ĠrendezvÃ©ny": 6814,
      "Ġhonos": 6815,
      "ĠtanÃ¡ra": 6816,
      "ĠvilÃ¡gbajnoki": 6817,
      "labd": 6818,
      "ĠkÃ¡r": 6819,
      "esfehÃ©r": 6820,
      "kezdÅĳ": 6821,
      "Ġenergia": 6822,
      "ĠtalÃ¡ltak": 6823,
      "ĠKirÃ¡lyi": 6824,
      "nya": 6825,
      "egyik": 6826,
      "fil": 6827,
      "ĠUEFA": 6828,
      "ĠrendezÃ©s": 6829,
      "Ġhaza": 6830,
      "ĠÃ¡llomÃ¡st": 6831,
      "ĠjelkÃ©p": 6832,
      "ĠÃĸr": 6833,
      "ĠLegjobb": 6834,
      "ĠSzerk": 6835,
      "Ġelterjedt": 6836,
      "tori": 6837,
      "ĠjanuÃ¡rjÃ¡ban": 6838,
      "Ġmegsemmis": 6839,
      "ĠlegjelentÅĳsebb": 6840,
      "ĠvalÃ³di": 6841,
      "ĠcsÃ¶kken": 6842,
      "ĠkÃ©pviselÅĳk": 6843,
      "Ha": 6844,
      "ĠÃ¶nmag": 6845,
      "ĠSÃ¡r": 6846,
      "ĠEle": 6847,
      "Ġnapjaink": 6848,
      "ense": 6849,
      "anta": 6850,
      "ĠJim": 6851,
      "razil": 6852,
      "elnek": 6853,
      "Ġ300": 6854,
      "ĠVers": 6855,
      "arest": 6856,
      "ĠvevÅĳ": 6857,
      "Ġse": 6858,
      "asa": 6859,
      "ĠÃįr": 6860,
      "ĠvÃ¡ltozÃ¡sÃ¡t": 6861,
      "udÃ³s": 6862,
      "1966": 6863,
      "Ġlenni": 6864,
      "ĠszomszÃ©dos": 6865,
      "ĠmegÃ©r": 6866,
      "okhoz": 6867,
      "ator": 6868,
      "Ġdiagram": 6869,
      "ĠBert": 6870,
      "ĠHely": 6871,
      "ĠÃ¡llnak": 6872,
      "ĠhelyÃ©re": 6873,
      "ÃŃtÃ©sÃ©t": 6874,
      "ĠvasÃºtvonal": 6875,
      "ĠmezÅĳgazdasÃ¡gi": 6876,
      "ĠHerm": 6877,
      "Ã¡nsz": 6878,
      "Ġforint": 6879,
      "ĠIvÃ¡n": 6880,
      "vak": 6881,
      "Ġablak": 6882,
      "ĠJÃ©zus": 6883,
      "ongressz": 6884,
      "lip": 6885,
      "Ġanyanyelv": 6886,
      "lÃ¡b": 6887,
      "ĠpozitÃŃv": 6888,
      "Ġkommunik": 6889,
      "ĠslÃ¡g": 6890,
      "ĠerÅĳszak": 6891,
      "ĠszempontbÃ³l": 6892,
      "ĠtÃ¶k": 6893,
      "izsi": 6894,
      "Ind": 6895,
      "Ġtartja": 6896,
      "Ġdem": 6897,
      "ĠKaz": 6898,
      "jebb": 6899,
      "ĠhalÃ¡lÃ¡ig": 6900,
      "vÃ¡logatott": 6901,
      "ĠszÃ¡ndÃ©k": 6902,
      "VasÃºt": 6903,
      "Ġstabil": 6904,
      "ĠfÅĳiskolai": 6905,
      "ĠmeghÃŃv": 6906,
      "pi": 6907,
      "egyed": 6908,
      "etlenÃ¼l": 6909,
      "ĠMolnÃ¡r": 6910,
      "ĠLap": 6911,
      "falz": 6912,
      "ĠkÃ¶rÃ¼lmÃ©nyek": 6913,
      "iff": 6914,
      "ĠTok": 6915,
      "ĠDani": 6916,
      "Ġmilli": 6917,
      "vilÃ¡ga": 6918,
      "Ġfejezet": 6919,
      "Ġcsatorn": 6920,
      "ozÃ¡si": 6921,
      "Ġmelyeket": 6922,
      "ĠkÃ¶ltÅĳk": 6923,
      "Ġfriss": 6924,
      "ĠMer": 6925,
      "efon": 6926,
      "Ġkevesebb": 6927,
      "illenty": 6928,
      "Ã¡jÃ¡ra": 6929,
      "Ġfer": 6930,
      "atemplom": 6931,
      "NS": 6932,
      "ĠgÃ³t": 6933,
      "net": 6934,
      "ĠRoy": 6935,
      "usztria": 6936,
      "edzs": 6937,
      "ER": 6938,
      "ĠDes": 6939,
      "tatott": 6940,
      "vert": 6941,
      "even": 6942,
      "Sch": 6943,
      "ĠÃ¼gyvÃ©d": 6944,
      "Ġrekord": 6945,
      "ulnak": 6946,
      "ĠirÃ¡nyban": 6947,
      "Ġnyer": 6948,
      "ĠkÃ¶nnyen": 6949,
      "ĠTop": 6950,
      "ĠRÃ¡diÃ³": 6951,
      "ĠkolozsvÃ¡ri": 6952,
      "ĠKutat": 6953,
      "ho": 6954,
      "eszked": 6955,
      "Ã¡sokkal": 6956,
      "ĠkÃ¶tÅĳ": 6957,
      "ĠvÃ¡ll": 6958,
      "elhetÅĳ": 6959,
      "Ġtitkos": 6960,
      "ĠÃ¡llÃ¡s": 6961,
      "ĠHungar": 6962,
      "ĠtemetÅĳben": 6963,
      "ÃģV": 6964,
      "Ġhomlok": 6965,
      "ĠFil": 6966,
      "osabb": 6967,
      "ĠminÅĳsÃ©g": 6968,
      "janak": 6969,
      "Ġhttps": 6970,
      "ĠErnÅĳ": 6971,
      "ĠbÃ¡n": 6972,
      "ische": 6973,
      "ĠeredmÃ©nyt": 6974,
      "ĠRD": 6975,
      "ĠLengyelorszÃ¡g": 6976,
      "Ġkezdet": 6977,
      "cy": 6978,
      "Ã¡tyja": 6979,
      "ĠtÃ¶rtÃ©nik": 6980,
      "Ġqu": 6981,
      "ĠlÃ³": 6982,
      "ague": 6983,
      "HÃŃres": 6984,
      "ancsnok": 6985,
      "ĠSvÃ©d": 6986,
      "Ã¡borÃºt": 6987,
      "ĠfÃ¼": 6988,
      "oper": 6989,
      "Ġhav": 6990,
      "Ġveszi": 6991,
      "Ġoka": 6992,
      "ĠBod": 6993,
      "Ġlegfel": 6994,
      "uan": 6995,
      "atlapja": 6996,
      "dor": 6997,
      "enberg": 6998,
      "szerek": 6999,
      "ĠNB": 7000,
      "ĠamÃŃg": 7001,
      "Ġsoha": 7002,
      "Kor": 7003,
      "ĠBre": 7004,
      "ĠJÃ¡sz": 7005,
      "ĠMint": 7006,
      "szerÅ±en": 7007,
      "ÃŃna": 7008,
      "ĠvÃ©gsÅĳ": 7009,
      "ĠInternational": 7010,
      "ĠBarlang": 7011,
      "ĠifjÃºsÃ¡gi": 7012,
      "utsch": 7013,
      "Ġhozta": 7014,
      "Ã¡gÃ³": 7015,
      "ĠSZ": 7016,
      "ĠegysÃ©ges": 7017,
      "Ġgyilkos": 7018,
      "Ã¡snak": 7019,
      "Ġmegismer": 7020,
      "seg": 7021,
      "ĠszemÃ©lyisÃ©g": 7022,
      "ajzs": 7023,
      "rÃŃ": 7024,
      "Ġemig": 7025,
      "Sikerei": 7026,
      "Ġeltem": 7027,
      "Ã¡sÃ¡hoz": 7028,
      "âĪĴ": 7029,
      "ĠGall": 7030,
      "ĠhelyÃ©t": 7031,
      "ety": 7032,
      "onÃ³m": 7033,
      "Ġfelvon": 7034,
      "Ġgyermeke": 7035,
      "ric": 7036,
      "aster": 7037,
      "Ã³ceÃ¡n": 7038,
      "ling": 7039,
      "ĠkÃ¶nnyÅ±": 7040,
      "Ġkupa": 7041,
      "Ã³ria": 7042,
      "ĠHill": 7043,
      "ĠszÃ¶vetsÃ©g": 7044,
      "ĠHaz": 7045,
      "ĠnyomÃ¡s": 7046,
      "Ġ1922": 7047,
      "ĠaprÃ³": 7048,
      "ques": 7049,
      "ĠIskola": 7050,
      "inae": 7051,
      "ower": 7052,
      "Ġ2023": 7053,
      "ĠfÅĳherceg": 7054,
      "rÃ³mai": 7055,
      "ĠMezÅĳ": 7056,
      "Ġstatiszt": 7057,
      "etÃ©si": 7058,
      "right": 7059,
      "Ġfak": 7060,
      "ĠfÃ¼l": 7061,
      "ĠszegÃ©ny": 7062,
      "ĠÃ¡llomÃ¡ny": 7063,
      "ĠÃ©pÃŃtt": 7064,
      "ĠjÃ¡rat": 7065,
      "Ġigyek": 7066,
      "enyÃ©szt": 7067,
      "kÃ¶v": 7068,
      "ĠjÃ¡rÃ³": 7069,
      "utak": 7070,
      "Ġkapcsolatok": 7071,
      "Ġhivatkoz": 7072,
      "jÃ¶n": 7073,
      "ĠIrodalmi": 7074,
      "Ġfinn": 7075,
      "Ed": 7076,
      "szerkez": 7077,
      "hatjuk": 7078,
      "Ġmegfigy": 7079,
      "polgÃ¡r": 7080,
      "edÃ©s": 7081,
      "cikk": 7082,
      "Ã¡lint": 7083,
      "isztr": 7084,
      "ĠSci": 7085,
      "ĠHaj": 7086,
      "ĠnÃ©ha": 7087,
      "sÃ¡gÃ¡nak": 7088,
      "1965": 7089,
      "ĠEszter": 7090,
      "Ġszerencs": 7091,
      "ual": 7092,
      "ĠmunkatÃ¡rsa": 7093,
      "ĠmunkÃ¡t": 7094,
      "ĠLuc": 7095,
      "ohn": 7096,
      "Ġkontin": 7097,
      "Ġdo": 7098,
      "heim": 7099,
      "ĠmÃ¡sodperc": 7100,
      "foglal": 7101,
      "airÃ³l": 7102,
      "ĠÅł": 7103,
      "ĠrakÃ©t": 7104,
      "alja": 7105,
      "ĠemlÅĳsei": 7106,
      "ĠellentÃ©tben": 7107,
      "hard": 7108,
      "Ã¼net": 7109,
      "Ġhunyt": 7110,
      "ĠgÃ¶rÃ¶gkatolikus": 7111,
      "aiak": 7112,
      "edek": 7113,
      "ĠszerzÅĳdÃ©st": 7114,
      "Ġlovas": 7115,
      "ograph": 7116,
      "ĠCz": 7117,
      "Ġterh": 7118,
      "Ġfilmet": 7119,
      "Ġmegak": 7120,
      "szerint": 7121,
      "ĠvÃ©dÅĳ": 7122,
      "isztikus": 7123,
      "Â½": 7124,
      "ÈĽ": 7125,
      "ĠlehetÅĳsÃ©get": 7126,
      "mÅ±vÃ©szet": 7127,
      "1964": 7128,
      "Ġvalamely": 7129,
      "ĠSzÃ¡mos": 7130,
      "mezÅĳ": 7131,
      "ĠÃ©ltek": 7132,
      "ĠAlf": 7133,
      "oszlÃ¡s": 7134,
      "felÃ©": 7135,
      "Ġpontot": 7136,
      "ĠLouis": 7137,
      "ĠMir": 7138,
      "Ã¨re": 7139,
      "Ġpalot": 7140,
      "Ġ120": 7141,
      "ĠausztrÃ¡l": 7142,
      "letek": 7143,
      "vÃ¡jc": 7144,
      "ato": 7145,
      "etes": 7146,
      "Ġhird": 7147,
      "ray": 7148,
      "ĠSil": 7149,
      "ĠnyÃºl": 7150,
      "ĠmÅ±faj": 7151,
      "Ġkijelent": 7152,
      "CsalÃ¡d": 7153,
      "Ã©nes": 7154,
      "Ġcsod": 7155,
      "ĠbemutatÃ³": 7156,
      "ĠÃ¶nt": 7157,
      "kÃ©pzÅĳ": 7158,
      "ĠkÃ¶zsÃ©gben": 7159,
      "ĠFIFA": 7160,
      "Ġrec": 7161,
      "cid": 7162,
      "eire": 7163,
      "uri": 7164,
      "ĠerdÅĳk": 7165,
      "ĠbÃºcs": 7166,
      "ĠBro": 7167,
      "Ġegykor": 7168,
      "afr": 7169,
      "ĠVeszprÃ©m": 7170,
      "nyÃ©k": 7171,
      "Ġutcai": 7172,
      "Ã¡ld": 7173,
      "Å±nÅĳ": 7174,
      "agon": 7175,
      "Ġ1923": 7176,
      "ejÅ±": 7177,
      "ĠtelepÃ¼lÃ©st": 7178,
      "szerzÃ©s": 7179,
      "Ġszervezett": 7180,
      "Ġanyagi": 7181,
      "igazgatÃ¡s": 7182,
      "Ġ48": 7183,
      "ĠSopron": 7184,
      "ĠCsillag": 7185,
      "oham": 7186,
      "ĠkitÃ¶r": 7187,
      "gium": 7188,
      "Ġtartottak": 7189,
      "ĠszÃŃnpad": 7190,
      "ĠSE": 7191,
      "DF": 7192,
      "bi": 7193,
      "impiai": 7194,
      "Ġharmad": 7195,
      "Ġkidolg": 7196,
      "szÃŃnhÃ¡z": 7197,
      "Ã©lzet": 7198,
      "ĠStr": 7199,
      "Ġvisszaf": 7200,
      "Ġtengeri": 7201,
      "hatta": 7202,
      "ĠszemÃ©lyes": 7203,
      "onÃ¡t": 7204,
      "ĠKanad": 7205,
      "atmÃ¡r": 7206,
      "Ġnyitott": 7207,
      "emÅ±": 7208,
      "ĠÃ©rtelmÃ©ben": 7209,
      "Ã³ba": 7210,
      "Ġ1911": 7211,
      "rogÃ©n": 7212,
      "ĠorszÃ¡gok": 7213,
      "Ġmegnyit": 7214,
      "Term": 7215,
      "ĠcsalÃ¡dok": 7216,
      "ĠmegjelenÃ©se": 7217,
      "Ã³kkal": 7218,
      "ĠmÅ±szaki": 7219,
      "Ġakarta": 7220,
      "ublic": 7221,
      "hÃ¡zy": 7222,
      "atart": 7223,
      "ĠReformÃ¡tus": 7224,
      "ĠmÅ±ford": 7225,
      "ĠhatÃ©kony": 7226,
      "ĠÃīdes": 7227,
      "sok": 7228,
      "Ġ1000": 7229,
      "ĠtekinthetÅĳ": 7230,
      "ĠOscar": 7231,
      "ĠvÃ¡rosrÃ©sz": 7232,
      "ĠdÃŃjai": 7233,
      "ĠÃ©n": 7234,
      "Ã¡stÃ³l": 7235,
      "kÃ¡n": 7236,
      "Ġdzs": 7237,
      "Ġruh": 7238,
      "ĠsokÃ¡ig": 7239,
      "ĠLud": 7240,
      "mill": 7241,
      "ĠkÃ©pzÃ©s": 7242,
      "etÃ©st": 7243,
      "ĠBalaton": 7244,
      "Cl": 7245,
      "ĠGrand": 7246,
      "Ki": 7247,
      "ĠEbbÅĳl": 7248,
      "1956": 7249,
      "ezmÃ©ny": 7250,
      "Ġvul": 7251,
      "elÃ©st": 7252,
      "por": 7253,
      "ĠSir": 7254,
      "ĠÃ©vente": 7255,
      "ĠBol": 7256,
      "jainak": 7257,
      "ĠMaur": 7258,
      "ĠJoseph": 7259,
      "ĠBatt": 7260,
      "ĠEgyiptom": 7261,
      "ĠmielÅĳtt": 7262,
      "kÃ¼lÃ¶nbÃ¶zt": 7263,
      "ĠrÃ©gÃ©szeti": 7264,
      "ĠbizonyÃŃt": 7265,
      "Ġfeladata": 7266,
      "ĠmagyarÃ¡z": 7267,
      "ĠÃģgnes": 7268,
      "Ġkommunista": 7269,
      "kg": 7270,
      "oduc": 7271,
      "ĠUl": 7272,
      "Ġszal": 7273,
      "aff": 7274,
      "ĠfÃ¶ldes": 7275,
      "ĠszÃ¡n": 7276,
      "Ġkeletkezett": 7277,
      "ĠFal": 7278,
      "Har": 7279,
      "erem": 7280,
      "ezÃ©si": 7281,
      "mint": 7282,
      "ĠViktor": 7283,
      "urkol": 7284,
      "szÃ¶veg": 7285,
      "jekÃ©nt": 7286,
      "Pfalz": 7287,
      "vÃ¡llal": 7288,
      "ĠcÃŃme": 7289,
      "ilia": 7290,
      "Ġemellett": 7291,
      "ĠveresÃ©get": 7292,
      "ĠszabadsÃ¡gharc": 7293,
      "ĠAngeles": 7294,
      "ÃŁ": 7295,
      "ilit": 7296,
      "vizsg": 7297,
      "ĠBoy": 7298,
      "Ġkath": 7299,
      "nai": 7300,
      "Ġvettek": 7301,
      "ĠLy": 7302,
      "ĠCsehorszÃ¡gban": 7303,
      "Ġhangja": 7304,
      "ĠÃ¶sszetett": 7305,
      "Ġ75": 7306,
      "ĠterÃ¼letet": 7307,
      "program": 7308,
      "ĠÃ©lnek": 7309,
      "ations": 7310,
      "ĠmÃ©sz": 7311,
      "olek": 7312,
      "ierre": 7313,
      "board": 7314,
      "Ġsokan": 7315,
      "pÃ³t": 7316,
      "ĠJackson": 7317,
      "ĠSol": 7318,
      "ĠMic": 7319,
      "irodalmi": 7320,
      "ellenes": 7321,
      "ÃŃa": 7322,
      "Ã¶ket": 7323,
      "Ġnyelvek": 7324,
      "Ġszervezetek": 7325,
      "aporod": 7326,
      "Zs": 7327,
      "ĠÃ¼lt": 7328,
      "arth": 7329,
      "ĠmutattÃ¡k": 7330,
      "Ã¡fÃ©rÃ©s": 7331,
      "ĠDob": 7332,
      "Gu": 7333,
      "Ġneg": 7334,
      "anz": 7335,
      "ĠolimpiÃ¡n": 7336,
      "ĠegyenlÅĳ": 7337,
      "ĠJudit": 7338,
      "Ġparaszt": 7339,
      "list": 7340,
      "ĠkivÃ©g": 7341,
      "ĠÃ©rintik": 7342,
      "andr": 7343,
      "ĠAtlant": 7344,
      "nivalÃ³k": 7345,
      "ĠmegtÃ¡m": 7346,
      "engeteg": 7347,
      "zÃ¡r": 7348,
      "Ġkever": 7349,
      "Ã¡gr": 7350,
      "ĠnyÃ¡r": 7351,
      "vÃ¡sÃ¡rhely": 7352,
      "ttÃ©": 7353,
      "ĠrepÃ¼lÅĳtÃ©r": 7354,
      "Ġren": 7355,
      "ĠmegÃ¶l": 7356,
      "vasÃºt": 7357,
      "Ã¼letek": 7358,
      "Ġeh": 7359,
      "legesen": 7360,
      "1960": 7361,
      "szÃ¡s": 7362,
      "orum": 7363,
      "Ġbeh": 7364,
      "Ã¡csi": 7365,
      "Ġkan": 7366,
      "Ġelsz": 7367,
      "ĠCamp": 7368,
      "ÄĽ": 7369,
      "Ã©kek": 7370,
      "Ġwith": 7371,
      "Ã©ra": 7372,
      "2021": 7373,
      "ĠszÃ¡mÃŃtott": 7374,
      "oba": 7375,
      "Ġarch": 7376,
      "?)": 7377,
      "ĠidÅĳt": 7378,
      "Ġannyira": 7379,
      "rot": 7380,
      "Ġamivel": 7381,
      "ĠSzÃ©chenyi": 7382,
      "ĠkÃ¶zvet": 7383,
      "ĠÃīrdemrend": 7384,
      "une": 7385,
      "Ġlegismertebb": 7386,
      "ĠSpeci": 7387,
      "Ġug": 7388,
      "OS": 7389,
      "orit": 7390,
      "ĠRev": 7391,
      "LÃ¡sd": 7392,
      "ĠVad": 7393,
      "ĠFried": 7394,
      "Ġ...": 7395,
      "ĠKam": 7396,
      "ĠHav": 7397,
      "ĠÃ¶reg": 7398,
      "tain": 7399,
      "Åĳleges": 7400,
      "ĠmeghatÃ¡rozÃ³": 7401,
      "Ġotth": 7402,
      "hatunk": 7403,
      "atÃ©r": 7404,
      "ĠfÅĳÃºt": 7405,
      "Ã¡polyi": 7406,
      "tatÃ¡si": 7407,
      "ĠmÃ©ltÃ³": 7408,
      "okrÃ³l": 7409,
      "rei": 7410,
      "ĠVis": 7411,
      "veszt": 7412,
      "ĠazutÃ¡n": 7413,
      "ĠelbeszÃ©l": 7414,
      "ajÃ¡n": 7415,
      "Ġkeletre": 7416,
      "dnek": 7417,
      "1948": 7418,
      "eurÃ³pai": 7419,
      "ĠszÅ±k": 7420,
      "ĠfolyÃ³irat": 7421,
      "ĠmegvÃ¡laszt": 7422,
      "aris": 7423,
      "ĠszÃ©khely": 7424,
      "ĠegyÃ©rtelmÅ±": 7425,
      "ristÃ¡ly": 7426,
      "ĠSw": 7427,
      "vezet": 7428,
      "Ġ44": 7429,
      "Ġmagukat": 7430,
      "ĠsvÃ¡jci": 7431,
      "Ã¶rny": 7432,
      "arak": 7433,
      "pel": 7434,
      "ĠorszÃ¡got": 7435,
      "intÃ©zet": 7436,
      "enev": 7437,
      "ĠkÃ©szÃŃt": 7438,
      "Ã¸": 7439,
      "okA": 7440,
      "ĠJakab": 7441,
      "Ġeur": 7442,
      "adÃ¡sa": 7443,
      "rah": 7444,
      "ĠSmith": 7445,
      "Ġ1917": 7446,
      "ĠtanszÃ©k": 7447,
      "Ã¼sz": 7448,
      "ple": 7449,
      "ĠeredmÃ©nyek": 7450,
      "ĠHel": 7451,
      "1962": 7452,
      "ĠVarga": 7453,
      "Ġmessz": 7454,
      "Ã¶sszeg": 7455,
      "ĠNobel": 7456,
      "ĠHonvÃ©d": 7457,
      "Ġelrend": 7458,
      "mÅ±vel": 7459,
      "igitÃ¡lis": 7460,
      "ĠRobin": 7461,
      "seb": 7462,
      "Ġplat": 7463,
      "ombin": 7464,
      "ĠjelentÅĳsÃ©g": 7465,
      "ook": 7466,
      "Ġfrom": 7467,
      "Ġbirodalom": 7468,
      "aras": 7469,
      "ĠbiztosÃŃt": 7470,
      "ĠtÃ¶bbsÃ©ge": 7471,
      "ĠSant": 7472,
      "ĠEmellett": 7473,
      "ĠtulajdonsÃ¡g": 7474,
      "Ã¡bla": 7475,
      "onstr": 7476,
      "ĠBajor": 7477,
      "Ġkapcs": 7478,
      "ology": 7479,
      "mos": 7480,
      "ĠKun": 7481,
      "ĠportugÃ¡l": 7482,
      "iÃ¡ba": 7483,
      "kezÃ©s": 7484,
      "Ð½Ð¸": 7485,
      "Ġfert": 7486,
      "olva": 7487,
      "ĠRod": 7488,
      "Ġharm": 7489,
      "ÃŃtÃ©si": 7490,
      "over": 7491,
      "Ġfogva": 7492,
      "ogi": 7493,
      "ĠkitÃ¼ntetÃ©s": 7494,
      "ĠÃ©rdem": 7495,
      "ĠÃ©rtÃ©ke": 7496,
      "ilk": 7497,
      "ript": 7498,
      "ĠKa": 7499,
      "Ġhideg": 7500,
      "ĠSC": 7501,
      "edt": 7502,
      "Ġkoncentr": 7503,
      "inal": 7504,
      "ĠRam": 7505,
      "isztÃ¡n": 7506,
      "Ġpillan": 7507,
      "szÃ©l": 7508,
      "Ġmaradtak": 7509,
      "ĠJelenleg": 7510,
      "ĠNational": 7511,
      "Ant": 7512,
      "Ġszex": 7513,
      "csa": 7514,
      "ĠKecskemÃ©t": 7515,
      "Ġmagyarul": 7516,
      "Amerika": 7517,
      "ĠCast": 7518,
      "ĠgyÅ±l": 7519,
      "ĠszÃ¡mok": 7520,
      "ĠStan": 7521,
      "ĠakadÃ¡ly": 7522,
      "Ġhalak": 7523,
      "ĠpÃ¡lyafutÃ¡sa": 7524,
      "ĠmÃ¡jusÃ¡ban": 7525,
      "ĠmegakadÃ¡ly": 7526,
      "ĠTanulmÃ¡ny": 7527,
      "Ġmechan": 7528,
      "ĠvÃ¡ndor": 7529,
      "by": 7530,
      "ĠvideÃ³k": 7531,
      "rÃ¡t": 7532,
      "endes": 7533,
      "csapatok": 7534,
      "zene": 7535,
      "Ġkatona": 7536,
      "Ã¶vÅĳ": 7537,
      "Ġkritikus": 7538,
      "ĠkormÃ¡nyzÃ³": 7539,
      "ĠÃ¶z": 7540,
      "Ã¡jÃ¡val": 7541,
      "Ã©tlen": 7542,
      "ĠzÃ¡szlÃ³": 7543,
      "Ã³knak": 7544,
      "kin": 7545,
      "szÃ¶vet": 7546,
      "Ġszek": 7547,
      "ĠhajtÃ³": 7548,
      "ĠkitÃ¼nt": 7549,
      "ĠKÃ¶zl": 7550,
      "tex": 7551,
      "ukor": 7552,
      "kora": 7553,
      "Ġmegrendezett": 7554,
      "ĠÃ¡llamban": 7555,
      "001": 7556,
      "chester": 7557,
      "Ġfokozatosan": 7558,
      "csi": 7559,
      "ĠhÃºs": 7560,
      "ione": 7561,
      "ĠrÃ¡k": 7562,
      "ĠszeptemberÃ©ben": 7563,
      "cionÃ¡lis": 7564,
      "ĠSzÃ¡sz": 7565,
      "ĠÃ©rvÃ©nyes": 7566,
      "ĠsÃ¡rga": 7567,
      "Ã¡llam": 7568,
      "ĠmezÅĳgazdasÃ¡g": 7569,
      "Ġautom": 7570,
      "Ġ1908": 7571,
      "ĠjÃ©gkorong": 7572,
      "ĠtettÃ©k": 7573,
      "Ġdala": 7574,
      "Ã¡zsiai": 7575,
      "hn": 7576,
      "Ġelb": 7577,
      "Ġbont": 7578,
      "ĠNyÃŃr": 7579,
      "ĠnÃ©gyzet": 7580,
      "Ġ1880": 7581,
      "ellÃ¡t": 7582,
      "ĠÃ©k": 7583,
      "ĠSzegedi": 7584,
      "ĠnagyjÃ¡bÃ³l": 7585,
      "Statiszt": 7586,
      "uttat": 7587,
      "exikÃ³i": 7588,
      "Ã¡llÃŃtott": 7589,
      "ĠdecemberÃ©ben": 7590,
      "ĠFord": 7591,
      "ergom": 7592,
      "ÃīletmÃ³dja": 7593,
      "dÃ©k": 7594,
      "ĠDVD": 7595,
      "Ġrel": 7596,
      "szerzÅĳk": 7597,
      "Ġ150": 7598,
      "Mi": 7599,
      "Ġelveszt": 7600,
      "ĠmeghatÃ¡rozott": 7601,
      "nos": 7602,
      "ĠBas": 7603,
      "ĠDem": 7604,
      "ĠpozÃŃciÃ³": 7605,
      "ĠMegyei": 7606,
      "1963": 7607,
      "ionÃ¡lis": 7608,
      "Ġkezdetben": 7609,
      "ĠkapcsolÃ³dÃ³": 7610,
      "Ġszentelt": 7611,
      "ĠÃ¼ld": 7612,
      "Ġjelenik": 7613,
      "Ġno": 7614,
      "inf": 7615,
      "Ġbez": 7616,
      "ĠMatt": 7617,
      "ĠTÃ¡rsulat": 7618,
      "fokÃº": 7619,
      "Ġhip": 7620,
      "mosz": 7621,
      "ÑģÐº": 7622,
      "Ã«": 7623,
      "ĠMerc": 7624,
      "sÃ©gÅ±": 7625,
      "ĠnÃ©zÅĳ": 7626,
      "elmiszer": 7627,
      "stit": 7628,
      "Ġeredete": 7629,
      "afrikai": 7630,
      "Ġbit": 7631,
      "ĠCas": 7632,
      "szerÅ±bb": 7633,
      "1961": 7634,
      "ĠvasÃºtÃ¡llomÃ¡sai": 7635,
      "lel": 7636,
      "kÃ©": 7637,
      "ĠtÃ©tel": 7638,
      "jelÃ¶lt": 7639,
      "MA": 7640,
      "ĠelÅĳkÃ©sz": 7641,
      "eszÃ¡nsz": 7642,
      "ĠLeague": 7643,
      "iratok": 7644,
      "Ġ42": 7645,
      "ĠtÃ¶rÃ¶kÃ¶k": 7646,
      "vonalakAz": 7647,
      "Ã¡gyi": 7648,
      "kÃ©k": 7649,
      "artÃ³z": 7650,
      "Ã¡szl": 7651,
      "ĠlabdarÃºgÃ³kLabdarÃºgÃ³": 7652,
      "Ġegyiptomi": 7653,
      "ĠFe": 7654,
      "aul": 7655,
      "csont": 7656,
      "Ã¡sokon": 7657,
      "ĠMÃģV": 7658,
      "Ġbillenty": 7659,
      "ovi": 7660,
      "Ġstrat": 7661,
      "ĠszolgÃ¡lÃ³": 7662,
      "ĠMr": 7663,
      "ĠhatÃ¡ssal": 7664,
      "ammal": 7665,
      "eves": 7666,
      "âĨĴ": 7667,
      "ĠBÃ©kÃ©s": 7668,
      "ĠeltÃ¡vol": 7669,
      "hÃ¡lÃ³z": 7670,
      "sej": 7671,
      "ĠmunkÃ¡i": 7672,
      "Ġszeg": 7673,
      "ĠAss": 7674,
      "ĠmegkÃ¼lÃ¶nbÃ¶zt": 7675,
      "Ġkaz": 7676,
      "Ġamik": 7677,
      "burgi": 7678,
      "esÃ©s": 7679,
      "Ġmand": 7680,
      "ĠÃ©rtelemben": 7681,
      "ĠdollÃ¡r": 7682,
      "Ġmegter": 7683,
      "Ġzsid": 7684,
      "ĠtatÃ¡r": 7685,
      "ĠbasszusgitÃ¡r": 7686,
      "Ġlig": 7687,
      "pontja": 7688,
      "Ġnyugatra": 7689,
      "ME": 7690,
      "ĠJugoszlÃ¡v": 7691,
      "gond": 7692,
      "ĠCser": 7693,
      "ĠnÃ©zet": 7694,
      "Ġbonyol": 7695,
      "ĠbÃ¡rÃ³": 7696,
      "ĠEL": 7697,
      "ĠjÃ¡tszotta": 7698,
      "mir": 7699,
      "Ġmindkett": 7700,
      "ison": 7701,
      "Ġbelga": 7702,
      "Ġ39": 7703,
      "ĠÃ©vet": 7704,
      "ĠSav": 7705,
      "ĠegymÃ¡stÃ³l": 7706,
      "Ñĭ": 7707,
      "Ġ64": 7708,
      "Ġpontosan": 7709,
      "Ġ400": 7710,
      "ĠelÅĳd": 7711,
      "Ġdall": 7712,
      "ĠBog": 7713,
      "Ġkialakult": 7714,
      "ĠÃŃv": 7715,
      "ĠindÃŃtott": 7716,
      "rabban": 7717,
      "ĠnÅĳst": 7718,
      "Ã¡ng": 7719,
      "ĠtalÃ¡lhatÃ³k": 7720,
      "zata": 7721,
      "ĠMÅ±szaki": 7722,
      "ĠkortÃ¡rs": 7723,
      "Ã¡logatott": 7724,
      "ĠeredmÃ©nye": 7725,
      "ĠtÃ¡mogatta": 7726,
      "Ġmegment": 7727,
      "ures": 7728,
      "Ġszavak": 7729,
      "ĠbarÃ¡tja": 7730,
      "stem": 7731,
      "ĠoktÃ³berÃ©ben": 7732,
      "ĠBul": 7733,
      "ĠbekÃ¶vet": 7734,
      "Ġit": 7735,
      "Fran": 7736,
      "ÃŃtÃ¡sÃ¡ban": 7737,
      "Ġfordult": 7738,
      "ĠvÃ¡rmegyÃ©ben": 7739,
      "Ã³dnak": 7740,
      "ugÃ¡r": 7741,
      "lÃ¡sa": 7742,
      "ashington": 7743,
      "Ġudv": 7744,
      "Ġhitt": 7745,
      "ĠszobrÃ¡sz": 7746,
      "Ġtransz": 7747,
      "Ġkock": 7748,
      "Ġsemmi": 7749,
      "ĠZala": 7750,
      "Lak": 7751,
      "egyÅ±jt": 7752,
      "Ġpan": 7753,
      "valÃ³": 7754,
      "Ġegyet": 7755,
      "Ġelhelyezked": 7756,
      "yp": 7757,
      "Ġgyarm": 7758,
      "ĠOf": 7759,
      "itenger": 7760,
      "atab": 7761,
      "albumok": 7762,
      "ĠNyit": 7763,
      "ĠGibb": 7764,
      "ĠmÃ¡rciusÃ¡ban": 7765,
      "ĠSzlovÃ¡kia": 7766,
      "ĠNÃ©meth": 7767,
      "Ġsh": 7768,
      "Ġunok": 7769,
      "Gal": 7770,
      "idth": 7771,
      "Ġ1890": 7772,
      "Ġrendelkezett": 7773,
      "ĠtÃ¡volsÃ¡g": 7774,
      "ÃŃrÃ¡sa": 7775,
      "Ġmak": 7776,
      "ĠÅ±rhajÃ³s": 7777,
      "ĠtÃ¼kr": 7778,
      "Ġalbuma": 7779,
      "ĠtÃºlÃ©l": 7780,
      "VasÃºtvonalakAz": 7781,
      "Ġamelyen": 7782,
      "nyugat": 7783,
      "Ġ1906": 7784,
      "ĠGen": 7785,
      "ĠjÃ¶n": 7786,
      "ĠvÃ©gÃ©re": 7787,
      "ĠemlÃŃtett": 7788,
      "ikum": 7789,
      "etti": 7790,
      "ĠFir": 7791,
      "ĠnovemberÃ©ben": 7792,
      "Saint": 7793,
      "Ġbomb": 7794,
      "ĠDÃ¡ni": 7795,
      "ÃŃtÃ©sek": 7796,
      "Ġpiros": 7797,
      "gyors": 7798,
      "ĠÃ©letÃ©ben": 7799,
      "ĠIlona": 7800,
      "Ġsub": 7801,
      "ĠFred": 7802,
      "ĠfÅĳs": 7803,
      "Ġ65": 7804,
      "ĠmunkÃ¡ssÃ¡ga": 7805,
      "ĠidÅĳre": 7806,
      "hajÃ³": 7807,
      "bÃ©r": 7808,
      "ĠstÃŃlusÃº": 7809,
      "ĠkrÃ³n": 7810,
      "ĠLin": 7811,
      "cus": 7812,
      "cal": 7813,
      "ansz": 7814,
      "Ġszerelem": 7815,
      "Sport": 7816,
      "Ġfelismer": 7817,
      "Ã©sÃ©hez": 7818,
      "ĠterÃ¼leteken": 7819,
      "ĠtÃ¶kÃ©let": 7820,
      "ĠDis": 7821,
      "Ġugyancsak": 7822,
      "Ġiskolai": 7823,
      "Ġegyszerre": 7824,
      "Ġmelly": 7825,
      "vet": 7826,
      "ĠdÃ¡n": 7827,
      "Ã¼gyminiszter": 7828,
      "Ġfaluban": 7829,
      "ado": 7830,
      "Ġref": 7831,
      "ÐµÑĢ": 7832,
      "ĠFrancis": 7833,
      "rol": 7834,
      "Ġembert": 7835,
      "ĠjÃ¡tszottak": 7836,
      "Ġmegmaradt": 7837,
      "stantin": 7838,
      "itÃ¡sok": 7839,
      "1953": 7840,
      "ĠgÃ¡t": 7841,
      "mÃ©nye": 7842,
      "ĠtÅ±nik": 7843,
      "ĠhasznÃ¡lta": 7844,
      "ĠHalÃ¡l": 7845,
      "Ġbem": 7846,
      "Ġrendes": 7847,
      "ĠhasonlÃŃt": 7848,
      "Ġgyakorlatilag": 7849,
      "ÃŃliai": 7850,
      "ĠpÃ©nzÃ¼gyi": 7851,
      "ccse": 7852,
      "ĠsÃ¡v": 7853,
      "HalÃ¡l": 7854,
      "Ã¼lly": 7855,
      "1957": 7856,
      "ĠTÃ¶r": 7857,
      "Ġhatodik": 7858,
      "rin": 7859,
      "ĠinterjÃº": 7860,
      "ĠvasÃºtÃ¡llomÃ¡shoz": 7861,
      "ĠRog": 7862,
      "ĠkÃ¶zti": 7863,
      "Ġkonflik": 7864,
      "Ġod": 7865,
      "Ġbirtokos": 7866,
      "ĠfeszÃ¼lt": 7867,
      "Ġiv": 7868,
      "uda": 7869,
      "ĠkÃ©pesek": 7870,
      "ĠKrist": 7871,
      "Ġ1905": 7872,
      "ĠjÃ¶vÅĳ": 7873,
      "ĠelsÅĳkÃ©nt": 7874,
      "ĠrÃ©szvÃ©tel": 7875,
      "Ġaratott": 7876,
      "ciÃ³t": 7877,
      "Ġrendszeres": 7878,
      "vÃ¡rad": 7879,
      "evÃŃziÃ³": 7880,
      "ĠOsztrÃ¡k": 7881,
      "Ġfolyamatos": 7882,
      "CD": 7883,
      "ĠattÃ³l": 7884,
      "Ã¶tvÃ¶s": 7885,
      "ĠElÅĳszÃ¶r": 7886,
      "ĠGran": 7887,
      "Ġszabadon": 7888,
      "ĠkÃ¶vetkezÅĳk": 7889,
      "ĠHarry": 7890,
      "Ã³dÃ¡s": 7891,
      "ĠlevegÅĳ": 7892,
      "Ġ1896": 7893,
      "ĠpÃ¡rhuzam": 7894,
      "szÃ¡z": 7895,
      "Ġif": 7896,
      "Ġmus": 7897,
      "ince": 7898,
      "ĠBukarest": 7899,
      "ĠhasznÃ¡lata": 7900,
      "ĠtÃ©rsÃ©g": 7901,
      "pon": 7902,
      "ĠhelyezÃ©s": 7903,
      "Ġkapcsolatot": 7904,
      "Ã©sekor": 7905,
      "Ġinterneten": 7906,
      "ĠTag": 7907,
      "ĠhÃ¡tsÃ³": 7908,
      "FranciaorszÃ¡g": 7909,
      "ĠBÃ¡lint": 7910,
      "ĠLee": 7911,
      "anov": 7912,
      "ulus": 7913,
      "ĠVit": 7914,
      "1949": 7915,
      "tÃ¶rtÃ©net": 7916,
      "ĠFÅĳiskola": 7917,
      "ĠbajnoksÃ¡gban": 7918,
      "Ġmeglep": 7919,
      "kult": 7920,
      "Ġcom": 7921,
      "ondoni": 7922,
      "ĠÃ¡llomÃ¡sokA": 7923,
      "jak": 7924,
      "Ġhab": 7925,
      "ĠvilÃ¡gbajnoksÃ¡gon": 7926,
      "Ã¶zÃ¶tt": 7927,
      "1950": 7928,
      "ĠpÃ¡rizsi": 7929,
      "sÃŃk": 7930,
      "ĠDa": 7931,
      "szentm": 7932,
      "ĠkÃ©pregÃ©ny": 7933,
      "eck": 7934,
      "Ġszeml": 7935,
      "obi": 7936,
      "ĠfedÃ©lzet": 7937,
      "ocÃ©n": 7938,
      "yg": 7939,
      "ĠdebÃ¼tÃ¡lt": 7940,
      "okol": 7941,
      "ĠVÃŃz": 7942,
      "Ã¡na": 7943,
      "ĠalapÃŃtotta": 7944,
      "Ã¡grÃ¡b": 7945,
      "NÃ©pessÃ©ge": 7946,
      "Ã¼letett": 7947,
      "ĠMinisztÃ©rium": 7948,
      "olyai": 7949,
      "osszabb": 7950,
      "Ġinf": 7951,
      "ĠtÃ³": 7952,
      "ĠvarÃ¡zs": 7953,
      "''": 7954,
      "Ġterj": 7955,
      "Ġcsatorna": 7956,
      "ĠfÅĳk": 7957,
      "pap": 7958,
      "ĠpapÃŃr": 7959,
      "ĠkirÃ¡lya": 7960,
      "Ġtekintve": 7961,
      "repÃ¼lÅĳ": 7962,
      "ĠkutatÃ³": 7963,
      "ĠOttÃ³": 7964,
      "Ġosz": 7965,
      "ĠJÃ¡tÃ©k": 7966,
      "estÃ¡ns": 7967,
      "ĠutÃ¡na": 7968,
      "Ġcikl": 7969,
      "ĠKur": 7970,
      "ON": 7971,
      "ecz": 7972,
      "DÃŃjai": 7973,
      "ĠBerg": 7974,
      "ordin": 7975,
      "ĠLes": 7976,
      "ĠmegszÃ¡ll": 7977,
      "oktÃ³l": 7978,
      "cio": 7979,
      "Ġalg": 7980,
      "Ġfalut": 7981,
      "ĠFest": 7982,
      "ĠÃ¼d": 7983,
      "Ġkulcs": 7984,
      "ĠtÃ¶rtÃ©nÃ©sz": 7985,
      "1958": 7986,
      "Ġfelker": 7987,
      "ĠRudolf": 7988,
      "archive": 7989,
      "FÅĳbb": 7990,
      "ĠszÃ¶vetsÃ©gi": 7991,
      "Ġfegy": 7992,
      "ĠLand": 7993,
      "OrszÃ¡ggyÅ±lÃ©si": 7994,
      "ezzÃ¼k": 7995,
      "ĠMos": 7996,
      "ĠajÃ¡nl": 7997,
      "Ġrez": 7998,
      "eus": 7999,
      "ĠnÃ¡d": 8000,
      "essel": 8001,
      "ĠromÃ¡niai": 8002,
      "ĠmegelÅĳzÅĳ": 8003,
      "andra": 8004,
      "Ġellenfel": 8005,
      "tagok": 8006,
      "ĠSpanyolorszÃ¡g": 8007,
      "Ãºv": 8008,
      "Ã©szettudomÃ¡nyi": 8009,
      "ĠmegnyÃŃlt": 8010,
      "kodÃ³": 8011,
      "ĠDer": 8012,
      "ĠidÅĳsebb": 8013,
      "essÃ©gek": 8014,
      "ĠlÃ¡tott": 8015,
      "ĠbolgÃ¡r": 8016,
      "ĠJB": 8017,
      "Ġcol": 8018,
      "And": 8019,
      "eda": 8020,
      "Ġlakosok": 8021,
      "ĠformÃ¡jÃ¡ban": 8022,
      "ela": 8023,
      "Ġ55": 8024,
      "Ġhomok": 8025,
      "ĠLive": 8026,
      "Ġfennmaradt": 8027,
      "jenek": 8028,
      "allas": 8029,
      "ĠpÃ¡lyafut": 8030,
      "ĠBa": 8031,
      "Ġvisszak": 8032,
      "Ġeltemetett": 8033,
      "ÃŃtÃ©l": 8034,
      "win": 8035,
      "Ġpro": 8036,
      "Ġfon": 8037,
      "Ġkuty": 8038,
      "ĠmÃ©rt": 8039,
      "emberg": 8040,
      "ĠplÃ©bÃ¡ni": 8041,
      "Ã¡lyi": 8042,
      "Ġ1857": 8043,
      "ĠHor": 8044,
      "ĠÃºszÃ³": 8045,
      "Ġerk": 8046,
      "ĠKirÃ¡lysÃ¡gban": 8047,
      "Ġsikeresen": 8048,
      "Ġkv": 8049,
      "ĠtÃ¶rtÃ©neti": 8050,
      "1959": 8051,
      "Ġstyle": 8052,
      "ĠEdward": 8053,
      "iro": 8054,
      "Ã¡mi": 8055,
      "ĠÃ©lÅĳhely": 8056,
      "Ġpre": 8057,
      "ĠÃŃrtÃ¡k": 8058,
      "Lo": 8059,
      "ĠmenekÃ¼lt": 8060,
      "ĠelÃ©rt": 8061,
      "ĠFinn": 8062,
      "Ð¾Ð²": 8063,
      "ĠPop": 8064,
      "OR": 8065,
      "ĠAlb": 8066,
      "ket": 8067,
      "Ġmocs": 8068,
      "ĠfeltÃ¡r": 8069,
      "ĠWolf": 8070,
      "arkt": 8071,
      "ÅŁ": 8072,
      "Ġszult": 8073,
      "TV": 8074,
      "bÃ¡zis": 8075,
      "ĠfÃ©rf": 8076,
      "Ġelutas": 8077,
      "ĠSvÃ¡jc": 8078,
      "itÃ¡k": 8079,
      "ĠPed": 8080,
      "ĠCam": 8081,
      "ĠrÃ©szÃ©ben": 8082,
      "ĠtÃ¡plÃ¡lkoz": 8083,
      "At": 8084,
      "Ġvont": 8085,
      "ĠjÃ¡tszik": 8086,
      "ĠSzoci": 8087,
      "bev": 8088,
      "ĠTrans": 8089,
      "ĠfestÅĳmÅ±vÃ©sz": 8090,
      "Ã¶zi": 8091,
      "ĠkikÃ¶tÅĳ": 8092,
      "LE": 8093,
      "LÃ¡t": 8094,
      "ĠszÃ³cikk": 8095,
      "ĠBat": 8096,
      "Ġmelletti": 8097,
      "ake": 8098,
      "Ġegyenes": 8099,
      "ĠHenry": 8100,
      "ĠRÃ³ma": 8101,
      "ardo": 8102,
      "hattak": 8103,
      "Ġ46": 8104,
      "ĠvÃ¡ltozÃ³": 8105,
      "oftver": 8106,
      "Ġagr": 8107,
      "onne": 8108,
      "ĠDay": 8109,
      "Ġdalok": 8110,
      "Ġnevezet": 8111,
      "Ġszerzetes": 8112,
      "Ġokozott": 8113,
      "Ġfelte": 8114,
      "Ġgit": 8115,
      "ĠpÃ³t": 8116,
      "emokrata": 8117,
      "vent": 8118,
      "Ġkos": 8119,
      "evÅĳk": 8120,
      "Ġ1909": 8121,
      "tudomÃ¡ny": 8122,
      "ÂŃ": 8123,
      "ĠtÅ±nt": 8124,
      "Ġjelentett": 8125,
      "ikusan": 8126,
      "obot": 8127,
      "ĠÃ³v": 8128,
      "atÃ¡t": 8129,
      "itvÃ¡n": 8130,
      "kÃ³d": 8131,
      "ĠautÃ³pÃ¡ly": 8132,
      "Ġszerzet": 8133,
      "Ġkifejleszt": 8134,
      "ulÃ¡sÃ¡t": 8135,
      "ĠlÃ©gi": 8136,
      "ĠszÃ¶g": 8137,
      "ĠVill": 8138,
      "VilÃ¡g": 8139,
      "ĠnÃ¶vÃ©nyek": 8140,
      "haus": 8141,
      "Ġ1907": 8142,
      "ĠkivÃ¡laszt": 8143,
      "ĠnegatÃŃv": 8144,
      "amo": 8145,
      "ĠlistÃ¡jÃ¡n": 8146,
      "Ã¶ly": 8147,
      "ĠintÃ©zet": 8148,
      "ĠAnn": 8149,
      "ĠjelenlÃ©t": 8150,
      "ulf": 8151,
      "ĠKrisztus": 8152,
      "allgat": 8153,
      "Ġhalott": 8154,
      "Ð¾Ð½": 8155,
      "ĠÃ©lett": 8156,
      "hette": 8157,
      "ĠkÃ©szÃ¼ltek": 8158,
      "ĠeljÃ¡rÃ¡s": 8159,
      "ĠnÃ©pi": 8160,
      "Ġnekik": 8161,
      "Ã¼lni": 8162,
      "back": 8163,
      "ĠbizÃ¡nci": 8164,
      "anus": 8165,
      "ĠBand": 8166,
      "Ã¡rtÃ¡k": 8167,
      "Ġ1904": 8168,
      "ĠjÃ¡tÃ©kosok": 8169,
      "ĠvelÃ¼k": 8170,
      "aceae": 8171,
      "ĠKir": 8172,
      "ĠelÃ©rte": 8173,
      "Ãºtja": 8174,
      "Ã¡rius": 8175,
      "Ġmagyarnak": 8176,
      "ĠhegedÅ±": 8177,
      "ĠKormÃ¡ny": 8178,
      "Ġobjekt": 8179,
      "Ġmez": 8180,
      "oria": 8181,
      "atk": 8182,
      "szol": 8183,
      "ĠbeszÃ¡m": 8184,
      "ville": 8185,
      "herceg": 8186,
      "ĠfebruÃ¡rjÃ¡ban": 8187,
      "umbia": 8188,
      "ror": 8189,
      "2024": 8190,
      "ÃŃtÃ¡sÃ¡nak": 8191,
      "Ġsorozatok": 8192,
      "ÃŃvum": 8193,
      "ĠpÃ¡lyÃ¡n": 8194,
      "edelm": 8195,
      "ongÃ³": 8196,
      "aka": 8197,
      "ĠAny": 8198,
      "Åĳke": 8199,
      "ĠremÃ©ny": 8200,
      "Ġfilmjei": 8201,
      ".):": 8202,
      "Ġkompon": 8203,
      "De": 8204,
      "ogrÃ¡fiai": 8205,
      "las": 8206,
      "ĠÃ©desanyja": 8207,
      "ĠmilliÃ¡rd": 8208,
      "ilap": 8209,
      "Ġutazott": 8210,
      "ten": 8211,
      "ĠegyÃ©bkÃ©nt": 8212,
      "beszÃ©d": 8213,
      "ĠjelÃ¶lÃ©s": 8214,
      "Ġbizonyult": 8215,
      "ĠNÃ©gy": 8216,
      "kastÃ©ly": 8217,
      "ÃŃsz": 8218,
      "ĠDar": 8219,
      "aira": 8220,
      "ĠturnÃ©": 8221,
      "ĠStat": 8222,
      "ĠmegszÃ¼nt": 8223,
      "ĠKÃŃna": 8224,
      "Ġhogyan": 8225,
      "ĠtrÃ³pusi": 8226,
      "Ġugyanaz": 8227,
      "Test": 8228,
      "ÅĳrÃ¶s": 8229,
      "almazott": 8230,
      "LA": 8231,
      "ertÃ©k": 8232,
      "SzÃŃn": 8233,
      "eger": 8234,
      "ĠjobbÃ¡gy": 8235,
      "ĠmeglehetÅĳ": 8236,
      "ye": 8237,
      "parancsnok": 8238,
      "MS": 8239,
      "adni": 8240,
      "Ã¡ti": 8241,
      "ĠakciÃ³": 8242,
      "Ġ43": 8243,
      "ĠIfjÃº": 8244,
      "XX": 8245,
      "SzereplÅĳk": 8246,
      "ĠszÃ¡sz": 8247,
      "ĠTo": 8248,
      "elvÃ¡ros": 8249,
      "Ġfigyelm": 8250,
      "Ġna": 8251,
      "kezik": 8252,
      "ĠmÃ©rkÅĳzÃ©st": 8253,
      "ĠÃ¼tkÃ¶z": 8254,
      "enki": 8255,
      "ĠmegÃºj": 8256,
      "Ġromant": 8257,
      "Ġmegind": 8258,
      "ĠbetÃ¶lt": 8259,
      "ĠMadrid": 8260,
      "jelÃ¶l": 8261,
      "ĠajÃ¡ndÃ©k": 8262,
      "ĠHum": 8263,
      "ĠRajna": 8264,
      "Ġrengeteg": 8265,
      "uer": 8266,
      "ĠalÃ³l": 8267,
      "ĠGro": 8268,
      "Ã¡ntÃºl": 8269,
      "oston": 8270,
      "ĠÃ¡llÃŃtottÃ¡k": 8271,
      "gen": 8272,
      "ĠBank": 8273,
      "bÃŃrÃ³": 8274,
      "Ã¡llÃ³hely": 8275,
      "ĠpolgÃ¡rhÃ¡borÃº": 8276,
      "idesz": 8277,
      "ĠlÃ¡tsz": 8278,
      "Ġtrag": 8279,
      "cÃŃm": 8280,
      "Ġlegk": 8281,
      "ĠlistÃ¡jaTovÃ¡bbi": 8282,
      "adal": 8283,
      "ĠalelnÃ¶k": 8284,
      "Ġ41": 8285,
      "hajtÃ³": 8286,
      "Ġmegszerezte": 8287,
      "hÅĳ": 8288,
      "ovin": 8289,
      "Ãºri": 8290,
      "Ge": 8291,
      "Ġmindenki": 8292,
      "ĠbeszÃ©lg": 8293,
      "Ġgram": 8294,
      "kÃ¶zben": 8295,
      "olÃ³gusok": 8296,
      "ĠÃ¡llÃŃtotta": 8297,
      "ĠszÃŃnes": 8298,
      "ĠGlob": 8299,
      "nov": 8300,
      "ingen": 8301,
      "Ãīr": 8302,
      "ĠszentÃ©ly": 8303,
      "JegyzetekKÃ¼lsÅĳ": 8304,
      "ĠszÃ¡zalÃ©k": 8305,
      "GY": 8306,
      "ĠkormÃ¡nyz": 8307,
      "Ġmetal": 8308,
      "ĠtanÃŃtott": 8309,
      "Ġafr": 8310,
      "ĠOb": 8311,
      "ĠtudtÃ¡k": 8312,
      "Ġvalamennyi": 8313,
      "Ġbolt": 8314,
      "usztri": 8315,
      "ĠSzombat": 8316,
      "Ġkab": 8317,
      "odi": 8318,
      "ĠnorvÃ©g": 8319,
      "Ã¶bÃ¶l": 8320,
      "Es": 8321,
      "Ã³ka": 8322,
      "1954": 8323,
      "FC": 8324,
      "oto": 8325,
      "Ġvallotta": 8326,
      "ĠtestvÃ©re": 8327,
      "Ġegyetemen": 8328,
      "ĠÃ©pp": 8329,
      "Ã¡vid": 8330,
      "ĠAust": 8331,
      "Ġ47": 8332,
      "ĠTri": 8333,
      "Ã¡ram": 8334,
      "ĠlegfÅĳbb": 8335,
      "ĠUng": 8336,
      "Ã¼lnek": 8337,
      "Ne": 8338,
      "Ġhelyzete": 8339,
      "zsÃ¡k": 8340,
      "ĠSouth": 8341,
      "ction": 8342,
      "oznak": 8343,
      "Ġszinten": 8344,
      "igeti": 8345,
      "ĠSomogy": 8346,
      "Ġtri": 8347,
      "ĠkissÃ©": 8348,
      "ĠzenÃ©sz": 8349,
      "ozva": 8350,
      "Dr": 8351,
      "ĠHan": 8352,
      "ĠDu": 8353,
      "akes": 8354,
      "ĠCart": 8355,
      "lÃ¡ny": 8356,
      "ĠPlay": 8357,
      "szÃ¡mÃº": 8358,
      "elÃ©": 8359,
      "1939": 8360,
      "ĠBaj": 8361,
      "edÅĳ": 8362,
      "Ġavagy": 8363,
      "],": 8364,
      "ĠeredmÃ©nyei": 8365,
      "ĠszÃ¼letÃ©s": 8366,
      "bal": 8367,
      "ĠellenÃ¡ll": 8368,
      "1941": 8369,
      "ĠhÃ¡borÃºban": 8370,
      "eredeti": 8371,
      "olhatÃ³": 8372,
      "ĠVII": 8373,
      "ĠmetrÃ³": 8374,
      "ellÃ©k": 8375,
      "ĠvÃ¡ltoztat": 8376,
      "ĠBillboard": 8377,
      "Ġesetleg": 8378,
      "ĠszÃŃnÃ©szek": 8379,
      "ĠvesztesÃ©g": 8380,
      "ĠfÃ¶ldrajzi": 8381,
      "ĠOly": 8382,
      "Ġlemondott": 8383,
      "ĠszigorÃº": 8384,
      "1955": 8385,
      "ĠszÃ¡mban": 8386,
      "imir": 8387,
      "estt": 8388,
      "Ġintegr": 8389,
      "cher": 8390,
      "ĠfÅ±zÅĳ": 8391,
      "ĠÃ¡lltak": 8392,
      "HorvÃ¡t": 8393,
      "Ġelismert": 8394,
      "IT": 8395,
      "ĠhasznÃ¡lja": 8396,
      "Ġteher": 8397,
      "ĠIvan": 8398,
      "opa": 8399,
      "esta": 8400,
      "rek": 8401,
      "sÃ¡": 8402,
      "Ġsark": 8403,
      "ĠelÅĳz": 8404,
      "ĠfutÃ³": 8405,
      "Ġalkotott": 8406,
      "Ġenergi": 8407,
      "ĠmÃ©ret": 8408,
      "Ä±": 8409,
      "ÃĹ": 8410,
      "emokratikus": 8411,
      "EgyÃ©b": 8412,
      "ĠkÃ©miai": 8413,
      "ogh": 8414,
      "olgÃ¡rmester": 8415,
      "chi": 8416,
      "Ġgen": 8417,
      "ĠTerÃ¼let": 8418,
      "szoros": 8419,
      "ĠhoztÃ¡k": 8420,
      "ĠgÃ¶r": 8421,
      "Ġmindent": 8422,
      "ĠÃ©letben": 8423,
      "Ġhossza": 8424,
      "Ã©pÃŃtett": 8425,
      "vÃŃv": 8426,
      "etter": 8427,
      "vÃ¡ltÃ¡s": 8428,
      "ĠSeg": 8429,
      "ĠcsalÃ¡dja": 8430,
      "ĠHuny": 8431,
      "1952": 8432,
      "tÃŃpus": 8433,
      "ĠSta": 8434,
      "ĠGabri": 8435,
      "gyÃ¶rgy": 8436,
      "Ġmegoszt": 8437,
      "Ġnembe": 8438,
      "ĠsportÃ¡g": 8439,
      "ĠÃ¶zvegy": 8440,
      "du": 8441,
      "ĠaugusztusÃ¡ban": 8442,
      "En": 8443,
      "ĠKÃ©pzÅĳ": 8444,
      "igazgatÃ¡silag": 8445,
      "Ġvalamilyen": 8446,
      "afÃ©lÃ©k": 8447,
      "ĠNight": 8448,
      "ogÃ³": 8449,
      "Ġ1916": 8450,
      "ĠtÃ©g": 8451,
      "Ġbevon": 8452,
      "ĠÃ©vfordulÃ³": 8453,
      "Ã¶sen": 8454,
      "szolgÃ¡ltat": 8455,
      "ĠOne": 8456,
      "Ã³pont": 8457,
      "ĠGod": 8458,
      "ĠBus": 8459,
      "ĠRen": 8460,
      "Ġkorban": 8461,
      "Ġkiemelt": 8462,
      "ĠgyÅĳzelmet": 8463,
      "Csel": 8464,
      "ĠBraz": 8465,
      "ĠszÃ©kely": 8466,
      "ÃŃp": 8467,
      "kÃ©pzÃ©s": 8468,
      "iano": 8469,
      "orni": 8470,
      "\"-": 8471,
      "ĠlÅĳtt": 8472,
      "ĠHans": 8473,
      "Ġtoll": 8474,
      "Ġharck": 8475,
      "Ġ1915": 8476,
      "%)": 8477,
      "ĠSteph": 8478,
      "Ã©rkÅĳz": 8479,
      "obil": 8480,
      "igazgatÃ³": 8481,
      "osaurus": 8482,
      "nÃ¡": 8483,
      "Ap": 8484,
      "Ġcsal": 8485,
      "ĠUkraj": 8486,
      "hass": 8487,
      "ĠSi": 8488,
      "edzÅĳ": 8489,
      "ĠAzt": 8490,
      "ĠWilliams": 8491,
      "ĠPas": 8492,
      "este": 8493,
      "ÅĲ": 8494,
      "Ã¶nny": 8495,
      "gyÃ³gy": 8496,
      "Ġcsomag": 8497,
      "ĠHajd": 8498,
      "onikus": 8499,
      "Ġjellegzetes": 8500,
      "Ġlondoni": 8501,
      "ĠHow": 8502,
      "ĠalkalmÃ¡val": 8503,
      "ĠritkÃ¡n": 8504,
      "ĠbÃ¡zis": 8505,
      "ĠmagÃ¡nak": 8506,
      "ĠDev": 8507,
      "eps": 8508,
      "ĠnyÃºjtott": 8509,
      "Ġindiai": 8510,
      "VÃ©g": 8511,
      "lim": 8512,
      "szakasz": 8513,
      "ĠkÃ©pviselte": 8514,
      "ĠPÃ¡rizsban": 8515,
      "ĠhÃ¡zi": 8516,
      "ridge": 8517,
      "ĠvasÃºtÃ¡llomÃ¡sok": 8518,
      "Ġorr": 8519,
      "ikt": 8520,
      "unak": 8521,
      "ellel": 8522,
      "ĠpÃ¡pai": 8523,
      "Ġadatai": 8524,
      "Ã©sen": 8525,
      "tÃ¡ra": 8526,
      "Ġfejezte": 8527,
      "ĠbocsÃ¡t": 8528,
      "ĠDÃ©nes": 8529,
      "ĠSchw": 8530,
      "ĠcÃŃmen": 8531,
      "Ġ1903": 8532,
      "ĠanimÃ¡ciÃ³s": 8533,
      "ĠsÅ±rÅ±": 8534,
      "VII": 8535,
      "fogy": 8536,
      "ĠBors": 8537,
      "aux": 8538,
      "Ġhir": 8539,
      "Ã¡liai": 8540,
      "Ã¡lisan": 8541,
      "ĠIszt": 8542,
      "ĠezÃºttal": 8543,
      "atonai": 8544,
      "eknÃ©l": 8545,
      "ĠrÃ©z": 8546,
      "ibr": 8547,
      "Ker": 8548,
      "color": 8549,
      "Ġehhez": 8550,
      "Ġfogadta": 8551,
      "ĠKomÃ¡rom": 8552,
      "Ġritka": 8553,
      "isa": 8554,
      "ezÃ©sÃ©re": 8555,
      "ĠjÃºniusÃ¡ban": 8556,
      "ĠhÃ¡borÃºs": 8557,
      "kÃ¶lt": 8558,
      "olo": 8559,
      "mes": 8560,
      "ĠLabdarÃºgÃ³": 8561,
      "Ġvak": 8562,
      "Ġeljut": 8563,
      "eibÅĳl": 8564,
      "ĠBell": 8565,
      "ito": 8566,
      "Ġkerek": 8567,
      "ĠvÃ©geztek": 8568,
      "ĠâĨĴ": 8569,
      "ĠEp": 8570,
      "Ġkivitel": 8571,
      "Ġwidth": 8572,
      "Ġjavaslat": 8573,
      "szeres": 8574,
      "1930": 8575,
      "fÅ±": 8576,
      "ĠhasznÃ¡lnak": 8577,
      "ĠBarcel": 8578,
      "ĠletartÃ³z": 8579,
      "ĠDok": 8580,
      "ĠAdam": 8581,
      "ĠtagjakÃ©nt": 8582,
      "ischen": 8583,
      "park": 8584,
      "olvas": 8585,
      "darab": 8586,
      "Ã¡lÃ¡sa": 8587,
      "Ã¡ch": 8588,
      "Ġahonnan": 8589,
      "Ġgrafikus": 8590,
      "ĠvÃ¡rosok": 8591,
      "Ġlassan": 8592,
      "ĠTw": 8593,
      "auz": 8594,
      "ĠdÃ¡tum": 8595,
      "asonl": 8596,
      "ĠJapÃ¡nban": 8597,
      "Ġvetett": 8598,
      "irgin": 8599,
      "ee": 8600,
      "jav": 8601,
      "ĠreklÃ¡m": 8602,
      "ĠPÃ©ldÃ¡ul": 8603,
      "ĠemlÃ©kezt": 8604,
      "ĠidÃ©z": 8605,
      "ĠskÃ³t": 8606,
      "ĠTisza": 8607,
      "ĠCorn": 8608,
      "almÃº": 8609,
      "ĠmunkÃ¡jÃ¡t": 8610,
      "ulÃ¡ris": 8611,
      "Ã¡lly": 8612,
      "olnak": 8613,
      "ektÃŃv": 8614,
      "Ġopt": 8615,
      "agi": 8616,
      "ĠszÃ³tÃ¡r": 8617,
      "ÃŃts": 8618,
      "ternatÃŃv": 8619,
      "Ã¡rium": 8620,
      "viselÅĳ": 8621,
      "hegyi": 8622,
      "siker": 8623,
      "ĠEÃ¶tvÃ¶s": 8624,
      "virÃ¡g": 8625,
      "Ġmegfigyel": 8626,
      "con": 8627,
      "ody": 8628,
      "ĠhonvÃ©d": 8629,
      "ierÅĳ": 8630,
      "ĠKass": 8631,
      "1940": 8632,
      "Ph": 8633,
      "ĠszlÃ¡v": 8634,
      "ĠÃ¡prilisÃ¡ban": 8635,
      "ĠÃ¡svÃ¡ny": 8636,
      "ĠFÃ©rfiNÅĳi": 8637,
      "Ġelnyerte": 8638,
      "ĠanyanyelvÅ±": 8639,
      "ĠNA": 8640,
      "VM": 8641,
      "ĠOnline": 8642,
      "ĠÃŃg": 8643,
      "teljes": 8644,
      "500": 8645,
      "Ã³dtak": 8646,
      "sÃ©gre": 8647,
      "ĠBenedek": 8648,
      "Ġelhagyta": 8649,
      "ĠmÃ©rkÅĳzÃ©se": 8650,
      "ĠoklevÃ©l": 8651,
      "edia": 8652,
      "ĠGa": 8653,
      "ĠszintÅ±": 8654,
      "ĠNa": 8655,
      "ĠkÃ©pviselÅĳje": 8656,
      "ĠintÃ©zked": 8657,
      "tiszt": 8658,
      "Ġkorr": 8659,
      "Ã¡gaz": 8660,
      "jÃ¡tÃ©kok": 8661,
      "ĠApja": 8662,
      "Ġnagyb": 8663,
      "ĠhÃºsz": 8664,
      "emier": 8665,
      "ĠkÃ¶rnyezÅĳ": 8666,
      "Ġ1902": 8667,
      "Val": 8668,
      "kil": 8669,
      "Ġalkoh": 8670,
      "ĠUp": 8671,
      "Ġmindegyik": 8672,
      "ĠRep": 8673,
      "ĠMix": 8674,
      "kup": 8675,
      "Ġcsapatban": 8676,
      "ongresszus": 8677,
      "rÃ¡": 8678,
      "mÃ©ter": 8679,
      "ĠâĢĵ,": 8680,
      "ombard": 8681,
      "ĠAst": 8682,
      "Ã©rtve": 8683,
      "Ġszoros": 8684,
      "Ã©nekes": 8685,
      "ĠJam": 8686,
      "ĠleszÃ¡rmaz": 8687,
      "biztos": 8688,
      "sav": 8689,
      "Ã¡llÃŃtÃ¡sa": 8690,
      "Ġmegjelenik": 8691,
      "mund": 8692,
      "ĠLiszt": 8693,
      "ĠAngol": 8694,
      "Ġbeb": 8695,
      "rown": 8696,
      "ĠegyszerÅ±en": 8697,
      "ĠMah": 8698,
      "Ã¡ta": 8699,
      "ĠdrÃ¡ma": 8700,
      "ĠÅĳriz": 8701,
      "ĠfÃ©rfiak": 8702,
      "ĠLipÃ³t": 8703,
      "nÅĳje": 8704,
      "ider": 8705,
      "!!": 8706,
      "Ġkataszt": 8707,
      "Ġvegyes": 8708,
      "ĠkÃ¡poln": 8709,
      "aria": 8710,
      "Ã©koztat": 8711,
      "ĠLÃ©g": 8712,
      "enez": 8713,
      "Ãľ": 8714,
      "ĠfelkÃ©sz": 8715,
      "atÃ©k": 8716,
      "ĠelkÃ©szÃ¼lt": 8717,
      "iel": 8718,
      "Ġkatal": 8719,
      "amon": 8720,
      "ãĥ": 8721,
      "ĠBarb": 8722,
      "Ã¡kra": 8723,
      "ĠÃ©rkezÅĳ": 8724,
      "ĠegyÃ¼ttmÅ±kÃ¶dÃ©s": 8725,
      "ĠTemes": 8726,
      "ĠtetÅĳ": 8727,
      "ĠszÃ³rak": 8728,
      "ĠÃ©ghaj": 8729,
      "imb": 8730,
      "ifik": 8731,
      "ĠkategÃ³riÃ¡ban": 8732,
      "ĠvasÃºtÃ¡llomÃ¡sainak": 8733,
      "ĠErn": 8734,
      "ĠEger": 8735,
      "ĠreneszÃ¡nsz": 8736,
      "Ġ1870": 8737,
      "Ġfoglalja": 8738,
      "sem": 8739,
      "TK": 8740,
      "oton": 8741,
      "sw": 8742,
      "asonlÃ³": 8743,
      "ĠoktatÃ³k": 8744,
      "ĠvÃ¡rosÃ¡ban": 8745,
      "Ã©telek": 8746,
      "asy": 8747,
      "ĠOrv": 8748,
      "1938": 8749,
      "ÅĦ": 8750,
      "ĠlakÃ³i": 8751,
      "kit": 8752,
      "ĠHÃ©t": 8753,
      "ĠKÃ¶zigazgatÃ¡silag": 8754,
      "ĠÃ©t": 8755,
      "ĠGyul": 8756,
      "ĠUniÃ³": 8757,
      "aire": 8758,
      "ĠbÃ¡rmely": 8759,
      "ĠZrt": 8760,
      "Ġsikerrel": 8761,
      "New": 8762,
      "ĠvÃ¡gy": 8763,
      "ĠÃ©pÃŃtÃ©szet": 8764,
      "°r": 8765,
      "ĠjÃ¡tÃ©kvezetÃ©s": 8766,
      "ilabda": 8767,
      "ĠelkÃ©pz": 8768,
      "ĠgyÅ±rÅ±": 8769,
      "ietn": 8770,
      "Ġda": 8771,
      "Ġvagyon": 8772,
      "ĠDÃ¡vid": 8773,
      "Ġlehetnek": 8774,
      "eller": 8775,
      "nÃ¶vÃ©ny": 8776,
      "ĠSur": 8777,
      "Ġ1860": 8778,
      "gÃ³t": 8779,
      "iger": 8780,
      "Ġtek": 8781,
      "Ġuralom": 8782,
      "ĠcselekmÃ©ny": 8783,
      "ĠOpen": 8784,
      "ĠhÃ¡rm": 8785,
      "Ġfinom": 8786,
      "ĠPolit": 8787,
      "ĠidÅĳn": 8788,
      "ĠtermÃ©szeti": 8789,
      "ĠBall": 8790,
      "1947": 8791,
      "ĠMÅ±velÅĳ": 8792,
      "osp": 8793,
      ")-": 8794,
      "Ġsav": 8795,
      "ĠÃ¶nkÃ©nt": 8796,
      "mo": 8797,
      "ĠvalÃ³ban": 8798,
      "ĠSzabolcs": 8799,
      "ĠbillentyÅ±": 8800,
      "Ġpir": 8801,
      "ĠJones": 8802,
      "olya": 8803,
      "Ġonnan": 8804,
      "Ã¶rÅĳ": 8805,
      "ĠLang": 8806,
      "Ã¼kk": 8807,
      "Hz": 8808,
      "Ġmatematikus": 8809,
      "Ġ56": 8810,
      "ĠhadjÃ¡rat": 8811,
      "kon": 8812,
      "lÅĳs": 8813,
      "Ġ1901": 8814,
      "Ġakivel": 8815,
      "Ġfoglalkozik": 8816,
      "ĠolvashatÃ³": 8817,
      "sÃ©gnek": 8818,
      "ĠÃ©lvonal": 8819,
      "ĠversenyszÃ¡m": 8820,
      "Ġtenni": 8821,
      "ĠhajÃ³k": 8822,
      "ulni": 8823,
      "ĠalkotÃ³": 8824,
      "ĠezÃ¼stÃ©rmes": 8825,
      "Ġhoztak": 8826,
      "abella": 8827,
      "Ġ1898": 8828,
      "1920": 8829,
      "Ġdalai": 8830,
      "tlen": 8831,
      "EmlÃ©k": 8832,
      "Ã¡nus": 8833,
      "Ġhelyes": 8834,
      "ergomi": 8835,
      "ĠvallÃ¡sÃº": 8836,
      "ĠELTE": 8837,
      "onosz": 8838,
      "ĠRon": 8839,
      "ĠvilÃ¡gÃ¶rÃ¶k": 8840,
      "Ġmutatkozott": 8841,
      "ĠkutatÃ¡sok": 8842,
      "Ã³sz": 8843,
      "ĠNorth": 8844,
      "ĠkÃ¼ldetÃ©s": 8845,
      "kisebb": 8846,
      "Ã¶ltÃ©k": 8847,
      "ĠkÃ¶zÃ©pkorban": 8848,
      "neses": 8849,
      "Ġfele": 8850,
      "ĠLeon": 8851,
      "Ġesik": 8852,
      "ĠRomÃ¡nia": 8853,
      "ĠEs": 8854,
      "adar": 8855,
      "ĠmeglehetÅĳsen": 8856,
      "ĠzsÃ¡k": 8857,
      "ĠHang": 8858,
      "Sc": 8859,
      "Ġporosz": 8860,
      "ajda": 8861,
      "ĠÃĸt": 8862,
      "Ġ1895": 8863,
      "ÃŃtÃ¡ssal": 8864,
      "ĠtÃºlnyom": 8865,
      "ĠÄĮ": 8866,
      "uly": 8867,
      "ĠTovÃ¡bbi": 8868,
      "Ġ1893": 8869,
      "ĠtelevÃŃziÃ³": 8870,
      "unior": 8871,
      "ĠRoss": 8872,
      "ĠKim": 8873,
      "ĠhelyÃ©rt": 8874,
      "Ġhenger": 8875,
      "ĠÃºjonnan": 8876,
      "tekint": 8877,
      "ĠWalter": 8878,
      "Ġkomplex": 8879,
      "anyar": 8880,
      "ĠBelgium": 8881,
      "hossza": 8882,
      "ĠidentitÃ¡sok": 8883,
      "||||": 8884,
      "Ġkezdtek": 8885,
      "ĠDÃ¡niel": 8886,
      "ĠvÃ©gÃ¶sszeg": 8887,
      "ĠhasznÃ¡lhatÃ³": 8888,
      "ÃŃtÃ©ssel": 8889,
      "Ġpad": 8890,
      "Ġigazolt": 8891,
      "ĠoktatÃ¡s": 8892,
      "Ġ49": 8893,
      "Ġdics": 8894,
      "ĠkivÃ©telÃ©vel": 8895,
      "ĠÃ¡rt": 8896,
      "Ġkamar": 8897,
      "ĠLife": 8898,
      "ĠgitÃ¡ros": 8899,
      "ĠSup": 8900,
      "ĠalcsalÃ¡d": 8901,
      "ĠkÃ¶vetkezett": 8902,
      "MP": 8903,
      "DÃ©l": 8904,
      "olÃ³k": 8905,
      "Ġpajzs": 8906,
      "aro": 8907,
      "Ġokozta": 8908,
      "Ġ1888": 8909,
      "ĠpÃ¡rhuzamosan": 8910,
      "ĠScott": 8911,
      "ition": 8912,
      "ĠGyermek": 8913,
      "Ġszellemi": 8914,
      "akespe": 8915,
      "101": 8916,
      "ĠfajrÃ³l": 8917,
      "rez": 8918,
      "Ã¡cia": 8919,
      "Ġanyagok": 8920,
      "ĠAusztri": 8921,
      "ĠTal": 8922,
      "eskeny": 8923,
      "egyÃ¼ttes": 8924,
      "Ãīrd": 8925,
      "ĠpilÃ³t": 8926,
      "ĠRh": 8927,
      "Ġhist": 8928,
      "sÃ¡gba": 8929,
      "anth": 8930,
      "ĠtalÃ¡lkozott": 8931,
      "Ġszobor": 8932,
      "bajnoksÃ¡gon": 8933,
      "ĠÃ©rdeklÅĳdÃ©s": 8934,
      "Ġher": 8935,
      "1951": 8936,
      "ĠKo": 8937,
      "Ġnyelvet": 8938,
      "szereplÅĳ": 8939,
      "ĠkikÃ¶t": 8940,
      "ĠbiztonsÃ¡gi": 8941,
      "adÃ¡sul": 8942,
      "ĠmegelÅĳz": 8943,
      "uay": 8944,
      "ĠautÃ³verseny": 8945,
      "ĠFlor": 8946,
      "ezetÅĳ": 8947,
      "Ġjelenet": 8948,
      "Ġturisztikai": 8949,
      "ĠmÃ¡sodosztÃ¡ly": 8950,
      "ĠVictor": 8951,
      "ĠValÃ³": 8952,
      "ĠtevÃ©kenysÃ©ge": 8953,
      "Raj": 8954,
      "Ġvenni": 8955,
      "itch": 8956,
      "ÃŃtÃ³t": 8957,
      "IC": 8958,
      "Ãīszak": 8959,
      "ĠkorszerÅ±": 8960,
      "ĠÃ¡llapotban": 8961,
      "akespeare": 8962,
      "Ã©pÃ¼let": 8963,
      "ĠfelÃ©pÃŃtÃ©s": 8964,
      "ĠHatÃ¡r": 8965,
      "ĠszilÃ¡rd": 8966,
      "ĠhÃ¡borÃºk": 8967,
      "ĠPÃ¡p": 8968,
      "helm": 8969,
      "Ġkapit": 8970,
      "ĠhasznÃ¡ltak": 8971,
      "oldali": 8972,
      "emplÃ©n": 8973,
      "ĠÅĳszÃ©n": 8974,
      "vÃ©dÅĳ": 8975,
      "ĠszociÃ¡lis": 8976,
      "eneg": 8977,
      "megye": 8978,
      "ĠkristÃ¡ly": 8979,
      "ĠAugust": 8980,
      "Ã¡inak": 8981,
      "ĠPannon": 8982,
      "1946": 8983,
      "Ġbefog": 8984,
      "Ġnapi": 8985,
      "Tan": 8986,
      "nik": 8987,
      "Ã¼rtt": 8988,
      "ĠÃ©letrajzi": 8989,
      "ĠEgyetemi": 8990,
      "rod": 8991,
      "uki": 8992,
      "vÃ©delem": 8993,
      "ĠQue": 8994,
      "ĠKalif": 8995,
      "Ġtelefon": 8996,
      "Ġstadion": 8997,
      "ĠcsehszlovÃ¡k": 8998,
      "Ġfelekezeten": 8999,
      "ĠAleksz": 9000,
      "SzÃ¡sz": 9001,
      "ĠMary": 9002,
      "Ãģllam": 9003,
      "Äģ": 9004,
      "ĠKÃ©pek": 9005,
      "Orosz": 9006,
      "ĠRÃ©v": 9007,
      "Ġrabszolg": 9008,
      "ozÃ¡st": 9009,
      "ĠdigitÃ¡lis": 9010,
      "vÃ©t": 9011,
      "ĠArgent": 9012,
      "kom": 9013,
      "ĠettÅĳl": 9014,
      "iew": 9015,
      "ensÃºly": 9016,
      "aha": 9017,
      "telep": 9018,
      "emelked": 9019,
      "ilvÃ¡n": 9020,
      "Ġszintet": 9021,
      "uba": 9022,
      "jegyzÃ©sek": 9023,
      "dÃŃja": 9024,
      "Ġagg": 9025,
      "eszÃ©l": 9026,
      "Ġviseli": 9027,
      "egyhÃ¡za": 9028,
      "ĠÃ³riÃ¡si": 9029,
      "Ġenyh": 9030,
      "Ġfelder": 9031,
      "ianus": 9032,
      "ĠWilson": 9033,
      "Ã¡tsz": 9034,
      "onya": 9035,
      "Ġprofesszor": 9036,
      "Ġend": 9037,
      "Ġsajt": 9038,
      "Ġtorkol": 9039,
      "ĠszÃ¡j": 9040,
      "Ġcsaknem": 9041,
      "ĠClaud": 9042,
      "ĠAv": 9043,
      "uta": 9044,
      "ĠÃŃrja": 9045,
      "Ġbajnokok": 9046,
      "ĠBeth": 9047,
      "iÃ¡s": 9048,
      "Ġszup": 9049,
      "1942": 9050,
      "alj": 9051,
      "Ġ101": 9052,
      "ĠVi": 9053,
      "ĠÃ¡tlagos": 9054,
      "yan": 9055,
      "ĠbÃŃrÃ³sÃ¡g": 9056,
      "MÃ¡sodik": 9057,
      "ĠbizonyÃŃtÃ©k": 9058,
      "arin": 9059,
      "ĠtartalÃ©k": 9060,
      "ĠmÅ±kÃ¶dt": 9061,
      "ciÃ³ja": 9062,
      "ĠRay": 9063,
      "ĠReal": 9064,
      "AN": 9065,
      "ativ": 9066,
      "Ġaj": 9067,
      "ude": 9068,
      "ĠfoglalkozÃ³": 9069,
      "ĠatlÃ©t": 9070,
      "ĠBurg": 9071,
      "ĠszerkesztÅĳje": 9072,
      "Ġtakar": 9073,
      "Ġdinasztia": 9074,
      "Ġuradalom": 9075,
      "ĠkitÃ¼ntetett": 9076,
      "igi": 9077,
      "ikailag": 9078,
      "iti": 9079,
      "IN": 9080,
      "ĠfelszÃ¡m": 9081,
      "szÃ¼lÃ¶tt": 9082,
      "Ã¡sait": 9083,
      "Ġ(\"": 9084,
      "ĠPÃ©csi": 9085,
      "ĠsajÃ¡tos": 9086,
      "yd": 9087,
      "oks": 9088,
      "ukra": 9089,
      "Ã¶der": 9090,
      "agan": 9091,
      "ĠÃģt": 9092,
      "tÃ¶rtÃ©nÃ©sz": 9093,
      "Ġterjeszt": 9094,
      "ĠTime": 9095,
      "elvÃ©ny": 9096,
      "ĠMÃ¡sodik": 9097,
      "ĠSa": 9098,
      "ister": 9099,
      "zÃ©st": 9100,
      "Ġhagyta": 9101,
      "NemzetkÃ¶zi": 9102,
      "rac": 9103,
      "Ã³rÃ©szt": 9104,
      "ĠÃļjp": 9105,
      "ĠBÃ©csben": 9106,
      "Ġmang": 9107,
      "eszkÃ¶z": 9108,
      "ĠYour": 9109,
      "ĠKatolikus": 9110,
      "Ã©land": 9111,
      "Spanyol": 9112,
      "Ġfelszabad": 9113,
      "ootball": 9114,
      "Ġszerkezet": 9115,
      "oszf": 9116,
      "letes": 9117,
      "eich": 9118,
      "ĠmÃ©h": 9119,
      "ution": 9120,
      "Ġfeloszt": 9121,
      "ĠWashington": 9122,
      "ĠszÅĳlÅĳ": 9123,
      "Ġkedvez": 9124,
      "egyedik": 9125,
      "ĠhatÃ¡st": 9126,
      "ines": 9127,
      "ĠfÃ¼rdÅĳ": 9128,
      "ĠtalÃ¡ltÃ¡k": 9129,
      "ĠfÃ¶ldi": 9130,
      "Ġbenn": 9131,
      "aurusz": 9132,
      "ĠdiplomÃ¡t": 9133,
      "kÃ¶nyve": 9134,
      "Ġfigyelembe": 9135,
      "ĠÃ©pÃ¼lete": 9136,
      "Ġakarja": 9137,
      "Ġtechnikai": 9138,
      "TC": 9139,
      "ĠtÃ©l": 9140,
      "ĠsikerÃ¼l": 9141,
      "ĠÃģl": 9142,
      "Ġ54": 9143,
      "1943": 9144,
      "dob": 9145,
      "igl": 9146,
      "ree": 9147,
      "Ã¶ntÅĳ": 9148,
      "Klub": 9149,
      "Ġturn": 9150,
      "ĠNorvÃ©g": 9151,
      "Ġparlamenti": 9152,
      "ĠErdÃ©lyben": 9153,
      "ekÃ©ly": 9154,
      "Ġvonat": 9155,
      "Ġharminc": 9156,
      "ozÃ¡sÃ¡t": 9157,
      "Ġ1892": 9158,
      "KÃ©t": 9159,
      "Kore": 9160,
      "ĠCont": 9161,
      "Ġnyak": 9162,
      "Ġakkoriban": 9163,
      "ĠtÃ¼nt": 9164,
      "ĠÃ¡llampolgÃ¡r": 9165,
      "EredmÃ©nyek": 9166,
      "Ġrendszert": 9167,
      "sÃ¡r": 9168,
      "Ã¡shoz": 9169,
      "ÃºszÃ³": 9170,
      "ĠfÃ©sz": 9171,
      "ĠfÃ©rj": 9172,
      "Ġ52": 9173,
      "ĠdÃ¶ntÃ©s": 9174,
      "VIII": 9175,
      "Ã¼rttemberg": 9176,
      "ĠÃ¡tdolg": 9177,
      "ĠHorvÃ¡torszÃ¡gban": 9178,
      "ĠidÅĳs": 9179,
      "ÃŃtÃ©sÃ©vel": 9180,
      "ome": 9181,
      "ĠlegÃ©ny": 9182,
      "ĠÃ©lelmiszer": 9183,
      "Ġnehezen": 9184,
      "Ġparancsnoka": 9185,
      "ĠnapjÃ¡n": 9186,
      "bon": 9187,
      "ĠkÃ©nytelen": 9188,
      "ĠUS": 9189,
      "elÅĳhely": 9190,
      "Ã©tert": 9191,
      "ovÃŃz": 9192,
      "tav": 9193,
      "Ġszoftver": 9194,
      "ĠvilÃ¡gszerte": 9195,
      "Itt": 9196,
      "Ġszereztek": 9197,
      "ĠAusztria": 9198,
      "ĠmÅ±velÅĳ": 9199,
      "Ġbaj": 9200,
      "ĠBot": 9201,
      "ĠmexikÃ³i": 9202,
      "1929": 9203,
      "ĠDiv": 9204,
      "Ð¸Ð¹": 9205,
      "ĠSuper": 9206,
      "Ġ1899": 9207,
      "ĠKlub": 9208,
      "ĠmÃ¡ra": 9209,
      "edy": 9210,
      "Ġfogja": 9211,
      "ĠÃ¼lÃ©s": 9212,
      "ĠinformÃ¡ciÃ³": 9213,
      "ences": 9214,
      "tÃ¡bl": 9215,
      "ĠMike": 9216,
      "ĠKapos": 9217,
      "ĠregÃ©nye": 9218,
      "Bel": 9219,
      "ĠSun": 9220,
      "ĠmegvÃ¡sÃ¡r": 9221,
      "Ġdiv": 9222,
      "itkÃ¡r": 9223,
      "ĠKÃ©z": 9224,
      "ĠcsapatÃ¡ban": 9225,
      "ĠtÃ¼zÃ©r": 9226,
      "ĠAh": 9227,
      "ĠNÃ¡d": 9228,
      "ĠVIII": 9229,
      "1918": 9230,
      "gi": 9231,
      "Ġlegsz": 9232,
      "ĠvÃ¡rmegyei": 9233,
      "ĠprotestÃ¡ns": 9234,
      "Ġpi": 9235,
[...]
