{
    "chr_to_ids": {
        "<bos>": 0,
        "<eos>": 1,
        "<pad>": 2,
        "<unk>": 3,
        "\n": 4,
        " ": 5,
        "!": 6,
        "\"": 7,
        "$": 8,
        "'": 9,
        ",": 10,
        "-": 11,
        ".": 12,
        "0": 13,
        "2": 14,
        "3": 15,
        "8": 16,
        ":": 17,
        ";": 18,
        "?": 19,
        "A": 20,
        "B": 21,
        "C": 22,
        "D": 23,
        "E": 24,
        "F": 25,
        "G": 26,
        "H": 27,
        "I": 28,
        "J": 29,
        "K": 30,
        "L": 31,
        "M": 32,
        "N": 33,
        "O": 34,
        "P": 35,
        "Q": 36,
        "R": 37,
        "S": 38,
        "T": 39,
        "U": 40,
        "V": 41,
        "W": 42,
        "X": 43,
        "Y": 44,
        "Z": 45,
        "a": 46,
        "b": 47,
        "c": 48,
        "d": 49,
        "e": 50,
        "f": 51,
        "g": 52,
        "h": 53,
        "i": 54,
        "j": 55,
        "k": 56,
        "l": 57,
        "m": 58,
        "n": 59,
        "o": 60,
        "p": 61,
        "q": 62,
        "r": 63,
        "s": 64,
        "t": 65,
        "u": 66,
        "v": 67,
        "w": 68,
        "x": 69,
        "y": 70,
        "z": 71,
        "\u00e2": 72,
        "\u0153": 73,
        "\u201c": 74,
        "\u201d": 75,
        "\u20ac": 76,
        "\u2122": 77,
        "e ": 78,
        "d ": 79,
        "th": 80,
        " a": 81,
        ". ": 82,
        "t ": 83,
        "s ": 84,
        "y ": 85,
        "er": 86,
        "nd ": 87,
        "o ": 88,
        "ed ": 89,
        "the ": 90,
        "in": 91,
        "wa": 92,
        "he ": 93,
        ", ": 94,
        "ou": 95,
        " and ": 96,
        "to ": 97,
        "en": 98,
        "\"\"": 99,
        "ar": 100,
        "\n\n": 101,
        "on": 102,
        "om": 103,
        "ha": 104,
        " s": 105,
        "ing": 106,
        "or": 107,
        "il": 108,
        " the ": 109,
        "he": 110,
        "an": 111,
        " a ": 112,
        "was ": 113,
        ".\n\n": 114,
        ". T": 115,
        "er ": 116,
        "it": 117,
        "sa": 118,
        "ll": 119,
        "im": 120,
        "id": 121,
        "re": 122,
        ". S": 123,
        "is ": 124,
        "the": 125,
        "st": 126,
        "and ": 127,
        "lo": 128,
        ". H": 129,
        "ir": 130,
        "la": 131,
        " h": 132,
        ". He ": 133,
        ". She ": 134,
        "ck": 135,
        "to": 136,
        "hey ": 137,
        "ed to ": 138,
        "it ": 139,
        "ing ": 140,
        "ow": 141,
        "ver": 142,
        "wi": 143,
        "li": 144,
        "ri": 145,
        "at ": 146,
        "a ": 147,
        "ere ": 148,
        "le": 149,
        ". They ": 150,
        "l ": 151,
        "da": 152,
        "ch": 153,
        "be": 154,
        "ok": 155,
        "with": 156,
        "pp": 157,
        "of": 158,
        "se": 159,
        "le ": 160,
        "you": 161,
        "y, ": 162,
        "ut ": 163,
        "un": 164,
        "ld ": 165,
        "am": 166,
        "ig": 167,
        "pla": 168,
        "for": 169,
        "ma": 170,
        "On": 171,
        "sh": 172,
        "Lil": 173,
        "no": 174,
        "ed": 175,
        "ve ": 176,
        "up": 177,
        "en ": 178,
        "she ": 179,
        "was": 180,
        "so ": 181,
        ". I": 182,
        "ke ": 183,
        "had ": 184,
        "ne": 185,
        "ce ": 186,
        "an ": 187,
        "that ": 188,
        "es": 189,
        "\"\" ": 190,
        "ra": 191,
        "very ": 192,
        "bo": 193,
        ", \"\"": 194,
        "her ": 195,
        "ba": 196,
        "wh": 197,
        "wan": 198,
        "The ": 199,
        "\"\n": 200,
        "they ": 201,
        "\"\n\"": 202,
        "y and ": 203,
        "\"\"\n\n": 204,
        "gh": 205,
        "itt": 206,
        "happ": 207,
        "fe": 208,
        "'s ": 209,
        " sa": 210,
        "id ": 211,
        "mom": 212,
        "tim": 213,
        "e, ": 214,
        " ar": 215,
        "car": 216,
        "in the ": 217,
        "said": 218,
        ". The ": 219,
        "ittle ": 220,
        "ed and ": 221,
        "go": 222,
        "my ": 223,
        "his ": 224,
        "ould ": 225,
        "little ": 226,
        "end": 227,
        "ro": 228,
        ".\"\n\"": 229,
        "fri": 230,
        "at": 231,
        "was a ": 232,
        "ted to ": 233,
        "ge": 234,
        "ta": 235,
        "big": 236,
        "look": 237,
        "to the ": 238,
        "ur": 239,
        "s and ": 240,
        ". It ": 241,
        "there ": 242,
        "were ": 243,
        "ome": 244,
        "sk": 245,
        "mil": 246,
        "e and ": 247,
        "do": 248,
        ".\n\n\"\"": 249,
        "fu": 250,
        "ll ": 251,
        "not ": 252,
        "friend": 253,
        "'t ": 254,
        "w ": 255,
        "e da": 256,
        "es ": 257,
        "ed the ": 258,
        "ec": 259,
        "ound ": 260,
        "ther": 261,
        " c": 262,
        "ic": 263,
        "but ": 264,
        " her ": 265,
        "ea": 266,
        "them": 267,
        "gir": 268,
        "Lily ": 269,
        "is": 270,
        "Once ": 271,
        "on a ": 272,
        "ent ": 273,
        "be ": 274,
        "us": 275,
        "One da": 276,
        "! ": 277,
        "their": 278,
        "ex": 279,
        "said, \"\"": 280,
        "of ": 281,
        "et": 282,
        "have ": 283,
        "ome ": 284,
        "play": 285,
        "with ": 286,
        " his ": 287,
        "was so ": 288,
        "ug": 289,
        "ck ": 290,
        " are ": 291,
        "you ": 292,
        "play ": 293,
        "upon a ": 294,
        "ter": 295,
        "op": 296,
        "there was a ": 297,
        "Once upon a ": 298,
        "Once upon a tim": 299,
        ".\"\"\n\n": 300,
        "wanted to ": 301,
        "ent": 302,
        "ga": 303,
        "om ": 304,
        "their ": 305,
        "el": 306,
        ".\n\nThe ": 307,
        "ch ": 308,
        "out ": 309,
        "um": 310,
        "saw": 311,
        "ys": 312,
        "ca": 313,
        "ow ": 314,
        "hat ": 315,
        "k ": 316,
        "Ben": 317,
        "dd": 318,
        "rea": 319,
        "thing": 320,
        "girl ": 321,
        "One day, ": 322,
        ", and ": 323,
        "him": 324,
        "fa": 325,
        "ep": 326,
        "went ": 327,
        "You": 328,
        "al": 329,
        "But ": 330,
        "\u00e2\u20ac": 331,
        "hel": 332,
        "like ": 333,
        "y a": 334,
        "co": 335,
        "fi": 336,
        "par": 337,
        "one ": 338,
        "fun": 339,
        "on the ": 340,
        "out": 341,
        "fr": 342,
        ".\"\n\"Once upon a tim": 343,
        "looked ": 344,
        "Tim": 345,
        "nam": 346,
        "ly ": 347,
        "I ": 348,
        ", but ": 349,
        "ong": 350,
        "on ": 351,
        "help": 352,
        "go ": 353,
        "way": 354,
        "nd": 355,
        "me": 356,
        ". \"\"": 357,
        "sid": 358,
        "ough": 359,
        "sp": 360,
        "tr": 361,
        "big ": 362,
        "was very ": 363,
        "fel": 364,
        "n't ": 365,
        "gr": 366,
        "for ": 367,
        "lov": 368,
        "ut": 369,
        "own": 370,
        ". A": 371,
        "igh": 372,
        " she ": 373,
        "would ": 374,
        " an": 375,
        "ld": 376,
        "said ": 377,
        "!\"\" ": 378,
        "smil": 379,
        "t to ": 380,
        "wor": 381,
        "ick": 382,
        "in ": 383,
        " a s": 384,
        "mor": 385,
        "Tom": 386,
        "se ": 387,
        "felt ": 388,
        "pa": 389,
        "de ": 390,
        "star": 391,
        "her": 392,
        "exc": 393,
        "boy ": 394,
        "new ": 395,
        "e, there was a ": 396,
        "oo": 397,
        "could ": 398,
        "of the ": 399,
        "little girl ": 400,
        "thing ": 401,
        "excit": 402,
        "lly ": 403,
        "lik": 404,
        "make ": 405,
        "some": 406,
        "Mom": 407,
        "r ": 408,
        "named ": 409,
        "t the ": 410,
        "na": 411,
        "made ": 412,
        "ill ": 413,
        "see ": 414,
        "bir": 415,
        "what ": 416,
        "happy ": 417,
        ". W": 418,
        "toge": 419,
        "lk": 420,
        " said": 421,
        "man": 422,
        "ill": 423,
        "ed her ": 424,
        "did ": 425,
        "qu": 426,
        "ran": 427,
        "ful ": 428,
        "it was ": 429,
        "very": 430,
        "ther ": 431,
        "gain": 432,
        "st ": 433,
        "ver ": 434,
        "Lily": 435,
        "ear": 436,
        "tt": 437,
        "They ": 438,
        "goo": 439,
        ",\"\" ": 440,
        "happy": 441,
        "ame ": 442,
        "friends": 443,
        "dec": 444,
        "my": 445,
        "pe": 446,
        "ia": 447,
        ". You": 448,
        "ara": 449,
        "found ": 450,
        "o, ": 451,
        "Ja": 452,
        "decid": 453,
        "ugh": 454,
        "ard ": 455,
        "pr": 456,
        ". One day, ": 457,
        "ard": 458,
        "po": 459,
        "if": 460,
        "pl": 461,
        "ho": 462,
        "who ": 463,
        ".\"\n\"Once upon a time, there was a ": 464,
        "we ": 465,
        "had a ": 466,
        "put ": 467,
        "back": 468,
        "mo": 469,
        "them ": 470,
        ".\n\nS": 471,
        "low": 472,
        "An": 473,
        "saw a ": 474,
        "der": 475,
        "walk": 476,
        "tre": 477,
        "mu": 478,
        "lea": 479,
        ". But ": 480,
        "ask": 481,
        "ke": 482,
        "ell": 483,
        "hug": 484,
        "ure": 485,
        "back ": 486,
        "orr": 487,
        "ound": 488,
        "than": 489,
        "old ": 490,
        "bb": 491,
        "wat": 492,
        "want to ": 493,
        "udd": 494,
        "ce": 495,
        "ts ": 496,
        " her": 497,
        "cou": 498,
        "Ma": 499,
        "Jo": 500,
        "Ben ": 501,
        "down": 502,
        "and": 503,
        "ss": 504,
        "scar": 505,
        "day ": 506,
        "take ": 507,
        "some ": 508,
        ".\"\" ": 509,
        " smil": 510,
        "br": 511,
        "kn": 512,
        "ice ": 513,
        "!\"\"\n\n": 514,
        "gre": 515,
        ". E": 516,
        "ful": 517,
        "e the ": 518,
        "de": 519,
        "mom ": 520,
        "though": 521,
        "oud ": 522,
        "together": 523,
        "playing ": 524,
        "decided to ": 525,
        "took": 526,
        ". The": 527,
        "t's ": 528,
        "did not ": 529,
        "park": 530,
        " says": 531,
        "pre": 532,
        "ran ": 533,
        "bout ": 534,
        "came ": 535,
        ", the ": 536,
        "on't ": 537,
        "clo": 538,
        "gra": 539,
        "care": 540,
        "ways ": 541,
        "pu": 542,
        "your ": 543,
        "did": 544,
        "long": 545,
        "ly": 546,
        "y are ": 547,
        "uck": 548,
        " him": 549,
        "arn": 550,
        "dog": 551,
        "way ": 552,
        "ed a": 553,
        "from": 554,
        "udden": 555,
        "with the ": 556,
        " and the ": 557,
        "feel": 558,
        "outsid": 559,
        "can ": 560,
        " to ": 561,
        "run": 562,
        "other": 563,
        "end ": 564,
        "Lily and ": 565,
        "han": 566,
        "started to ": 567,
        "too ": 568,
        "?\"\"\n\n": 569,
        "ved ": 570,
        "jo": 571,
        "find ": 572,
        "ve": 573,
        "room": 574,
        "too": 575,
        "?\"\" ": 576,
        "got ": 577
    },
    "ids_to_chr": {
        "0": "<bos>",
        "1": "<eos>",
        "2": "<pad>",
        "3": "<unk>",
        "4": "\n",
        "5": " ",
        "6": "!",
        "7": "\"",
        "8": "$",
        "9": "'",
        "10": ",",
        "11": "-",
        "12": ".",
        "13": "0",
        "14": "2",
        "15": "3",
        "16": "8",
        "17": ":",
        "18": ";",
        "19": "?",
        "20": "A",
        "21": "B",
        "22": "C",
        "23": "D",
        "24": "E",
        "25": "F",
        "26": "G",
        "27": "H",
        "28": "I",
        "29": "J",
        "30": "K",
        "31": "L",
        "32": "M",
        "33": "N",
        "34": "O",
        "35": "P",
        "36": "Q",
        "37": "R",
        "38": "S",
        "39": "T",
        "40": "U",
        "41": "V",
        "42": "W",
        "43": "X",
        "44": "Y",
        "45": "Z",
        "46": "a",
        "47": "b",
        "48": "c",
        "49": "d",
        "50": "e",
        "51": "f",
        "52": "g",
        "53": "h",
        "54": "i",
        "55": "j",
        "56": "k",
        "57": "l",
        "58": "m",
        "59": "n",
        "60": "o",
        "61": "p",
        "62": "q",
        "63": "r",
        "64": "s",
        "65": "t",
        "66": "u",
        "67": "v",
        "68": "w",
        "69": "x",
        "70": "y",
        "71": "z",
        "72": "\u00e2",
        "73": "\u0153",
        "74": "\u201c",
        "75": "\u201d",
        "76": "\u20ac",
        "77": "\u2122",
        "78": "e ",
        "79": "d ",
        "80": "th",
        "81": " a",
        "82": ". ",
        "83": "t ",
        "84": "s ",
        "85": "y ",
        "86": "er",
        "87": "nd ",
        "88": "o ",
        "89": "ed ",
        "90": "the ",
        "91": "in",
        "92": "wa",
        "93": "he ",
        "94": ", ",
        "95": "ou",
        "96": " and ",
        "97": "to ",
        "98": "en",
        "99": "\"\"",
        "100": "ar",
        "101": "\n\n",
        "102": "on",
        "103": "om",
        "104": "ha",
        "105": " s",
        "106": "ing",
        "107": "or",
        "108": "il",
        "109": " the ",
        "110": "he",
        "111": "an",
        "112": " a ",
        "113": "was ",
        "114": ".\n\n",
        "115": ". T",
        "116": "er ",
        "117": "it",
        "118": "sa",
        "119": "ll",
        "120": "im",
        "121": "id",
        "122": "re",
        "123": ". S",
        "124": "is ",
        "125": "the",
        "126": "st",
        "127": "and ",
        "128": "lo",
        "129": ". H",
        "130": "ir",
        "131": "la",
        "132": " h",
        "133": ". He ",
        "134": ". She ",
        "135": "ck",
        "136": "to",
        "137": "hey ",
        "138": "ed to ",
        "139": "it ",
        "140": "ing ",
        "141": "ow",
        "142": "ver",
        "143": "wi",
        "144": "li",
        "145": "ri",
        "146": "at ",
        "147": "a ",
        "148": "ere ",
        "149": "le",
        "150": ". They ",
        "151": "l ",
        "152": "da",
        "153": "ch",
        "154": "be",
        "155": "ok",
        "156": "with",
        "157": "pp",
        "158": "of",
        "159": "se",
        "160": "le ",
        "161": "you",
        "162": "y, ",
        "163": "ut ",
        "164": "un",
        "165": "ld ",
        "166": "am",
        "167": "ig",
        "168": "pla",
        "169": "for",
        "170": "ma",
        "171": "On",
        "172": "sh",
        "173": "Lil",
        "174": "no",
        "175": "ed",
        "176": "ve ",
        "177": "up",
        "178": "en ",
        "179": "she ",
        "180": "was",
        "181": "so ",
        "182": ". I",
        "183": "ke ",
        "184": "had ",
        "185": "ne",
        "186": "ce ",
        "187": "an ",
        "188": "that ",
        "189": "es",
        "190": "\"\" ",
        "191": "ra",
        "192": "very ",
        "193": "bo",
        "194": ", \"\"",
        "195": "her ",
        "196": "ba",
        "197": "wh",
        "198": "wan",
        "199": "The ",
        "200": "\"\n",
        "201": "they ",
        "202": "\"\n\"",
        "203": "y and ",
        "204": "\"\"\n\n",
        "205": "gh",
        "206": "itt",
        "207": "happ",
        "208": "fe",
        "209": "'s ",
        "210": " sa",
        "211": "id ",
        "212": "mom",
        "213": "tim",
        "214": "e, ",
        "215": " ar",
        "216": "car",
        "217": "in the ",
        "218": "said",
        "219": ". The ",
        "220": "ittle ",
        "221": "ed and ",
        "222": "go",
        "223": "my ",
        "224": "his ",
        "225": "ould ",
        "226": "little ",
        "227": "end",
        "228": "ro",
        "229": ".\"\n\"",
        "230": "fri",
        "231": "at",
        "232": "was a ",
        "233": "ted to ",
        "234": "ge",
        "235": "ta",
        "236": "big",
        "237": "look",
        "238": "to the ",
        "239": "ur",
        "240": "s and ",
        "241": ". It ",
        "242": "there ",
        "243": "were ",
        "244": "ome",
        "245": "sk",
        "246": "mil",
        "247": "e and ",
        "248": "do",
        "249": ".\n\n\"\"",
        "250": "fu",
        "251": "ll ",
        "252": "not ",
        "253": "friend",
        "254": "'t ",
        "255": "w ",
        "256": "e da",
        "257": "es ",
        "258": "ed the ",
        "259": "ec",
        "260": "ound ",
        "261": "ther",
        "262": " c",
        "263": "ic",
        "264": "but ",
        "265": " her ",
        "266": "ea",
        "267": "them",
        "268": "gir",
        "269": "Lily ",
        "270": "is",
        "271": "Once ",
        "272": "on a ",
        "273": "ent ",
        "274": "be ",
        "275": "us",
        "276": "One da",
        "277": "! ",
        "278": "their",
        "279": "ex",
        "280": "said, \"\"",
        "281": "of ",
        "282": "et",
        "283": "have ",
        "284": "ome ",
        "285": "play",
        "286": "with ",
        "287": " his ",
        "288": "was so ",
        "289": "ug",
        "290": "ck ",
        "291": " are ",
        "292": "you ",
        "293": "play ",
        "294": "upon a ",
        "295": "ter",
        "296": "op",
        "297": "there was a ",
        "298": "Once upon a ",
        "299": "Once upon a tim",
        "300": ".\"\"\n\n",
        "301": "wanted to ",
        "302": "ent",
        "303": "ga",
        "304": "om ",
        "305": "their ",
        "306": "el",
        "307": ".\n\nThe ",
        "308": "ch ",
        "309": "out ",
        "310": "um",
        "311": "saw",
        "312": "ys",
        "313": "ca",
        "314": "ow ",
        "315": "hat ",
        "316": "k ",
        "317": "Ben",
        "318": "dd",
        "319": "rea",
        "320": "thing",
        "321": "girl ",
        "322": "One day, ",
        "323": ", and ",
        "324": "him",
        "325": "fa",
        "326": "ep",
        "327": "went ",
        "328": "You",
        "329": "al",
        "330": "But ",
        "331": "\u00e2\u20ac",
        "332": "hel",
        "333": "like ",
        "334": "y a",
        "335": "co",
        "336": "fi",
        "337": "par",
        "338": "one ",
        "339": "fun",
        "340": "on the ",
        "341": "out",
        "342": "fr",
        "343": ".\"\n\"Once upon a tim",
        "344": "looked ",
        "345": "Tim",
        "346": "nam",
        "347": "ly ",
        "348": "I ",
        "349": ", but ",
        "350": "ong",
        "351": "on ",
        "352": "help",
        "353": "go ",
        "354": "way",
        "355": "nd",
        "356": "me",
        "357": ". \"\"",
        "358": "sid",
        "359": "ough",
        "360": "sp",
        "361": "tr",
        "362": "big ",
        "363": "was very ",
        "364": "fel",
        "365": "n't ",
        "366": "gr",
        "367": "for ",
        "368": "lov",
        "369": "ut",
        "370": "own",
        "371": ". A",
        "372": "igh",
        "373": " she ",
        "374": "would ",
        "375": " an",
        "376": "ld",
        "377": "said ",
        "378": "!\"\" ",
        "379": "smil",
        "380": "t to ",
        "381": "wor",
        "382": "ick",
        "383": "in ",
        "384": " a s",
        "385": "mor",
        "386": "Tom",
        "387": "se ",
        "388": "felt ",
        "389": "pa",
        "390": "de ",
        "391": "star",
        "392": "her",
        "393": "exc",
        "394": "boy ",
        "395": "new ",
        "396": "e, there was a ",
        "397": "oo",
        "398": "could ",
        "399": "of the ",
        "400": "little girl ",
        "401": "thing ",
        "402": "excit",
        "403": "lly ",
        "404": "lik",
        "405": "make ",
        "406": "some",
        "407": "Mom",
        "408": "r ",
        "409": "named ",
        "410": "t the ",
        "411": "na",
        "412": "made ",
        "413": "ill ",
        "414": "see ",
        "415": "bir",
        "416": "what ",
        "417": "happy ",
        "418": ". W",
        "419": "toge",
        "420": "lk",
        "421": " said",
        "422": "man",
        "423": "ill",
        "424": "ed her ",
        "425": "did ",
        "426": "qu",
        "427": "ran",
        "428": "ful ",
        "429": "it was ",
        "430": "very",
        "431": "ther ",
        "432": "gain",
        "433": "st ",
        "434": "ver ",
        "435": "Lily",
        "436": "ear",
        "437": "tt",
        "438": "They ",
        "439": "goo",
        "440": ",\"\" ",
        "441": "happy",
        "442": "ame ",
        "443": "friends",
        "444": "dec",
        "445": "my",
        "446": "pe",
        "447": "ia",
        "448": ". You",
        "449": "ara",
        "450": "found ",
        "451": "o, ",
        "452": "Ja",
        "453": "decid",
        "454": "ugh",
        "455": "ard ",
        "456": "pr",
        "457": ". One day, ",
        "458": "ard",
        "459": "po",
        "460": "if",
        "461": "pl",
        "462": "ho",
        "463": "who ",
        "464": ".\"\n\"Once upon a time, there was a ",
        "465": "we ",
        "466": "had a ",
        "467": "put ",
        "468": "back",
        "469": "mo",
        "470": "them ",
        "471": ".\n\nS",
        "472": "low",
        "473": "An",
        "474": "saw a ",
        "475": "der",
        "476": "walk",
        "477": "tre",
        "478": "mu",
        "479": "lea",
        "480": ". But ",
        "481": "ask",
        "482": "ke",
        "483": "ell",
        "484": "hug",
        "485": "ure",
        "486": "back ",
        "487": "orr",
        "488": "ound",
        "489": "than",
        "490": "old ",
        "491": "bb",
        "492": "wat",
        "493": "want to ",
        "494": "udd",
        "495": "ce",
        "496": "ts ",
        "497": " her",
        "498": "cou",
        "499": "Ma",
        "500": "Jo",
        "501": "Ben ",
        "502": "down",
        "503": "and",
        "504": "ss",
        "505": "scar",
        "506": "day ",
        "507": "take ",
        "508": "some ",
        "509": ".\"\" ",
        "510": " smil",
        "511": "br",
        "512": "kn",
        "513": "ice ",
        "514": "!\"\"\n\n",
        "515": "gre",
        "516": ". E",
        "517": "ful",
        "518": "e the ",
        "519": "de",
        "520": "mom ",
        "521": "though",
        "522": "oud ",
        "523": "together",
        "524": "playing ",
        "525": "decided to ",
        "526": "took",
        "527": ". The",
        "528": "t's ",
        "529": "did not ",
        "530": "park",
        "531": " says",
        "532": "pre",
        "533": "ran ",
        "534": "bout ",
        "535": "came ",
        "536": ", the ",
        "537": "on't ",
        "538": "clo",
        "539": "gra",
        "540": "care",
        "541": "ways ",
        "542": "pu",
        "543": "your ",
        "544": "did",
        "545": "long",
        "546": "ly",
        "547": "y are ",
        "548": "uck",
        "549": " him",
        "550": "arn",
        "551": "dog",
        "552": "way ",
        "553": "ed a",
        "554": "from",
        "555": "udden",
        "556": "with the ",
        "557": " and the ",
        "558": "feel",
        "559": "outsid",
        "560": "can ",
        "561": " to ",
        "562": "run",
        "563": "other",
        "564": "end ",
        "565": "Lily and ",
        "566": "han",
        "567": "started to ",
        "568": "too ",
        "569": "?\"\"\n\n",
        "570": "ved ",
        "571": "jo",
        "572": "find ",
        "573": "ve",
        "574": "room",
        "575": "too",
        "576": "?\"\" ",
        "577": "got "
    }
}