{
  "version": "1.0",
  "truncation": null,
  "padding": null,
  "added_tokens": [
    {
      "id": 0,
      "content": "<unk>",
      "single_word": false,
      "lstrip": false,
      "rstrip": false,
      "normalized": false,
      "special": true
    },
    {
      "id": 1,
      "content": "<pad>",
      "single_word": false,
      "lstrip": false,
      "rstrip": false,
      "normalized": false,
      "special": true
    },
    {
      "id": 2,
      "content": "<bos>",
      "single_word": false,
      "lstrip": false,
      "rstrip": false,
      "normalized": false,
      "special": true
    },
    {
      "id": 3,
      "content": "<eos>",
      "single_word": false,
      "lstrip": false,
      "rstrip": false,
      "normalized": false,
      "special": true
    }
  ],
  "normalizer": null,
  "pre_tokenizer": {
    "type": "ByteLevel",
    "add_prefix_space": true,
    "trim_offsets": true,
    "use_regex": true
  },
  "post_processor": null,
  "decoder": {
    "type": "ByteLevel",
    "add_prefix_space": true,
    "trim_offsets": true,
    "use_regex": true
  },
  "model": {
    "type": "BPE",
    "dropout": null,
    "unk_token": "<unk>",
    "continuing_subword_prefix": null,
    "end_of_word_suffix": null,
    "fuse_unk": false,
    "byte_fallback": false,
    "ignore_merges": false,
    "vocab": {
      "<unk>": 0,
      "<pad>": 1,
      "<bos>": 2,
      "<eos>": 3,
      "!": 4,
      "\"": 5,
      "#": 6,
      "$": 7,
      "%": 8,
      "&": 9,
      "'": 10,
      "(": 11,
      ")": 12,
      "*": 13,
      "+": 14,
      ",": 15,
      "-": 16,
      ".": 17,
      "/": 18,
      "0": 19,
      "1": 20,
      "2": 21,
      "3": 22,
      "4": 23,
      "5": 24,
      "6": 25,
      "7": 26,
      "8": 27,
      "9": 28,
      ":": 29,
      ";": 30,
      "<": 31,
      "=": 32,
      ">": 33,
      "?": 34,
      "@": 35,
      "A": 36,
      "B": 37,
      "C": 38,
      "D": 39,
      "E": 40,
      "F": 41,
      "G": 42,
      "H": 43,
      "I": 44,
      "J": 45,
      "K": 46,
      "L": 47,
      "M": 48,
      "N": 49,
      "O": 50,
      "P": 51,
      "Q": 52,
      "R": 53,
      "S": 54,
      "T": 55,
      "U": 56,
      "V": 57,
      "W": 58,
      "X": 59,
      "Y": 60,
      "Z": 61,
      "[": 62,
      "\\": 63,
      "]": 64,
      "^": 65,
      "_": 66,
      "`": 67,
      "a": 68,
      "b": 69,
      "c": 70,
      "d": 71,
      "e": 72,
      "f": 73,
      "g": 74,
      "h": 75,
      "i": 76,
      "j": 77,
      "k": 78,
      "l": 79,
      "m": 80,
      "n": 81,
      "o": 82,
      "p": 83,
      "q": 84,
      "r": 85,
      "s": 86,
      "t": 87,
      "u": 88,
      "v": 89,
      "w": 90,
      "x": 91,
      "y": 92,
      "z": 93,
      "{": 94,
      "|": 95,
      "}": 96,
      "~": 97,
      "¡": 98,
      "¢": 99,
      "£": 100,
      "¤": 101,
      "¥": 102,
      "¦": 103,
      "§": 104,
      "¨": 105,
      "©": 106,
      "ª": 107,
      "«": 108,
      "¬": 109,
      "®": 110,
      "¯": 111,
      "°": 112,
      "±": 113,
      "²": 114,
      "³": 115,
      "´": 116,
      "µ": 117,
      "¶": 118,
      "·": 119,
      "¸": 120,
      "¹": 121,
      "º": 122,
      "»": 123,
      "¼": 124,
      "½": 125,
      "¾": 126,
      "¿": 127,
      "Â": 128,
      "Ã": 129,
      "Ä": 130,
      "Å": 131,
      "Ç": 132,
      "È": 133,
      "Ê": 134,
      "Ë": 135,
      "Ì": 136,
      "Î": 137,
      "Ï": 138,
      "Ð": 139,
      "Ñ": 140,
      "Ö": 141,
      "×": 142,
      "Ø": 143,
      "Ù": 144,
      "Ú": 145,
      "Û": 146,
      "à": 147,
      "á": 148,
      "â": 149,
      "ã": 150,
      "ä": 151,
      "å": 152,
      "æ": 153,
      "ç": 154,
      "è": 155,
      "é": 156,
      "ê": 157,
      "ë": 158,
      "ì": 159,
      "í": 160,
      "ï": 161,
      "ð": 162,
      "Ġ": 163,
      "Ģ": 164,
      "ģ": 165,
      "Ĥ": 166,
      "ĥ": 167,
      "Ħ": 168,
      "ħ": 169,
      "Ĩ": 170,
      "ĩ": 171,
      "Ī": 172,
      "ī": 173,
      "Ĭ": 174,
      "ĭ": 175,
      "Į": 176,
      "į": 177,
      "İ": 178,
      "ı": 179,
      "Ĳ": 180,
      "ĳ": 181,
      "Ĵ": 182,
      "ĵ": 183,
      "Ķ": 184,
      "ķ": 185,
      "ĸ": 186,
      "Ĺ": 187,
      "ĺ": 188,
      "Ļ": 189,
      "ļ": 190,
      "Ľ": 191,
      "ľ": 192,
      "Ŀ": 193,
      "ŀ": 194,
      "Ł": 195,
      "ł": 196,
      "Ń": 197,
      "Ġt": 198,
      "Ġa": 199,
      "in": 200,
      "he": 201,
      "on": 202,
      "re": 203,
      "ti": 204,
      "er": 205,
      "es": 206,
      "nd": 207,
      "Ġc": 208,
      "Ġo": 209,
      "Ġthe": 210,
      "Ġs": 211,
      "ing": 212,
      "en": 213,
      "al": 214,
      "or": 215,
      "Ġp": 216,
      "at": 217,
      "Ġand": 218,
      "an": 219,
      "is": 220,
      "tion": 221,
      "Ġof": 222,
      "ro": 223,
      "Ġin": 224,
      "Ġw": 225,
      "Ġf": 226,
      "it": 227,
      "Ġto": 228,
      "Ġb": 229,
      "ar": 230,
      "Ġm": 231,
      "ed": 232,
      "ic": 233,
      "Ġd": 234,
      "le": 235,
      "us": 236,
      "ĠT": 237,
      "ec": 238,
      "ou": 239,
      "ent": 240,
      "Ġ-": 241,
      "om": 242,
      "Ġe": 243,
      "Ġth": 244,
      "ĠC": 245,
      "as": 246,
      "il": 247,
      "Ġre": 248,
      "ĠS": 249,
      "ac": 250,
      "ve": 251,
      "ation": 252,
      "lo": 253,
      "ĠI": 254,
      "Ġh": 255,
      "Ġis": 256,
      "et": 257,
      "uc": 258,
      "Ġpro": 259,
      "ers": 260,
      "ess": 261,
      "os": 262,
      "ĠA": 263,
      "ol": 264,
      "id": 265,
      "ce": 266,
      "mp": 267,
      "ĠThe": 268,
      "ur": 269,
      "Ġfor": 270,
      "Ġthat": 271,
      "Ġg": 272,
      "ter": 273,
      "Ġcan": 274,
      "ig": 275,
      "ment": 276,
      "Ġl": 277,
      "##": 278,
      "Ġn": 279,
      "ts": 280,
      "ir": 281,
      "Ġst": 282,
      "el": 283,
      "Ġy": 284,
      "ra": 285,
      "Ġcon": 286,
      "Ġare": 287,
      "Ġor": 288,
      "Ġus": 289,
      "ow": 290,
      "ĠP": 291,
      "ul": 292,
      "Ġyou": 293,
      "ion": 294,
      "ĠW": 295,
      "ĠIn": 296,
      "ate": 297,
      "Ġcom": 298,
      "ta": 299,
      "ure": 300,
      "tic": 301,
      "Ġbe": 302,
      "Ġex": 303,
      "ge": 304,
      "cl": 305,
      "ly": 306,
      "Ġan": 307,
      "ĠB": 308,
      "Ġ1": 309,
      "Ġ##": 310,
      "ud": 311,
      "tr": 312,
      "duc": 313,
      "ity": 314,
      "if": 315,
      "ay": 316,
      "ap": 317,
      "ver": 318,
      "ill": 319,
      "qu": 320,
      "ot": 321,
      "un": 322,
      "ith": 323,
      "ĠE": 324,
      "Ġon": 325,
      "pp": 326,
      "ection": 327,
      "Ġas": 328,
      "Ġi": 329,
      "Ġv": 330,
      "Ġhe": 331,
      "ort": 332,
      "Ġit": 333,
      "ĠH": 334,
      "ĠM": 335,
      "ab": 336,
      "Ġwith": 337,
      "ĠD": 338,
      "od": 339,
      "te": 340,
      "Ġwe": 341,
      "ĠR": 342,
      "her": 343,
      "Ġal": 344,
      "Ġ2": 345,
      "Ġch": 346,
      "se": 347,
      "am": 348,
      "Ġimp": 349,
      "ad": 350,
      "res": 351,
      "th": 352,
      "Ġen": 353,
      "ĠL": 354,
      "Ġde": 355,
      "ak": 356,
      "ance": 357,
      "im": 358,
      "Ġwh": 359,
      "ch": 360,
      "ut": 361,
      "ĠSection": 362,
      "ial": 363,
      "Ġle": 364,
      "op": 365,
      "Ġtheir": 366,
      "ĠF": 367,
      "ĠCh": 368,
      "ren": 369,
      "Ġ3": 370,
      "vid": 371,
      "ies": 372,
      "ip": 373,
      "ĠCon": 374,
      "ore": 375,
      "igh": 376,
      "ations": 377,
      "Ġne": 378,
      "Ġwill": 379,
      "ves": 380,
      "Ġyour": 381,
      "tro": 382,
      "ĠG": 383,
      "Ġcomp": 384,
      "Ġexp": 385,
      "Ġr": 386,
      "ting": 387,
      "apter": 388,
      "cess": 389,
      "ff": 390,
      "oc": 391,
      "tive": 392,
      "Ġac": 393,
      "und": 394,
      "um": 395,
      "iz": 396,
      "enti": 397,
      "tions": 398,
      "age": 399,
      "yp": 400,
      "ys": 401,
      "orm": 402,
      "**": 403,
      "ine": 404,
      "Ġincl": 405,
      "ĠWh": 406,
      "di": 407,
      "Ġpl": 408,
      "Ġby": 409,
      "ant": 410,
      "Ġinclud": 411,
      "ign": 412,
      "Ġthis": 413,
      "ork": 414,
      "all": 415,
      "les": 416,
      "Ġab": 417,
      "are": 418,
      "Ġsp": 419,
      "'s": 420,
      "rom": 421,
      "Ġsuc": 422,
      "form": 423,
      "ect": 424,
      "Ġha": 425,
      "Ġdis": 426,
      "ain": 427,
      "Ġused": 428,
      "ĠChapter": 429,
      "Ġsh": 430,
      "ther": 431,
      "Ġ###": 432,
      "ld": 433,
      "ome": 434,
      "ical": 435,
      "ms": 436,
      "tical": 437,
      "Ġse": 438,
      "Ġcre": 439,
      "ri": 440,
      "tand": 441,
      "usion": 442,
      "ĠTh": 443,
      "ĠU": 444,
      "Ġapp": 445,
      "ef": 446,
      "low": 447,
      "amp": 448,
      "duction": 449,
      "act": 450,
      "fe": 451,
      "ĠO": 452,
      "out": 453,
      "ary": 454,
      "Ġres": 455,
      "ag": 456,
      "Ġfrom": 457,
      "clusion": 458,
      "erstand": 459,
      "able": 460,
      "ents": 461,
      "ating": 462,
      "ties": 463,
      "Ġhel": 464,
      "esson": 465,
      "ib": 466,
      "ans": 467,
      "Ġhelp": 468,
      "Ġad": 469,
      "ous": 470,
      "ari": 471,
      "rac": 472,
      "ist": 473,
      "als": 474,
      "ors": 475,
      "Ġprovid": 476,
      "per": 477,
      "ĠThis": 478,
      "Ġman": 479,
      "Ġother": 480,
      "ĠWhat": 481,
      "ok": 482,
      "our": 483,
      "Ġte": 484,
      "Ġsuch": 485,
      "Ġtyp": 486,
      "arn": 487,
      "troduction": 488,
      "Ġcomm": 489,
      "ĠHow": 490,
      "vic": 491,
      "feren": 492,
      "Ġsu": 493,
      "Ġlo": 494,
      "so": 495,
      "ech": 496,
      "lec": 497,
      "ue": 498,
      "ential": 499,
      "ĠIntroduction": 500,
      "ater": 501,
      "st": 502,
      "eos": 503,
      "Ġ<": 504,
      "ence": 505,
      "Ġdif": 506,
      "Ġme": 507,
      "ĠIt": 508,
      "ell": 509,
      "ard": 510,
      "ake": 511,
      "Ġalso": 512,
      "and": 513,
      "Ġhow": 514,
      "bos": 515,
      "Ġhave": 516,
      "ĠBy": 517,
      "up": 518,
      "lic": 519,
      "Ġund": 520,
      "Ġat": 521,
      "ie": 522,
      "Ġwork": 523,
      "Ġk": 524,
      "erstanding": 525,
      "Ġimport": 526,
      "ĠN": 527,
      "ments": 528,
      "Ġdes": 529,
      "ight": 530,
      "Ġro": 531,
      "lop": 532,
      ".<": 533,
      "ĠConclusion": 534,
      "ug": 535,
      "Ġuse": 536,
      "ress": 537,
      "ss": 538,
      "ust": 539,
      "gy": 540,
      "Ġabout": 541,
      "ces": 542,
      "velop": 543,
      "ĠEx": 544,
      "Ġprocess": 545,
      "Ġincluding": 546,
      "its": 547,
      "Ġdifferen": 548,
      "ide": 549,
      "ach": 550,
      "Ġits": 551,
      "Ġlearn": 552,
      "Ġ4": 553,
      "ving": 554,
      "Ġwhe": 555,
      "vol": 556,
      "tain": 557,
      "Ġtr": 558,
      "ep": 559,
      "ated": 560,
      "Ġhas": 561,
      "ich": 562,
      "Ġeff": 563,
      "ory": 564,
      "Ġgo": 565,
      "yste": 566,
      "alth": 567,
      "ase": 568,
      "echn": 569,
      "Ġar": 570,
      "ities": 571,
      "Ġpar": 572,
      "est": 573,
      "ace": 574,
      "Ġser": 575,
      "ire": 576,
      "Ġneed": 577,
      "ture": 578,
      "Ġcons": 579,
      "oun": 580,
      "ĠV": 581,
      "Ġthey": 582,
      "Ġ(": 583,
      "ding": 584,
      "ĠAn": 585,
      "ility": 586,
      "Ġsc": 587,
      "Ġpre": 588,
      "gra": 589,
      "Ġ**": 590,
      "one": 591,
      "Ġwhich": 592,
      "Ġdevelop": 593,
      "ose": 594,
      "to": 595,
      "Ġdifferent": 596,
      "Ġinvol": 597,
      "ges": 598,
      "ook": 599,
      "cep": 600,
      "ĠRe": 601,
      "Ġproduc": 602,
      "ack": 603,
      "ub": 604,
      "ens": 605,
      "Ġli": 606,
      "ĠWe": 607,
      "Ġper": 608,
      "Ġun": 609,
      "ions": 610,
      "Ġstud": 611,
      "Ġfin": 612,
      "ual": 613,
      "Ġmore": 614,
      "ific": 615,
      "olo": 616,
      "Ġdo": 617,
      "tiv": 618,
      "Ġsyste": 619,
      "Ġdesign": 620,
      "ues": 621,
      "Ġhealth": 622,
      "Ġinform": 623,
      "Ġstr": 624,
      "Ġfe": 625,
      "enef": 626,
      "Ġsk": 627,
      "Ġvari": 628,
      "ail": 629,
      "Ġtra": 630,
      "Ġess": 631,
      "Ġtechn": 632,
      "ĠPro": 633,
      "orld": 634,
      "Ġgro": 635,
      "anc": 636,
      "ble": 637,
      "Ġessential": 638,
      "Ġimpro": 639,
      "ular": 640,
      "Ġcreate": 641,
      "Ġbet": 642,
      "iness": 643,
      "iqu": 644,
      "ark": 645,
      "Ġthem": 646,
      "Ġour": 647,
      "vices": 648,
      "ass": 649,
      "Ġqu": 650,
      "amples": 651,
      "Ġmake": 652,
      "ile": 653,
      "Ġwho": 654,
      "Ġco": 655,
      "ime": 656,
      "ty": 657,
      "end": 658,
      "ong": 659,
      "tional": 660,
      "Ġnew": 661,
      "Ġdec": 662,
      "ugh": 663,
      "usiness": 664,
      "ati": 665,
      "gan": 666,
      "Ġmo": 667,
      "ĠLesson": 668,
      "Ġev": 669,
      "ost": 670,
      "aus": 671,
      "Ġpe": 672,
      "xt": 673,
      "Ġusing": 674,
      "pport": 675,
      "Ġcol": 676,
      "ety": 677,
      "Ġrep": 678,
      "ects": 679,
      "Ġover": 680,
      "loss": 681,
      "enefits": 682,
      "ature": 683,
      "Ġins": 684,
      "Ġexplo": 685,
      "Ġj": 686,
      "ould": 687,
      "uring": 688,
      "lossary": 689,
      "ph": 690,
      "ĠThey": 691,
      "Ġrel": 692,
      "Ġthese": 693,
      "Ġlesson": 694,
      "ata": 695,
      "ates": 696,
      "ric": 697,
      "reat": 698,
      "Ġinter": 699,
      "Ġcommun": 700,
      "Ġinto": 701,
      "Ġunderstanding": 702,
      "Ġspec": 703,
      "ks": 704,
      "ia": 705,
      "ons": 706,
      "ten": 707,
      "Ġcl": 708,
      "Ġinc": 709,
      "aking": 710,
      "we": 711,
      "Ġph": 712,
      "Ġexplore": 713,
      "Ġ5": 714,
      "Ġtrans": 715,
      "Ġimportant": 716,
      "hip": 717,
      "iv": 718,
      "ood": 719,
      "Ġbu": 720,
      "ective": 721,
      "Ġval": 722,
      "av": 723,
      "ive": 724,
      "get": 725,
      "uss": 726,
      "Ġbas": 727,
      "Ġplay": 728,
      "opic": 729,
      "Ġtypes": 730,
      "ĠImp": 731,
      "Ġsa": 732,
      "ord": 733,
      "ĠCom": 734,
      "Ġmay": 735,
      "ĠThese": 736,
      "Ġens": 737,
      "Ġwas": 738,
      "Ġrec": 739,
      "ople": 740,
      "Ġskill": 741,
      "Ġprovide": 742,
      "ience": 743,
      "Ġbusiness": 744,
      "ĠGlossary": 745,
      "Ġpers": 746,
      "ition": 747,
      "ĠSt": 748,
      "Ġsome": 749,
      "cuss": 750,
      "art": 751,
      "ics": 752,
      "Ġnot": 753,
      "ound": 754,
      "aterial": 755,
      "Ġexper": 756,
      "eth": 757,
      "Ġtime": 758,
      "king": 759,
      "Ġmed": 760,
      "Ġpeople": 761,
      "mb": 762,
      "ear": 763,
      "Ġindi": 764,
      "Ġout": 765,
      "Ġind": 766,
      "Ġimprove": 767,
      "rough": 768,
      "Ġinvolves": 769,
      "ite": 770,
      "Ġindivid": 771,
      "Ġorgan": 772,
      "Ġbec": 773,
      "ful": 774,
      "Ġproper": 775,
      "ange": 776,
      "Ġoff": 777,
      "ample": 778,
      "ural": 779,
      "ved": 780,
      "iron": 781,
      "enc": 782,
      "ractical": 783,
      "Ġsoc": 784,
      "Ġpol": 785,
      "Ġinformation": 786,
      "Ġcr": 787,
      "arket": 788,
      "Ġsign": 789,
      "ĠY": 790,
      "Ġop": 791,
      "now": 792,
      "Ġsol": 793,
      "Ġdata": 794,
      "bs": 795,
      "ustr": 796,
      "ĠTopic": 797,
      "ative": 798,
      "Ġinclude": 799,
      "ild": 800,
      "ality": 801,
      "Ġsever": 802,
      "ĠTo": 803,
      "ĠExamples": 804,
      "viron": 805,
      "vel": 806,
      "ang": 807,
      "ology": 808,
      "Ġreg": 809,
      "elf": 810,
      "ĠQ": 811,
      "Ġmus": 812,
      "Ġequ": 813,
      "ame": 814,
      ":**": 815,
      "Ġmain": 816,
      "Ġseveral": 817,
      "ustom": 818,
      "ft": 819,
      "mo": 820,
      "Ġany": 821,
      "ines": 822,
      "ween": 823,
      "ĠUnd": 824,
      "Ġallow": 825,
      "ĠAd": 826,
      "ne": 827,
      "Ġplan": 828,
      "Ġmaterial": 829,
      "Ġensure": 830,
      "ade": 831,
      "ife": 832,
      "Ġbenefits": 833,
      "wn": 834,
      "Ġsystem": 835,
      "Ġwhen": 836,
      "Ġbetween": 837,
      "Ġso": 838,
      "Ġreduc": 839,
      "Ġdet": 840,
      "ind": 841,
      "Ġgen": 842,
      "Ġtype": 843,
      "book": 844,
      "ll": 845,
      "hes": 846,
      "Ġthrough": 847,
      "iew": 848,
      "ĠEn": 849,
      "Ġrequ": 850,
      "agement": 851,
      "entif": 852,
      "Ġup": 853,
      "ast": 854,
      "Ġcompan": 855,
      "me": 856,
      "ici": 857,
      "Ġass": 858,
      "tics": 859,
      "vice": 860,
      "Ġskills": 861,
      "vironment": 862,
      "ĠJ": 863,
      "red": 864,
      "ize": 865,
      "ĠUnderstanding": 866,
      "Ġperson": 867,
      "Ġimportance": 868,
      "Ġfol": 869,
      "Ġ#": 870,
      "Ġcare": 871,
      "cepts": 872,
      "Ġacc": 873,
      "Ġway": 874,
      "ted": 875,
      "ower": 876,
      "Ġvarious": 877,
      "ke": 878,
      "truc": 879,
      "lications": 880,
      "Ġag": 881,
      "Ġlead": 882,
      "uals": 883,
      "Ġservices": 884,
      "Ġinves": 885,
      "Ġresp": 886,
      "erm": 887,
      "ree": 888,
      "ish": 889,
      "ying": 890,
      "Ġanal": 891,
      "rin": 892,
      "xtbook": 893,
      "ause": 894,
      "ution": 895,
      "Ġim": 896,
      "ĠHe": 897,
      "ult": 898,
      "hen": 899,
      "Ġelec": 900,
      "Ġknow": 901,
      "allen": 902,
      "ergy": 903,
      "Ġone": 904,
      "istory": 905,
      "itle": 906,
      "ĠDis": 907,
      "Ġsur": 908,
      "bj": 909,
      "Ġdecis": 910,
      "Ġloc": 911,
      "hem": 912,
      "tern": 913,
      "Ġperform": 914,
      "Ġcar": 915,
      "Ġrole": 916,
      "Ġra": 917,
      "Ġcustom": 918,
      "arch": 919,
      "Ġfollow": 920,
      "Ġcho": 921,
      "ĠSc": 922,
      "umb": 923,
      "Ġpos": 924,
      "Ġprot": 925,
      "Ġset": 926,
      "ĠK": 927,
      "Ġform": 928,
      "Ġmod": 929,
      "pl": 930,
      "Ġprogra": 931,
      "Ġmarket": 932,
      "Ġmany": 933,
      "Ġwhere": 934,
      "econ": 935,
      "Ġorganiz": 936,
      "Ġeng": 937,
      "Ġindividuals": 938,
      "Ġid": 939,
      "ources": 940,
      "ider": 941,
      "00": 942,
      "Ġhigh": 943,
      "vent": 944,
      "ning": 945,
      "Ġall": 946,
      "ĠTitle": 947,
      "work": 948,
      "Ġav": 949,
      "chie": 950,
      "unc": 951,
      "ational": 952,
      "Ġ\"": 953,
      "Ġcont": 954,
      "Ġproble": 955,
      "ven": 956,
      "ĠThere": 957,
      "ditional": 958,
      "Ġenvironment": 959,
      "Ġtw": 960,
      "Ġpur": 961,
      "Ġimpact": 962,
      "ique": 963,
      "Ġcomple": 964,
      "round": 965,
      "ication": 966,
      "Ġtool": 967,
      "Ġincre": 968,
      "sw": 969,
      "ining": 970,
      "ital": 971,
      "Ġsupport": 972,
      "Ġpot": 973,
      "Ġed": 974,
      "Ġchar": 975,
      "Ġref": 976,
      "Ġachie": 977,
      "Ġcommon": 978,
      "ry": 979,
      "Ġinf": 980,
      "ability": 981,
      "Ġindustr": 982,
      "Ġris": 983,
      "Ġke": 984,
      "og": 985,
      "ĠImport": 986,
      "Ġdevelopment": 987,
      "Ġgrow": 988,
      "ness": 989,
      "Ġinte": 990,
      "ards": 991,
      "ilding": 992,
      "Ġdi": 993,
      "aw": 994,
      "iss": 995,
      "ax": 996,
      "ĠWhy": 997,
      "Ġeffective": 998,
      "trib": 999,
      "Ġtwo": 1000,
      "view": 1001,
      "Ġchallen": 1002,
      "ethod": 1003,
      "ings": 1004,
      "enari": 1005,
      "ible": 1006,
      "Ġcontro": 1007,
      "Ġaccess": 1008,
      "eld": 1009,
      "Ġam": 1010,
      "Ġshould": 1011,
      "ized": 1012,
      "Ġwell": 1013,
      "Ġexample": 1014,
      "Ġprof": 1015,
      "very": 1016,
      "Ġworld": 1017,
      "Ġwhile": 1018,
      "Ġwater": 1019,
      "Ġhelps": 1020,
      "Ġspecific": 1021,
      "ases": 1022,
      "Ġfi": 1023,
      "Ġtextbook": 1024,
      "mer": 1025,
      "Ġeach": 1026,
      "oth": 1027,
      "oin": 1028,
      "ages": 1029,
      "Ġreal": 1030,
      "Ġchapter": 1031,
      "Ġaff": 1032,
      "Ġlife": 1033,
      "Ġbut": 1034,
      "mot": 1035,
      "Ġtreat": 1036,
      "atures": 1037,
      "Ġbeen": 1038,
      "Ġown": 1039,
      "Ġdiscuss": 1040,
      "ancial": 1041,
      "Ġpower": 1042,
      "Ġsm": 1043,
      "Ġadd": 1044,
      "resent": 1045,
      "tivity": 1046,
      "Ġenergy": 1047,
      "els": 1048,
      "ants": 1049,
      "ĠPractical": 1050,
      "Ġrese": 1051,
      "oretical": 1052,
      "Ġpotential": 1053,
      "Ġidentif": 1054,
      "ĠTyp": 1055,
      "ĠReal": 1056,
      "Ġpop": 1057,
      "iques": 1058,
      "yz": 1059,
      "Ġneeds": 1060,
      "aging": 1061,
      "ĠAc": 1062,
      "Ġfl": 1063,
      "cer": 1064,
      "rit": 1065,
      "gies": 1066,
      "Ġprac": 1067,
      "Ġvis": 1068,
      "own": 1069,
      "Ġfact": 1070,
      "Ġmaterials": 1071,
      "air": 1072,
      "ware": 1073,
      "ice": 1074,
      "ĠDe": 1075,
      "ath": 1076,
      "line": 1077,
      "Ġnumb": 1078,
      "tim": 1079,
      "rop": 1080,
      "Ġmusic": 1081,
      "Ġelectr": 1082,
      "Ġmaking": 1083,
      "Ġinvest": 1084,
      "arm": 1085,
      "ely": 1086,
      "Ġpartic": 1087,
      "Ġsuccess": 1088,
      "Ġcoun": 1089,
      "tice": 1090,
      "ĠAnsw": 1091,
      "Ġsystems": 1092,
      "tis": 1093,
      "ased": 1094,
      "efin": 1095,
      "ied": 1096,
      "ency": 1097,
      "Ġmethod": 1098,
      "pose": 1099,
      "ĠLe": 1100,
      "ise": 1101,
      "Ġmade": 1102,
      "Ġoper": 1103,
      "rec": 1104,
      "Ġunderstand": 1105,
      "ism": 1106,
      "cept": 1107,
      "ĠImportance": 1108,
      "Ġhistory": 1109,
      "ights": 1110,
      "Ġdecisions": 1111,
      "enarios": 1112,
      "ĠAr": 1113,
      "ĠRes": 1114,
      "ob": 1115,
      "old": 1116,
      "Ġsy": 1117,
      "ĠTypes": 1118,
      "Ġpart": 1119,
      "Ġsignific": 1120,
      "ody": 1121,
      "vern": 1122,
      "Ġcondi": 1123,
      "Ġstep": 1124,
      "ool": 1125,
      "Ġproducts": 1126,
      "Ġsocial": 1127,
      "Ġfunc": 1128,
      "Ġcompany": 1129,
      "Ġdoes": 1130,
      "ĠPl": 1131,
      "asure": 1132,
      "Ġrequire": 1133,
      "urn": 1134,
      "Ġadv": 1135,
      "Ġcell": 1136,
      "Ġconclusion": 1137,
      "ily": 1138,
      "Ġstudents": 1139,
      "Ġmanagement": 1140,
      "ins": 1141,
      "Ġbuilding": 1142,
      "Ġduring": 1143,
      "Ġpromot": 1144,
      "ĠSp": 1145,
      "Ġpati": 1146,
      "rap": 1147,
      "econom": 1148,
      "ĠApp": 1149,
      "Ġproj": 1150,
      "ession": 1151,
      "Ġachieve": 1152,
      "ets": 1153,
      "Ġfood": 1154,
      "Ġcle": 1155,
      "Ġstudy": 1156,
      "acter": 1157,
      "Ġreduce": 1158,
      "ĠComp": 1159,
      "Ġart": 1160,
      "ever": 1161,
      "ination": 1162,
      "Ġeconom": 1163,
      "Ġprevent": 1164,
      "mun": 1165,
      "graph": 1166,
      "Ġthere": 1167,
      "ulture": 1168,
      "Ġmat": 1169,
      "Ġallows": 1170,
      "Ġeduc": 1171,
      "Ġresearch": 1172,
      "Ġconsider": 1173,
      "io": 1174,
      "Ġdep": 1175,
      "atural": 1176,
      "Ġprovides": 1177,
      "orts": 1178,
      "Ġmost": 1179,
      "Ġstruc": 1180,
      "ays": 1181,
      "Ġgoals": 1182,
      "Ġcontrol": 1183,
      "Ġemp": 1184,
      "ĠConcepts": 1185,
      "Ġquality": 1186,
      "Ġfield": 1187,
      "Ġgroup": 1188,
      "Ġgener": 1189,
      "ĠMan": 1190,
      "Ġbeh": 1191,
      "irst": 1192,
      "Ġbr": 1193,
      "Ġapplications": 1194,
      "ĠTe": 1195,
      "ount": 1196,
      "ublic": 1197,
      "hed": 1198,
      "Ġcreating": 1199,
      "Ġstrate": 1200,
      "Ġthin": 1201,
      "iti": 1202,
      "Ġfinancial": 1203,
      "led": 1204,
      "ering": 1205,
      "Ġoften": 1206,
      "fety": 1207,
      "inal": 1208,
      "ĠDefin": 1209,
      "Ġfam": 1210,
      "Ġthan": 1211,
      "Ġmaintain": 1212,
      "Ġbecause": 1213,
      "ritical": 1214,
      "Ġcruc": 1215,
      "Ġcrucial": 1216,
      "Ġothers": 1217,
      "loy": 1218,
      "Ġdesigned": 1219,
      "tit": 1220,
      "trac": 1221,
      "ĠYou": 1222,
      "ick": 1223,
      "Ġtechniques": 1224,
      "Ġif": 1225,
      "Ġeas": 1226,
      "Ġiss": 1227,
      "Ġproblems": 1228,
      "ivers": 1229,
      "ĠFor": 1230,
      "Ġblo": 1231,
      "ĠII": 1232,
      "Ġexperience": 1233,
      "ov": 1234,
      "Ġfactors": 1235,
      "Ġchallenges": 1236,
      "itive": 1237,
      "Ġvalue": 1238,
      "Ġfil": 1239,
      "ulti": 1240,
      "Ġgovern": 1241,
      "ew": 1242,
      "Ġanalyz": 1243,
      "Ġstructure": 1244,
      "Ġgood": 1245,
      "Ġeffici": 1246,
      "Ġrelations": 1247,
      "utions": 1248,
      "oring": 1249,
      "Ġobj": 1250,
      "Ġfeatures": 1251,
      "Ġprin": 1252,
      "Ġprogram": 1253,
      "ck": 1254,
      "Ġdise": 1255,
      "Ġve": 1256,
      "ences": 1257,
      "Ġapply": 1258,
      "Ġmeasure": 1259,
      "Ġunique": 1260,
      "pportun": 1261,
      "Ġresources": 1262,
      "Ġright": 1263,
      "ĠSome": 1264,
      "ĠUn": 1265,
      "ocus": 1266,
      "ute": 1267,
      "Ġbody": 1268,
      "ior": 1269,
      "Ġpersonal": 1270,
      "Ġfollowing": 1271,
      "Ġavail": 1272,
      "Ġteam": 1273,
      "Ġbetter": 1274,
      "other": 1275,
      "Ġconn": 1276,
      "Ġphys": 1277,
      "lement": 1278,
      "oney": 1279,
      "ilities": 1280,
      "etwork": 1281,
      "Ġ6": 1282,
      "port": 1283,
      "Ġhand": 1284,
      "Ġlong": 1285,
      "Ġinformed": 1286,
      "uture": 1287,
      "Ġindustry": 1288,
      "ĠTheoretical": 1289,
      "Ġgra": 1290,
      "Ġtake": 1291,
      "Ġsmall": 1292,
      "care": 1293,
      "Ġchild": 1294,
      "Ġsec": 1295,
      "iety": 1296,
      "Ġide": 1297,
      "Ġexperi": 1298,
      "Ġtechnology": 1299,
      "Ġmin": 1300,
      "Ġdeterm": 1301,
      "Ġinteres": 1302,
      "Ġsignificant": 1303,
      "Ġback": 1304,
      "Ġsoft": 1305,
      "de": 1306,
      "ash": 1307,
      "ips": 1308,
      "vers": 1309,
      "ustain": 1310,
      "Ġrespons": 1311,
      "Ġgrowth": 1312,
      "Ġmet": 1313,
      "Ġcap": 1314,
      "ĠQues": 1315,
      "Ġcent": 1316,
      "Ġyear": 1317,
      "Ġlevel": 1318,
      "ian": 1319,
      "Ġmust": 1320,
      "Ġnatural": 1321,
      "Ġchan": 1322,
      "Ġbusinesses": 1323,
      "Ġhum": 1324,
      "irec": 1325,
      "Ġlook": 1326,
      "alu": 1327,
      "Ġcomplex": 1328,
      "ĠUs": 1329,
      "Ġcur": 1330,
      "ĠDiscuss": 1331,
      "erc": 1332,
      "Ġair": 1333,
      "Ġfocus": 1334,
      "Ġprofession": 1335,
      "Ġlives": 1336,
      "igital": 1337,
      "Ġcor": 1338,
      "Ġpopular": 1339,
      "Ġcountr": 1340,
      "Ġcommunity": 1341,
      "cip": 1342,
      "Ġshow": 1343,
      "Ġtop": 1344,
      "Ġproperty": 1345,
      "Ġmon": 1346,
      "Ġlearning": 1347,
      "ited": 1348,
      "Ġavailable": 1349,
      "ulation": 1350,
      "Ġgu": 1351,
      "ĠSelf": 1352,
      "Ġrelationship": 1353,
      "Ġopportun": 1354,
      "Ġfac": 1355,
      "ond": 1356,
      "gether": 1357,
      "Ġread": 1358,
      "Ġlaw": 1359,
      "Ġproduct": 1360,
      "ather": 1361,
      "ĠSh": 1362,
      "Ġclo": 1363,
      "Ġbre": 1364,
      "abor": 1365,
      "Ġbra": 1366,
      "Ġfind": 1367,
      "Ġhome": 1368,
      "aring": 1369,
      "ĠHowever": 1370,
      "Ġgain": 1371,
      "Ġactiv": 1372,
      "ization": 1373,
      "Ġperformance": 1374,
      "chool": 1375,
      "Ġwhat": 1376,
      "ysis": 1377,
      "ograph": 1378,
      "ected": 1379,
      "Ġtogether": 1380,
      "Ġkey": 1381,
      "Ġbased": 1382,
      "com": 1383,
      "Ġcompon": 1384,
      "ĠPh": 1385,
      "ĠInd": 1386,
      "Ġaround": 1387,
      "Ġcomb": 1388,
      "Ġservice": 1389,
      "Ġsteps": 1390,
      "Ġproviding": 1391,
      "Ġleg": 1392,
      "Ġexpress": 1393,
      "Ġlight": 1394,
      "Ġent": 1395,
      "anta": 1396,
      "ĠOn": 1397,
      "Ġlar": 1398,
      "ĠAl": 1399,
      "Ġbo": 1400,
      "Ġfirst": 1401,
      "Ġrisk": 1402,
      "ĠDes": 1403,
      "Ġuses": 1404,
      "Ġ=": 1405,
      "Ġcaus": 1406,
      "ix": 1407,
      "Ġwant": 1408,
      "Ġmulti": 1409,
      "ically": 1410,
      "Ġsty": 1411,
      "gh": 1412,
      "Ġstate": 1413,
      "fore": 1414,
      "Ġwere": 1415,
      "Ġeducation": 1416,
      "Ġtreatment": 1417,
      "ĠTr": 1418,
      "Ġtas": 1419,
      "Ġsub": 1420,
      "ables": 1421,
      "tract": 1422,
      "osing": 1423,
      "ledge": 1424,
      "Ġsupp": 1425,
      "urs": 1426,
      "ipment": 1427,
      "Ġbasics": 1428,
      "Ġmoney": 1429,
      "Ġidentify": 1430,
      "ĠAs": 1431,
      "em": 1432,
      "cr": 1433,
      "ger": 1434,
      "oid": 1435,
      "Ġlow": 1436,
      "eli": 1437,
      "Ġcover": 1438,
      "fic": 1439,
      "Ġdr": 1440,
      "Ġlike": 1441,
      "ĠVal": 1442,
      "Ġmove": 1443,
      "Ġdam": 1444,
      "Ġability": 1445,
      "be": 1446,
      "angu": 1447,
      "Ġaud": 1448,
      "Ġpublic": 1449,
      "Ġboth": 1450,
      "Ġshap": 1451,
      "Ġcommunication": 1452,
      "ars": 1453,
      "Ġnumber": 1454,
      "Ġsafety": 1455,
      "Ġfuture": 1456,
      "rent": 1457,
      "row": 1458,
      "Ġbeing": 1459,
      "ĠCons": 1460,
      "ually": 1461,
      "oms": 1462,
      "Ġexamples": 1463,
      "Ġfound": 1464,
      "gth": 1465,
      "World": 1466,
      "Ġno": 1467,
      "Ġincludes": 1468,
      "hema": 1469,
      "Ġes": 1470,
      "ĠWhen": 1471,
      "Ġlearned": 1472,
      "truction": 1473,
      "oot": 1474,
      "ĠUse": 1475,
      "Ġconf": 1476,
      "ĠIf": 1477,
      "Ġhis": 1478,
      "ough": 1479,
      "Ġtre": 1480,
      "ults": 1481,
      "table": 1482,
      "Ġpric": 1483,
      "Ġdirec": 1484,
      "ental": 1485,
      "reen": 1486,
      "itions": 1487,
      "Ġgame": 1488,
      "ĠTechn": 1489,
      "Ġevery": 1490,
      "Ġbest": 1491,
      "Ġwebs": 1492,
      "stall": 1493,
      "Ġknowledge": 1494,
      "gical": 1495,
      "onic": 1496,
      "Ġareas": 1497,
      "Ġsoftware": 1498,
      "Ġemploy": 1499,
      "Ġrange": 1500,
      "lu": 1501,
      "Ġwithout": 1502,
      "Ġproperties": 1503,
      "ories": 1504,
      "ires": 1505,
      "Ġcharacter": 1506,
      "Ġcontrib": 1507,
      "ging": 1508,
      "ĠBenefits": 1509,
      "cc": 1510,
      "akes": 1511,
      "lements": 1512,
      "Ġarea": 1513,
      "Ġnetwork": 1514,
      "ient": 1515,
      "fter": 1516,
      "ling": 1517,
      "Ġthen": 1518,
      "Ġworks": 1519,
      "urity": 1520,
      "Ġphysical": 1521,
      "acy": 1522,
      "Ġ$": 1523,
      "Ġsal": 1524,
      "Ġdevices": 1525,
      "Ġcollec": 1526,
      "Ġrepresent": 1527,
      "Ġstand": 1528,
      "Ġbefore": 1529,
      "Ġdown": 1530,
      "Ġpain": 1531,
      "Ġnec": 1532,
      "Ġpres": 1533,
      "ership": 1534,
      "for": 1535,
      "ium": 1536,
      "Ġcontin": 1537,
      "Ġevents": 1538,
      "ious": 1539,
      "Ġphot": 1540,
      "Ġtools": 1541,
      "Ġmeet": 1542,
      "Ġculture": 1543,
      "Ġbecome": 1544,
      "Ġfund": 1545,
      "Ġincrease": 1546,
      "utr": 1547,
      "Ġwrit": 1548,
      "Ġgovernment": 1549,
      "ĠDefinition": 1550,
      "Ġengine": 1551,
      "Ġ19": 1552,
      "Ġbi": 1553,
      "oy": 1554,
      "Ġintern": 1555,
      "Ġtransport": 1556,
      "pos": 1557,
      "ĠCol": 1558,
      "Ġpat": 1559,
      "Ġspace": 1560,
      "tor": 1561,
      "Ġbehav": 1562,
      "nt": 1563,
      "Ġhealthcare": 1564,
      "Ġeffectively": 1565,
      "Ġdem": 1566,
      "Ġconcepts": 1567,
      "Ġcer": 1568,
      "--": 1569,
      "Ġissues": 1570,
      "Ġdri": 1571,
      "ĠQuestions": 1572,
      "Ġconditions": 1573,
      "Ġget": 1574,
      "Ġcustomers": 1575,
      "lication": 1576,
      "ĠCl": 1577,
      "Ġevent": 1578,
      "Ġdoc": 1579,
      "ense": 1580,
      "Ġend": 1581,
      "Ġchoose": 1582,
      "uter": 1583,
      "Ġsee": 1584,
      "ined": 1585,
      "Ġconcept": 1586,
      "Ġpay": 1587,
      "co": 1588,
      "nov": 1589,
      "``": 1590,
      "imp": 1591,
      "ĠTra": 1592,
      "Ġprotect": 1593,
      "ĠPur": 1594,
      "Ġplace": 1595,
      "Ġtemp": 1596,
      "Ġthinking": 1597,
      "Ġchange": 1598,
      "aces": 1599,
      "Ġsustain": 1600,
      "ĠCre": 1601,
      "Ġpoin": 1602,
      "Ġest": 1603,
      "Ġproject": 1604,
      "Ġrefers": 1605,
      "riend": 1606,
      "fer": 1607,
      "Ġcal": 1608,
      "Ġocc": 1609,
      "ole": 1610,
      "til": 1611,
      "Ġactivities": 1612,
      "ĠOver": 1613,
      "oci": 1614,
      "bo": 1615,
      "Ġcritical": 1616,
      "Ġsurf": 1617,
      "ĠSer": 1618,
      "Ġstrategies": 1619,
      "Ġequipment": 1620,
      "Ġshare": 1621,
      "Ġlangu": 1622,
      "ision": 1623,
      "ump": 1624,
      "Ġmemb": 1625,
      "Ġvariety": 1626,
      "Ġsit": 1627,
      "Ġproduction": 1628,
      "eed": 1629,
      "ĠScenarios": 1630,
      "arget": 1631,
      "ules": 1632,
      "Ġrele": 1633,
      "Section": 1634,
      "ats": 1635,
      "Ġhuman": 1636,
      "ple": 1637,
      "Ġestate": 1638,
      "ĠValue": 1639,
      "Ġclass": 1640,
      "Ġsociety": 1641,
      "Ġorganizations": 1642,
      "Ġcancer": 1643,
      "ource": 1644,
      "Ġpractic": 1645,
      "Ġappro": 1646,
      "Ġevalu": 1647,
      "con": 1648,
      "ands": 1649,
      "ner": 1650,
      "Ġdef": 1651,
      "Ġclean": 1652,
      "iting": 1653,
      "ĠAnswers": 1654,
      "ists": 1655,
      "ier": 1656,
      "ances": 1657,
      "Ġ20": 1658,
      "Ġchanges": 1659,
      "ĠSu": 1660,
      "essary": 1661,
      "yd": 1662,
      "Ġcompanies": 1663,
      "Ġunder": 1664,
      "Ġmedical": 1665,
      "ument": 1666,
      "Ġche": 1667,
      "Ġsound": 1668,
      "Ġcost": 1669,
      "ĠAdditional": 1670,
      "Ġopportunities": 1671,
      "Ġpromote": 1672,
      "Ġvalu": 1673,
      "Ġoverall": 1674,
      "Ġthose": 1675,
      "Ġcells": 1676,
      "Ġpass": 1677,
      "Ġmedia": 1678,
      "ibility": 1679,
      "Ġflow": 1680,
      "Ġinvolved": 1681,
      "wards": 1682,
      "ultural": 1683,
      "reci": 1684,
      "troduc": 1685,
      "Ġdigital": 1686,
      "labor": 1687,
      "Ġfunction": 1688,
      "Ġtrac": 1689,
      "erv": 1690,
      "Ġasp": 1691,
      "ury": 1692,
      "Ġonline": 1693,
      "Ġappl": 1694,
      "ock": 1695,
      "osp": 1696,
      "ĠPurpose": 1697,
      "ĠBe": 1698,
      "world": 1699,
      "Ġrece": 1700,
      "miss": 1701,
      "ters": 1702,
      "Ġamount": 1703,
      "day": 1704,
      "Ġmethods": 1705,
      "Ġprep": 1706,
      "Ġyears": 1707,
      "tab": 1708,
      "Ġprograms": 1709,
      "Ġdevice": 1710,
      "Ġpractice": 1711,
      "Ġher": 1712,
      "ĠAnal": 1713,
      "Ġpri": 1714,
      "iec": 1715,
      "ĠUsing": 1716,
      "Ġeffects": 1717,
      "Ġknown": 1718,
      "Ġorganization": 1719,
      "ords": 1720,
      "antages": 1721,
      "ĠCore": 1722,
      "ography": 1723,
      "rep": 1724,
      "ĠFin": 1725,
      "fact": 1726,
      "icro": 1727,
      "Ġaut": 1728,
      "gr": 1729,
      "ĠAdditionally": 1730,
      "Ġself": 1731,
      "Ġspecial": 1732,
      "Ġways": 1733,
      "Ġsuccessful": 1734,
      "Ġinvestment": 1735,
      "Ġintroduc": 1736,
      "Ġbal": 1737,
      "ĠAnswer": 1738,
      "Ġchildren": 1739,
      "asing": 1740,
      "Ġpositive": 1741,
      "anced": 1742,
      "Ġcomponents": 1743,
      "Ġcontain": 1744,
      "por": 1745,
      "irc": 1746,
      "ĠMed": 1747,
      "Ġpolic": 1748,
      "arly": 1749,
      "Ġschool": 1750,
      "read": 1751,
      "ĠWork": 1752,
      "Ġeconomic": 1753,
      "aren": 1754,
      "hic": 1755,
      "echan": 1756,
      "ĠMus": 1757,
      "Ġanim": 1758,
      "Ġpoli": 1759,
      "Ġpatients": 1760,
      "ones": 1761,
      "Ġcause": 1762,
      "Ġparticular": 1763,
      "omen": 1764,
      "Ġoffer": 1765,
      "rapy": 1766,
      "Ġworking": 1767,
      "ĠStud": 1768,
      "ouse": 1769,
      "Ġsetting": 1770,
      "Ġprincip": 1771,
      "Ġbook": 1772,
      "ming": 1773,
      "Ġelements": 1774,
      "Ġnecessary": 1775,
      "Ġcos": 1776,
      "ĠDevelop": 1777,
      ").": 1778,
      "ĠSe": 1779,
      "der": 1780,
      "Ġappreci": 1781,
      "Ġdetermine": 1782,
      "Ġkeep": 1783,
      "erature": 1784,
      "izing": 1785,
      "Ġlocal": 1786,
      "Ġcour": 1787,
      "Ġneg": 1788,
      "Ġprofessional": 1789,
      "Ġaddress": 1790,
      "crip": 1791,
      "Ġrun": 1792,
      "ĠPol": 1793,
      "Ġvalues": 1794,
      "bal": 1795,
      "Ġtarget": 1796,
      "ĠMe": 1797,
      "Ġefficient": 1798,
      "Ġusers": 1799,
      "ĠIns": 1800,
      "action": 1801,
      "Ġpattern": 1802,
      "Ġanother": 1803,
      "Ġdamage": 1804,
      "ĠCho": 1805,
      "eti": 1806,
      "Ġ|": 1807,
      "Ġfamily": 1808,
      "Ġvaluable": 1809,
      "Ġter": 1810,
      "Ġenj": 1811,
      "nds": 1812,
      "Ġtax": 1813,
      "Ġoffers": 1814,
      "Ġstrong": 1815,
      "ĠRec": 1816,
      "ced": 1817,
      "Ġbehavior": 1818,
      "uments": 1819,
      "app": 1820,
      "ode": 1821,
      "Ġselec": 1822,
      "Ġmeans": 1823,
      "Ġdra": 1824,
      "Ġemo": 1825,
      "Ġremo": 1826,
      "agn": 1827,
      "ator": 1828,
      "ators": 1829,
      "Ġlegal": 1830,
      "br": 1831,
      "Ġenvironmental": 1832,
      "Ġassoci": 1833,
      "ĠHealth": 1834,
      "Ġsize": 1835,
      "Ġ7": 1836,
      "Ġinstall": 1837,
      "ĠSyste": 1838,
      "ĠOne": 1839,
      "Ġmanage": 1840,
      "ames": 1841,
      "ĠSub": 1842,
      "Ġchem": 1843,
      "Ġpr": 1844,
      "Ġproblem": 1845,
      "Ġfeel": 1846,
      "Ġtraditional": 1847,
      "Ġeven": 1848,
      "Ġstay": 1849,
      "ufact": 1850,
      "ures": 1851,
      "Ġdisease": 1852,
      "mit": 1853,
      "ideo": 1854,
      "au": 1855,
      "Ġhig": 1856,
      "Ġindividual": 1857,
      "atform": 1858,
      "ĠCommun": 1859,
      "Ġsimp": 1860,
      "Ġstart": 1861,
      "Ġdue": 1862,
      "Ġaffect": 1863,
      "pping": 1864,
      "Ġscenarios": 1865,
      "ired": 1866,
      "Ġwithin": 1867,
      "tenance": 1868,
      "Ġsens": 1869,
      "Ġoil": 1870,
      "Ġwebsite": 1871,
      "ecting": 1872,
      "ĠDesign": 1873,
      "Ġlanguage": 1874,
      "less": 1875,
      "ward": 1876,
      "Ġlim": 1877,
      "Ġpiec": 1878,
      "Ġplanning": 1879,
      "icate": 1880,
      "Ġcould": 1881,
      "Ġpurpose": 1882,
      "Ġlarge": 1883,
      "Ġvehic": 1884,
      "Ġtraining": 1885,
      "Ġcustomer": 1886,
      "ĠDiscussion": 1887,
      "Ġanalysis": 1888,
      "Ġwould": 1889,
      "Ġhealthy": 1890,
      "Ġcy": 1891,
      "ulate": 1892,
      "ale": 1893,
      "Ġrequires": 1894,
      "Ġpress": 1895,
      "istance": 1896,
      "hers": 1897,
      "Ġcall": 1898,
      "ĠSoc": 1899,
      "Ġinj": 1900,
      "Ġsection": 1901,
      "Ġdrug": 1902,
      "gen": 1903,
      "Ġtravel": 1904,
      "Ġtes": 1905,
      "Ġgl": 1906,
      "Ġimplement": 1907,
      "Ġcome": 1908,
      "Ġblood": 1909,
      "Ġtypically": 1910,
      "back": 1911,
      "Ġact": 1912,
      "Ġsafe": 1913,
      "Ġpractical": 1914,
      "ways": 1915,
      "min": 1916,
      "ĠYour": 1917,
      "Ġmultiple": 1918,
      "Ġprote": 1919,
      "Ġgas": 1920,
      "Ġresponsible": 1921,
      "ological": 1922,
      "udget": 1923,
      "ĠOr": 1924,
      "Ġopen": 1925,
      "Ġenjoy": 1926,
      "chit": 1927,
      "Ġrelationships": 1928,
      "ĠTrans": 1929,
      "Ġbuild": 1930,
      "Ġcontent": 1931,
      "tend": 1932,
      "atis": 1933,
      "gress": 1934,
      "Ġagain": 1935,
      "aling": 1936,
      "ĠManagement": 1937,
      "Ġapplied": 1938,
      "ber": 1939,
      "ule": 1940,
      "Ġnon": 1941,
      "Ġresults": 1942,
      "ients": 1943,
      "urance": 1944,
      "ern": 1945,
      "Ġafter": 1946,
      "Ġenh": 1947,
      "Ġdepend": 1948,
      "Ġcolor": 1949,
      "omes": 1950,
      "Ġregular": 1951,
      "iod": 1952,
      "ething": 1953,
      "Ġavoid": 1954,
      "ĠExample": 1955,
      "Ġlocation": 1956,
      "eb": 1957,
      "Ġtim": 1958,
      "Ġline": 1959,
      "Ġvol": 1960,
      "Ġbl": 1961,
      "Ġinflu": 1962,
      "itiz": 1963,
      "ores": 1964,
      "Ġdeveloping": 1965,
      "Ġplatform": 1966,
      "ĠSol": 1967,
      "ox": 1968,
      "Ġshe": 1969,
      "way": 1970,
      "tives": 1971,
      "aster": 1972,
      "ĠEng": 1973,
      "lish": 1974,
      "Ġpresent": 1975,
      "Ġrisks": 1976,
      "Ġcurrent": 1977,
      "ĠNew": 1978,
      "omething": 1979,
      "Ġprinciples": 1980,
      "Ġconstruction": 1981,
      "ball": 1982,
      "Ġmarketing": 1983,
      "meric": 1984,
      "Ġsources": 1985,
      "lying": 1986,
      "mpt": 1987,
      "Ġfra": 1988,
      "Ġinnov": 1989,
      "Ġdistrib": 1990,
      "Ġbasic": 1991,
      "Ġmathema": 1992,
      "Ġcondition": 1993,
      "ross": 1994,
      "ĠSa": 1995,
      "Ġstyle": 1996,
      "cent": 1997,
      "Ġenc": 1998,
      "ĠOp": 1999,
      "Ġste": 2000,
      "Ġcomputer": 2001,
      "Ġpurch": 2002,
      "Ġplayers": 2003,
      "Ġcosts": 2004,
      "Ġsurface": 2005,
      "Ġgr": 2006,
      "Ġstren": 2007,
      "cle": 2008,
      "earch": 2009,
      "atory": 2010,
      "Ġsell": 2011,
      "Ġsitu": 2012,
      "Ġob": 2013,
      "Ġaccur": 2014,
      "Ġdist": 2015,
      "Ġreducing": 2016,
      "Ġassociated": 2017,
      "Ġparticip": 2018,
      "lex": 2019,
      "Ġmonit": 2020,
      "ides": 2021,
      "actions": 2022,
      "Ġsomething": 2023,
      "Ġpatient": 2024,
      "Ġeasy": 2025,
      "come": 2026,
      "Ġhard": 2027,
      "mon": 2028,
      "Ġlevels": 2029,
      "amer": 2030,
      "ĠCo": 2031,
      "Ġprocesses": 2032,
      "Ġnumbers": 2033,
      "let": 2034,
      "Ġinvolve": 2035,
      "Ġcirc": 2036,
      "Ġmechan": 2037,
      "Ġanalyze": 2038,
      "ene": 2039,
      "az": 2040,
      "Ġable": 2041,
      "Ġlist": 2042,
      "ĠWith": 2043,
      "mber": 2044,
      "Ġtechnique": 2045,
      "isting": 2046,
      "Ġgreat": 2047,
      "ee": 2048,
      "aily": 2049,
      "Ġsim": 2050,
      "Ġoptions": 2051,
      "ĠIII": 2052,
      "Ġsustainable": 2053,
      "Ġsolve": 2054,
      "ank": 2055,
      "ills": 2056,
      "Ġstory": 2057,
      "Ġmedic": 2058,
      "Ġcalc": 2059,
      "Ġabs": 2060,
      "Ġexpl": 2061,
      "Ġfr": 2062,
      "Ġfriend": 2063,
      "of": 2064,
      "ĠGo": 2065,
      "Ġactivity": 2066,
      "oor": 2067,
      "ason": 2068,
      "uch": 2069,
      "Ġ+": 2070,
      "Ġlay": 2071,
      "ĠHistory": 2072,
      "Ġprovided": 2073,
      "omm": 2074,
      "Ġrem": 2075,
      "Ġsecurity": 2076,
      "Ġelectric": 2077,
      "Ġideas": 2078,
      "Ġques": 2079,
      "oura": 2080,
      "put": 2081,
      "Ġstore": 2082,
      "ĠOnce": 2083,
      "ton": 2084,
      "ĠAmeric": 2085,
      "Ġcertain": 2086,
      "Ġpractices": 2087,
      "Ġmodel": 2088,
      "Ġagainst": 2089,
      "land": 2090,
      "),": 2091,
      "Ġdecision": 2092,
      "orage": 2093,
      "Ġperiod": 2094,
      "Ġconduc": 2095,
      "redi": 2096,
      "econd": 2097,
      "Ġsolutions": 2098,
      "Ġmanufact": 2099,
      "Ġensuring": 2100,
      "ĠEff": 2101,
      "ave": 2102,
      "Ġdiffic": 2103,
      "Ġmental": 2104,
      "cre": 2105,
      "Ġful": 2106,
      "ites": 2107,
      "uit": 2108,
      "Ġanti": 2109,
      "ĠOverview": 2110,
      "Ġcountry": 2111,
      "Ġhigher": 2112,
      "ogn": 2113,
      "tal": 2114,
      "ĠPers": 2115,
      "Ġtips": 2116,
      "ĠMarket": 2117,
      "Ġliving": 2118,
      "trate": 2119,
      "ĠCan": 2120,
      "Ġwhy": 2121,
      "Ġreview": 2122,
      "Ġoperations": 2123,
      "Ġneeded": 2124,
      "chitect": 2125,
      "Ġorig": 2126,
      "Deb": 2127,
      "Ġanalyzing": 2128,
      "Ġtransportation": 2129,
      "ĠIV": 2130,
      "pec": 2131,
      "ĠData": 2132,
      "Ġmach": 2133,
      "ĠSte": 2134,
      "Ġdaily": 2135,
      "ĠBu": 2136,
      "Ġcountries": 2137,
      "Ġuser": 2138,
      "lobal": 2139,
      "Ġstress": 2140,
      "Ġposs": 2141,
      "Ġgoal": 2142,
      "ees": 2143,
      "Ġproduce": 2144,
      "yn": 2145,
      "Ġfit": 2146,
      "atch": 2147,
      "ibr": 2148,
      "Ġoptim": 2149,
      "ĠLet": 2150,
      "Ġvideo": 2151,
      "ĠSk": 2152,
      "Ġtowards": 2153,
      "ems": 2154,
      "Ġbenef": 2155,
      "Ġcommunities": 2156,
      "ighting": 2157,
      "Ġreli": 2158,
      "Ġmaintaining": 2159,
      "li": 2160,
      "Ġgene": 2161,
      "Ġdel": 2162,
      "ols": 2163,
      "ĠWhe": 2164,
      "Ġdiseases": 2165,
      "Ġplants": 2166,
      "ĠHere": 2167,
      "Ġdetail": 2168,
      "ĠRep": 2169,
      "Ġradi": 2170,
      "Ġcontribute": 2171,
      "aper": 2172,
      "Ġprice": 2173,
      "Ġcred": 2174,
      "Ġsw": 2175,
      "Ġinsp": 2176,
      "Ġmean": 2177,
      "Ġtasks": 2178,
      "dition": 2179,
      "Ġmem": 2180,
      "Ġscience": 2181,
      "Ġfinding": 2182,
      "ections": 2183,
      "Ġaction": 2184,
      "Ġskin": 2185,
      "Ġefficiency": 2186,
      "Ġce": 2187,
      "Ġheat": 2188,
      "ĠInves": 2189,
      "vention": 2190,
      "):": 2191,
      "quality": 2192,
      "Ġsho": 2193,
      "Ġrights": 2194,
      "Ġcollabor": 2195,
      "cy": 2196,
      "Ġsearch": 2197,
      "Ġjob": 2198,
      "tructure": 2199,
      "ĠKe": 2200,
      "Ġcook": 2201,
      "Ġmanaging": 2202,
      "Ġadj": 2203,
      "izes": 2204,
      "Ġimages": 2205,
      "gin": 2206,
      "ught": 2207,
      "Ġchemical": 2208,
      "tric": 2209,
      "Ġapplication": 2210,
      "Ġaudience": 2211,
      "Ġland": 2212,
      "ids": 2213,
      "ĠBusiness": 2214,
      "Ġloss": 2215,
      "ension": 2216,
      "Ġimage": 2217,
      "Ġnutr": 2218,
      "Ġpolitical": 2219,
      "Ġwide": 2220,
      "Ġmess": 2221,
      "ĠCar": 2222,
      "Ġconsum": 2223,
      "Ġstrength": 2224,
      "Ġwaste": 2225,
      "ret": 2226,
      "ĠElec": 2227,
      "ĠRole": 2228,
      "ĠUnited": 2229,
      "Ġexpens": 2230,
      "Ġimproving": 2231,
      "Ġsource": 2232,
      "ĠExpl": 2233,
      "Ġexperiences": 2234,
      "Ġdur": 2235,
      "Ġchoosing": 2236,
      "Ġapproach": 2237,
      "Ġmix": 2238,
      "ording": 2239,
      "isms": 2240,
      "istics": 2241,
      "asting": 2242,
      "ĠAt": 2243,
      "Ġpack": 2244,
      "Ġpowerful": 2245,
      "Ġminim": 2246,
      "Ġwine": 2247,
      "Ġvisual": 2248,
      "Ġtaking": 2249,
      "Ġill": 2250,
      "ane": 2251,
      "Ġhad": 2252,
      "cell": 2253,
      "thing": 2254,
      "istr": 2255,
      "ĠAss": 2256,
      "ĠInter": 2257,
      "Ġwriting": 2258,
      "Ġint": 2259,
      "Ġbel": 2260,
      "ush": 2261,
      "ches": 2262,
      "Ġcase": 2263,
      "redients": 2264,
      "Ġtest": 2265,
      "Ġatt": 2266,
      "ream": 2267,
      "ilit": 2268,
      "tention": 2269,
      "Ġprojects": 2270,
      "Ġbudget": 2271,
      "NA": 2272,
      "ĠPrac": 2273,
      "Ġ8": 2274,
      "uth": 2275,
      "play": 2276,
      "uts": 2277,
      "Ġrelated": 2278,
      "onal": 2279,
      "state": 2280,
      "ĠReg": 2281,
      "iving": 2282,
      "vidence": 2283,
      "ancing": 2284,
      "ĠMusic": 2285,
      "aching": 2286,
      "Ġsame": 2287,
      "ression": 2288,
      "Ġsomeone": 2289,
      "Ġinterest": 2290,
      "Ġthree": 2291,
      "ening": 2292,
      "Ġgoods": 2293,
      "ex": 2294,
      "imate": 2295,
      "Ġel": 2296,
      "Ġmaintenance": 2297,
      "hy": 2298,
      "Ġcompos": 2299,
      "Ġcompeti": 2300,
      "Ġexam": 2301,
      "bon": 2302,
      "mic": 2303,
      "Ġcultural": 2304,
      "Ġgroups": 2305,
      "Ġregul": 2306,
      "mptoms": 2307,
      "Ġfre": 2308,
      "ropri": 2309,
      "Ġsug": 2310,
      "Ġleading": 2311,
      "istor": 2312,
      "bra": 2313,
      "ĠIs": 2314,
      "sy": 2315,
      "Ġexerc": 2316,
      "Ġbrand": 2317,
      "ĠEqu": 2318,
      "ologies": 2319,
      "Ġbro": 2320,
      "member": 2321,
      "Ġmembers": 2322,
      "Ġdirect": 2323,
      "ĠPlan": 2324,
      "elves": 2325,
      "Ġincreased": 2326,
      "Ġvers": 2327,
      "Ġpressure": 2328,
      "eness": 2329,
      "being": 2330,
      "Ġ10": 2331,
      "Ġcamer": 2332,
      "ĠSocial": 2333,
      "Ġsing": 2334,
      "pro": 2335,
      "Ġing": 2336,
      "ym": 2337,
      "Ġpromoting": 2338,
      "based": 2339,
      "Ġusually": 2340,
      "Ġeconomy": 2341,
      "Ġobjects": 2342,
      "Ġpatterns": 2343,
      "Ġshape": 2344,
      "ativity": 2345,
      "Ġonly": 2346,
      "ĠPar": 2347,
      "Ġlet": 2348,
      "Ġincome": 2349,
      "Ġitems": 2350,
      "uel": 2351,
      "orn": 2352,
      "Ġparts": 2353,
      "Ġenter": 2354,
      "Ġappreciate": 2355,
      "etry": 2356,
      "ared": 2357,
      "Ġrequired": 2358,
      "atter": 2359,
      "Ġcareer": 2360,
      "Ġmetal": 2361,
      "tage": 2362,
      "Ġext": 2363,
      "atic": 2364,
      "Ġfields": 2365,
      "ral": 2366,
      "Ġproced": 2367,
      "avig": 2368,
      "Ġintroduce": 2369,
      "Ġcamp": 2370,
      "ately": 2371,
      "Ġtemperature": 2372,
      "Ġwomen": 2373,
      "Ġx": 2374,
      "Ġfeed": 2375,
      "Ġcredit": 2376,
      "hib": 2377,
      "Ġheart": 2378,
      "Debating": 2379,
      "Ġartis": 2380,
      "ĠResearch": 2381,
      "ĠPre": 2382,
      "Ġguid": 2383,
      "ĠMain": 2384,
      "ished": 2385,
      "Ġhot": 2386,
      "Ġenhance": 2387,
      "Ġwind": 2388,
      "Ġret": 2389,
      "osis": 2390,
      "Ġrequirements": 2391,
      "Ġrate": 2392,
      "Ġvir": 2393,
      "Ġforms": 2394,
      "orpor": 2395,
      "Ġwood": 2396,
      "Ġindustries": 2397,
      "Ġmar": 2398,
      "Ġfilm": 2399,
      "arth": 2400,
      "Ġdiagn": 2401,
      "Ġcreated": 2402,
      "Ġappropri": 2403,
      "amm": 2404,
      "Ġmob": 2405,
      "ising": 2406,
      "Ġfun": 2407,
      "Ġsci": 2408,
      "ĠEduc": 2409,
      "eff": 2410,
      "sc": 2411,
      "mission": 2412,
      "Ġequation": 2413,
      "rect": 2414,
      "The": 2415,
      "ervation": 2416,
      "Ġearly": 2417,
      "ĠCritical": 2418,
      "ration": 2419,
      "Ġbuildings": 2420,
      "Ġrecogn": 2421,
      "Ġfree": 2422,
      "Ġautom": 2423,
      "ground": 2424,
      "Ġplant": 2425,
      "Ġmovement": 2426,
      "go": 2427,
      "abric": 2428,
      "Ġmicro": 2429,
      "Ġterms": 2430,
      "hold": 2431,
      "term": 2432,
      "utes": 2433,
      "ffic": 2434,
      "Ġhead": 2435,
      "Ġharm": 2436,
      "Ġcore": 2437,
      "Ġintegr": 2438,
      "Ġapplying": 2439,
      "ĠSo": 2440,
      "Ġregion": 2441,
      "Ġarg": 2442,
      "gebra": 2443,
      "dic": 2444,
      "ĠImpro": 2445,
      "Ġallowing": 2446,
      "ery": 2447,
      "Ġnext": 2448,
      "Ġclear": 2449,
      "Ġquick": 2450,
      "Ġstorage": 2451,
      "Ġpath": 2452,
      "ises": 2453,
      "Ġbreak": 2454,
      "Ġflo": 2455,
      "ray": 2456,
      "Ġstructures": 2457,
      "ferences": 2458,
      "Ġview": 2459,
      "Ġtherapy": 2460,
      "Ġbalance": 2461,
      "Ġsubj": 2462,
      "ĠProgra": 2463,
      "ueue": 2464,
      "Ġ201": 2465,
      "ĠStates": 2466,
      "Ġpoints": 2467,
      "ĠId": 2468,
      "Ġconver": 2469,
      "ĠMod": 2470,
      "Ġplays": 2471,
      "Ġsense": 2472,
      "anti": 2473,
      "Ġday": 2474,
      "Ġimmun": 2475,
      "chitecture": 2476,
      "eral": 2477,
      "Ġcaused": 2478,
      "ĠGra": 2479,
      "Ġspeed": 2480,
      "ĠMat": 2481,
      "Ġlive": 2482,
      "Ġ``": 2483,
      "ĠPer": 2484,
      "ĠCare": 2485,
      "rene": 2486,
      "Ġ```": 2487,
      "aged": 2488,
      "Ġbar": 2489,
      "ading": 2490,
      "Ġpo": 2491,
      "eper": 2492,
      "aj": 2493,
      "light": 2494,
      "ĠIm": 2495,
      "avor": 2496,
      "Ġsymb": 2497,
      "val": 2498,
      "tig": 2499,
      "Ġevidence": 2500,
      "Ġweb": 2501,
      "Ġpriv": 2502,
      "xture": 2503,
      "anging": 2504,
      "leep": 2505,
      "Ġlif": 2506,
      "uty": 2507,
      "Con": 2508,
      "Ġfoot": 2509,
      "uries": 2510,
      "ĠCr": 2511,
      "Ġweight": 2512,
      "aves": 2513,
      "iversity": 2514,
      "ink": 2515,
      "vantages": 2516,
      "yl": 2517,
      "Ġglobal": 2518,
      "Ġbuy": 2519,
      "Ġstudying": 2520,
      "ĠProper": 2521,
      "ove": 2522,
      "ĠNe": 2523,
      "Ġnegative": 2524,
      "Ġrules": 2525,
      "eration": 2526,
      "Ġtrack": 2527,
      "ring": 2528,
      "Ġbenefit": 2529,
      "Ġrepair": 2530,
      "Ġcommonly": 2531,
      "Ġamong": 2532,
      "Ġsave": 2533,
      "lev": 2534,
      "ĠRed": 2535,
      "Ġsum": 2536,
      "quences": 2537,
      "ĠIntern": 2538,
      "aries": 2539,
      "ĠArt": 2540,
      "ĠHigh": 2541,
      "Ġmeasures": 2542,
      "Ġdeli": 2543,
      "ĠServices": 2544,
      "Ġgraph": 2545,
      "Ġhyd": 2546,
      "Ġdifference": 2547,
      "Ġprogress": 2548,
      "Ġsure": 2549,
      "onse": 2550,
      "Ġtoday": 2551,
      "ĠChoose": 2552,
      "ĠEv": 2553,
      "Ġappear": 2554,
      "000": 2555,
      "ounts": 2556,
      "Ġaspects": 2557,
      "âĢ": 2558,
      "Ġdon": 2559,
      "Ġprotection": 2560,
      "imary": 2561,
      "ĠProcess": 2562,
      "ape": 2563,
      "Ġcommunicate": 2564,
      "Ġdifficult": 2565,
      "Ġsales": 2566,
      "Ġrates": 2567,
      "Ġappropriate": 2568,
      "lect": 2569,
      "Ġsolution": 2570,
      "itable": 2571,
      "comes": 2572,
      "Ġmakes": 2573,
      "ĠWhether": 2574,
      "tle": 2575,
      "Ġage": 2576,
      "Ġtechnologies": 2577,
      "Ġhapp": 2578,
      "Ġball": 2579,
      "ĠTextbook": 2580,
      "ras": 2581,
      "Ġcontinue": 2582,
      "Ġgames": 2583,
      "Ġconnect": 2584,
      "ney": 2585,
      "time": 2586,
      "ĠDefinitions": 2587,
      "Ġer": 2588,
      "Ġdeb": 2589,
      "cri": 2590,
      "Ġestab": 2591,
      "ĠZ": 2592,
      "Ġassess": 2593,
      "Ġcauses": 2594,
      "ĠImpact": 2595,
      "Ġfunctional": 2596,
      "Ġlooking": 2597,
      "Ġemployees": 2598,
      "reprene": 2599,
      "formation": 2600,
      "Ġmodern": 2601,
      "oint": 2602,
      "Ġcalled": 2603,
      "Ġsecure": 2604,
      "Ġquestions": 2605,
      "ĠLearn": 2606,
      "Ġcontroll": 2607,
      "Ġencoura": 2608,
      "merg": 2609,
      "here": 2610,
      "ĠCreating": 2611,
      "ĠFinal": 2612,
      "Ġidentifying": 2613,
      "Ġrent": 2614,
      "Ġdraw": 2615,
      "Ġconcer": 2616,
      "Ġoutl": 2617,
      "Ġdeeper": 2618,
      "Ġface": 2619,
      "Ġspe": 2620,
      "Ġsymptoms": 2621,
      "fortable": 2622,
      "Ġ0": 2623,
      "eful": 2624,
      "enced": 2625,
      "kes": 2626,
      "Ġingredients": 2627,
      "till": 2628,
      "ĠDevelopment": 2629,
      "Ġinsurance": 2630,
      "asc": 2631,
      "Ġtopics": 2632,
      "par": 2633,
      "raft": 2634,
      "astic": 2635,
      "ification": 2636,
      "ird": 2637,
      "urb": 2638,
      "lation": 2639,
      "ots": 2640,
      "Ġmolec": 2641,
      "Ġnavig": 2642,
      "ĠBas": 2643,
      "asons": 2644,
      "aign": 2645,
      "Ġmis": 2646,
      "Ġreceive": 2647,
      "ĠCustom": 2648,
      "gs": 2649,
      "sp": 2650,
      "Ġfish": 2651,
      "rain": 2652,
      "erve": 2653,
      "Ġanimals": 2654,
      "Ġpoint": 2655,
      "Ġexcell": 2656,
      "Ġge": 2657,
      "ĠExp": 2658,
      "Ġposition": 2659,
      "Ġbehind": 2660,
      "Ġstrategy": 2661,
      "tiveness": 2662,
      "ĠRemember": 2663,
      "Ġpoll": 2664,
      "ength": 2665,
      "ads": 2666,
      "Ġexplored": 2667,
      "Ġflu": 2668,
      "ĠMaterial": 2669,
      "Ġattention": 2670,
      "Ġelectrical": 2671,
      "fect": 2672,
      "Ġroom": 2673,
      "Ġsimple": 2674,
      "ye": 2675,
      "vertis": 2676,
      "Ġsubst": 2677,
      "encies": 2678,
      "Ġlower": 2679,
      "Ġfib": 2680,
      "Ġfamil": 2681,
      "Ġvac": 2682,
      "ĠDec": 2683,
      "hens": 2684,
      "ashion": 2685,
      "ĠEducation": 2686,
      "epend": 2687,
      "ield": 2688,
      "Ġorder": 2689,
      "ron": 2690,
      "Ġexch": 2691,
      "ims": 2692,
      "Ġremain": 2693,
      "aches": 2694,
      "loc": 2695,
      "ĠApplications": 2696,
      "Ġcolors": 2697,
      "Ġside": 2698,
      "atisf": 2699,
      "ified": 2700,
      "Ġjour": 2701,
      "Ġequations": 2702,
      "Ġpossible": 2703,
      "Ġdocument": 2704,
      "Ġz": 2705,
      "----": 2706,
      "iol": 2707,
      "Ġhair": 2708,
      "Ġpolicies": 2709,
      "Ġcode": 2710,
      "Ġmeaning": 2711,
      "iring": 2712,
      "Ġlocated": 2713,
      "orth": 2714,
      "Ġchoice": 2715,
      "Ġclos": 2716,
      "Ġoutcomes": 2717,
      "ĠMon": 2718,
      "gn": 2719,
      "Ġevol": 2720,
      "umer": 2721,
      "Ġoccur": 2722,
      "Ġwall": 2723,
      "itc": 2724,
      "Ġtiss": 2725,
      "Ġengineering": 2726,
      "sol": 2727,
      "ĠEstate": 2728,
      "ince": 2729,
      "Ġhold": 2730,
      "ĠAg": 2731,
      "Ġalways": 2732,
      "ĠDi": 2733,
      "Ġsingle": 2734,
      "ommend": 2735,
      "Ġreturn": 2736,
      "Ġtesting": 2737,
      "auti": 2738,
      "arc": 2739,
      "ices": 2740,
      "sych": 2741,
      "Ġsmo": 2742,
      "Ġinsights": 2743,
      "Ġactive": 2744,
      "ally": 2745,
      "Ġexpression": 2746,
      "Ġresid": 2747,
      "Ġsun": 2748,
      "Ġdone": 2749,
      "Ġelectronic": 2750,
      "Ġsituations": 2751,
      "Ġname": 2752,
      "Ġexpos": 2753,
      "acters": 2754,
      "Ġ`": 2755,
      "Ġthroughout": 2756,
      "ĠFinancial": 2757,
      "iture": 2758,
      "Ġwhether": 2759,
      "Ġtrends": 2760,
      "Ġpiece": 2761,
      "acts": 2762,
      "ĠSta": 2763,
      "Ġcreativity": 2764,
      "Ġseries": 2765,
      "ĠSur": 2766,
      "Ġfile": 2767,
      "Ġprotein": 2768,
      "agne": 2769,
      "ĠEnergy": 2770,
      "ĠPhot": 2771,
      "by": 2772,
      "Ġexc": 2773,
      "ify": 2774,
      "Ġdivid": 2775,
      "Ġinternational": 2776,
      "Ġfarm": 2777,
      "tractions": 2778,
      "ma": 2779,
      "ĠSet": 2780,
      "ives": 2781,
      "Ġaffects": 2782,
      "Ġcomfortable": 2783,
      "Ġvehicle": 2784,
      "Ġuntil": 2785,
      "ĠX": 2786,
      "Ġresult": 2787,
      "elling": 2788,
      "poses": 2789,
      "Ġconte": 2790,
      "ĠPractice": 2791,
      "making": 2792,
      "Ġsports": 2793,
      "Ġstar": 2794,
      "Ġtransfer": 2795,
      "ns": 2796,
      "Ġcut": 2797,
      "Ġplayed": 2798,
      "Ġobs": 2799,
      "Ġcombination": 2800,
      "Ġsecond": 2801,
      "Ġcorrect": 2802,
      "Ġinstruc": 2803,
      "ĠIdentif": 2804,
      "gers": 2805,
      "Ġsoil": 2806,
      "Ġresponse": 2807,
      "Ġlaws": 2808,
      "vertising": 2809,
      "ops": 2810,
      "ĠAmerican": 2811,
      "ĠTechniques": 2812,
      "Ġfabric": 2813,
      "tif": 2814,
      "ilt": 2815,
      "Ġdemand": 2816,
      "Ġtimes": 2817,
      "Ġver": 2818,
      "Ġreport": 2819,
      "mental": 2820,
      "cription": 2821,
      "Ġopp": 2822,
      "tors": 2823,
      "ĠEach": 2824,
      "Ġspread": 2825,
      "pper": 2826,
      "ĠSystem": 2827,
      "ajor": 2828,
      "Ġlit": 2829,
      "Ġfeature": 2830,
      "Ġlik": 2831,
      "iverse": 2832,
      "elief": 2833,
      "aught": 2834,
      "Ġdesigns": 2835,
      "Ġartists": 2836,
      "Ġquickly": 2837,
      "Ġstudent": 2838,
      "ĠAnalyz": 2839,
      "Ġec": 2840,
      "sequences": 2841,
      "traction": 2842,
      "entity": 2843,
      "fort": 2844,
      "ĠStrate": 2845,
      "Ġmobile": 2846,
      "oph": 2847,
      "Ġinternet": 2848,
      "Ġap": 2849,
      "repreneurs": 2850,
      "urop": 2851,
      "ycl": 2852,
      "Ġdiet": 2853,
      "Ġadvantages": 2854,
      "Ġdisc": 2855,
      "Ġadditional": 2856,
      "Ġcommit": 2857,
      "Ġclimate": 2858,
      "med": 2859,
      "vey": 2860,
      "Ġpan": 2861,
      "Ġtrade": 2862,
      "ectiveness": 2863,
      "room": 2864,
      "itation": 2865,
      "Ġ9": 2866,
      "Ġdistribution": 2867,
      "Ġiniti": 2868,
      "ĠQu": 2869,
      "ĠFinally": 2870,
      "Ġeasier": 2871,
      "Ġcand": 2872,
      "Ġpaper": 2873,
      "Ġcity": 2874,
      "abilities": 2875,
      "Ġinterp": 2876,
      "Ġdat": 2877,
      "ials": 2878,
      "Ġevaluate": 2879,
      "ĠAut": 2880,
      "Ġobject": 2881,
      "Ġprior": 2882,
      "Ġpurposes": 2883,
      "Ġbrain": 2884,
      "ĠSm": 2885,
      "man": 2886,
      "ĠConsider": 2887,
      "amic": 2888,
      "Ġrepl": 2889,
      "Ġcann": 2890,
      "Ġcareful": 2891,
      "Ġeveryone": 2892,
      "Ġemotional": 2893,
      "Ġwr": 2894,
      "ĠApplying": 2895,
      "Ġox": 2896,
      "Ġactions": 2897,
      "Ġprofessionals": 2898,
      "Ġflex": 2899,
      "Ġframe": 2900,
      "ĠOrgan": 2901,
      "autiful": 2902,
      "Ġreach": 2903,
      "Ġperfect": 2904,
      "Ġem": 2905,
      "Ġgreen": 2906,
      "Ġimproved": 2907,
      "Ġplayer": 2908,
      "Ġmind": 2909,
      "illing": 2910,
      "Ġfuel": 2911,
      "Ġless": 2912,
      "outh": 2913,
      "ĠWater": 2914,
      "Ġjust": 2915,
      "oud": 2916,
      "Ġsmooth": 2917,
      "Ġbring": 2918,
      "uality": 2919,
      "ĠSupp": 2920,
      "ĠBuilding": 2921,
      "Ġsatisf": 2922,
      "Ġinstit": 2923,
      "Ġchallenging": 2924,
      "Ġsupply": 2925,
      "ĠSystems": 2926,
      "sh": 2927,
      "rup": 2928,
      "uthor": 2929,
      "ĠSy": 2930,
      "Ġelectricity": 2931,
      "ope": 2932,
      "Ġbegin": 2933,
      "Ġconsist": 2934,
      "ĠAf": 2935,
      "ude": 2936,
      "urniture": 2937,
      "Ġhaving": 2938,
      "Ġstandards": 2939,
      "Ġtraffic": 2940,
      "Ġpredic": 2941,
      "Ġclients": 2942,
      "Ġdisord": 2943,
      "auty": 2944,
      "Ġengaging": 2945,
      "Ġprocessing": 2946,
      "Ġmedicine": 2947,
      "gor": 2948,
      "istic": 2949,
      "vered": 2950,
      "anch": 2951,
      "ĠDigital": 2952,
      "Ġinfluence": 2953,
      "Ġdesired": 2954,
      "Ġissue": 2955,
      "Ġaltern": 2956,
      "acing": 2957,
      "anation": 2958,
      "ĠCont": 2959,
      "Ġrecommend": 2960,
      "istorical": 2961,
      "ceed": 2962,
      "uting": 2963,
      "Ġinstr": 2964,
      "Ġcomplete": 2965,
      "Ġtable": 2966,
      "Ġsynt": 2967,
      "Ġrelev": 2968,
      "Ġadjust": 2969,
      "ina": 2970,
      "Ġbeautiful": 2971,
      "ident": 2972,
      "ĠEnvironment": 2973,
      "Ġmodels": 2974,
      "ĠAnalysis": 2975,
      "ĠKey": 2976,
      "omic": 2977,
      "Ġmy": 2978,
      "Ġefficiently": 2979,
      "Ġsignificance": 2980,
      "Ġinterests": 2981,
      "Ġglass": 2982,
      "Ġdisplay": 2983,
      "Ġattend": 2984,
      "Ġoption": 2985,
      "Ġang": 2986,
      "Ġtakes": 2987,
      "Ġreasons": 2988,
      "ĠMathema": 2989,
      "gic": 2990,
      "Ġquanti": 2991,
      "Ġbase": 2992,
      "active": 2993,
      "ĠImportant": 2994,
      "Ġcard": 2995,
      "ĠShe": 2996,
      "Ġreading": 2997,
      "Ġlighting": 2998,
      "Ġfamilies": 2999,
      "Ġacross": 3000,
      "atives": 3001,
      "Ġcharacters": 3002,
      "Ġanyone": 3003,
      "ĠPe": 3004,
      "Ġconflic": 3005,
      "ĠTechnology": 3006,
      "use": 3007,
      "Ġpurchase": 3008,
      "'t": 3009,
      "ket": 3010,
      "ners": 3011,
      "rehens": 3012,
      "ĠTime": 3013,
      "ĠProduc": 3014,
      "Ġcapture": 3015,
      "otor": 3016,
      "ĠLaw": 3017,
      "tire": 3018,
      "Ġcat": 3019,
      "Ġshows": 3020,
      "ucle": 3021,
      "Ġincreasing": 3022,
      "oti": 3023,
      "ĠLoc": 3024,
      "Ġground": 3025,
      "Ġuseful": 3026,
      "ĠPlay": 3027,
      "Ġcampaign": 3028,
      "Ġmiss": 3029,
      "Ġlines": 3030,
      "ĠChar": 3031,
      "Ġaddition": 3032,
      "Ġmanufacturing": 3033,
      "Ġsimil": 3034,
      "Ġvariables": 3035,
      "ales": 3036,
      "ume": 3037,
      "Ġexcellent": 3038,
      "hood": 3039,
      "ler": 3040,
      "ĠSafety": 3041,
      "Ġsleep": 3042,
      "ĠEurop": 3043,
      "Ġcamera": 3044,
      "ĠProgram": 3045,
      "Ġturn": 3046,
      "Ġthough": 3047,
      "ĠSpec": 3048,
      "Ġfriends": 3049,
      "ĠTips": 3050,
      "ĠDet": 3051,
      "Ġsettings": 3052,
      ".\"": 3053,
      "ows": 3054,
      "Conclusion": 3055,
      "Ġremove": 3056,
      "ror": 3057,
      "Ġmathematical": 3058,
      "tific": 3059,
      "place": 3060,
      "ert": 3061,
      "Ġconst": 3062,
      "ipe": 3063,
      "ĠBi": 3064,
      "Ġadvanced": 3065,
      "Ġones": 3066,
      "Ġeasily": 3067,
      "resh": 3068,
      "ĠFe": 3069,
      "Ġimmune": 3070,
      "ĠStep": 3071,
      "Ġthings": 3072,
      "Ġterm": 3073,
      "Ġaccount": 3074,
      "Ġmuch": 3075,
      "Ġthink": 3076,
      "Ġcollection": 3077,
      "Practical": 3078,
      "Ġmen": 3079,
      "Ġcarbon": 3080,
      "ectives": 3081,
      "ĠEcon": 3082,
      "Ġport": 3083,
      "Ġhomes": 3084,
      "aps": 3085,
      "Ġstudies": 3086,
      "ĠCal": 3087,
      "ĠRel": 3088,
      "Ġincorpor": 3089,
      "ĠGe": 3090,
      "eter": 3091,
      "Ġvisit": 3092,
      "ered": 3093,
      "urther": 3094,
      "agnetic": 3095,
      "Ġnews": 3096,
      "Ġtreatments": 3097,
      "Ġmonitoring": 3098,
      "ĠBl": 3099,
      "Ġprices": 3100,
      "Ġcharacteristics": 3101,
      "oles": 3102,
      "Ġbelie": 3103,
      "ĠEurope": 3104,
      "Ġstill": 3105,
      "Ġpolicy": 3106,
      "ĠPersonal": 3107,
      "uits": 3108,
      "ustice": 3109,
      "ĠCent": 3110,
      "ls": 3111,
      "self": 3112,
      "Ġgre": 3113,
      "Ġcourse": 3114,
      "tise": 3115,
      "Ġscreen": 3116,
      "Ġmov": 3117,
      "Ġstyles": 3118,
      "Ġmonth": 3119,
      "Glossary": 3120,
      "ĠCoun": 3121,
      "Ġded": 3122,
      "Ġnature": 3123,
      "Ġmill": 3124,
      "ah": 3125,
      "Ġvehicles": 3126,
      "ĠContro": 3127,
      "rastructure": 3128,
      "Ġwin": 3129,
      "Ġcomponent": 3130,
      "Ġcalcul": 3131,
      "ecurity": 3132,
      "Ġagric": 3133,
      "force": 3134,
      "ĠChe": 3135,
      "Ġcollaboration": 3136,
      "Ġexpenses": 3137,
      "Ġproduced": 3138,
      "inary": 3139,
      "Ġcases": 3140,
      "inking": 3141,
      "Ġfinal": 3142,
      "Ġtopic": 3143,
      "Ġregularly": 3144,
      "Ġcolle": 3145,
      "Ġtext": 3146,
      "Ġinvestors": 3147,
      "Ġpieces": 3148,
      "acks": 3149,
      "ĠExplanation": 3150,
      "ĠInvest": 3151,
      "Ġbelief": 3152,
      "Ġstra": 3153,
      "Ġfeedback": 3154,
      "ĠMaterials": 3155,
      "Ġgive": 3156,
      "Ġdecor": 3157,
      "Ġfer": 3158,
      "Ġcontinu": 3159,
      "ĠSustain": 3160,
      "ĠProvid": 3161,
      "Ġprec": 3162,
      "Ġmajor": 3163,
      "lebr": 3164,
      "venue": 3165,
      "Ġcommerc": 3166,
      "ĠDif": 3167,
      "lamm": 3168,
      "elines": 3169,
      "Ġconven": 3170,
      "Ġspecies": 3171,
      "Ġprepare": 3172,
      "Ġdeveloped": 3173,
      "Ġaspect": 3174,
      "yle": 3175,
      "ĠMo": 3176,
      "Topic": 3177,
      "ged": 3178,
      "Ġsched": 3179,
      "Ġpopulation": 3180,
      "gery": 3181,
      "Ġfour": 3182,
      "Ġemerg": 3183,
      "ference": 3184,
      "board": 3185,
      "entific": 3186,
      "Ġsubs": 3187,
      "ĠConcept": 3188,
      "iven": 3189,
      "Ġopportunity": 3190,
      "Ġcharacterized": 3191,
      "missions": 3192,
      "Ġcool": 3193,
      "ender": 3194,
      "Ġensures": 3195,
      "ĠWorld": 3196,
      "ĠProt": 3197,
      "Ġveget": 3198,
      "ĠDNA": 3199,
      "Ġadap": 3200,
      "Ġbeauty": 3201,
      "Ġcentury": 3202,
      "Theoretical": 3203,
      "Ġcheck": 3204,
      "ours": 3205,
      "ĠSchool": 3206,
      "resents": 3207,
      "Ġeffect": 3208,
      "ĠDr": 3209,
      "lished": 3210,
      "areness": 3211,
      "ĠInf": 3212,
      "Ġidea": 3213,
      "Ġrecord": 3214,
      "Ġidentity": 3215,
      "ĠLearning": 3216,
      "ĠAfric": 3217,
      "aken": 3218,
      "Ġappe": 3219,
      "Ġcontract": 3220,
      "utation": 3221,
      "ĠIndustr": 3222,
      "pped": 3223,
      "Ġphotography": 3224,
      "Ġmemory": 3225,
      "Ġgather": 3226,
      "tual": 3227,
      "Ġfunctions": 3228,
      "ĠInte": 3229,
      "inical": 3230,
      "Ġbatter": 3231,
      "Ġsqu": 3232,
      "Ġweather": 3233,
      "Ġtrust": 3234,
      "Ġsignal": 3235,
      "Ġgiven": 3236,
      "Ġinnovation": 3237,
      "Ġcomes": 3238,
      "cks": 3239,
      "Ġrepresents": 3240,
      "ĠWhile": 3241,
      "nal": 3242,
      "ĠCle": 3243,
      "Ġstatement": 3244,
      "Ġsubject": 3245,
      "omy": 3246,
      "Ġgard": 3247,
      "ivil": 3248,
      "Ġengage": 3249,
      "arents": 3250,
      "oss": 3251,
      "ently": 3252,
      "Ġconsequences": 3253,
      "ibilities": 3254,
      "Ġcommercial": 3255,
      "Ġtal": 3256,
      "Ġvariable": 3257,
      "Ġmathematics": 3258,
      "Ġsimilar": 3259,
      "iles": 3260,
      "life": 3261,
      "ux": 3262,
      "Ġhyp": 3263,
      "Ġinvesting": 3264,
      "Ġprogramming": 3265,
      "ED": 3266,
      "Ġdistance": 3267,
      "Ġartic": 3268,
      "Ġpreferences": 3269,
      "Ġexpect": 3270,
      "Ġprev": 3271,
      "Ġliqu": 3272,
      "ĠEarth": 3273,
      "ĠSkills": 3274,
      "inc": 3275,
      "new": 3276,
      "ĠMet": 3277,
      "Ġsepar": 3278,
      "Ġshort": 3279,
      "ros": 3280,
      "Ġarchitecture": 3281,
      "Ġinstructions": 3282,
      "Ġenough": 3283,
      "Ġexercise": 3284,
      "Ġauthor": 3285,
      "iation": 3286,
      "ĠDiscussions": 3287,
      "Ġemotions": 3288,
      "edding": 3289,
      "ek": 3290,
      "Ġrest": 3291,
      "enario": 3292,
      "Ġshapes": 3293,
      "Ġlength": 3294,
      "Ġacade": 3295,
      "ĠWho": 3296,
      "Ġaudio": 3297,
      "Ġfair": 3298,
      "Ġlove": 3299,
      "Ġproperly": 3300,
      "Ġexec": 3301,
      "aid": 3302,
      "Ġdescri": 3303,
      "Ġfew": 3304,
      "Ġsaving": 3305,
      "Ġfail": 3306,
      "Ġnumer": 3307,
      "itch": 3308,
      "idd": 3309,
      "akers": 3310,
      "Ġjo": 3311,
      "Ġgenerate": 3312,
      "Ġoriginal": 3313,
      "Ġprimary": 3314,
      "ng": 3315,
      "riting": 3316,
      "ĠLeg": 3317,
      "aff": 3318,
      "Ġeffectiveness": 3319,
      "ĠEvalu": 3320,
      "ĠQuestion": 3321,
      "Ġspend": 3322,
      "solving": 3323,
      "ĠBra": 3324,
      "gorith": 3325,
      "ĠFood": 3326,
      "ĠChallen": 3327,
      "hesis": 3328,
      "Ġred": 3329,
      "Ġdepending": 3330,
      "Ġplatforms": 3331,
      "Ġcreative": 3332,
      "Ġefforts": 3333,
      "Ġreliable": 3334,
      "Ġmessage": 3335,
      "Ġearn": 3336,
      "Ġdemons": 3337,
      "hetic": 3338,
      "ĠCommunication": 3339,
      "aced": 3340,
      "Ġaccurate": 3341,
      "ilitary": 3342,
      "Ġresol": 3343,
      "ĠPrep": 3344,
      "ĠBo": 3345,
      "axim": 3346,
      "Ġhab": 3347,
      "ĠAir": 3348,
      "Ġrelevant": 3349,
      "ĠPower": 3350,
      "Ġsurround": 3351,
      "Ġfore": 3352,
      "Ġexchange": 3353,
      "Ġhous": 3354,
      "ula": 3355,
      "Ġfrequ": 3356,
      "ĠPublic": 3357,
      "verage": 3358,
      "Ġarr": 3359,
      "Ġresistance": 3360,
      "house": 3361,
      "Ġtexture": 3362,
      "igence": 3363,
      "unte": 3364,
      "Ġdeals": 3365,
      "eling": 3366,
      "gest": 3367,
      "Ġfashion": 3368,
      "ĠRis": 3369,
      "Ġreviews": 3370,
      "bility": 3371,
      "Ġold": 3372,
      "ĠObj": 3373,
      "Ġdrugs": 3374,
      "ĠCase": 3375,
      "ĠDo": 3376,
      "ĠThinking": 3377,
      "ĠJo": 3378,
      "Ġviol": 3379,
      "ĠGen": 3380,
      "Ġideal": 3381,
      "Taught": 3382,
      "Ġbacter": 3383,
      "Ġhosp": 3384,
      "ĠTreat": 3385,
      "ĠCommunity": 3386,
      "ĠExper": 3387,
      "artment": 3388,
      "ĠAcc": 3389,
      "mselves": 3390,
      "ĠFr": 3391,
      "idered": 3392,
      "opy": 3393,
      "Ġthemselves": 3394,
      "Ġspaces": 3395,
      "Ġsmaller": 3396,
      "odies": 3397,
      "ector": 3398,
      "mosp": 3399,
      "ĠMethod": 3400,
      "Ġmight": 3401,
      "ĠMake": 3402,
      "ĠProble": 3403,
      "andsc": 3404,
      "ĠChoosing": 3405,
      "Ġtechnical": 3406,
      "Ġmachine": 3407,
      "Ġdry": 3408,
      "Ġelectro": 3409,
      "Ġdurable": 3410,
      "ĠOff": 3411,
      "tail": 3412,
      "Ġ18": 3413,
      "Ġdisco": 3414,
      "door": 3415,
      "ĠBre": 3416,
      "Ġlikely": 3417,
      "des": 3418,
      "Ġ/": 3419,
      "Ġbooks": 3420,
      "Ġmotiv": 3421,
      "Ġsignals": 3422,
      "Ġdatab": 3423,
      "Ġschools": 3424,
      "Ġwants": 3425,
      "ĠAccess": 3426,
      "Ġcleaning": 3427,
      "Ġimplementing": 3428,
      "ĠOpen": 3429,
      "ĠPr": 3430,
      "ived": 3431,
      "ĠEngine": 3432,
      "atus": 3433,
      "ĠReduc": 3434,
      "ĠAnother": 3435,
      "Ġhouse": 3436,
      "Ġsport": 3437,
      "ison": 3438,
      "ĠUS": 3439,
      "crete": 3440,
      "ewel": 3441,
      "Ġgained": 3442,
      "uted": 3443,
      "Ġpresence": 3444,
      "Ġwal": 3445,
      "ĠAfter": 3446,
      "Ġconsidered": 3447,
      "umption": 3448,
      "Ġappearance": 3449,
      "ID": 3450,
      "Ġacid": 3451,
      "Ġequal": 3452,
      "Ġbackground": 3453,
      "Ġwid": 3454,
      "Ġcomprehens": 3455,
      "ially": 3456,
      "Ġevaluating": 3457,
      "Ġafford": 3458,
      "ese": 3459,
      "Ġcompound": 3460,
      "Ġinvestig": 3461,
      "Ġinvestments": 3462,
      "Ġinfrastructure": 3463,
      "nesses": 3464,
      "Ġpost": 3465,
      "ĠMicro": 3466,
      "Ġsex": 3467,
      "Ġfacilities": 3468,
      "Ġwhole": 3469,
      "Ġyourself": 3470,
      "iver": 3471,
      "Ġdeg": 3472,
      "Ġattract": 3473,
      "olf": 3474,
      "wareness": 3475,
      "nding": 3476,
      "ewelry": 3477,
      "ĠEmp": 3478,
      "ĠLife": 3479,
      "Ġproteins": 3480,
      "20": 3481,
      "Ġemail": 3482,
      "lot": 3483,
      "oming": 3484,
      "ĠNetwork": 3485,
      "taining": 3486,
      "ormal": 3487,
      "Ġlimit": 3488,
      "Ġaway": 3489,
      "Ġ\\": 3490,
      "Ġleft": 3491,
      "Ġwebsites": 3492,
      "Ġlayer": 3493,
      "ĠAm": 3494,
      "ĠThrough": 3495,
      "ĠPhys": 3496,
      "Ġchain": 3497,
      "ĠVis": 3498,
      "Ġfurniture": 3499,
      "Ġsolar": 3500,
      "Ġmaxim": 3501,
      "Ġteac": 3502,
      "Ġqual": 3503,
      "Ġstability": 3504,
      "Ġcitiz": 3505,
      "Ġsay": 3506,
      "Ġcontains": 3507,
      "Ġu": 3508,
      "Ġexisting": 3509,
      "Ġcooking": 3510,
      "Ġrenew": 3511,
      "ĠQuality": 3512,
      "Ġwritten": 3513,
      "inating": 3514,
      "Ġtotal": 3515,
      "Ġovercome": 3516,
      "Ġfire": 3517,
      "Ġheav": 3518,
      "Ġblock": 3519,
      "Ġcenter": 3520,
      "Ġexposure": 3521,
      "Ġrich": 3522,
      "Ġdesigning": 3523,
      "Ġpast": 3524,
      "Ġfurther": 3525,
      "Ġcultures": 3526,
      "ĠInformation": 3527,
      "Ġled": 3528,
      "Ġassets": 3529,
      "Ġparticularly": 3530,
      "Ġpreventing": 3531,
      "ĠAdd": 3532,
      "Ġfull": 3533,
      "Ġbot": 3534,
      "ĠOut": 3535,
      "over": 3536,
      "ony": 3537,
      "Ġinnovative": 3538,
      "Ġfiles": 3539,
      "cient": 3540,
      "hol": 3541,
      "Ġhydro": 3542,
      "Ġtaken": 3543,
      "Ġforce": 3544,
      "Ġdeep": 3545,
      "Ġcreates": 3546,
      "Ġclothing": 3547,
      "Ġabsor": 3548,
      "los": 3549,
      "ĠFl": 3550,
      "Ġagree": 3551,
      "Ġguide": 3552,
      "Ġ&": 3553,
      "Ġemb": 3554,
      "ĠMin": 3555,
      "Ġachieving": 3556,
      "Ġalternative": 3557,
      "Ġbond": 3558,
      "Ġprocedures": 3559,
      "Ġtransmit": 3560,
      "Ġsite": 3561,
      "Ġrevenue": 3562,
      "Ġplans": 3563,
      "Ġdetails": 3564,
      "50": 3565,
      "Ġproviders": 3566,
      "Ġleadership": 3567,
      "Ġcandid": 3568,
      "xiety": 3569,
      "Ġresearc": 3570,
      "ipping": 3571,
      "Ġwear": 3572,
      "Ġinterested": 3573,
      "Ġlarger": 3574,
      "Ġsteel": 3575,
      "ares": 3576,
      "Ġplaying": 3577,
      "Ġgrowing": 3578,
      "Ġprivate": 3579,
      "ĠAnalyzing": 3580,
      "Ġtheory": 3581,
      "Ġabilities": 3582,
      "Ġbuilt": 3583,
      "Ġpub": 3584,
      "Ġteams": 3585,
      "uck": 3586,
      "atile": 3587,
      "Ġoccurs": 3588,
      "Ġsil": 3589,
      "cles": 3590,
      "Ġnavigate": 3591,
      "Ġhor": 3592,
      "idge": 3593,
      "ĠCommon": 3594,
      "Ġcelebr": 3595,
      "ĠMar": 3596,
      "Ġatmosp": 3597,
      "Ġflavor": 3598,
      "Ġpainting": 3599,
      "Ġcovered": 3600,
      "Ġtour": 3601,
      "Ġinteract": 3602,
      "tability": 3603,
      "Ġ[": 3604,
      "ulp": 3605,
      "fit": 3606,
      "Ġten": 3607,
      "Ġespec": 3608,
      "ĠRo": 3609,
      "ĠMarketing": 3610,
      "aving": 3611,
      "Ġstandard": 3612,
      "Ġespecially": 3613,
      "eds": 3614,
      "Ġparties": 3615,
      "hips": 3616,
      "Ġoutlined": 3617,
      "Ġaccoun": 3618,
      "ĠPrin": 3619,
      "Ġrelease": 3620,
      "holders": 3621,
      "aration": 3622,
      "Ġgenetic": 3623,
      "Ġrelax": 3624,
      "Ġoffice": 3625,
      "Ġscientific": 3626,
      "vis": 3627,
      "Ġadding": 3628,
      "Ġsurv": 3629,
      "Ġhandle": 3630,
      "ugg": 3631,
      "volution": 3632,
      "ĠVI": 3633,
      "Ġprofit": 3634,
      "Ġwords": 3635,
      "Ġsong": 3636,
      "Ġmotor": 3637,
      "Ġindepend": 3638,
      "ĠSoft": 3639,
      "ronic": 3640,
      "acity": 3641,
      "Ġla": 3642,
      "Ġproductivity": 3643,
      "nership": 3644,
      "ival": 3645,
      "Ġcup": 3646,
      "ils": 3647,
      "Ġupd": 3648,
      "Ġouts": 3649,
      "Ġdocuments": 3650,
      "ĠInternational": 3651,
      "Ġcontext": 3652,
      "Ġnegoti": 3653,
      "ĠPlanning": 3654,
      "ĠRef": 3655,
      "ĠForm": 3656,
      "Ġadvertising": 3657,
      "ĠEnvironmental": 3658,
      "ĠTax": 3659,
      "ĠResp": 3660,
      "In": 3661,
      "ĠStudy": 3662,
      "ses": 3663,
      "ulting": 3664,
      "Ġmass": 3665,
      "vere": 3666,
      "Ġhistorical": 3667,
      "advantages": 3668,
      "Ġann": 3669,
      "Ġkn": 3670,
      "Ġfinance": 3671,
      "Ġestablish": 3672,
      "enities": 3673,
      "Ġstage": 3674,
      "Ġalgorith": 3675,
      "lection": 3676,
      "Ġlimited": 3677,
      "ĠAv": 3678,
      "Ġteach": 3679,
      "ĠCompan": 3680,
      "Ġfresh": 3681,
      "idence": 3682,
      "ann": 3683,
      "try": 3684,
      "ĠAre": 3685,
      "Ġfix": 3686,
      "Ġacqu": 3687,
      "Ġcrim": 3688,
      "ung": 3689,
      "ĠFirst": 3690,
      "Ġconsumers": 3691,
      "bor": 3692,
      "iors": 3693,
      "Ġselecting": 3694,
      "ĠGu": 3695,
      "ĠNational": 3696,
      "Ġindic": 3697,
      "ĠInvestment": 3698,
      "ĠOper": 3699,
      "othe": 3700,
      "Ġparents": 3701,
      "ĠFil": 3702,
      "ĠCollabor": 3703,
      "ĠChallenges": 3704,
      "uro": 3705,
      "Ġtri": 3706,
      "Ġstatis": 3707,
      "Ġsmart": 3708,
      "ĠOther": 3709,
      "Ġrecent": 3710,
      "Ġsatisfaction": 3711,
      "ĠState": 3712,
      "tainment": 3713,
      "Ġadvance": 3714,
      "levision": 3715,
      "Ġmanufacture": 3716,
      "Ġbeliefs": 3717,
      "ĠDef": 3718,
      "Ġexpand": 3719,
      "tead": 3720,
      "Ġobjectives": 3721,
      "ĠHum": 3722,
      "Ġ200": 3723,
      "ypt": 3724,
      "Ġyoung": 3725,
      "ĠBr": 3726,
      "ĠSupport": 3727,
      "ĠBal": 3728,
      "Ġinjury": 3729,
      "erving": 3730,
      "Ġcomposition": 3731,
      "irth": 3732,
      "Ġmonitor": 3733,
      "ĠImproved": 3734,
      "ometry": 3735,
      "hyth": 3736,
      "Ġawareness": 3737,
      "Ġtherap": 3738,
      "lies": 3739,
      "load": 3740,
      "Ġcoord": 3741,
      "Ġpsych": 3742,
      "Ġthreat": 3743,
      "PS": 3744,
      "ĠDuring": 3745,
      "ĠLead": 3746,
      "Ġconsidering": 3747,
      "Ġeye": 3748,
      "Ġmeets": 3749,
      "rency": 3750,
      "Ġfaced": 3751,
      "ĠRight": 3752,
      "Ġsharing": 3753,
      "Ġnetworks": 3754,
      "Ġresearchers": 3755,
      "ests": 3756,
      "Ġdiv": 3757,
      "Ġdrive": 3758,
      ".,": 3759,
      "Ġfunding": 3760,
      "Ġdifferences": 3761,
      "Ġoperating": 3762,
      "ĠSubs": 3763,
      "ont": 3764,
      "Ġrock": 3765,
      "Ġconsumption": 3766,
      "Ġrunning": 3767,
      "Ġacademic": 3768,
      "Ġath": 3769,
      "rive": 3770,
      "roup": 3771,
      "ĠPerform": 3772,
      "Ġpoly": 3773,
      "Ġsuper": 3774,
      "Ġshown": 3775,
      "Ġworkers": 3776,
      "icient": 3777,
      "ĠControl": 3778,
      "ĠHome": 3779,
      "Ġdiscussed": 3780,
      "swer": 3781,
      "Ġpow": 3782,
      "ags": 3783,
      "Ġwar": 3784,
      "Ġlab": 3785,
      "Ġlog": 3786,
      "ĠInstall": 3787,
      "ĠTreatment": 3788,
      "Ġsl": 3789,
      "Ġfocuses": 3790,
      "Ġwrite": 3791,
      "istant": 3792,
      "Ġindustrial": 3793,
      "ogen": 3794,
      "ĠElectr": 3795,
      "Ġtask": 3796,
      "Ġalgebra": 3797,
      "water": 3798,
      "face": 3799,
      "ull": 3800,
      "ift": 3801,
      "estyle": 3802,
      "Ġinjuries": 3803,
      "Ġserve": 3804,
      "Ġreward": 3805,
      "Ġdom": 3806,
      "Ġwire": 3807,
      "Ġtissue": 3808,
      "Ġexperienced": 3809,
      "anks": 3810,
      "osyste": 3811,
      "Ġlabor": 3812,
      "ĠFeatures": 3813,
      "ĠCap": 3814,
      "ĠFact": 3815,
      "Ġexpressions": 3816,
      "Ġpayment": 3817,
      "ĠStrategies": 3818,
      "Ġdid": 3819,
      "ĠProj": 3820,
      "Ġselling": 3821,
      "Ġdeath": 3822,
      "Ġboard": 3823,
      "ĠWar": 3824,
      "ĠLook": 3825,
      "lick": 3826,
      "Ġvision": 3827,
      "cohol": 3828,
      "Ġsurgery": 3829,
      "Ġdetect": 3830,
      "icians": 3831,
      "Ġdriving": 3832,
      "oice": 3833,
      "Ġprioritiz": 3834,
      "vironments": 3835,
      "mar": 3836,
      "Ġcompare": 3837,
      "Ġbranch": 3838,
      "Ġelement": 3839,
      "Ġhol": 3840,
      "Ġgam": 3841,
      "ĠIncre": 3842,
      "Ġmanag": 3843,
      "ancy": 3844,
      "phones": 3845,
      "ratic": 3846,
      "taur": 3847,
      "Ġreason": 3848,
      "Ġmanip": 3849,
      "Ġphoto": 3850,
      "Ques": 3851,
      "Ġinv": 3852,
      "Ġchanging": 3853,
      "Ġconvey": 3854,
      "Ġcontact": 3855,
      "Ġcentral": 3856,
      "Ġassistance": 3857,
      "Ġchann": 3858,
      "ĠPri": 3859,
      "Ġpollution": 3860,
      "Ġwhite": 3861,
      "arent": 3862,
      "ĠUp": 3863,
      "Ġrefer": 3864,
      "rors": 3865,
      "Ġrati": 3866,
      "Ġexciting": 3867,
      "Ġguidelines": 3868,
      "Ġstock": 3869,
      "Ġoffic": 3870,
      "antage": 3871,
      "Ġdrin": 3872,
      "Ġplastic": 3873,
      "Ġtry": 3874,
      "Ġsolid": 3875,
      "istration": 3876,
      "Ġalong": 3877,
      "Ġbuying": 3878,
      "Ġsince": 3879,
      "ulations": 3880,
      "Ġfunds": 3881,
      "Ġorganic": 3882,
      "pectives": 3883,
      "itchen": 3884,
      "Â°": 3885,
      "ĠWind": 3886,
      "Ġmedium": 3887,
      "ishing": 3888,
      "Ġanxiety": 3889,
      "Ġrecords": 3890,
      "Ġanimal": 3891,
      "Ġmilitary": 3892,
      "idents": 3893,
      "Ġrelig": 3894,
      "ava": 3895,
      "ĠSign": 3896,
      "Ġparticipate": 3897,
      "Ġjustice": 3898,
      "Ġsymbol": 3899,
      "Ġcomprehensive": 3900,
      "reath": 3901,
      "Ġprotecting": 3902,
      "Ġvot": 3903,
      "Ġexplain": 3904,
      "rig": 3905,
      "iding": 3906,
      "Ġcompetitive": 3907,
      "Ġcitizens": 3908,
      "ĠMedical": 3909,
      "Ġ12": 3910,
      "istry": 3911,
      "Ġmatter": 3912,
      "Ġconnection": 3913,
      "Ġwarm": 3914,
      "ĠWriting": 3915,
      "Ġancient": 3916,
      "Ġliquid": 3917,
      "Ġsupporting": 3918,
      "ueueueue": 3919,
      "Ġdiverse": 3920,
      "Ġcomfort": 3921,
      "Ġrenewable": 3922,
      "Ġcla": 3923,
      "icious": 3924,
      "tial": 3925,
      "Ġdyn": 3926,
      "ĠAdv": 3927,
      "Ġcompetition": 3928,
      "af": 3929,
      "Ġaim": 3930,
      "tically": 3931,
      "ĠSw": 3932,
      "ĠAbs": 3933,
      "ĠPres": 3934,
      "ulty": 3935,
      "Ġimprovement": 3936,
      "nder": 3937,
      "Ġstim": 3938,
      "inated": 3939,
      "Ġpor": 3940,
      "ĠRet": 3941,
      "repreneurship": 3942,
      "ana": 3943,
      "Ġsubstance": 3944,
      "xic": 3945,
      "Ġenz": 3946,
      "Ġlast": 3947,
      "everance": 3948,
      "Ġbul": 3949,
      "Ġencourage": 3950,
      "Ġnucle": 3951,
      "MS": 3952,
      "Ġslow": 3953,
      "Ġwild": 3954,
      "Ġmark": 3955,
      "ĠBlo": 3956,
      "ĠEconomic": 3957,
      "Ġfat": 3958,
      "ching": 3959,
      "Ġfoods": 3960,
      "ĠNon": 3961,
      "ancer": 3962,
      "Ġsizes": 3963,
      "ums": 3964,
      "Ġclub": 3965,
      "Ġinflamm": 3966,
      "Ġvacc": 3967,
      "ĠOnline": 3968,
      "Ġnutrients": 3969,
      "rel": 3970,
      "orary": 3971,
      "ĠCost": 3972,
      "Ġimplications": 3973,
      "ĠDeveloping": 3974,
      "que": 3975,
      "Ġroad": 3976,
      "ĠAlgebra": 3977,
      "oration": 3978,
      "Ġlibr": 3979,
      "ĠChild": 3980,
      "Ġintroduced": 3981,
      "Ġjewelry": 3982,
      "anger": 3983,
      "iter": 3984,
      "Ġemissions": 3985,
      "ored": 3986,
      "Ġatmosphere": 3987,
      "hyd": 3988,
      "lass": 3989,
      "ĠNo": 3990,
      "ĠVari": 3991,
      "Ġrental": 3992,
      "Ġfall": 3993,
      "Ġpurs": 3994,
      "mote": 3995,
      "ĠEffective": 3996,
      "Ġcannot": 3997,
      "Ġshowc": 3998,
      "Ġhours": 3999,
      "Ġbab": 4000,
      "leg": 4001,
      "Ġsucceed": 4002,
      "Ġlat": 4003,
      "overy": 4004,
      "ino": 4005,
      "Ġask": 4006,
      "ĠReview": 4007,
      "Ġinteractions": 4008,
      "Ġappreciation": 4009,
      "Ġenvironments": 4010,
      "Ġhelping": 4011,
      "ensity": 4012,
      "Ġcash": 4013,
      "asuring": 4014,
      "odes": 4015,
      "unning": 4016,
      "ĠStart": 4017,
      "Ġinstitutions": 4018,
      "Ġble": 4019,
      "Ġgender": 4020,
      "chol": 4021,
      "Ġversatile": 4022,
      "Ġinterpret": 4023,
      "Ġvital": 4024,
      "ĠPoli": 4025,
      "Ġsituation": 4026,
      "abol": 4027,
      "ĠReading": 4028,
      "Ġantib": 4029,
      "Ġimm": 4030,
      "Ġoperation": 4031,
      "Ġtests": 4032,
      "ĠLo": 4033,
      "Ġperspectives": 4034,
      "yst": 4035,
      "ditions": 4036,
      "Ġexpensive": 4037,
      "Ġseason": 4038,
      "Ġexpertise": 4039,
      "ipes": 4040,
      "Ġdelivery": 4041,
      "ideos": 4042,
      "Ġroles": 4043,
      "Ġfamous": 4044,
      "atell": 4045,
      "Ġexperiment": 4046,
      "Ġsustainability": 4047,
      "Ġeffort": 4048,
      "lif": 4049,
      "Ġfo": 4050,
      "oma": 4051,
      "Ġopin": 4052,
      "Ġradiation": 4053,
      "Ġbroad": 4054,
      "Ġwaves": 4055,
      "Ġalign": 4056,
      "Ġdeliver": 4057,
      ",\"": 4058,
      "Ġtell": 4059,
      "Ġrecording": 4060,
      "Ġagriculture": 4061,
      "Ġaffected": 4062,
      "osition": 4063,
      "ĠTw": 4064,
      "Ġlandsc": 4065,
      "elligence": 4066,
      "Ġoutdoor": 4067,
      "Ġreduced": 4068,
      "SS": 4069,
      "semb": 4070,
      "Ġstates": 4071,
      "itor": 4072,
      "CA": 4073,
      "ley": 4074,
      "tery": 4075,
      "Ġadmin": 4076,
      "Ġcapital": 4077,
      "ooting": 4078,
      "Ġspecialized": 4079,
      "Ġconta": 4080,
      "onics": 4081,
      "Ġstream": 4082,
      "Ġmachines": 4083,
      "MA": 4084,
      "irit": 4085,
      "Ġsequ": 4086,
      "Ġmotion": 4087,
      "ĠService": 4088,
      "Ġfitness": 4089,
      "du": 4090,
      "rm": 4091,
      "usp": 4092,
      "Ġconsists": 4093,
      "Ġreputation": 4094,
      "mary": 4095,
      "Ġminutes": 4096,
      "Ġstaff": 4097,
      "Ġmuscle": 4098,
      "Ġstories": 4099,
      "ps": 4100,
      "Ġcivil": 4101,
      "ĠConf": 4102,
      "ĠProf": 4103,
      "Ġlonger": 4104,
      "enn": 4105,
      "entis": 4106,
      "ĠMulti": 4107,
      "ensions": 4108,
      "Ġsuitable": 4109,
      "Ġunit": 4110,
      "the": 4111,
      "tures": 4112,
      "Ġours": 4113,
      "ĠBack": 4114,
      "Ġrot": 4115,
      "Ġbox": 4116,
      "Ġvirus": 4117,
      "fely": 4118,
      "Ġcrop": 4119,
      "ĠCO": 4120,
      "asts": 4121,
      "ĠAll": 4122,
      "Ġdirection": 4123,
      "riendly": 4124,
      "Ġjobs": 4125,
      "Ġbath": 4126,
      "Ġprocedure": 4127,
      "Ġbarri": 4128,
      "Ġsymbols": 4129,
      "Ġourselves": 4130,
      "Ġcausing": 4131,
      "Ġconcent": 4132,
      "Ġconcerns": 4133,
      "know": 4134,
      "Ġstrugg": 4135,
      "ĠSetting": 4136,
      "Ġtoo": 4137,
      "ĠTraining": 4138,
      "ĠGovern": 4139,
      "Ġprevious": 4140,
      "Defin": 4141,
      "itam": 4142,
      "iction": 4143,
      "Ġdest": 4144,
      "Ġchallenge": 4145,
      "Ġphone": 4146,
      "ister": 4147,
      "Ġretail": 4148,
      "Ġecosyste": 4149,
      "ĠFuture": 4150,
      "Ġmusical": 4151,
      "ĠMedic": 4152,
      "Ġcate": 4153,
      "ĠSecurity": 4154,
      "irm": 4155,
      "Ġcarefully": 4156,
      "Ġnotes": 4157,
      "tracts": 4158,
      "ams": 4159,
      "ĠMany": 4160,
      "ai": 4161,
      "ĠTer": 4162,
      "ortg": 4163,
      "Ġtaxes": 4164,
      "Ġradio": 4165,
      "Ġmaster": 4166,
      "oman": 4167,
      "Ġoverview": 4168,
      "ĠEd": 4169,
      "Ġcompared": 4170,
      "Ġeducational": 4171,
      "ĠTre": 4172,
      "igration": 4173,
      "iddle": 4174,
      "Ġmarkets": 4175,
      "Ġgenerations": 4176,
      "Ġfindings": 4177,
      "Ġstarting": 4178,
      "ycling": 4179,
      "Ġir": 4180,
      "Ġbed": 4181,
      "amics": 4182,
      "ĠCur": 4183,
      "Ġtransmission": 4184,
      "airs": 4185,
      "Ġhousing": 4186,
      "Ġheavy": 4187,
      "ĠRad": 4188,
      "ĠFam": 4189,
      "tist": 4190,
      "anking": 4191,
      "omet": 4192,
      "ĠNatural": 4193,
      "Ġdecre": 4194,
      "ĠGr": 4195,
      "Ġpercent": 4196,
      "Ġtub": 4197,
      "Ġdig": 4198,
      "Ġrespond": 4199,
      "Ġbacteria": 4200,
      "aro": 4201,
      "Ġwedding": 4202,
      "Ġdevelopers": 4203,
      "Ġfactor": 4204,
      "Ġminimize": 4205,
      "Ġswe": 4206,
      "Ġpropos": 4207,
      "Ġthoughts": 4208,
      "Ġtro": 4209,
      "umin": 4210,
      "Ġaccording": 4211,
      "ĠCor": 4212,
      "ML": 4213,
      "ulating": 4214,
      "ĠJoh": 4215,
      "ĠPhysical": 4216,
      "Ġcou": 4217,
      "Ġcards": 4218,
      "Ġwa": 4219,
      "ĠIndia": 4220,
      "Ġmoving": 4221,
      "Ġtail": 4222,
      "Ġfunda": 4223,
      "ĠStudents": 4224,
      "19": 4225,
      "Ġvary": 4226,
      "Ġconvers": 4227,
      "Ġthemes": 4228,
      "ĠDep": 4229,
      "Ġadvantage": 4230,
      "Ġpracticing": 4231,
      "Ġreflec": 4232,
      "has": 4233,
      "Ġresponsibilities": 4234,
      "Ġparty": 4235,
      "Ġcars": 4236,
      "Ġcorrectly": 4237,
      "Ġcovers": 4238,
      "Ġconnected": 4239,
      "Ġweak": 4240,
      "Ġaccomm": 4241,
      "Ġaccommod": 4242,
      "Ġchronic": 4243,
      "ĠScience": 4244,
      "Ġcapacity": 4245,
      "Ġgetting": 4246,
      "Ġcalculate": 4247,
      "Ġrestaur": 4248,
      "ĠVol": 4249,
      "Ġtransform": 4250,
      "Ġchemicals": 4251,
      "obile": 4252,
      "Ġfeelings": 4253,
      "ĠSustainable": 4254,
      "ĠClean": 4255,
      "Ġjud": 4256,
      "ternal": 4257,
      "Ġmista": 4258,
      "rest": 4259,
      "Ġoperate": 4260,
      "Ġconfig": 4261,
      "Ġnumerous": 4262,
      "Ġsent": 4263,
      "Ġteaching": 4264,
      "Ġscr": 4265,
      "Ġfees": 4266,
      "Ġinterview": 4267,
      "ato": 4268,
      "Ġformation": 4269,
      "ĠHuman": 4270,
      "ygen": 4271,
      "Ġtelevision": 4272,
      "Ġmal": 4273,
      "Ġcollege": 4274,
      "fol": 4275,
      "Ġheating": 4276,
      "efore": 4277,
      "Ġsafely": 4278,
      "atings": 4279,
      "Ġguidance": 4280,
      "ĠLine": 4281,
      "ĠJava": 4282,
      "Ġvegetables": 4283,
      "?**": 4284,
      "reg": 4285,
      "Ġshopping": 4286,
      "ĠGene": 4287,
      "Ġtaste": 4288,
      "Ġorganisms": 4289,
      "Ġgeneral": 4290,
      "Ġsides": 4291,
      "Ġdisorders": 4292,
      "pr": 4293,
      "ĠAustr": 4294,
      "ĠFund": 4295,
      "Ġclinical": 4296,
      "Ġcomput": 4297,
      "Ġengines": 4298,
      "onents": 4299,
      "Ġvideos": 4300,
      "Ġtransactions": 4301,
      "Ġmechanisms": 4302,
      "ĠRegular": 4303,
      "AC": 4304,
      "Ġlifestyle": 4305,
      "Ġloan": 4306,
      "Ġvolunte": 4307,
      "uests": 4308,
      "Ġaccessible": 4309,
      "Ġblack": 4310,
      "ĠBefore": 4311,
      "Ġentertainment": 4312,
      "effective": 4313,
      "Ġsquare": 4314,
      "Ġamenities": 4315,
      "10": 4316,
      "usive": 4317,
      "ĠAb": 4318,
      "aker": 4319,
      "Ġbecoming": 4320,
      "Ġeveryday": 4321,
      "Ġinstallation": 4322,
      "medi": 4323,
      "ĠLED": 4324,
      "ĠPark": 4325,
      "ĠChina": 4326,
      "Ġinstruments": 4327,
      "Ġdatabase": 4328,
      "Ġproducing": 4329,
      "Ġreplace": 4330,
      "Ġserious": 4331,
      "icy": 4332,
      "Ġbecame": 4333,
      "Ġmap": 4334,
      "aste": 4335,
      "Ġformat": 4336,
      "Ġmanufacturer": 4337,
      "Ġgar": 4338,
      "Ġcreation": 4339,
      "Ã©": 4340,
      "Ġfluid": 4341,
      "ians": 4342,
      "Ġpaint": 4343,
      "weight": 4344,
      "Ġlack": 4345,
      "Ġgarden": 4346,
      "ĠFactors": 4347,
      "eal": 4348,
      "Ġ{": 4349,
      "Ġwatch": 4350,
      "Ġtransp": 4351,
      "ĠPay": 4352,
      "ception": 4353,
      "Ġjoin": 4354,
      "yth": 4355,
      "ĠMaintenance": 4356,
      "ĠInt": 4357,
      "Ġgreater": 4358,
      "ĠSum": 4359,
      "ĠIdentifying": 4360,
      "met": 4361,
      "Ġalcohol": 4362,
      "ensive": 4363,
      "Ġschedule": 4364,
      "ĠSubsection": 4365,
      "Ġbow": 4366,
      "ocks": 4367,
      "Ġbott": 4368,
      "Ġheld": 4369,
      "ĠConn": 4370,
      "Ġhaz": 4371,
      "wing": 4372,
      "ĠEl": 4373,
      "cript": 4374,
      "Ġremoving": 4375,
      "Ġexploring": 4376,
      "Ġinflammation": 4377,
      "ĠGrow": 4378,
      "ĠDifferen": 4379,
      "Ġinput": 4380,
      "etes": 4381,
      "ĠMeasure": 4382,
      "ik": 4383,
      "Ġbreath": 4384,
      "ĠCreate": 4385,
      "Ġnow": 4386,
      "Ġengagement": 4387,
      "ĠResults": 4388,
      "Ġevolved": 4389,
      "Ġrewarding": 4390,
      "Ġdirectly": 4391,
      "Ġmolecules": 4392,
      "hel": 4393,
      "Ġmom": 4394,
      "ffee": 4395,
      "ĠBasic": 4396,
      "Ġbreast": 4397,
      "Ġvirtual": 4398,
      "inate": 4399,
      "Ġhotel": 4400,
      "Ġput": 4401,
      "Ġinhib": 4402,
      "ĠCell": 4403,
      "ĠHand": 4404,
      "Ġclient": 4405,
      "Ġjourney": 4406,
      "ĠGroup": 4407,
      "Ġperformed": 4408,
      "Ġprob": 4409,
      "Ġdegree": 4410,
      "Ġonto": 4411,
      "Ġfill": 4412,
      "ĠWine": 4413,
      "Ġdetermining": 4414,
      "'re": 4415,
      "Ġhelped": 4416,
      "Ġrespect": 4417,
      "Ġagencies": 4418,
      "dom": 4419,
      "stac": 4420,
      "Ġtrees": 4421,
      "Ġemergency": 4422,
      "Ġaccuracy": 4423,
      "Ġaffordable": 4424,
      "Ġsurfaces": 4425,
      "Ġtouch": 4426,
      "Ġhar": 4427,
      "Ġ100": 4428,
      "OS": 4429,
      "Ġpros": 4430,
      "ae": 4431,
      "oll": 4432,
      "Ġsevere": 4433,
      "Ġmember": 4434,
      "Ch": 4435,
      "ĠPot": 4436,
      "urning": 4437,
      "ĠAdvantages": 4438,
      "ilk": 4439,
      "Ġparticles": 4440,
      "Ġfoundation": 4441,
      "Ġple": 4442,
      "Ġscore": 4443,
      "Ġestim": 4444,
      "Ġtrue": 4445,
      "Ġfiber": 4446,
      "Ġmor": 4447,
      "apan": 4448,
      "Ġimpacts": 4449,
      "oke": 4450,
      "ĠCity": 4451,
      "ĠSecond": 4452,
      "ĠStand": 4453,
      "encing": 4454,
      "Ġsugar": 4455,
      "ĠEquations": 4456,
      "Ġpolitics": 4457,
      "ascular": 4458,
      "Ġdress": 4459,
      "ouble": 4460,
      "Ġvess": 4461,
      "ĠWeb": 4462,
      "Ġvisually": 4463,
      "ĠEnt": 4464,
      "set": 4465,
      "Ġnational": 4466,
      "bed": 4467,
      "ĠAnti": 4468,
      "Ġpartnership": 4469,
      "Ġaid": 4470,
      "ĠPhotography": 4471,
      "char": 4472,
      "ĠVir": 4473,
      "ĠSuc": 4474,
      "Ġstarted": 4475,
      "ĠTV": 4476,
      "iber": 4477,
      "ĠSoftware": 4478,
      "ĠCollaboration": 4479,
      "estiv": 4480,
      "Ġreaction": 4481,
      "Ġapples": 4482,
      "Ġhands": 4483,
      "Ġexhib": 4484,
      "ĠUniversity": 4485,
      "Ġsignificantly": 4486,
      "Ġphotos": 4487,
      "ĠClass": 4488,
      "ederal": 4489,
      "Ġconcrete": 4490,
      "ĠConstruction": 4491,
      "cking": 4492,
      "Ġbank": 4493,
      "Ġstake": 4494,
      "Ġunits": 4495,
      "Ġexamine": 4496,
      "lines": 4497,
      "Ġcorpor": 4498,
      "ĠHealthcare": 4499,
      "ĠProperty": 4500,
      "Ġtown": 4501,
      "cholars": 4502,
      "Ġfilter": 4503,
      "Ġsavings": 4504,
      "Ġpic": 4505,
      "Ġ15": 4506,
      "Ġwealth": 4507,
      "Ġgiving": 4508,
      "Ġrout": 4509,
      "Ġcourt": 4510,
      "ĠChem": 4511,
      "ĠInc": 4512,
      "Ġframework": 4513,
      "Ġcloud": 4514,
      "Ġoutput": 4515,
      "Ġcenturies": 4516,
      "craft": 4517,
      "Ġdepth": 4518,
      "ĠRisk": 4519,
      ");": 4520,
      "SA": 4521,
      "Ġlights": 4522,
      "ĠJapan": 4523,
      "Ġhighly": 4524,
      "Ġconduct": 4525,
      "urban": 4526,
      "ĠBro": 4527,
      "olog": 4528,
      "backs": 4529,
      "Ġobtain": 4530,
      "Ġratio": 4531,
      "friendly": 4532,
      "otive": 4533,
      "Ġexercises": 4534,
      "PI": 4535,
      "na": 4536,
      "Ġdisadvantages": 4537,
      "ĠGood": 4538,
      "Ġadded": 4539,
      "athy": 4540,
      "Ġtum": 4541,
      "eding": 4542,
      "ĠHer": 4543,
      "ĠPain": 4544,
      "ĠOur": 4545,
      "Ġpersonalized": 4546,
      "ĠEquipment": 4547,
      "ĠLegal": 4548,
      "entists": 4549,
      "Ġsand": 4550,
      "Ġstatus": 4551,
      "Ġmedication": 4552,
      "Ġmechanical": 4553,
      "titude": 4554,
      "Ġguests": 4555,
      "Ġroll": 4556,
      "ĠDeterm": 4557,
      "yme": 4558,
      "Ġpage": 4559,
      "Ġrace": 4560,
      "Ġoptimize": 4561,
      "Ġoutside": 4562,
      "Ġfig": 4563,
      "Ġfaster": 4564,
      "Ġconsult": 4565,
      "Ġrap": 4566,
      "ĠPerformance": 4567,
      "Ġoffe": 4568,
      "Ġshoes": 4569,
      "Ġvibr": 4570,
      "ĠMaking": 4571,
      "Ġnear": 4572,
      "imal": 4573,
      "Ġmovements": 4574,
      "Ġfootball": 4575,
      "yal": 4576,
      "ĠRen": 4577,
      "Ġhon": 4578,
      "ritis": 4579,
      "Ġerrors": 4580,
      "hythm": 4581,
      "Ġtree": 4582,
      "Ġhardware": 4583,
      "Ġconflict": 4584,
      "mes": 4585,
      "ĠSouth": 4586,
      "ĠGreen": 4587,
      "izations": 4588,
      "Ġsensors": 4589,
      "ĠCheck": 4590,
      "Ġfast": 4591,
      "ĠStr": 4592,
      "Ġkitchen": 4593,
      "ĠAud": 4594,
      "Ġobjective": 4595,
      "Ġselect": 4596,
      "Ġ30": 4597,
      "Ġwilling": 4598,
      "Ġsupports": 4599,
      "Ġdescribe": 4600,
      "Ġtheoretical": 4601,
      "ĠAustral": 4602,
      "Ġbirth": 4603,
      "Ġwidely": 4604,
      "Ġovers": 4605,
      "ĠTes": 4606,
      "Ġstores": 4607,
      "taught": 4608,
      "ĠFunc": 4609,
      "ĠTools": 4610,
      "Ġaccidents": 4611,
      "rows": 4612,
      "Ġseek": 4613,
      "Ġpen": 4614,
      "Ġflexible": 4615,
      "ĠDoc": 4616,
      "enses": 4617,
      "Ġsolving": 4618,
      "tes": 4619,
      "Ġamp": 4620,
      "Ġbehaviors": 4621,
      "prin": 4622,
      "ĠChr": 4623,
      "ĠColor": 4624,
      "Ġresource": 4625,
      "Ġsculp": 4626,
      "Ġmood": 4627,
      "Ġmoun": 4628,
      "Ġquestion": 4629,
      "ded": 4630,
      "ĠCy": 4631,
      "ĠVe": 4632,
      "CT": 4633,
      "Ġreaders": 4634,
      "Ġmedications": 4635,
      "Ġconsistent": 4636,
      "ivid": 4637,
      "rooms": 4638,
      "ĠTheory": 4639,
      "Ġrepro": 4640,
      "Ġadvoc": 4641,
      "Ġdiagnosis": 4642,
      "Ġoxygen": 4643,
      "ĠSty": 4644,
      "mentation": 4645,
      "Ġmultip": 4646,
      "Ġsurrounding": 4647,
      "Ġarrange": 4648,
      "ĠDirec": 4649,
      "Ġphil": 4650,
      "anged": 4651,
      "Ġsets": 4652,
      "Ġartwork": 4653,
      "Ġcombines": 4654,
      "Ġemployment": 4655,
      "key": 4656,
      "abetes": 4657,
      "Ġconnections": 4658,
      "Ġhumans": 4659,
      "Ġarguments": 4660,
      "Ġabove": 4661,
      "ĠMathematical": 4662,
      "Ġartist": 4663,
      "Ġlatest": 4664,
      "dy": 4665,
      "Ġcircuit": 4666,
      "Ġhabit": 4667,
      "head": 4668,
      "Ġder": 4669,
      "ĠCour": 4670,
      "ĠIts": 4671,
      "ĠMobile": 4672,
      "Ġemphas": 4673,
      "Ġcourses": 4674,
      "Ġcross": 4675,
      "Ġsigns": 4676,
      "rench": 4677,
      "phone": 4678,
      "ĠMethods": 4679,
      "Ġinfections": 4680,
      "tracting": 4681,
      "ĠAutom": 4682,
      "itig": 4683,
      "An": 4684,
      "Ġprinting": 4685,
      "Ġstatements": 4686,
      "Ġsample": 4687,
      "âĢĻ": 4688,
      "Ġaims": 4689,
      "my": 4690,
      "Ġeg": 4691,
      "Ġnan": 4692,
      "coming": 4693,
      "gon": 4694,
      "wide": 4695,
      "iling": 4696,
      "Ġconservation": 4697,
      "ĠSuccess": 4698,
      "oster": 4699,
      "Ġcrime": 4700,
      "Ġisol": 4701,
      "Ġstunning": 4702,
      "Ġmeeting": 4703,
      "tificial": 4704,
      "otherapy": 4705,
      "equ": 4706,
      "gi": 4707,
      "Ġsn": 4708,
      "Ġdays": 4709,
      "ĠCancer": 4710,
      "Ġregard": 4711,
      "Ġorganized": 4712,
      "Ġlinear": 4713,
      "Ġremains": 4714,
      "Ġdish": 4715,
      "Ġserver": 4716,
      "Ġcutting": 4717,
      "Ġband": 4718,
      "ĠGraph": 4719,
      "Ġsusp": 4720,
      "Ġdate": 4721,
      "rics": 4722,
      "Ġfundamental": 4723,
      "Ġep": 4724,
      "ĠRequ": 4725,
      "Ġlanguages": 4726,
      "Ġcontrolling": 4727,
      "OR": 4728,
      "anges": 4729,
      "tered": 4730,
      "Ġflexibility": 4731,
      "mark": 4732,
      "Ġdepends": 4733,
      "Ġobstac": 4734,
      "cing": 4735,
      "ries": 4736,
      "ocol": 4737,
      "Ġmoist": 4738,
      "ĠDeb": 4739,
      "Ġremote": 4740,
      "Ġdeal": 4741,
      "Ġreduces": 4742,
      "Ġorganizing": 4743,
      "Ġprioritize": 4744,
      "Ġmistakes": 4745,
      "ĠTod": 4746,
      "ĠLog": 4747,
      "Ġgovernments": 4748,
      "ike": 4749,
      "Ġul": 4750,
      "Ġpet": 4751,
      "arian": 4752,
      "inder": 4753,
      "Ġchoices": 4754,
      "Ġdiscussions": 4755,
      "Ġscenario": 4756,
      "graphy": 4757,
      "Ġcompounds": 4758,
      "loyment": 4759,
      "Ġmessages": 4760,
      "ades": 4761,
      "Ġtrip": 4762,
      "Ġcycle": 4763,
      "Ġcameras": 4764,
      "Ġchannels": 4765,
      "metic": 4766,
      "Ġcoverage": 4767,
      "Ġmovie": 4768,
      "ĠFra": 4769,
      "Ġregulation": 4770,
      "Ġlocations": 4771,
      "Ġincreases": 4772,
      "Ġbiological": 4773,
      "Ġdurability": 4774,
      "Ġsexual": 4775,
      "ĠPat": 4776,
      "imming": 4777,
      "Ġdisp": 4778,
      "ĠNutr": 4779,
      "Ġmagnetic": 4780,
      "Ġprop": 4781,
      "Ġcontinues": 4782,
      "known": 4783,
      "ticip": 4784,
      "Ġvoice": 4785,
      "letes": 4786,
      "Ġwalls": 4787,
      "Ġ'": 4788,
      "Ġear": 4789,
      "Ġbattery": 4790,
      "Ġpump": 4791,
      "lets": 4792,
      "Ġcollecting": 4793,
      "inding": 4794,
      "Ġimaging": 4795,
      "Ġfibers": 4796,
      "ĠEnc": 4797,
      "ogle": 4798,
      "Ġdanger": 4799,
      "Ġphase": 4800,
      "ĠTransport": 4801,
      "top": 4802,
      "Ġprovider": 4803,
      "Ġmeasured": 4804,
      "Ġreleased": 4805,
      "exp": 4806,
      "aser": 4807,
      "ĠDra": 4808,
      "Ġconstruc": 4809,
      "Ġaccessories": 4810,
      "itting": 4811,
      "Ġsequence": 4812,
      "ĠBook": 4813,
      "ĠIndustry": 4814,
      "Ġlic": 4815,
      "oper": 4816,
      "Ġcomplications": 4817,
      "Ġworkplace": 4818,
      "Ġtreating": 4819,
      "ĠStructure": 4820,
      "Ġstable": 4821,
      "Ġload": 4822,
      "ubles": 4823,
      "Ġcommunic": 4824,
      "Ġassign": 4825,
      "Ġinspire": 4826,
      "Ġentire": 4827,
      "imension": 4828,
      "Ġconducted": 4829,
      "Ġadjus": 4830,
      "Ġadapt": 4831,
      "Ġurban": 4832,
      "Ġdance": 4833,
      "ĠCred": 4834,
      "ĠEnd": 4835,
      "Ġtheme": 4836,
      "Ġfulf": 4837,
      "Ġsugges": 4838,
      "Ġteachers": 4839,
      "ders": 4840,
      "uff": 4841,
      "Ġdamaged": 4842,
      "Ġemployee": 4843,
      "Ġdelicious": 4844,
      "hest": 4845,
      "**:": 4846,
      "Ġshel": 4847,
      "Ġmission": 4848,
      "Ġbaby": 4849,
      "ĠCustomer": 4850,
      "Ġthird": 4851,
      "ĠEuropean": 4852,
      "Ġrepresentation": 4853,
      "ĠFinding": 4854,
      "Ġstrengths": 4855,
      "ĠMathematics": 4856,
      "ĠPeople": 4857,
      "abin": 4858,
      "Ġlistening": 4859,
      "eu": 4860,
      "Ġ}": 4861,
      "Ġdemonstr": 4862,
      "Ġfertil": 4863,
      "ET": 4864,
      "ĠWood": 4865,
      "ĠHel": 4866,
      "ĠFol": 4867,
      "Ġeth": 4868,
      "Ġraise": 4869,
      "Ġdefin": 4870,
      "Ġdomain": 4871,
      "ytics": 4872,
      "azz": 4873,
      "ĠNorth": 4874,
      "Ġcoll": 4875,
      "Ġpercentage": 4876,
      "Ġfa": 4877,
      "Ġjournal": 4878,
      "ĠIncreased": 4879,
      "ĠToday": 4880,
      "PA": 4881,
      "ha": 4882,
      "ĠManaging": 4883,
      "Ġresponsibility": 4884,
      "ĠBet": 4885,
      "uis": 4886,
      "ĠIT": 4887,
      "ĠProject": 4888,
      "Ġfeet": 4889,
      "Ġadop": 4890,
      "Ġprint": 4891,
      "Ġvisitors": 4892,
      "osph": 4893,
      "--------": 4894,
      "Ġbodies": 4895,
      "Ġplaces": 4896,
      "ĠGoogle": 4897,
      "Ġmer": 4898,
      "Ġimag": 4899,
      "Ġfocused": 4900,
      "ĠTravel": 4901,
      "ĠMedia": 4902,
      "Ġalloc": 4903,
      "artments": 4904,
      "Ġpackaging": 4905,
      "Ġstakeholders": 4906,
      "ĠNot": 4907,
      "Ġshaping": 4908,
      "Ġdestination": 4909,
      "Ġreduction": 4910,
      "Ġrecovery": 4911,
      "Ġhandling": 4912,
      "Ġkeeping": 4913,
      "SD": 4914,
      "Ġcompet": 4915,
      "Ġpromotes": 4916,
      "Ġclose": 4917,
      "Ġcontinuous": 4918,
      "Ġshipping": 4919,
      "Ġpurchasing": 4920,
      "ĠAfrican": 4921,
      "Ġleaders": 4922,
      "Ġachieved": 4923,
      "Ġmatch": 4924,
      "Ġconstant": 4925,
      "ĠProblems": 4926,
      "Ġgenre": 4927,
      "Ġgear": 4928,
      "Ġstain": 4929,
      "ĠAct": 4930,
      "ĠEvaluating": 4931,
      "itors": 4932,
      "Ġcogn": 4933,
      "anes": 4934,
      "Ġvolume": 4935,
      "ĠIntegr": 4936,
      "nded": 4937,
      "ĠSal": 4938,
      "Ġgolf": 4939,
      "Ġlisting": 4940,
      "Ġinstead": 4941,
      "Ġliterature": 4942,
      "ĠTheir": 4943,
      "iration": 4944,
      "Ġneigh": 4945,
      "ither": 4946,
      "ĠDifferent": 4947,
      "Ġtables": 4948,
      "orrow": 4949,
      "Ġinvent": 4950,
      "ĠPati": 4951,
      "dibility": 4952,
      "Ġsounds": 4953,
      "Ġfunctionality": 4954,
      "cel": 4955,
      "Ġdoing": 4956,
      "ĠPolitical": 4957,
      "atellite": 4958,
      "ĠCook": 4959,
      "ached": 4960,
      "Ġexcess": 4961,
      "ĠGet": 4962,
      "iciency": 4963,
      "Ġcardi": 4964,
      "Ġcenters": 4965,
      "Ġestablished": 4966,
      "AL": 4967,
      "zz": 4968,
      "ĠLangu": 4969,
      "Ġillness": 4970,
      "Ġcriminal": 4971,
      "bers": 4972,
      "Ġinvolving": 4973,
      "Ġpeace": 4974,
      "rative": 4975,
      "ĠPric": 4976,
      "Ġproduces": 4977,
      "ĠEnh": 4978,
      "novation": 4979,
      "Ġparticipating": 4980,
      "Ġagreement": 4981,
      "Ġphen": 4982,
      "Ġnurs": 4983,
      "Ġinside": 4984,
      "Ġutil": 4985,
      "Ġformed": 4986,
      "Ġobstacles": 4987,
      "Ġleast": 4988,
      "Ġfrac": 4989,
      "ĠDem": 4990,
      "Ġcateg": 4991,
      "lay": 4992,
      "cean": 4993,
      "Ġloans": 4994,
      "bing": 4995,
      "ĠHT": 4996,
      "oding": 4997,
      "utter": 4998,
      "Ġaircraft": 4999,
      "ĠJohn": 5000,
      "Ġhy": 5001,
      "Ġhorm": 5002,
      "ĠProperties": 5003,
      "down": 5004,
      "ublesh": 5005,
      "Ġprefer": 5006,
      "Ġpharm": 5007,
      "ĠYork": 5008,
      "hentic": 5009,
      "Ġinfluenced": 5010,
      "profit": 5011,
      "Ġletter": 5012,
      "ĠEngineering": 5013,
      "stand": 5014,
      "ĠLeadership": 5015,
      "ĠLight": 5016,
      "Ġgeneration": 5017,
      "Ġsites": 5018,
      "ĠKeep": 5019,
      "Ġmonths": 5020,
      "Ġfive": 5021,
      "orship": 5022,
      "Ġbio": 5023,
      "Ġpromo": 5024,
      "Ġfriendly": 5025,
      "Ġexternal": 5026,
      "ĠPriv": 5027,
      "Ġworn": 5028,
      "Ġprepared": 5029,
      "Ġpanels": 5030,
      "Ġappealing": 5031,
      "ĠProfession": 5032,
      "ortgage": 5033,
      "Ġcities": 5034,
      "Ġbill": 5035,
      "Ġspirit": 5036,
      "Ġcontributions": 5037,
      "Ġstraight": 5038,
      "Ġresulting": 5039,
      "ventions": 5040,
      "Ġmetabol": 5041,
      "yptoc": 5042,
      "bit": 5043,
      "Ġextend": 5044,
      "Ġseeking": 5045,
      "inf": 5046,
      "ĠBudget": 5047,
      "Ġmeat": 5048,
      "Ġelim": 5049,
      "Ġsubstances": 5050,
      "ĠDay": 5051,
      "Ġinfection": 5052,
      "Ġmillions": 5053,
      "ER": 5054,
      "Ġadvice": 5055,
      "Ġpul": 5056,
      "ised": 5057,
      "Ġediting": 5058,
      "ĠExerc": 5059,
      "Ġsensitive": 5060,
      "orest": 5061,
      "ĠTrac": 5062,
      "Ġaddressing": 5063,
      "Ġprivacy": 5064,
      "ĠRelations": 5065,
      "iet": 5066,
      "ĠList": 5067,
      "ĠArchitecture": 5068,
      "Ġinstrument": 5069,
      "IV": 5070,
      "ĠPart": 5071,
      "Ġcontrols": 5072,
      "Ġregulatory": 5073,
      "Ġdebt": 5074,
      "erals": 5075,
      "Ġdedication": 5076,
      "Ġdivision": 5077,
      "Ġfarmers": 5078,
      "yes": 5079,
      "Ġhim": 5080,
      "Ġbelieve": 5081,
      "ĠObjective": 5082,
      "idential": 5083,
      "ĠBar": 5084,
      "ĠIdentify": 5085,
      "Ġdisorder": 5086,
      "ĠMy": 5087,
      "Ġdishes": 5088,
      "Ġcomputers": 5089,
      "turing": 5090,
      "Ġaccurately": 5091,
      "Ġcarry": 5092,
      "ĠProduction": 5093,
      "Ġintelligence": 5094,
      "deb": 5095,
      "Ġcycl": 5096,
      "ws": 5097,
      "aks": 5098,
      "efficient": 5099,
      "yptocur": 5100,
      "Ġhost": 5101,
      "tices": 5102,
      "Ġscre": 5103,
      "ĠCalc": 5104,
      "Ġtissues": 5105,
      "irt": 5106,
      "ĠHard": 5107,
      "Ġcognitive": 5108,
      "Ġmut": 5109,
      "ĠMal": 5110,
      "throp": 5111,
      "ĠAssess": 5112,
      "ĠCompanies": 5113,
      "Ġoffered": 5114,
      "Ġthous": 5115,
      "Ġly": 5116,
      "Ġoffering": 5117,
      "Ġconflicts": 5118,
      "ketball": 5119,
      "Ġscale": 5120,
      "Ġformula": 5121,
      "den": 5122,
      "oking": 5123,
      "ĠVideo": 5124,
      "Ġperforming": 5125,
      "oon": 5126,
      "Ġaverage": 5127,
      "Ġpool": 5128,
      "Ġfavor": 5129,
      "Ġmeasuring": 5130,
      "Ġnovel": 5131,
      "Ġsale": 5132,
      "Ġtalent": 5133,
      "ste": 5134,
      "Ġearth": 5135,
      "Ġconfidence": 5136,
      "like": 5137,
      "Ġattack": 5138,
      "Ġseen": 5139,
      "Ġtracking": 5140,
      "Ġthreats": 5141,
      "ĠAnd": 5142,
      "Ġnar": 5143,
      "Ġcampaigns": 5144,
      "free": 5145,
      "ĠSales": 5146,
      "Ġstages": 5147,
      "verty": 5148,
      "Ġprevention": 5149,
      "Ġpoverty": 5150,
      "Ġalgorithms": 5151,
      "Ġlate": 5152,
      "ĠHyd": 5153,
      "uels": 5154,
      "ured": 5155,
      "Ġcompleted": 5156,
      "ĠMechan": 5157,
      "Ġselection": 5158,
      "Ġcontrolled": 5159,
      "ugs": 5160,
      "ifying": 5161,
      "Ġsurve": 5162,
      "ĠEffects": 5163,
      "hab": 5164,
      "Ġeating": 5165,
      "Ġextra": 5166,
      "Ġshowcase": 5167,
      "Ġrapid": 5168,
      "tural": 5169,
      "ĠUK": 5170,
      "ocy": 5171,
      "Ġagents": 5172,
      "ĠTemp": 5173,
      "ĠSuppose": 5174,
      "ython": 5175,
      "tick": 5176,
      "Ġpayments": 5177,
      "Ġarticle": 5178,
      "Ġvoc": 5179,
      "ĠLim": 5180,
      "Ġillustr": 5181,
      "Ġseparate": 5182,
      "Ġhorse": 5183,
      "inese": 5184,
      "Ġdiagnos": 5185,
      "date": 5186,
      "urch": 5187,
      "ĠPost": 5188,
      "Ġstored": 5189,
      "ĠChinese": 5190,
      "Ġexpected": 5191,
      "Ġserves": 5192,
      "Ġagent": 5193,
      "Ġflat": 5194,
      "ĠTeam": 5195,
      "Ġversion": 5196,
      "Ġextract": 5197,
      "ĠMental": 5198,
      "Ġthick": 5199,
      "Ġforward": 5200,
      "Ġvitam": 5201,
      "erman": 5202,
      "ĠAvoid": 5203,
      "ĠCamp": 5204,
      "Ġrevolution": 5205,
      "Ġrather": 5206,
      "ĠUsed": 5207,
      "Ġfeeling": 5208,
      "Ġmixture": 5209,
      "ĠSpecial": 5210,
      "related": 5211,
      "made": 5212,
      "onding": 5213,
      "ystal": 5214,
      "Ġteeth": 5215,
      "Ġcollect": 5216,
      "Ġforeign": 5217,
      "Ġreactions": 5218,
      "Ġrepe": 5219,
      "avors": 5220,
      "Ġlink": 5221,
      "Ġages": 5222,
      "alf": 5223,
      "grap": 5224,
      "eum": 5225,
      "ĠCulture": 5226,
      "ĠActiv": 5227,
      "Ġcharge": 5228,
      "Ġgreenhouse": 5229,
      "bre": 5230,
      "ĠHot": 5231,
      "Ġleads": 5232,
      "forcement": 5233,
      "inations": 5234,
      "operation": 5235,
      "ĠLevel": 5236,
      "ĠProduct": 5237,
      "Ġfrequency": 5238,
      "Ġbalanced": 5239,
      "Ġcold": 5240,
      "ĠSolar": 5241,
      "Ġdetailed": 5242,
      "Ġsyn": 5243,
      "Ġlisten": 5244,
      "erved": 5245,
      "Ġdesigners": 5246,
      "Ġpackage": 5247,
      "Ġcandidates": 5248,
      "ellow": 5249,
      "ĠOil": 5250,
      "ails": 5251,
      "ĠCommer": 5252,
      "ĠRob": 5253,
      "Ġfocusing": 5254,
      "Ġrecognition": 5255,
      "Ġmovies": 5256,
      "Ġeither": 5257,
      "Ġneuro": 5258,
      "Ġcommand": 5259,
      "ĠStar": 5260,
      "Ġregions": 5261,
      "ĠAmerica": 5262,
      "RI": 5263,
      "asters": 5264,
      "abis": 5265,
      "Ġherit": 5266,
      "Ġspending": 5267,
      "Ġeat": 5268,
      "ĠNeed": 5269,
      "Ġroot": 5270,
      "Ġpredict": 5271,
      "Ġwildlife": 5272,
      "Ġcompli": 5273,
      "Ġasset": 5274,
      "Ġcarri": 5275,
      "Ġbegan": 5276,
      "Ġdiabetes": 5277,
      "Ġcouns": 5278,
      "Ġnetworking": 5279,
      "Ġshared": 5280,
      "tirement": 5281,
      "Ġconvenient": 5282,
      "eline": 5283,
      "Ġpersonality": 5284,
      "Ġamounts": 5285,
      "ĠPhil": 5286,
      "Ġsimply": 5287,
      "Ġreturns": 5288,
      "pite": 5289,
      "atin": 5290,
      "ĠSim": 5291,
      "Ġrecept": 5292,
      "Ġdefe": 5293,
      "Ġinterior": 5294,
      "ĠCredit": 5295,
      "Ġtemper": 5296,
      "ĠBlack": 5297,
      "Ġheritage": 5298,
      "oxide": 5299,
      "Ġreliability": 5300,
      "print": 5301,
      "Ġinst": 5302,
      "ĠCultural": 5303,
      "amed": 5304,
      "Ġpreserving": 5305,
      "Ġfishing": 5306,
      "ĠSound": 5307,
      "Ġgrap": 5308,
      "Ġinteractive": 5309,
      "Ġdemoc": 5310,
      "Ġhos": 5311,
      "raf": 5312,
      "ifications": 5313,
      "Ġrise": 5314,
      "reet": 5315,
      "Ġdog": 5316,
      "Ġsurvival": 5317,
      "Ġtherm": 5318,
      "Ġspecif": 5319,
      "Ġthousands": 5320,
      "Ġreflect": 5321,
      "Ġworldwide": 5322,
      "Ġnoise": 5323,
      "Ġincorporating": 5324,
      "ĠEarly": 5325,
      "ĠLong": 5326,
      "Ġliver": 5327,
      "Ġoutcome": 5328,
      "Ġfailure": 5329,
      "rief": 5330,
      "Ġbig": 5331,
      "ubber": 5332,
      "Ġfasc": 5333,
      "osop": 5334,
      "Ġviolence": 5335,
      "folio": 5336,
      "Ġsynthetic": 5337,
      "Ġroof": 5338,
      "Ġvalid": 5339,
      "Ġelig": 5340,
      "Ġresidential": 5341,
      "etit": 5342,
      "ĠAfrica": 5343,
      "Ġhospit": 5344,
      "Ġvery": 5345,
      "Ġpreparation": 5346,
      "Ġmemor": 5347,
      "Ġbus": 5348,
      "Ġcoffee": 5349,
      "Ġquantities": 5350,
      "LA": 5351,
      "pective": 5352,
      "reme": 5353,
      "Ġgold": 5354,
      "Ġincluded": 5355,
      "Ġhospital": 5356,
      "Ġreligious": 5357,
      "ĠProm": 5358,
      "Ġcriter": 5359,
      "Ġgenerated": 5360,
      "ĠIndivid": 5361,
      "Ġbound": 5362,
      "ĠSearch": 5363,
      "idges": 5364,
      "Ġlux": 5365,
      "Ġsweet": 5366,
      "lights": 5367,
      "Ġwithstand": 5368,
      "Ġsensor": 5369,
      "Ġconvert": 5370,
      "Ġcontamin": 5371,
      "vas": 5372,
      "Ġround": 5373,
      "Ġpreparing": 5374,
      "Ġresidents": 5375,
      "Ġlimitations": 5376,
      "organ": 5377,
      "ĠGame": 5378,
      "ĠNumb": 5379,
      "Ġneck": 5380,
      "EO": 5381,
      "Ġworth": 5382,
      "ĠLand": 5383,
      "Ġphotograph": 5384,
      "ĠEnglish": 5385,
      "Ġspeech": 5386,
      "Ġbird": 5387,
      "umn": 5388,
      "Ġpregn": 5389,
      "Ġrepairs": 5390,
      "Ġquantity": 5391,
      "ĠExperi": 5392,
      "Ġaware": 5393,
      "ulated": 5394,
      "Ġborrow": 5395,
      "Ġbutton": 5396,
      "ĠLocation": 5397,
      "60": 5398,
      "DA": 5399,
      "Ġpaid": 5400,
      "ups": 5401,
      "Ġinternal": 5402,
      "Ġmitig": 5403,
      "Ġargue": 5404,
      "Definitions": 5405,
      "Ġ*": 5406,
      "Ġmanner": 5407,
      "Ġoptimal": 5408,
      "Ġrecognize": 5409,
      "ĠTesting": 5410,
      "mph": 5411,
      "ĠPack": 5412,
      "ĠFrench": 5413,
      "Ġlandscape": 5414,
      "Ġbarriers": 5415,
      "Ġequity": 5416,
      "Ġcellular": 5417,
      "Ġpoor": 5418,
      "Ġintr": 5419,
      "Ġword": 5420,
      "Ġtraditions": 5421,
      "ĠCer": 5422,
      "Ġcere": 5423,
      "Ġdiscover": 5424,
      "Ġur": 5425,
      "ĠFre": 5426,
      "rome": 5427,
      "ĠSports": 5428,
      "ĠApply": 5429,
      "Ġnutrition": 5430,
      "aly": 5431,
      "Ġitem": 5432,
      "Ġintegrity": 5433,
      "EM": 5434,
      "inger": 5435,
      "ĠFoot": 5436,
      "ĠOpportun": 5437,
      "Ġfully": 5438,
      "Ġattacks": 5439,
      "Ġbeer": 5440,
      "Ġdrivers": 5441,
      "ĠSuper": 5442,
      "Ġhighest": 5443,
      "pe": 5444,
      "Ġoptical": 5445,
      "Ġassessment": 5446,
      "ĠGrowth": 5447,
      "cial": 5448,
      "uing": 5449,
      "Ġlater": 5450,
      "Ġlightweight": 5451,
      "Ġroutine": 5452,
      "Ġcri": 5453,
      "itter": 5454,
      "uration": 5455,
      "Ġweek": 5456,
      "Ġblocks": 5457,
      "Ġ199": 5458,
      "Ġpair": 5459,
      "Ġexpectations": 5460,
      "ĠSpace": 5461,
      "Ġscientists": 5462,
      "hydr": 5463,
      "Ġathletes": 5464,
      "Ġconducting": 5465,
      "Ġreports": 5466,
      "Ġmaximum": 5467,
      "asp": 5468,
      "rence": 5469,
      "Ġfinish": 5470,
      "Ġattending": 5471,
      "tile": 5472,
      "Ġdoors": 5473,
      "Ġhealing": 5474,
      "Ġcredibility": 5475,
      "race": 5476,
      "Ġvoltage": 5477,
      "ĠProtection": 5478,
      "ĠTable": 5479,
      "ĠTake": 5480,
      "rix": 5481,
      "Ġpark": 5482,
      "ĠTechnical": 5483,
      "Ġsuccessfully": 5484,
      "Ġlibrary": 5485,
      "bes": 5486,
      "adratic": 5487,
      "ĠCanad": 5488,
      "int": 5489,
      "Ġfar": 5490,
      "inks": 5491,
      "onent": 5492,
      "Ġoccup": 5493,
      "ĠSmall": 5494,
      "debating": 5495,
      "Ġgraphics": 5496,
      "icial": 5497,
      "Ġforces": 5498,
      "Ġnormal": 5499,
      "ĠMix": 5500,
      "Ġleaves": 5501,
      "Ġcareers": 5502,
      "Ġpresented": 5503,
      "Ġcriteria": 5504,
      "Ġice": 5505,
      "Ġregulate": 5506,
      "Ġprom": 5507,
      "ĠMac": 5508,
      "Ġparticipants": 5509,
      "Ġopinions": 5510,
      "ĠCommercial": 5511,
      "Obj": 5512,
      "bu": 5513,
      "Ġrestric": 5514,
      "Ġaward": 5515,
      "Ġdisabilities": 5516,
      "Ġarts": 5517,
      "Ġgrown": 5518,
      "Answer": 5519,
      "Ġdead": 5520,
      "Ġfacing": 5521,
      "Ġdivided": 5522,
      "SO": 5523,
      "Ġbreaking": 5524,
      "Ġcollected": 5525,
      "car": 5526,
      "arity": 5527,
      "Ġdefine": 5528,
      "pan": 5529,
      "tein": 5530,
      "chain": 5531,
      "Ġaccounts": 5532,
      "Ġconcentration": 5533,
      "roid": 5534,
      "Ġlot": 5535,
      "Ġbecomes": 5536,
      "Ġdoctor": 5537,
      "ipped": 5538,
      "Ġtrying": 5539,
      "Ġbelong": 5540,
      "Ġtemperatures": 5541,
      "Ġaer": 5542,
      "Ġgun": 5543,
      "Ġconc": 5544,
      "otyp": 5545,
      "Ġcompetit": 5546,
      "Ġinterface": 5547,
      "Ġdetection": 5548,
      "Ġincreasingly": 5549,
      "icon": 5550,
      "ĠAp": 5551,
      "unk": 5552,
      "ensation": 5553,
      "80": 5554,
      "che": 5555,
      "reting": 5556,
      "ĠHis": 5557,
      "Ġkind": 5558,
      "Ġfacility": 5559,
      "Ġclasses": 5560,
      "Ġlayout": 5561,
      "Ġoutlines": 5562,
      "ĠPrimary": 5563,
      "ĠHouse": 5564,
      "itro": 5565,
      "eless": 5566,
      "Ġvessels": 5567,
      "Ġphenomen": 5568,
      "Script": 5569,
      "Ġsector": 5570,
      "Ġheight": 5571,
      "Ġchick": 5572,
      "Ġmanager": 5573,
      "Ġsold": 5574,
      "ĠShould": 5575,
      "Ġdark": 5576,
      "Ġfruits": 5577,
      "ĠPreparing": 5578,
      "Ġrule": 5579,
      "Ġindependent": 5580,
      "Ġtend": 5581,
      "Ġmode": 5582,
      "ĠApplication": 5583,
      "Ġinstalled": 5584,
      "lishing": 5585,
      "Ġregulations": 5586,
      "Ġarticles": 5587,
      "ĠAdvanced": 5588,
      "roll": 5589,
      "Ġbag": 5590,
      "ansion": 5591,
      "Ġdepression": 5592,
      "arp": 5593,
      "ĠTour": 5594,
      "ĠRespons": 5595,
      "Ġ50": 5596,
      "Ġperseverance": 5597,
      "ĠProfessional": 5598,
      "ĠEncoura": 5599,
      "ĠSing": 5600,
      "titution": 5601,
      "Ġfarming": 5602,
      "oga": 5603,
      "Ġowner": 5604,
      "cons": 5605,
      "ios": 5606,
      "lor": 5607,
      "Ġseeds": 5608,
      "Ġcrops": 5609,
      "off": 5610,
      "raising": 5611,
      "ĠGlobal": 5612,
      "izz": 5613,
      "ĠImplement": 5614,
      "ĠComb": 5615,
      "ĠSolving": 5616,
      "ĠFamily": 5617,
      "Ġmag": 5618,
      "mporary": 5619,
      "II": 5620,
      "ĠDevices": 5621,
      "Ġruns": 5622,
      "30": 5623,
      "Ġstit": 5624,
      "Ġfans": 5625,
      "unch": 5626,
      "wood": 5627,
      "ned": 5628,
      "Ġdemonstrate": 5629,
      "Ġtourism": 5630,
      "Ġassemb": 5631,
      "Ġsuff": 5632,
      "order": 5633,
      "ĠIndian": 5634,
      "ĠSolutions": 5635,
      "ĠLanguage": 5636,
      "estern": 5637,
      "ĠTest": 5638,
      "ĠPort": 5639,
      "ĠEg": 5640,
      "Ġrelate": 5641,
      "Ġlost": 5642,
      "ĠRead": 5643,
      "Ġactively": 5644,
      "ĠTransportation": 5645,
      "Ġreality": 5646,
      "ĠPos": 5647,
      "ĠGre": 5648,
      "AM": 5649,
      "Ġplaced": 5650,
      "Ġmuscles": 5651,
      "Ġfloor": 5652,
      "ĠPrincip": 5653,
      "ĠEntrepreneurship": 5654,
      "Ġfem": 5655,
      "Ġpopulations": 5656,
      "dis": 5657,
      "uce": 5658,
      "ĠEnter": 5659,
      "Ġtea": 5660,
      "Ġpositions": 5661,
      "angle": 5662,
      "Ġstaying": 5663,
      "Ġscholars": 5664,
      "Ġet": 5665,
      "ask": 5666,
      "ĠMem": 5667,
      "ĠDise": 5668,
      "ĠDon": 5669,
      "borhood": 5670,
      "Ġrelative": 5671,
      "ĠDescription": 5672,
      "ĠClimate": 5673,
      "Ġsunlight": 5674,
      "Ġangles": 5675,
      "ĠGovernment": 5676,
      "Ġpages": 5677,
      "Ġstop": 5678,
      "ĠGerman": 5679,
      "Ġmusicians": 5680,
      "Ġreceived": 5681,
      "Ġcommitment": 5682,
      "Ġsynthesis": 5683,
      "trast": 5684,
      "ĠSho": 5685,
      "Ġmarine": 5686,
      "ruption": 5687,
      "Ġenzyme": 5688,
      "igr": 5689,
      "ĠGard": 5690,
      "ician": 5691,
      "Ġbright": 5692,
      "Ġpreserve": 5693,
      "aneous": 5694,
      "Ġmel": 5695,
      "ĠPlace": 5696,
      "ĠManufact": 5697,
      "Ġletters": 5698,
      "auses": 5699,
      "Ġgenes": 5700,
      "Ġguit": 5701,
      "Ġexploration": 5702,
      "Ġreproduc": 5703,
      "ĠFollow": 5704,
      "essions": 5705,
      "Ġvic": 5706,
      "ĠGas": 5707,
      "ĠUl": 5708,
      "Ġeverything": 5709,
      "ĠInsurance": 5710,
      "itional": 5711,
      "Ġcul": 5712,
      "Ġfront": 5713,
      "uminum": 5714,
      "ĠWomen": 5715,
      "ĠNow": 5716,
      "Ġdetermined": 5717,
      "Ġowners": 5718,
      "Ġfascinating": 5719,
      "Ġaest": 5720,
      "Ġprotected": 5721,
      "Ġstatistics": 5722,
      "Ġspecifically": 5723,
      "ĠPass": 5724,
      "Ġplanet": 5725,
      "Ġfilms": 5726,
      "Ġminerals": 5727,
      "ĠCareer": 5728,
      "imensional": 5729,
      "tra": 5730,
      "ĠTim": 5731,
      "ovascular": 5732,
      "ĠVisual": 5733,
      "Ġweaknesses": 5734,
      "Ġconsumer": 5735,
      "Ġmac": 5736,
      "ĠEvent": 5737,
      "Ġchances": 5738,
      "ĠCharacter": 5739,
      "Ġstocks": 5740,
      "Ġlessons": 5741,
      "ĠEns": 5742,
      "ĠIsl": 5743,
      "ĠProblem": 5744,
      "12": 5745,
      "Ġmilk": 5746,
      "ĠPsych": 5747,
      "Ġsupplies": 5748,
      "ĠIndustrial": 5749,
      "edy": 5750,
      "Ġdoor": 5751,
      "Ġdream": 5752,
      "osen": 5753,
      "ĠInternet": 5754,
      "Ġangle": 5755,
      "iers": 5756,
      "unting": 5757,
      "ĠExplain": 5758,
      "Ġwave": 5759,
      "ĠInnovation": 5760,
      "ĠJew": 5761,
      "iology": 5762,
      "rane": 5763,
      "Ġven": 5764,
      "tu": 5765,
      "Ġment": 5766,
      "ĠCirc": 5767,
      "ĠScenario": 5768,
      "ĠTrade": 5769,
      "edom": 5770,
      "Ġaccom": 5771,
      "Ġpartners": 5772,
      "going": 5773,
      "ĠVac": 5774,
      "Ġmechanism": 5775,
      "Ġorganize": 5776,
      "Ġengineers": 5777,
      "uisine": 5778,
      "flow": 5779,
      "ĠPub": 5780,
      "CC": 5781,
      "Ġnight": 5782,
      "ĠVer": 5783,
      "Ġprem": 5784,
      "Ġcris": 5785,
      "Ġidentified": 5786,
      "box": 5787,
      "yond": 5788,
      "itoring": 5789,
      "ĠCD": 5790,
      "Ġmelo": 5791,
      "Ġdifferenti": 5792,
      "ĠStudies": 5793,
      "Ġclosely": 5794,
      "ĠLocal": 5795,
      "lete": 5796,
      "ĠEm": 5797,
      "Ġleader": 5798,
      "Ġsurgical": 5799,
      "iance": 5800,
      "Ġfestiv": 5801,
      "Ġfinancing": 5802,
      "Ġevaluation": 5803,
      "ĠPrograms": 5804,
      "Ġmother": 5805,
      "eters": 5806,
      "Ġenables": 5807,
      "ĠAng": 5808,
      "Ġmillion": 5809,
      "ĠProvide": 5810,
      "Ġcompliance": 5811,
      "Ġsuit": 5812,
      "Ġjoint": 5813,
      "ogue": 5814,
      "Ġtreated": 5815,
      "Ġbonds": 5816,
      "Ġrelaxation": 5817,
      "autions": 5818,
      "gment": 5819,
      "Ġthor": 5820,
      "apping": 5821,
      "Ġrecommendations": 5822,
      "Ġcompetitors": 5823,
      "late": 5824,
      "utical": 5825,
      "xim": 5826,
      "ĠIr": 5827,
      "aceutical": 5828,
      "Ġrail": 5829,
      "Ġperiods": 5830,
      "otton": 5831,
      "ĠLighting": 5832,
      "Ġdiscip": 5833,
      "Ġroute": 5834,
      "ĠJavaScript": 5835,
      "cast": 5836,
      "heme": 5837,
      "Ġplot": 5838,
      "ĠPo": 5839,
      "ĠChange": 5840,
      "anted": 5841,
      "Ġabuse": 5842,
      "Ġmeaningful": 5843,
      "apes": 5844,
      "Ġwheel": 5845,
      "Ġtrig": 5846,
      "Ġparam": 5847,
      "Ġnote": 5848,
      "Ġwireless": 5849,
      "Ġserved": 5850,
      "Ġunivers": 5851,
      "Ġavailability": 5852,
      "gt": 5853,
      "ĠCat": 5854,
      "Ġmeals": 5855,
      "iences": 5856,
      "Ġdates": 5857,
      "ouses": 5858,
      "Ġroads": 5859,
      "Ġpassed": 5860,
      "Ġmoment": 5861,
      "IS": 5862,
      "Ġstation": 5863,
      "Ġonce": 5864,
      "ĠFree": 5865,
      "Ġbat": 5866,
      "Ġnet": 5867,
      "Ġloyal": 5868,
      "Ġsalt": 5869,
      "Cs": 5870,
      "Lesson": 5871,
      "Ġiron": 5872,
      "rees": 5873,
      "edi": 5874,
      "Ġunknown": 5875,
      "ĠAdvertising": 5876,
      "Ġflowers": 5877,
      "Ġmolecular": 5878,
      "ĠMonitoring": 5879,
      "osophy": 5880,
      "arency": 5881,
      "Ġuns": 5882,
      "outs": 5883,
      "osit": 5884,
      "ĠFarm": 5885,
      "verse": 5886,
      "Ġinitiatives": 5887,
      "Ġslic": 5888,
      "Ġcombining": 5889,
      "ĠContin": 5890,
      "ĠProducts": 5891,
      "Ġteamwork": 5892,
      "Ġrepresented": 5893,
      "Ġauthentic": 5894,
      "Ġblue": 5895,
      "ĠInvesting": 5896,
      "ĠSupply": 5897,
      "Ġdiam": 5898,
      "Ġpassion": 5899,
      "ĠWorking": 5900,
      "Introduction": 5901,
      "Questions": 5902,
      "Ġgenerating": 5903,
      "Ġprobability": 5904,
      "ĠTro": 5905,
      "ĠClo": 5906,
      "tee": 5907,
      "ĠStorage": 5908,
      "Ġsix": 5909,
      "ĠFlo": 5910,
      "Ġcompress": 5911,
      "ĠElectro": 5912,
      "ĠElectric": 5913,
      "ĠImag": 5914,
      "equality": 5915,
      "Ġbur": 5916,
      "ĠGod": 5917,
      "ĠProviding": 5918,
      "Chapter": 5919,
      "ption": 5920,
      "ĠSince": 5921,
      "Ġvent": 5922,
      "Ġenvironmentally": 5923,
      "Ġimplemented": 5924,
      "Ġtumor": 5925,
      "uk": 5926,
      "tains": 5927,
      "Ġelectronics": 5928,
      "Ġautomotive": 5929,
      "Ġcooling": 5930,
      "ĠFilm": 5931,
      "Ġdangerous": 5932,
      "fulness": 5933,
      "Ġresolution": 5934,
      "ĠChildren": 5935,
      "Ġdial": 5936,
      "brid": 5937,
      "Ġprim": 5938,
      "ĠâĢ": 5939,
      "Ġmold": 5940,
      "ĠClick": 5941,
      "ductor": 5942,
      "Ġtrial": 5943,
      "Ġswitch": 5944,
      "ĠAgric": 5945,
      "RO": 5946,
      "ĠHar": 5947,
      "Ġcontainer": 5948,
      "Ġevolution": 5949,
      "ruit": 5950,
      "Ġsnow": 5951,
      "Ġneutr": 5952,
      "Ġabstractions": 5953,
      "ĠStatis": 5954,
      "casting": 5955,
      "vision": 5956,
      "Ġgives": 5957,
      "Ġtrain": 5958,
      "Ġprotective": 5959,
      "rosion": 5960,
      "Ġbottom": 5961,
      "Ġregardless": 5962,
      "Ġ.": 5963,
      "Ġthread": 5964,
      "eutic": 5965,
      "Ġownership": 5966,
      "ĠProgramming": 5967,
      "Ġclaim": 5968,
      "ĠPop": 5969,
      "ĠIng": 5970,
      "ĠEU": 5971,
      "Ġalb": 5972,
      "agra": 5973,
      "Ġuniversity": 5974,
      "Ġsou": 5975,
      "ĠHyp": 5976,
      "hesive": 5977,
      "ĠTex": 5978,
      "cryp": 5979,
      "Ġemployers": 5980,
      "Ġsummar": 5981,
      "Ġrecommended": 5982,
      "Ġgaming": 5983,
      "Ġbeyond": 5984,
      "grad": 5985,
      "Ġgathering": 5986,
      "Ġrestaurant": 5987,
      "arily": 5988,
      "imals": 5989,
      "istence": 5990,
      "Ġintervention": 5991,
      "aters": 5992,
      "iff": 5993,
      "ĠHol": 5994,
      "ĠLa": 5995,
      "Ġgoing": 5996,
      "Ġflavors": 5997,
      "Ġ197": 5998,
      "oxid": 5999,
      "Question": 6000,
      "Ġdynamic": 6001,
      "Ġwider": 6002,
      "ilience": 6003,
      "igen": 6004,
      "Ġpassen": 6005,
      "oo": 6006,
      "Ġgradu": 6007,
      "Ġconverting": 6008,
      "tification": 6009,
      "Ġincorporate": 6010,
      "ĠCe": 6011,
      "arsh": 6012,
      "Ġcontaining": 6013,
      "Ġcontracts": 6014,
      "Ġdriver": 6015,
      "Ġdrawing": 6016,
      "ĠAustralia": 6017,
      "TA": 6018,
      "Ġburn": 6019,
      "ĠAff": 6020,
      "Ġreporting": 6021,
      "ĠLinear": 6022,
      "iler": 6023,
      "Ġadvent": 6024,
      "Ġequality": 6025,
      "Ġblog": 6026,
      "Ġclassic": 6027,
      "ĠBeh": 6028,
      "Ġcommitted": 6029,
      "telling": 6030,
      "used": 6031,
      "ĠThen": 6032,
      "iratory": 6033,
      "Ġvan": 6034,
      "ĠUnion": 6035,
      "Ġlayers": 6036,
      "()": 6037,
      "ĠRights": 6038,
      "Ġcop": 6039,
      "Ġpil": 6040,
      "Ġtow": 6041,
      "Ġperspective": 6042,
      "plays": 6043,
      "Ġlegis": 6044,
      "Ġapproaches": 6045,
      "Ġhazards": 6046,
      "QL": 6047,
      "Ġmortgage": 6048,
      "eles": 6049,
      "rite": 6050,
      "word": 6051,
      "Ġbinding": 6052,
      "ĠCos": 6053,
      "ulf": 6054,
      "ĠEs": 6055,
      "Ġrooms": 6056,
      "Ġunderlying": 6057,
      "Ġfight": 6058,
      "asion": 6059,
      "Ġengaged": 6060,
      "Ġcurrency": 6061,
      "Ġportfolio": 6062,
      "pati": 6063,
      "Ġcooperation": 6064,
      "Ġallowed": 6065,
      "Ġintended": 6066,
      "Ġswimming": 6067,
      "ueueueueueueueue": 6068,
      "anthrop": 6069,
      "ĠFace": 6070,
      "ymes": 6071,
      "ĠTur": 6072,
      "Ġinterventions": 6073,
      "crim": 6074,
      "Ġbike": 6075,
      "Ġstatistical": 6076,
      "ĠTherapy": 6077,
      "tras": 6078,
      "ĠFound": 6079,
      "Ġacids": 6080,
      "Ġserving": 6081,
      "Ġformal": 6082,
      "Ġcounter": 6083,
      "Ġecosystems": 6084,
      "ze": 6085,
      "ero": 6086,
      "Ġfederal": 6087,
      "Ġhope": 6088,
      "Ġapps": 6089,
      "amps": 6090,
      "Ġachievements": 6091,
      "Ġdefined": 6092,
      "Ġfixed": 6093,
      "ĠRuss": 6094,
      "Ġmetals": 6095,
      "Ġthought": 6096,
      "ulner": 6097,
      "Ġdecrease": 6098,
      "Ġhit": 6099,
      "ĠPython": 6100,
      "Ġenti": 6101,
      "Ġartificial": 6102,
      "conn": 6103,
      "lig": 6104,
      "Ġtac": 6105,
      "Ġkill": 6106,
      "ĠComponents": 6107,
      "Ġsamples": 6108,
      "umbing": 6109,
      "words": 6110,
      "Ġturb": 6111,
      "Ġhob": 6112,
      "ounter": 6113,
      "Ġfilters": 6114,
      "Ġbelieved": 6115,
      "Ġinvention": 6116,
      "ĠSec": 6117,
      "ĠBio": 6118,
      "Ġimprovements": 6119,
      "Ġsuggest": 6120,
      "Ġbuyers": 6121,
      "Ġmemorable": 6122,
      "Ġleave": 6123,
      "tribution": 6124,
      "ĠCenter": 6125,
      "Ġcatch": 6126,
      "Ġlargest": 6127,
      "Ġdirections": 6128,
      "ĠParticip": 6129,
      "Ġmarri": 6130,
      "Ġbreaks": 6131,
      "Ġinstalling": 6132,
      "ĠSummary": 6133,
      "thor": 6134,
      "ĠSociety": 6135,
      "Ġoriginated": 6136,
      "Ġmoisture": 6137,
      "ĠSun": 6138,
      "ette": 6139,
      "Ġcheese": 6140,
      "Objective": 6141,
      "Ġtone": 6142,
      "Ġ17": 6143,
      "ĠLab": 6144,
      "Ġrhythm": 6145,
      "Ġrefrig": 6146,
      "Ġminimal": 6147,
      "Ġdiges": 6148,
      "Ġarom": 6149,
      "Ġdouble": 6150,
      "ĠSize": 6151,
      "alls": 6152,
      "ĠSens": 6153,
      "ĠBoth": 6154,
      "Ġwel": 6155,
      "Ġstoring": 6156,
      "take": 6157,
      "Ġenjoyable": 6158,
      "Ġpanel": 6159,
      "hop": 6160,
      "ĠFire": 6161,
      "Ġflight": 6162,
      "ĠInsp": 6163,
      "ritish": 6164,
      "ache": 6165,
      "uling": 6166,
      "ulum": 6167,
      "Ġexperts": 6168,
      "ĠSustainability": 6169,
      "road": 6170,
      "Ġretirement": 6171,
      "Ġnamed": 6172,
      "antum": 6173,
      "Ġfacilit": 6174,
      "ĠManufacturing": 6175,
      "gthen": 6176,
      "cin": 6177,
      "ĠDiagn": 6178,
      "Ġcandidate": 6179,
      "Ġthorough": 6180,
      "IP": 6181,
      "ili": 6182,
      "Ġroots": 6183,
      "idity": 6184,
      "Ġstone": 6185,
      "Ġkid": 6186,
      "Ġuniverse": 6187,
      "scopy": 6188,
      "Ġhabits": 6189,
      "ĠPotential": 6190,
      "Ġpipe": 6191,
      "Ġinteraction": 6192,
      "ĠCentral": 6193,
      "ĠStyle": 6194,
      "Ġstri": 6195,
      "ĠBest": 6196,
      "Ġdescription": 6197,
      "Ġpush": 6198,
      "ĠDri": 6199,
      "ĠWindows": 6200,
      "gue": 6201,
      "Ġmaps": 6202,
      "Ġhearing": 6203,
      "ĠAdj": 6204,
      "ĠType": 6205,
      "ĠIngredients": 6206,
      "ĠBritish": 6207,
      "ĠHosp": 6208,
      "ĠFashion": 6209,
      "Ġmining": 6210,
      "orms": 6211,
      "Ġmemories": 6212,
      "Ġdiagnose": 6213,
      "Ġwalk": 6214,
      "ubleshooting": 6215,
      "dimensional": 6216,
      "eries": 6217,
      "Ġinten": 6218,
      "Ġbrows": 6219,
      "Ġagency": 6220,
      "Ġbutter": 6221,
      "emp": 6222,
      "Ġrein": 6223,
      "Ġnames": 6224,
      "Ġanswer": 6225,
      "ĠColle": 6226,
      "ĠInstalling": 6227,
      "Ġscrip": 6228,
      "ken": 6229,
      "right": 6230,
      "ĠMach": 6231,
      "Ġrecycling": 6232,
      "CO": 6233,
      "omb": 6234,
      "ĠPlayers": 6235,
      "Ġ13": 6236,
      "Ġarise": 6237,
      "Ġcombined": 6238,
      "Ġpaying": 6239,
      "Ġimplementation": 6240,
      "ĠDetermine": 6241,
      "Ġgenres": 6242,
      "Ġpartner": 6243,
      "ĠReduced": 6244,
      "CD": 6245,
      "ĠMiddle": 6246,
      "Ġclaims": 6247,
      "Ġneighborhood": 6248,
      "Ġdental": 6249,
      "Ġgases": 6250,
      "Ġadults": 6251,
      "Ġfinances": 6252,
      "vable": 6253,
      "Ġren": 6254,
      "ĠFac": 6255,
      "Ġanalytics": 6256,
      "Ġfollows": 6257,
      "Ġboat": 6258,
      "Ġsuggests": 6259,
      "ĠCut": 6260,
      "Ġhom": 6261,
      "tractive": 6262,
      "Ġcomplexity": 6263,
      "utive": 6264,
      "Ġtight": 6265,
      "Ġlens": 6266,
      "Ġ16": 6267,
      "Ġinteresting": 6268,
      "umptions": 6269,
      "Ġdefense": 6270,
      "ĠWorks": 6271,
      "Ġtick": 6272,
      "Ġwon": 6273,
      "Ġlaser": 6274,
      "Ġsubmit": 6275,
      "Ġmeal": 6276,
      "ĠMetal": 6277,
      "Ġteacher": 6278,
      "Ġocean": 6279,
      "ĠIP": 6280,
      "Ġlip": 6281,
      "Ġleather": 6282,
      "Ġskilled": 6283,
      "Ġimmedi": 6284,
      "Ġagricultural": 6285,
      "Ġbiology": 6286,
      "Ġretr": 6287,
      "izer": 6288,
      "Ġillnesses": 6289,
      "ault": 6290,
      "band": 6291,
      "Ġindicate": 6292,
      "Ġfruit": 6293,
      "Ġgeometry": 6294,
      "Ġweap": 6295,
      "izon": 6296,
      "ĠModern": 6297,
      "Ġsongs": 6298,
      "Ġeyes": 6299,
      "ĠMer": 6300,
      "Ġclim": 6301,
      "Ġoperates": 6302,
      "Ġacquis": 6303,
      "vity": 6304,
      "urities": 6305,
      "ĠHIV": 6306,
      "text": 6307,
      "Ġtex": 6308,
      "Ġconclusions": 6309,
      "Ġtargeted": 6310,
      "ĠSmart": 6311,
      "mod": 6312,
      "ishes": 6313,
      "Ġdrop": 6314,
      "ectors": 6315,
      "Ġbridge": 6316,
      "Ġreasoning": 6317,
      "Ġusage": 6318,
      "amb": 6319,
      "ĠJour": 6320,
      "Ġreceiving": 6321,
      "thern": 6322,
      "Ġstronger": 6323,
      "Ġplas": 6324,
      "Ġstring": 6325,
      "Ġphysics": 6326,
      "ĠHTML": 6327,
      "ĠDiv": 6328,
      "Ġrural": 6329,
      "Ġdiffer": 6330,
      "Ġdiscussion": 6331,
      "putes": 6332,
      "ĠOpportunities": 6333,
      "Ġchosen": 6334,
      "ĠFlex": 6335,
      "ĠKnow": 6336,
      "author": 6337,
      "ĠJapanese": 6338,
      "field": 6339,
      "ipl": 6340,
      "uma": 6341,
      "Ġsea": 6342,
      "ĠKn": 6343,
      "Ġshowed": 6344,
      "Ġauto": 6345,
      "AP": 6346,
      "Ġfly": 6347,
      "izers": 6348,
      "Ġappeal": 6349,
      "Ġarrangement": 6350,
      "SP": 6351,
      "Ġcuisine": 6352,
      "ought": 6353,
      "Ġsubjects": 6354,
      "Ex": 6355,
      "Ġfollowed": 6356,
      "ĠAbstractions": 6357,
      "Ġmastering": 6358,
      "RT": 6359,
      "St": 6360,
      "Ġden": 6361,
      "ĠGl": 6362,
      "Ġresistant": 6363,
      "bohydr": 6364,
      "Ġfirm": 6365,
      "ĠSimp": 6366,
      "Ġrecover": 6367,
      "Ġnuclear": 6368,
      "Ġwash": 6369,
      "Ġeconomics": 6370,
      "ĠGoals": 6371,
      "Ġmanagers": 6372,
      "Ġphotograp": 6373,
      "Sub": 6374,
      "Ġfoss": 6375,
      "Ġyield": 6376,
      "ĠFer": 6377,
      "Ġdogs": 6378,
      "Ġannual": 6379,
      "Ġalgorithm": 6380,
      "Ġmouth": 6381,
      "rays": 6382,
      "Ġ11": 6383,
      "Ġvulner": 6384,
      "Ġcolon": 6385,
      "Ġsmoothly": 6386,
      "ĠOperations": 6387,
      "ĠChemical": 6388,
      "?<": 6389,
      "cil": 6390,
      "ĠExperience": 6391,
      "Ġinventory": 6392,
      "BA": 6393,
      "uses": 6394,
      "ĠPC": 6395,
      "uls": 6396,
      "ĠOb": 6397,
      "Ġdecide": 6398,
      "ĠAltern": 6399,
      "Ġfunctioning": 6400,
      "Ġaccounting": 6401,
      "Ġmanipulate": 6402,
      "ications": 6403,
      "asy": 6404,
      "ĠGold": 6405,
      "wear": 6406,
      "unction": 6407,
      "Ġhappen": 6408,
      "eks": 6409,
      "Ġconfident": 6410,
      "ĠAssoci": 6411,
      "Ġencourages": 6412,
      "mination": 6413,
      "ĠCorpor": 6414,
      "ĠField": 6415,
      "Ġdistinc": 6416,
      "Ġlosses": 6417,
      "Ġcalculated": 6418,
      "Ġcomputing": 6419,
      "Ġexpressed": 6420,
      "VAL": 6421,
      "Ġintroduction": 6422,
      "Ġfan": 6423,
      "Ġbone": 6424,
      "ĠFlow": 6425,
      "Ġju": 6426,
      "Ġpursue": 6427,
      "Ġretrie": 6428,
      "Ġdispos": 6429,
      "Ġregulating": 6430,
      "Ġproposed": 6431,
      "Ġadjusting": 6432,
      "ĠMay": 6433,
      "anches": 6434,
      "ographic": 6435,
      "Ġentrepreneurs": 6436,
      "Ġabsorb": 6437,
      "rying": 6438,
      "Ġcable": 6439,
      "ĠPress": 6440,
      "Ġprofits": 6441,
      "oids": 6442,
      "Ġstro": 6443,
      "Ġcontrast": 6444,
      "Ġscene": 6445,
      "Ġindex": 6446,
      "ĠKing": 6447,
      "ĠTherefore": 6448,
      "Ġfuels": 6449,
      "ĠConduc": 6450,
      "ĠComputer": 6451,
      "Ġattach": 6452,
      "Ġcatal": 6453,
      "ĠFootball": 6454,
      "anthropy": 6455,
      "authorized": 6456,
      "ellect": 6457,
      "une": 6458,
      "Ġvisibility": 6459,
      "Ġrelief": 6460,
      "prise": 6461,
      "Ġcorporate": 6462,
      "yptocurrency": 6463,
      "mas": 6464,
      "rink": 6465,
      "Ġinspired": 6466,
      "Ġbaking": 6467,
      "ĠCauses": 6468,
      "ĠLin": 6469,
      "ĠGlass": 6470,
      "Ġsaw": 6471,
      "Ġbrush": 6472,
      "Ġnavigation": 6473,
      "VALOR": 6474,
      "\",": 6475,
      "Real": 6476,
      "ju": 6477,
      "Ġsemic": 6478,
      "Ġmultiplication": 6479,
      "ighter": 6480,
      "ĠRisks": 6481,
      "ĠVirtual": 6482,
      "Ġinequality": 6483,
      "Ġbanks": 6484,
      "umes": 6485,
      "ĠWhite": 6486,
      "Ġshares": 6487,
      "Ġrare": 6488,
      "ĠAction": 6489,
      "ervous": 6490,
      "ĠNutrition": 6491,
      "oral": 6492,
      "icated": 6493,
      "Ġoxid": 6494,
      "Ġrobo": 6495,
      "Ġarm": 6496,
      "Ġmolecule": 6497,
      "Ġharves": 6498,
      "cal": 6499,
      "Ġ25": 6500,
      "Ġcrystal": 6501,
      "omestic": 6502,
      "houses": 6503,
      "ĠBase": 6504,
      "ĠLow": 6505,
      "Ġprofile": 6506,
      "ĠDespite": 6507,
      "lim": 6508,
      "orse": 6509,
      "Ġunauthorized": 6510,
      "Ġphr": 6511,
      "Ġrad": 6512,
      "Ġcombine": 6513,
      "Ġintegration": 6514,
      "gans": 6515,
      "ndrome": 6516,
      "Ġenable": 6517,
      "Ġaller": 6518,
      "oints": 6519,
      "Ġconnecting": 6520,
      "Ġavoiding": 6521,
      "Ġbathroom": 6522,
      "Ġattractive": 6523,
      "Ġdownload": 6524,
      "Ġcycling": 6525,
      "Ġads": 6526,
      "ĠWebs": 6527,
      "Ġcustomized": 6528,
      "Ġedge": 6529,
      "Ġstructural": 6530,
      "Ġmeasurement": 6531,
      "ashing": 6532,
      "Ġcapabilities": 6533,
      "ĠReviews": 6534,
      "ĠRequire": 6535,
      "Ġattached": 6536,
      "Ġapartment": 6537,
      "Ġmul": 6538,
      "otechn": 6539,
      "lecting": 6540,
      "Ġcompleting": 6541,
      "Ġmixing": 6542,
      "Ġmixed": 6543,
      "Ġhotels": 6544,
      "Ġcast": 6545,
      "Ġhiring": 6546,
      "iday": 6547,
      "resp": 6548,
      "Ġadds": 6549,
      "Ġpregnancy": 6550,
      "ban": 6551,
      "ds": 6552,
      "ĠOffice": 6553,
      "Ġremember": 6554,
      "Ġisland": 6555,
      "Ġdisplays": 6556,
      "Ġseal": 6557,
      "ĠActive": 6558,
      "Ġargument": 6559,
      "do": 6560,
      "Ġtooth": 6561,
      "merce": 6562,
      "Ġcream": 6563,
      "stances": 6564,
      "Ġrecre": 6565,
      "Ġtraveling": 6566,
      "ĠBusinesses": 6567,
      "Ġoppos": 6568,
      "Fi": 6569,
      "Ġclick": 6570,
      "ĠAI": 6571,
      "ĠBody": 6572,
      "ĠMiss": 6573,
      "Ġmechanics": 6574,
      "ĠImprove": 6575,
      "Ġinitial": 6576,
      "Ġarch": 6577,
      "ĠAnalyze": 6578,
      "Ġbatteries": 6579,
      "ĠCollege": 6580,
      "Ġdivers": 6581,
      "Ġoral": 6582,
      "Ġscheme": 6583,
      "Ġpricing": 6584,
      "Ġcircum": 6585,
      "Ġbeneficial": 6586,
      "Ġexposed": 6587,
      "Ġplate": 6588,
      "ague": 6589,
      "Ġmoves": 6590,
      "ready": 6591,
      "Ġoils": 6592,
      "chitects": 6593,
      "Ġmaximize": 6594,
      "BT": 6595,
      "itivity": 6596,
      "ĠHair": 6597,
      "racy": 6598,
      "Ġtransition": 6599,
      "ĠCompeti": 6600,
      "ĠMexic": 6601,
      "Ġcircle": 6602,
      "ĠWithout": 6603,
      "Ġcategories": 6604,
      "Ġaccep": 6605,
      "Ġrequest": 6606,
      "Ġterror": 6607,
      "ĠDrug": 6608,
      "Ġfavorite": 6609,
      "Ġdim": 6610,
      "apers": 6611,
      "ithmetic": 6612,
      "Ġracing": 6613,
      "Ġaccept": 6614,
      "Ġarray": 6615,
      "Ġrealistic": 6616,
      "Ġviews": 6617,
      "ĠExpress": 6618,
      "Ġdecorative": 6619,
      "AT": 6620,
      "IT": 6621,
      "ga": 6622,
      "Ġstick": 6623,
      "Ġscan": 6624,
      "Ġunexp": 6625,
      "Ġtraits": 6626,
      "Ġassumptions": 6627,
      "ewable": 6628,
      "Ġveter": 6629,
      "Ġbiom": 6630,
      "Ġoptimizing": 6631,
      "Ġloop": 6632,
      "Ġtape": 6633,
      "ĠArg": 6634,
      "ĠMaintaining": 6635,
      "Ġrubber": 6636,
      "angers": 6637,
      "Ġdistributed": 6638,
      "ĠContent": 6639,
      "lace": 6640,
      "lasting": 6641,
      "ĠIll": 6642,
      "ĠWi": 6643,
      "Ġinclusive": 6644,
      "Ġrob": 6645,
      "arities": 6646,
      "assion": 6647,
      "Ġwellness": 6648,
      "Ġsmartphones": 6649,
      "Ġantibio": 6650,
      "Ġtransparent": 6651,
      "Ġsemicon": 6652,
      "Ġsharp": 6653,
      "ĠCreativity": 6654,
      "Ġdelve": 6655,
      "ĠInterp": 6656,
      "Ġprecautions": 6657,
      "atoes": 6658,
      "Ġpartnerships": 6659,
      "Ġlasting": 6660,
      "Ġscal": 6661,
      "Ġfixture": 6662,
      "Ġopening": 6663,
      "Ġminimum": 6664,
      "Ġinstitution": 6665,
      "Ġolder": 6666,
      "Ġecosystem": 6667,
      "ĠChrist": 6668,
      "ĠPrinciples": 6669,
      "DP": 6670,
      "LC": 6671,
      "isions": 6672,
      "Ġmagn": 6673,
      "Ġ24": 6674,
      "Ġdisrup": 6675,
      "ĠUr": 6676,
      "Ġ40": 6677,
      "Ġjump": 6678,
      "ĠAdmin": 6679,
      "Ġelse": 6680,
      "ĠModel": 6681,
      "Ġoneself": 6682,
      "Ġloyalty": 6683,
      "ĠUV": 6684,
      "iances": 6685,
      "Ġhydrogen": 6686,
      "ĠSignific": 6687,
      "Ġdefinition": 6688,
      "las": 6689,
      "Ġax": 6690,
      "Ġharsh": 6691,
      "Ġspin": 6692,
      "Ġsend": 6693,
      "Ġentrepreneurship": 6694,
      "ellectual": 6695,
      "Ġunexpected": 6696,
      "VID": 6697,
      "Ġsubtraction": 6698,
      "Ġcertific": 6699,
      "Ġmodeling": 6700,
      "Ġdifficulty": 6701,
      "Ġdebr": 6702,
      "avior": 6703,
      "Ġassist": 6704,
      "Ġdoctors": 6705,
      "Ġfraud": 6706,
      "ometric": 6707,
      "Ġcounseling": 6708,
      "ament": 6709,
      "ĠMass": 6710,
      "Ġaddiction": 6711,
      "titu": 6712,
      "Ġguitar": 6713,
      "crimination": 6714,
      "mal": 6715,
      "Ġwines": 6716,
      "ĠCross": 6717,
      "ĠFeed": 6718,
      "Ġitself": 6719,
      "ĠClinical": 6720,
      "ĠImmun": 6721,
      "Ġsummer": 6722,
      "Ġopponent": 6723,
      "ĠSymptoms": 6724,
      "normal": 6725,
      "ĠTarget": 6726,
      "ĠCamer": 6727,
      "ĠOptim": 6728,
      "rafts": 6729,
      "Ġconcise": 6730,
      "tition": 6731,
      "ĠWal": 6732,
      "timately": 6733,
      "ĠPoly": 6734,
      "ĠSaving": 6735,
      "Ġwindows": 6736,
      "ĠExercise": 6737,
      "ĠEp": 6738,
      "ady": 6739,
      "ĠNews": 6740,
      "ĠPrice": 6741,
      "enes": 6742,
      "lock": 6743,
      "Ġraised": 6744,
      "Ġdioxide": 6745,
      "Ġcircuits": 6746,
      "ĠCompany": 6747,
      "ĠTri": 6748,
      "ĠGPS": 6749,
      "Ġplug": 6750,
      "ĠSpe": 6751,
      "Ġgenerally": 6752,
      "ynom": 6753,
      "ipp": 6754,
      "Ġchanged": 6755,
      "plant": 6756,
      "unt": 6757,
      "Ġalready": 6758,
      "Ġrecipe": 6759,
      "ĠPerseverance": 6760,
      "Ġpowder": 6761,
      "Ġfulfilling": 6762,
      "ĠDisease": 6763,
      "Ġcotton": 6764,
      "ĠStren": 6765,
      "Ġmid": 6766,
      "Ġdensity": 6767,
      "Ġgall": 6768,
      "ĠEmerg": 6769,
      "ĠGolf": 6770,
      "Ġgoes": 6771,
      "ĠJob": 6772,
      "Ġchopped": 6773,
      "Ġhospitals": 6774,
      "Ġchicken": 6775,
      "Ġpassengers": 6776,
      "Ġchrom": 6777,
      "Ġmanaged": 6778,
      "ĠNurs": 6779,
      "atil": 6780,
      "ĠScot": 6781,
      "ĠResources": 6782,
      "ĠBasics": 6783,
      "Ġwalking": 6784,
      "Ġtherapeutic": 6785,
      "ĠVolunte": 6786,
      "Ġwoman": 6787,
      "ĠCP": 6788,
      "erson": 6789,
      "soft": 6790,
      "Ġcelebrate": 6791,
      "Ġeggs": 6792,
      "ĠIndividuals": 6793,
      "lands": 6794,
      "ĠPal": 6795,
      "ĠWall": 6796,
      "orting": 6797,
      "Ġarchitect": 6798,
      "Ġdrawbacks": 6799,
      "Ġcannabis": 6800,
      "Ġhousehold": 6801,
      "Ġsatellite": 6802,
      "ict": 6803,
      "ĠRiver": 6804,
      "Ġcopper": 6805,
      "Ġempathy": 6806,
      "Ġaccordingly": 6807,
      "ĠActivities": 6808,
      "iking": 6809,
      "Ġcomparing": 6810,
      "Ġseat": 6811,
      "Ġtrials": 6812,
      "Ġsauce": 6813,
      "Ġrepresenting": 6814,
      "Ġsheet": 6815,
      "Ġauthority": 6816,
      "Ġpal": 6817,
      "Ġretain": 6818,
      "ĠRemo": 6819,
      "Ġphosph": 6820,
      "ĠDesigning": 6821,
      "Debate": 6822,
      "ĠOrganic": 6823,
      "Ġlabel": 6824,
      "ued": 6825,
      "rown": 6826,
      "Ġtoxic": 6827,
      "Ġworked": 6828,
      "ube": 6829,
      "onds": 6830,
      "Ġchecking": 6831,
      "Ġreceives": 6832,
      "trict": 6833,
      "Ġcompete": 6834,
      "arison": 6835,
      "ĠRock": 6836,
      "Ġrespiratory": 6837,
      "Ġmeetings": 6838,
      "ĠRequirements": 6839,
      "ĠWire": 6840,
      "Ġdisputes": 6841,
      "Ġago": 6842,
      "Ġactors": 6843,
      "Ġenzymes": 6844,
      "orph": 6845,
      "Ġease": 6846,
      "ĠLond": 6847,
      "Ġacting": 6848,
      "Ġreson": 6849,
      "ĠAny": 6850,
      "Ġclot": 6851,
      "Ġcollaborate": 6852,
      "ES": 6853,
      "Ġpipes": 6854,
      "Ġeleg": 6855,
      "Ġdescrip": 6856,
      "ĠComposition": 6857,
      "Ġlawy": 6858,
      "ĠIss": 6859,
      "Ġ14": 6860,
      "Ġexpansion": 6861,
      "Ġhappiness": 6862,
      "Ġeligible": 6863,
      "atility": 6864,
      "RA": 6865,
      "elec": 6866,
      "Ġcabin": 6867,
      "ĠHistorical": 6868,
      "Ġriding": 6869,
      "Ġperformances": 6870,
      "ĠCloud": 6871,
      "ĠGeneral": 6872,
      "Ġfemale": 6873,
      "Ġdebris": 6874,
      "CP": 6875,
      "cious": 6876,
      "pet": 6877,
      "ager": 6878,
      "Ġwheels": 6879,
      "Ġready": 6880,
      "ĠTraditional": 6881,
      "Ġimmers": 6882,
      "Ġmetabolism": 6883,
      "ĠLondon": 6884,
      "\".": 6885,
      "ucks": 6886,
      "ulin": 6887,
      "ĠWord": 6888,
      "ĠMark": 6889,
      "Ġelection": 6890,
      "Ġhypot": 6891,
      "ĠReducing": 6892,
      "Ġcoordination": 6893,
      "atches": 6894,
      "Ġnervous": 6895,
      "ĠGar": 6896,
      "Ġanalyzed": 6897,
      "ĠClub": 6898,
      "ĠTerms": 6899,
      "ĠSignificance": 6900,
      "Ġped": 6901,
      "Ġride": 6902,
      "rought": 6903,
      "Ġspecifications": 6904,
      "Ġconnects": 6905,
      "ĠEvents": 6906,
      "ĠNetworking": 6907,
      "ĠCOVID": 6908,
      "ĠCleaning": 6909,
      "Ġderived": 6910,
      "uous": 6911,
      "year": 6912,
      "Ġaluminum": 6913,
      "Ġatoms": 6914,
      "epti": 6915,
      "Ġcharged": 6916,
      "Ġenjoyed": 6917,
      "Ġencounter": 6918,
      "ided": 6919,
      "Ġcapturing": 6920,
      "ront": 6921,
      "Ġmotivated": 6922,
      "nel": 6923,
      "Ġahead": 6924,
      "Ġcopy": 6925,
      "ĠLiving": 6926,
      "Ġcompensation": 6927,
      "Ġbasketball": 6928,
      "Ġgrass": 6929,
      "ologists": 6930,
      "Ġfir": 6931,
      "atigue": 6932,
      "Ġjazz": 6933,
      "Ġtransaction": 6934,
      "Ġdistances": 6935,
      "ĠAccoun": 6936,
      "Ġreflects": 6937,
      "Ġcrisis": 6938,
      "where": 6939,
      "Ġglo": 6940,
      "ĠMoney": 6941,
      "Ġprinciple": 6942,
      "Ġoptimization": 6943,
      "Ġenforcement": 6944,
      "ĠGames": 6945,
      "ĠPlant": 6946,
      "Ġetc": 6947,
      "antic": 6948,
      "icks": 6949,
      "ĠCivil": 6950,
      "osc": 6951,
      "ĠPan": 6952,
      "Ġclay": 6953,
      "Ġfounded": 6954,
      "Ġupdates": 6955,
      "Ġholding": 6956,
      "Ġinterviews": 6957,
      "oting": 6958,
      "Ġtrading": 6959,
      "Ġsett": 6960,
      "Ġtransmitted": 6961,
      "Ġcultiv": 6962,
      "Ġcraft": 6963,
      "aping": 6964,
      "Ġdev": 6965,
      "Ġcompati": 6966,
      "Ġartistic": 6967,
      "Ġdedicated": 6968,
      "Ġcontinued": 6969,
      "otechnology": 6970,
      "NS": 6971,
      "Ġdirt": 6972,
      "aria": 6973,
      "Ġsoccer": 6974,
      "Ġcorrosion": 6975,
      "add": 6976,
      "ĠAcade": 6977,
      "Ġweeks": 6978,
      "Ġmatrix": 6979,
      "Ġcyl": 6980,
      "Ġdynamics": 6981,
      "ĠGetting": 6982,
      "Ġintricate": 6983,
      "cies": 6984,
      "Ġclassroom": 6985,
      "Ġpackages": 6986,
      "Ġwindow": 6987,
      "ĠTwo": 6988,
      "Ġbowl": 6989,
      "Ġfine": 6990,
      "ĠEmo": 6991,
      "ĠEast": 6992,
      "Ġdisasters": 6993,
      "Ġmeasurements": 6994,
      "Ġcalls": 6995,
      "Ġclosed": 6996,
      "ĠElements": 6997,
      "Ġnever": 6998,
      "Ġorganism": 6999,
      "mograph": 7000,
      "ĠFinance": 7001,
      "Ġfootprint": 7002,
      "Ġdebate": 7003,
      "Ġadministration": 7004,
      "igenous": 7005,
      "tible": 7006,
      "udes": 7007,
      "trum": 7008,
      "ĠLit": 7009,
      "Ġcomprom": 7010,
      "ĠAdding": 7011,
      "Ġemphasizes": 7012,
      "Ġspiritual": 7013,
      "esis": 7014,
      "itness": 7015,
      "ustion": 7016,
      "ypto": 7017,
      "Ġmakeup": 7018,
      "Ġraw": 7019,
      "titute": 7020,
      "ĠOptions": 7021,
      "Ġorigin": 7022,
      "ĠCalif": 7023,
      "Ġbackgrounds": 7024,
      "Ġfossil": 7025,
      "Ġhear": 7026,
      "Ġhealthier": 7027,
      "angles": 7028,
      "ĠSelect": 7029,
      "Ġharmony": 7030,
      "Ġintegrated": 7031,
      "Ġcontemporary": 7032,
      "GF": 7033,
      "intage": 7034,
      "Ġdust": 7035,
      "Ġcustoms": 7036,
      "Ġmobility": 7037,
      "ĠCounty": 7038,
      "Ġdatabases": 7039,
      "Ġsurveys": 7040,
      "ĠFacebook": 7041,
      "rencies": 7042,
      "Ġrig": 7043,
      "Ġski": 7044,
      "Ġinches": 7045,
      "Ġstrategic": 7046,
      "proof": 7047,
      "ĠCanada": 7048,
      "Ġdoll": 7049,
      "Ġlogical": 7050,
      "ĠNet": 7051,
      "gram": 7052,
      "Ġfear": 7053,
      "Ġtrained": 7054,
      "fam": 7055,
      "ĠWaste": 7056,
      "Ġgraphic": 7057,
      "Ġaimed": 7058,
      "hus": 7059,
      "ĠWell": 7060,
      "illa": 7061,
      "change": 7062,
      "Ġratings": 7063,
      "Ġgenerates": 7064,
      "ĠSynt": 7065,
      "Ġtherapies": 7066,
      "15": 7067,
      "mia": 7068,
      "ĠSleep": 7069,
      "ĠSteps": 7070,
      "ĠEmploy": 7071,
      "ĠMedicine": 7072,
      "bersecurity": 7073,
      "otage": 7074,
      "ĠHead": 7075,
      "Ġqualities": 7076,
      "Ġpsychological": 7077,
      "Ġsen": 7078,
      "Ġmiddle": 7079,
      "Ġdecline": 7080,
      "Ġhighlights": 7081,
      "ĠPolicy": 7082,
      "liers": 7083,
      "ĠBoard": 7084,
      "Ġnarrow": 7085,
      "ruitment": 7086,
      "Ġpolice": 7087,
      "Ġconvenience": 7088,
      "ĠDefine": 7089,
      "habilit": 7090,
      "TP": 7091,
      "ĠHeat": 7092,
      "ĠAttend": 7093,
      "Ġaccountable": 7094,
      "Ġmitigate": 7095,
      "alo": 7096,
      "trans": 7097,
      "Ġsaid": 7098,
      "tism": 7099,
      "Ġdrain": 7100,
      "ĠEngland": 7101,
      "ĠCaliforn": 7102,
      "men": 7103,
      "Ġod": 7104,
      "Ġinner": 7105,
      "Ġrely": 7106,
      "ĠSqu": 7107,
      "ĠPrevent": 7108,
      "ĠPattern": 7109,
      "ĠRoman": 7110,
      "Ġcoup": 7111,
      "Ġhabitat": 7112,
      "glass": 7113,
      "Ġbind": 7114,
      "ĠSan": 7115,
      "Ġalone": 7116,
      "Ġenem": 7117,
      "andem": 7118,
      "riculum": 7119,
      "Ġresearching": 7120,
      "Ġcloth": 7121,
      "Ġstrengthen": 7122,
      "Ġnursing": 7123,
      "atre": 7124,
      "ĠDown": 7125,
      "ĠFind": 7126,
      "Ġdiff": 7127,
      "Ġlimits": 7128,
      "Ġfreedom": 7129,
      "ĠPrevention": 7130,
      "ĠElectronic": 7131,
      "ortive": 7132,
      "Ġorgans": 7133,
      "ĠDyn": 7134,
      "Ġaffecting": 7135,
      "Ġ//": 7136,
      "Ġdegrees": 7137,
      "marks": 7138,
      "Ġcontaminants": 7139,
      "magnetic": 7140,
      "Ġion": 7141,
      "Ġpopularity": 7142,
      "Ġpurchases": 7143,
      "ĠCalifornia": 7144,
      "Ġpitch": 7145,
      "ushes": 7146,
      "ĠST": 7147,
      "ĠAge": 7148,
      "Ġstrain": 7149,
      "Ġbills": 7150,
      "Ġmys": 7151,
      "Ġreve": 7152,
      "Ġbread": 7153,
      "Ġoversee": 7154,
      "Ġluxury": 7155,
      "ĠFiber": 7156,
      "Ġsculpture": 7157,
      "PE": 7158,
      "iny": 7159,
      "ito": 7160,
      "ectivity": 7161,
      "Ġreform": 7162,
      "Ġstret": 7163,
      "ĠWest": 7164,
      "Ġapplic": 7165,
      "ĠOwn": 7166,
      "Ġcoal": 7167,
      "Ġbasis": 7168,
      "Ġaccum": 7169,
      "Ġhonest": 7170,
      "ĠPrivate": 7171,
      "ĠImagine": 7172,
      "greg": 7173,
      "anish": 7174,
      "ulatory": 7175,
      "Ġattrib": 7176,
      "Ġupon": 7177,
      "Ġbridges": 7178,
      "ĠEfficiency": 7179,
      "ĠImage": 7180,
      "ĠRadio": 7181,
      "isk": 7182,
      "stream": 7183,
      "Ġvalve": 7184,
      "Ġmeditation": 7185,
      "Ġsections": 7186,
      "ĠImproving": 7187,
      "Ġbeginning": 7188,
      "Ġrefriger": 7189,
      "ĠSl": 7190,
      "ĠLibr": 7191,
      "Ġshaped": 7192,
      "ĠCollection": 7193,
      "atching": 7194,
      "ĠAtt": 7195,
      "Ġdrinks": 7196,
      "FA": 7197,
      "uum": 7198,
      "Ġmiles": 7199,
      "ĠWestern": 7200,
      "Ġmenu": 7201,
      "Ġindependence": 7202,
      "ĠBackground": 7203,
      "Ġfigures": 7204,
      "Ġdefend": 7205,
      "Ġhalf": 7206,
      "ieties": 7207,
      "Ġelections": 7208,
      "Ġaudiences": 7209,
      "ĠIsra": 7210,
      "Ġadvancements": 7211,
      "cryption": 7212,
      "ĠID": 7213,
      "rab": 7214,
      "Ġdrink": 7215,
      "ĠNumbers": 7216,
      "11": 7217,
      "Pro": 7218,
      "RS": 7219,
      "col": 7220,
      "ndom": 7221,
      "ĠDur": 7222,
      "Ġdecl": 7223,
      "ĠApple": 7224,
      "Ġlittle": 7225,
      "ĠEncourage": 7226,
      "ship": 7227,
      "erts": 7228,
      "Ġmic": 7229,
      "Ġproducers": 7230,
      "Ġmembrane": 7231,
      "Ġfoam": 7232,
      "Ġtube": 7233,
      "atically": 7234,
      "ĠMind": 7235,
      "Ġleaving": 7236,
      "Ġlogistics": 7237,
      "ĠHydro": 7238,
      "lin": 7239,
      "Ġtank": 7240,
      "goti": 7241,
      "Ġpredictions": 7242,
      "ĠBrand": 7243,
      "ĠCourt": 7244,
      "ĠCooking": 7245,
      "ote": 7246,
      "abling": 7247,
      "ĠRest": 7248,
      "Ġequipped": 7249,
      "Ġwellbeing": 7250,
      "Ġexperiments": 7251,
      "Ġstands": 7252,
      "Ġtargets": 7253,
      "Ġinvestigate": 7254,
      "ĠLar": 7255,
      "ĠFrom": 7256,
      "orses": 7257,
      "eplay": 7258,
      "ĠRenewable": 7259,
      "Ġclin": 7260,
      "Ġstorytelling": 7261,
      "Ġbrown": 7262,
      "Ġparameters": 7263,
      "inter": 7264,
      "Ġabnormal": 7265,
      "ĠDisc": 7266,
      "elihood": 7267,
      "Ġrestore": 7268,
      "Ġblend": 7269,
      "elt": 7270,
      "Ġupgra": 7271,
      "Ġlegacy": 7272,
      "Ġduration": 7273,
      "Ġexcl": 7274,
      "Ġshor": 7275,
      "ĠPreparation": 7276,
      "Ġstimulate": 7277,
      "ĠVariables": 7278,
      "Ġopinion": 7279,
      "Ġsemiconductor": 7280,
      "rate": 7281,
      "Ġyarn": 7282,
      "Ġexperiencing": 7283,
      "Ġcombat": 7284,
      "Ġpresentation": 7285,
      "Ġprevents": 7286,
      "Ġhobby": 7287,
      "ĠLove": 7288,
      "Ġdesigner": 7289,
      "Ġoperators": 7290,
      "Ġofficials": 7291,
      "Ġrestaurants": 7292,
      "giene": 7293,
      "Ġcardiovascular": 7294,
      "..": 7295,
      "Ġsessions": 7296,
      "ifts": 7297,
      "Ġprocessed": 7298,
      "ĠAsk": 7299,
      "Ġliter": 7300,
      "Ġtransparency": 7301,
      "=\"": 7302,
      "alse": 7303,
      "Ġrating": 7304,
      "ĠPharm": 7305,
      "Ġceremon": 7306,
      "ĠJewish": 7307,
      "Ġuniversities": 7308,
      "zing": 7309,
      "Ġtun": 7310,
      "raw": 7311,
      "abil": 7312,
      "orders": 7313,
      "Ġabstract": 7314,
      "Ġdelivering": 7315,
      "charge": 7316,
      "Ġshelter": 7317,
      "ĠHelp": 7318,
      "Ġalbum": 7319,
      "terior": 7320,
      "Ġparks": 7321,
      "ethyl": 7322,
      "Ġvibrant": 7323,
      "Ġboost": 7324,
      "ĠInstead": 7325,
      "Ġtenants": 7326,
      "Ġprofitability": 7327,
      "ias": 7328,
      "uge": 7329,
      "Ġemit": 7330,
      "Ġpropor": 7331,
      "Ġintegers": 7332,
      "ĠCreative": 7333,
      "Ġremoval": 7334,
      "Ġchemistry": 7335,
      "21": 7336,
      "gins": 7337,
      "edia": 7338,
      "Ġbooking": 7339,
      "Ġdiscounts": 7340,
      "Ġconstants": 7341,
      "ĠPresident": 7342,
      "Ġclubs": 7343,
      "Ġillustrate": 7344,
      "ĠAgriculture": 7345,
      "Ġborn": 7346,
      "Ġcond": 7347,
      "aming": 7348,
      "ĠFlu": 7349,
      "Ġspons": 7350,
      "Ġrecycl": 7351,
      "ĠStress": 7352,
      "ĠKore": 7353,
      "Ġenhancing": 7354,
      "Ġcomposed": 7355,
      "Ġhappy": 7356,
      "Ġobserved": 7357,
      "Ġpenal": 7358,
      "ĠDivision": 7359,
      "Main": 7360,
      "ĠCash": 7361,
      "ĠSil": 7362,
      "ĠDel": 7363,
      "utants": 7364,
      "Ġaccompl": 7365,
      "sing": 7366,
      "Â®": 7367,
      "erves": 7368,
      "ĠSharing": 7369,
      "tified": 7370,
      "Ġlikelihood": 7371,
      "Ġpharmaceutical": 7372,
      "ĠSand": 7373,
      "Ġhour": 7374,
      "ods": 7375,
      "Ġimproves": 7376,
      "pha": 7377,
      "ounds": 7378,
      "ĠSolution": 7379,
      "Ġmotivation": 7380,
      "Ġfootage": 7381,
      "Ġdu": 7382,
      "Ġfee": 7383,
      "Ġinterpreting": 7384,
      "ĠMemory": 7385,
      "lier": 7386,
      "Ġtension": 7387,
      "Ġcustomize": 7388,
      "ĠMemb": 7389,
      "ĠAuto": 7390,
      "Ġwrong": 7391,
      "ĠFrame": 7392,
      "ker": 7393,
      "Ġfits": 7394,
      "apor": 7395,
      "ĠHy": 7396,
      "Ġshooting": 7397,
      "ĠOx": 7398,
      "Ġidentification": 7399,
      "Ġcritically": 7400,
      "Ġremoved": 7401,
      "Ġexamination": 7402,
      "ĠArea": 7403,
      "bohydrates": 7404,
      "Ġaqu": 7405,
      "Ġasking": 7406,
      "ĠFore": 7407,
      "Ġindoor": 7408,
      "ĠSci": 7409,
      "certain": 7410,
      "ĠTeac": 7411,
      "Ġactivation": 7412,
      "Ġgrants": 7413,
      "istoric": 7414,
      "Ġpoetry": 7415,
      "Ġholds": 7416,
      "ĠElectrical": 7417,
      "Ġconversion": 7418,
      "utable": 7419,
      "Ġtitle": 7420,
      "Ġsac": 7421,
      "tration": 7422,
      "ĠMove": 7423,
      "Ġimpl": 7424,
      "Ġinsulation": 7425,
      "Ġrect": 7426,
      "Ġminor": 7427,
      "Ġpreservation": 7428,
      "ĠNegoti": 7429,
      "Ġbreathing": 7430,
      "ĠPositive": 7431,
      "Ġinsects": 7432,
      "Ġsignaling": 7433,
      "Ġsupportive": 7434,
      "Ġcyber": 7435,
      "Ġadjustments": 7436,
      "operative": 7437,
      "ĠEnhanced": 7438,
      "ĠHous": 7439,
      "resistant": 7440,
      "Ġattractions": 7441,
      "ĠPros": 7442,
      "ĠUnder": 7443,
      "ĠSpanish": 7444,
      "Ġmatches": 7445,
      "Ġenthus": 7446,
      "ĠPractices": 7447,
      "Ġphilosophy": 7448,
      "juana": 7449,
      "uzz": 7450,
      "orous": 7451,
      "Ġware": 7452,
      "Ġlease": 7453,
      "ubric": 7454,
      "Ġspecializes": 7455,
      "Ġaccommodate": 7456,
      "100": 7457,
      "ĠTop": 7458,
      "ĠRent": 7459,
      "reek": 7460,
      "Ġcount": 7461,
      "Ġerror": 7462,
      "ĠGenetic": 7463,
      "ĠStatistics": 7464,
      "Ġtur": 7465,
      "Ġpas": 7466,
      "Ġwool": 7467,
      "asive": 7468,
      "Ġlap": 7469,
      "ppers": 7470,
      "ĠLay": 7471,
      "ĠGreat": 7472,
      "Ġteasp": 7473,
      "Ġrandom": 7474,
      "comp": 7475,
      "Ġlift": 7476,
      "ĠMeasures": 7477,
      "habilitation": 7478,
      "tiles": 7479,
      "uction": 7480,
      "Ġlung": 7481,
      "ending": 7482,
      "ĠEmergency": 7483,
      "atal": 7484,
      "Ġfores": 7485,
      "Ġever": 7486,
      "ĠWill": 7487,
      "ĠFabric": 7488,
      "Ġpred": 7489,
      "Ġperception": 7490,
      "Ġelectrons": 7491,
      "Ġhomeown": 7492,
      "ĠMicrosoft": 7493,
      "Ġlibraries": 7494,
      "Ġantibodies": 7495,
      "CE": 7496,
      "la": 7497,
      "isher": 7498,
      "Ġmari": 7499,
      "Ġda": 7500,
      "tron": 7501,
      "Ġvs": 7502,
      "ĠChanges": 7503,
      "Ġacts": 7504,
      "Ġvitamins": 7505,
      "point": 7506,
      "Ġappoint": 7507,
      "Ġflooring": 7508,
      "Ġlymph": 7509,
      "ailing": 7510,
      "ĠConservation": 7511,
      "Ġfundraising": 7512,
      "Ġknife": 7513,
      "(\"": 7514,
      "utor": 7515,
      "Ġshot": 7516,
      "Ġtrail": 7517,
      "illed": 7518,
      "Ġneedle": 7519,
      "Ġquadratic": 7520,
      "Ġapartments": 7521,
      "ĠRoad": 7522,
      "Ġpleasing": 7523,
      "Ġweapons": 7524,
      "ĠIssues": 7525,
      "Ġcake": 7526,
      "Ġbags": 7527,
      "Ġbelow": 7528,
      "ĠDat": 7529,
      "ĠFurniture": 7530,
      "Ġresilience": 7531,
      "Ġpepper": 7532,
      "ĠJustice": 7533,
      "Ġpursuing": 7534,
      "yptography": 7535,
      "Ps": 7536,
      "Ġsti": 7537,
      "Ġmir": 7538,
      "Ġmild": 7539,
      "merging": 7540,
      "Ġassessing": 7541,
      "Ġboundaries": 7542,
      "metry": 7543,
      "ĠWild": 7544,
      "ably": 7545,
      "Ġsuits": 7546,
      "Ġworkforce": 7547,
      "Ġperman": 7548,
      "ĠStory": 7549,
      "neum": 7550,
      "airy": 7551,
      "commerce": 7552,
      "Ġrecognized": 7553,
      "step": 7554,
      "Ġmarriage": 7555,
      "LE": 7556,
      "acting": 7557,
      "ĠWel": 7558,
      "ĠBatter": 7559,
      "ama": 7560,
      "amber": 7561,
      "Ġrice": 7562,
      "Ġrespective": 7563,
      "Ġsummary": 7564,
      "Ġfluids": 7565,
      "haust": 7566,
      "Ġrapidly": 7567,
      "iplom": 7568,
      "level": 7569,
      "Ġjack": 7570,
      "Ġflour": 7571,
      "ĠArc": 7572,
      "Ġanimation": 7573,
      "ĠDecision": 7574,
      "Ġprecision": 7575,
      "tian": 7576,
      "Ġwet": 7577,
      "Ġreference": 7578,
      "ĠWhole": 7579,
      "Ġrecip": 7580,
      "Ġresponses": 7581,
      "Ġautomatically": 7582,
      "Ġmanufacturers": 7583,
      "ĠAudio": 7584,
      "Ġcater": 7585,
      "Ġongoing": 7586,
      "ĠSteel": 7587,
      "Ġhole": 7588,
      "otes": 7589,
      "otors": 7590,
      "Ġdirector": 7591,
      "Ġmonthly": 7592,
      "ĠBehavior": 7593,
      "Ġtire": 7594,
      "ece": 7595,
      "ĠPath": 7596,
      "ĠUser": 7597,
      "ĠVehic": 7598,
      "Ġdimensions": 7599,
      "gments": 7600,
      "topic": 7601,
      "ecessary": 7602,
      "lecom": 7603,
      "Ġatte": 7604,
      "Ġexperimental": 7605,
      "boards": 7606,
      "Ġdiscovery": 7607,
      "Ġlabels": 7608,
      "Ġhappens": 7609,
      "ĠStrategy": 7610,
      "Ġdatas": 7611,
      "Ġwinter": 7612,
      "Ġresolve": 7613,
      "ĠFrance": 7614,
      "'ll": 7615,
      "ĠAchie": 7616,
      "gressive": 7617,
      "Ġcookies": 7618,
      "Ġaesthe": 7619,
      "ĠSen": 7620,
      "Ġgir": 7621,
      "ĠContract": 7622,
      "ĠObs": 7623,
      "ĠProb": 7624,
      "Ġspectro": 7625,
      "Ġflows": 7626,
      "Ġhouses": 7627,
      "Ġnegotiate": 7628,
      "ĠDepartment": 7629,
      "Ġpromotion": 7630,
      "Ġcrow": 7631,
      "allow": 7632,
      "ĠiP": 7633,
      "Ġrain": 7634,
      "ĠAsia": 7635,
      "organisms": 7636,
      "hand": 7637,
      "timate": 7638,
      "Ġic": 7639,
      "Ġfats": 7640,
      "Ġstreet": 7641,
      "ĠYes": 7642,
      "comfort": 7643,
      "Ġentering": 7644,
      "Ġappliances": 7645,
      "VD": 7646,
      "itations": 7647,
      "ĠCSS": 7648,
      "ĠDom": 7649,
      "Ġlogic": 7650,
      "Ġdrives": 7651,
      "Ġinvolvement": 7652,
      "Ġpowers": 7653,
      "Ġvaccines": 7654,
      "AD": 7655,
      "chem": 7656,
      "Ġthrive": 7657,
      "quency": 7658,
      "Ġsocieties": 7659,
      "ultaneous": 7660,
      "Ġraising": 7661,
      "Ġemployer": 7662,
      "Ġsearching": 7663,
      "Ġexamining": 7664,
      "ĠProcessing": 7665,
      "IM": 7666,
      "Ġnerve": 7667,
      "anship": 7668,
      "Ġtransformation": 7669,
      "Ġconverts": 7670,
      "Ġsecondary": 7671,
      "Ġslop": 7672,
      "Ġholes": 7673,
      "ĠUnderstand": 7674,
      "ĠDistribution": 7675,
      "Ġsurvey": 7676,
      "Ġmineral": 7677,
      "ĠInstruc": 7678,
      "Ġeco": 7679,
      "Ġrewards": 7680,
      "iders": 7681,
      "istan": 7682,
      "Ġcomplement": 7683,
      "Ġsynthes": 7684,
      "Ġexecution": 7685,
      "Ġreligion": 7686,
      "ĠSimil": 7687,
      "Ġexcep": 7688,
      "aph": 7689,
      "ĠLabor": 7690,
      "imer": 7691,
      "Ġwooden": 7692,
      "Ġfabrics": 7693,
      "Ġcrimes": 7694,
      "Ġfilled": 7695,
      "Ġprimarily": 7696,
      "__": 7697,
      "lify": 7698,
      "Ġwax": 7699,
      "Ġmigration": 7700,
      "ashes": 7701,
      "vertise": 7702,
      "Ġmuseum": 7703,
      "Ġjoining": 7704,
      "ĠAssessment": 7705,
      "discip": 7706,
      "ĠGarden": 7707,
      "Ġvenue": 7708,
      "Ġdialogue": 7709,
      "PC": 7710,
      "ĠTen": 7711,
      "ĠCB": 7712,
      "ĠEr": 7713,
      "ochem": 7714,
      "Ġcryst": 7715,
      "ĠDisadvantages": 7716,
      "Ġdividing": 7717,
      "Ġtells": 7718,
      "Ġstruggling": 7719,
      "ĠEditing": 7720,
      "Ġphotographs": 7721,
      "Ġneutral": 7722,
      "Ġscript": 7723,
      "tims": 7724,
      "alle": 7725,
      "ara": 7726,
      "ounce": 7727,
      "Ġcleaner": 7728,
      "Ġremaining": 7729,
      "Ġstruggle": 7730,
      "Ġvolunteering": 7731,
      "Ġfractions": 7732,
      "Ġhosting": 7733,
      "itis": 7734,
      "Ġturning": 7735,
      "ille": 7736,
      "Ġyoga": 7737,
      "ĠPaper": 7738,
      "ĠStock": 7739,
      "neys": 7740,
      "Ġaddresses": 7741,
      "ĠCardi": 7742,
      "Ġapart": 7743,
      "Ġreceptors": 7744,
      "esity": 7745,
      "Ġparent": 7746,
      "ĠSep": 7747,
      "ĠWrite": 7748,
      "Ġentry": 7749,
      "Ġcontainers": 7750,
      "Ġdivide": 7751,
      "Ġagreements": 7752,
      "Ġindicates": 7753,
      "Ġfoster": 7754,
      "Ġtoler": 7755,
      "ĠBig": 7756,
      "abul": 7757,
      "ĠChurch": 7758,
      "Ġship": 7759,
      "Ġseverity": 7760,
      "Ġgrid": 7761,
      "Ġcrac": 7762,
      "ulties": 7763,
      "ĠArts": 7764,
      "Ġselected": 7765,
      "Ġprecise": 7766,
      "Ġbirds": 7767,
      "ĠFoundation": 7768,
      "uary": 7769,
      "Ġplumbing": 7770,
      "Ġloved": 7771,
      "obic": 7772,
      "Ġdetermines": 7773,
      "Ġnaturally": 7774,
      "Ġminimizing": 7775,
      "Ġhormone": 7776,
      "Ġteaspoon": 7777,
      "dri": 7778,
      "iner": 7779,
      "ĠPrec": 7780,
      "Ġlegs": 7781,
      "Ġpassing": 7782,
      "Ġportra": 7783,
      "Ġtextures": 7784,
      "lers": 7785,
      "eria": 7786,
      "ĠSem": 7787,
      "irus": 7788,
      "ĠSex": 7789,
      "ĠGeometry": 7790,
      "ĠAddress": 7791,
      "Ġportable": 7792,
      "ĠAlternative": 7793,
      "25": 7794,
      "ĠÂ": 7795,
      "Ġign": 7796,
      "ĠCard": 7797,
      "tax": 7798,
      "Ġexact": 7799,
      "Ġmembership": 7800,
      "Ġinvestigation": 7801,
      "ĠBlock": 7802,
      "ĠDocument": 7803,
      "Ġdiscomfort": 7804,
      "Ġterrain": 7805,
      "Ġegg": 7806,
      "Ġthermal": 7807,
      "iological": 7808,
      "inery": 7809,
      "ĠAPI": 7810,
      "Ġcoast": 7811,
      "Ġcombustion": 7812,
      "Ġapproxim": 7813,
      "Ġportion": 7814,
      "Ġtailored": 7815,
      "Ġtactics": 7816,
      "andemic": 7817,
      "ME": 7818,
      "live": 7819,
      "rs": 7820,
      "wise": 7821,
      "ĠIncome": 7822,
      "Ġansw": 7823,
      "Ġwearing": 7824,
      "Ġspark": 7825,
      "ĠNavig": 7826,
      "gener": 7827,
      "ĠOrig": 7828,
      "Ġinspiration": 7829,
      "Ġmotorcy": 7830,
      "Ġbarrier": 7831,
      "Ġpig": 7832,
      "ardi": 7833,
      "omics": 7834,
      "Ġmanual": 7835,
      "sole": 7836,
      "Ġsupplement": 7837,
      "Ġgrip": 7838,
      "ĠMarine": 7839,
      "ĠPartnership": 7840,
      "aran": 7841,
      "Ġdomestic": 7842,
      "erse": 7843,
      "Ġliability": 7844,
      "Ġaccessibility": 7845,
      "Ġachievement": 7846,
      "Ġchecks": 7847,
      "Ġpoem": 7848,
      "Ġfigure": 7849,
      "Ġcritic": 7850,
      "âĦ": 7851,
      "Ġsan": 7852,
      "att": 7853,
      "Ġtear": 7854,
      "arness": 7855,
      "Ġscoring": 7856,
      "Ġunn": 7857,
      "Ġpatience": 7858,
      "Ġobesity": 7859,
      "Ġautomation": 7860,
      "ĠSoil": 7861,
      "Ġspeeds": 7862,
      "ĠImplementing": 7863,
      "Ġpick": 7864,
      "Ġsto": 7865,
      "Ġcompression": 7866,
      "Ġdisaster": 7867,
      "ĠScreen": 7868,
      "Ġdepartment": 7869,
      "Ġnutrient": 7870,
      "Ġinitiative": 7871,
      "ĠStrength": 7872,
      "Ġaccomplish": 7873,
      "enz": 7874,
      "Ġfatigue": 7875,
      "ype": 7876,
      "Ġspot": 7877,
      "Ġtruck": 7878,
      "Ġscores": 7879,
      "nee": 7880,
      "Ġaging": 7881,
      "trasound": 7882,
      "IN": 7883,
      "inant": 7884,
      "atric": 7885,
      "istered": 7886,
      "Ġhoney": 7887,
      "Ġcolumn": 7888,
      "Ġcontroller": 7889,
      "ĠPrior": 7890,
      "Ġinstance": 7891,
      "piec": 7892,
      "rich": 7893,
      "ĠLiqu": 7894,
      "ĠConven": 7895,
      "Ġuncertain": 7896,
      "Ġadvis": 7897,
      "raints": 7898,
      "Ġupdate": 7899,
      "Ġlistings": 7900,
      "ola": 7901,
      "ĠDog": 7902,
      "ado": 7903,
      "Ġlose": 7904,
      "Ġsuppliers": 7905,
      "Ġspeaking": 7906,
      "Ġdiagnostic": 7907,
      "Ġnative": 7908,
      "amless": 7909,
      "Ġneur": 7910,
      "Ġrug": 7911,
      "Ġinflation": 7912,
      "Ġbrands": 7913,
      "ĠAmaz": 7914,
      "Ġestimate": 7915,
      "ĠSuccessful": 7916,
      "Ġfestival": 7917,
      "$.": 7918,
      "oning": 7919,
      "Ġtourn": 7920,
      "Ġowned": 7921,
      "Ġhazard": 7922,
      "ka": 7923,
      "range": 7924,
      "ĠSEO": 7925,
      "ĠBec": 7926,
      "Ġships": 7927,
      "Ġunw": 7928,
      "ĠHeart": 7929,
      "Ġdistribute": 7930,
      "ĠEvaluation": 7931,
      "Ġwidth": 7932,
      "Ġcommunicating": 7933,
      "Ġacquisition": 7934,
      "rings": 7935,
      "ĠTerm": 7936,
      "ticles": 7937,
      "udden": 7938,
      "ampions": 7939,
      "ĠSched": 7940,
      "Ġgrains": 7941,
      "iano": 7942,
      "ĠCann": 7943,
      "ĠLaws": 7944,
      "losure": 7945,
      "Ġofficial": 7946,
      "Ġvaccine": 7947,
      "gradation": 7948,
      "hops": 7949,
      "Ġcas": 7950,
      "Ġelev": 7951,
      "ĠCall": 7952,
      "Ġmeters": 7953,
      "Ġexpanding": 7954,
      "rigation": 7955,
      "ĠCurrent": 7956,
      "Ġexcessive": 7957,
      "Ġoverseeing": 7958,
      "ST": 7959,
      "Ġawards": 7960,
      "aled": 7961,
      "ĠpH": 7962,
      "ĠSou": 7963,
      "ĠDam": 7964,
      "hern": 7965,
      "Ġinsight": 7966,
      "Ġvisiting": 7967,
      "Ġclassical": 7968,
      "Ġstarts": 7969,
      "ĠGeor": 7970,
      "Ġvulnerable": 7971,
      "Ġdiversity": 7972,
      "uble": 7973,
      "Ġknowing": 7974,
      "ĠAppro": 7975,
      "Definition": 7976,
      "Ġhygiene": 7977,
      "Ġgrapes": 7978,
      "titutional": 7979,
      "itan": 7980,
      "ĠTaking": 7981,
      "Ġgap": 7982,
      "ĠEvidence": 7983,
      "Ġclearly": 7984,
      "ervations": 7985,
      "ĠMuseum": 7986,
      "Ġsimultaneous": 7987,
      "Ġantioxid": 7988,
      "ĠCarbon": 7989,
      "Ġspeakers": 7990,
      "Ġpollutants": 7991,
      "Ġpublished": 7992,
      "Ġslight": 7993,
      "Ġink": 7994,
      "Ġdil": 7995,
      "Ġdining": 7996,
      "ĠAug": 7997,
      "mented": 7998,
      "ĠDouble": 7999,
      "ĠNF": 8000,
      "Ġrecipes": 8001,
      "ĠWhere": 8002,
      "âĢĿ": 8003,
      "roph": 8004,
      "uctu": 8005,
      "Ġchance": 8006,
      "Ġranking": 8007,
      "ĠVers": 8008,
      "Ġbrings": 8009,
      "ĠDirect": 8010,
      "RM": 8011,
      "bound": 8012,
      "ĠArab": 8013,
      "Ġnation": 8014,
      "raul": 8015,
      "Ġunion": 8016,
      "Ġexplores": 8017,
      "Ġgratitude": 8018,
      "ĠPrem": 8019,
      "Ġrom": 8020,
      "Ġcrafts": 8021,
      "ĠTree": 8022,
      "ĠEth": 8023,
      "Ġedges": 8024,
      "Ġpotentially": 8025,
      "Ġ60": 8026,
      "ospace": 8027,
      "bles": 8028,
      "ched": 8029,
      "Ġpension": 8030,
      "Ġtoile": 8031,
      "amine": 8032,
      "Ġreader": 8033,
      "Ġpatent": 8034,
      "Ġfewer": 8035,
      "Ġstimul": 8036,
      "ĠChris": 8037,
      "Ġphenomenon": 8038,
      "ĠTroubleshooting": 8039,
      "abulary": 8040,
      "Vs": 8041,
      "gens": 8042,
      "lit": 8043,
      "Ġpests": 8044,
      "ĠEc": 8045,
      "orthern": 8046,
      "ĠNan": 8047,
      "Ġtruth": 8048,
      "Ġcharges": 8049,
      "Ġdiscount": 8050,
      "Ġkindness": 8051,
      "Ġdreams": 8052,
      "fra": 8053,
      "Ġcasting": 8054,
      "Ġpace": 8055,
      "ĠEss": 8056,
      "ĠHig": 8057,
      "immun": 8058,
      "agues": 8059,
      "ĠOrganizations": 8060,
      "Ġterminal": 8061,
      "oT": 8062,
      "erate": 8063,
      "urse": 8064,
      "terol": 8065,
      "quis": 8066,
      "ĠRules": 8067,
      "ensing": 8068,
      "Ġinvestor": 8069,
      "Ġextreme": 8070,
      "Ġwinning": 8071,
      "Ġpsychology": 8072,
      "ĠMultip": 8073,
      "Ġreproductive": 8074,
      "ĠBul": 8075,
      "ĠEmb": 8076,
      "Ġclassified": 8077,
      "Ġvacation": 8078,
      "Ġzero": 8079,
      "Ġrecorded": 8080,
      "idden": 8081,
      "ĠDoes": 8082,
      "Ġblockchain": 8083,
      "ĠFirstly": 8084,
      "Ġmoral": 8085,
      "ĠJournal": 8086,
      "Ġcircumstances": 8087,
      "Ġfirms": 8088,
      "eums": 8089,
      "Ġthrow": 8090,
      "osa": 8091,
      "ĠLG": 8092,
      "ĠGender": 8093,
      "Ġrough": 8094,
      "Ġcontributes": 8095,
      "Ġcalculating": 8096,
      "ogenesis": 8097,
      "ĠConflic": 8098,
      "TS": 8099,
      "Ġinters": 8100,
      "Ġbanking": 8101,
      "Ġbrief": 8102,
      "ĠInvol": 8103,
      "ĠProtein": 8104,
      "Ġmodify": 8105,
      "Ġelectron": 8106,
      "ĠArch": 8107,
      "odyn": 8108,
      "Ġtracks": 8109,
      "scale": 8110,
      "lecommun": 8111,
      "aratus": 8112,
      "lyc": 8113,
      "Ġdesire": 8114,
      "ĠImplications": 8115,
      "Ġbranches": 8116,
      "Ġtemporary": 8117,
      "Ġoblig": 8118,
      "Ġpathway": 8119,
      "Ġpublishing": 8120,
      "ĠLimited": 8121,
      "Ġwor": 8122,
      "Ġban": 8123,
      "tative": 8124,
      "ĠLandsc": 8125,
      "opes": 8126,
      "ĠFocus": 8127,
      "Ġpathways": 8128,
      "Ġexcellence": 8129,
      "Ġviruses": 8130,
      "Ġpromising": 8131,
      "Based": 8132,
      "list": 8133,
      "Ġamb": 8134,
      "Ġoven": 8135,
      "ĠTal": 8136,
      "ĠBat": 8137,
      "ĠFederal": 8138,
      "Ġcompassion": 8139,
      "riction": 8140,
      "Ġanywhere": 8141,
      "Ġparticipation": 8142,
      "ĠInstallation": 8143,
      "Ġfatty": 8144,
      "Ġpicture": 8145,
      "Ġpictures": 8146,
      "âĦ¢": 8147,
      "18": 8148,
      "40": 8149,
      "Ġouter": 8150,
      "ouch": 8151,
      "ĠAer": 8152,
      "Ġgift": 8153,
      "Ġstabil": 8154,
      "ĠInj": 8155,
      "ĠMotor": 8156,
      "Ġquantum": 8157,
      "ĠIndepend": 8158,
      "ĠMeasuring": 8159,
      "Ġobtaining": 8160,
      "Ġconcern": 8161,
      "ĠTwitter": 8162,
      "Ġvolunteer": 8163,
      "ĠHotel": 8164,
      "Ġdemocratic": 8165,
      "Ġtheft": 8166,
      "Ġpip": 8167,
      "Ġcoming": 8168,
      "Ġtrauma": 8169,
      "Ġcoaching": 8170,
      "Ġsilver": 8171,
      "ĠAndroid": 8172,
      "Ġstitch": 8173,
      "ĠMis": 8174,
      "Ġhighlight": 8175,
      "Ġstylish": 8176,
      "Ġdirectory": 8177,
      "Ġopposing": 8178,
      "Ġdisplayed": 8179,
      "Ġentity": 8180,
      "!<": 8181,
      "Ġring": 8182,
      "Ġexpert": 8183,
      "Ġemotion": 8184,
      "Ġcurrently": 8185,
      "ĠInflu": 8186,
      "Ġgarage": 8187,
      "ocolate": 8188,
      "raulic": 8189,
      "name": 8190,
      "Ġtough": 8191,
      "Ġbit": 8192,
      "Ġdos": 8193,
      "ĠLive": 8194,
      "ĠCompare": 8195,
      "Ġworkshops": 8196,
      "Ġinspection": 8197,
      "ĠPatients": 8198,
      "Press": 8199,
      "tops": 8200,
      "itches": 8201,
      "ĠExpos": 8202,
      "times": 8203,
      "Ġcorrec": 8204,
      "Ġemails": 8205,
      "Ġobtained": 8206,
      "Ġvitamin": 8207,
      "ĠCampaign": 8208,
      "Ġapproximately": 8209,
      "Ġsle": 8210,
      "Ġbands": 8211,
      "entives": 8212,
      "Ġdevelopments": 8213,
      "Ġlived": 8214,
      "Ġprotects": 8215,
      "Ġmodule": 8216,
      "Ġconsideration": 8217,
      "Ġfacial": 8218,
      "ota": 8219,
      "tious": 8220,
      "ĠMaster": 8221,
      "ĠItaly": 8222,
      "ĠCommit": 8223,
      "ĠYear": 8224,
      "ĠAmericans": 8225,
      "ĠBreast": 8226,
      "ĠBlood": 8227,
      "Ġhabitats": 8228,
      "Ġearthqu": 8229,
      "gu": 8230,
      "makers": 8231,
      "Ġions": 8232,
      "ĠSup": 8233,
      "ĠVic": 8234,
      "ĠProced": 8235,
      "Ġdetecting": 8236,
      "Ġforming": 8237,
      "Ġintensity": 8238,
      "Ġscreening": 8239,
      "Ġgameplay": 8240,
      "Ġmanipulation": 8241,
      "Ġextended": 8242,
      "Ġrelatively": 8243,
      "Ġtheater": 8244,
      "alities": 8245,
      "Ġexist": 8246,
      "ĠBle": 8247,
      "Ġinstruction": 8248,
      "Ġequitable": 8249,
      "ĠSurgery": 8250,
      "tifacts": 8251,
      "Ġwatching": 8252,
      "ĠPatient": 8253,
      "DM": 8254,
      "Ġsod": 8255,
      "Ġfiction": 8256,
      "Ġsupported": 8257,
      "Ġnotice": 8258,
      "ĠRetail": 8259,
      "Ġreplacement": 8260,
      "Ġhybrid": 8261,
      "ĠLinux": 8262,
      "ĠAmazon": 8263,
      "atur": 8264,
      "Ġfinger": 8265,
      "Ġmale": 8266,
      "ĠHaving": 8267,
      "Ġcoating": 8268,
      "Ġenjo": 8269,
      "Ġoccurring": 8270,
      "Ġindicators": 8271,
      "ĠTrends": 8272,
      "Ġconfiguration": 8273,
      "fund": 8274,
      "nic": 8275,
      "tely": 8276,
      "Ġrev": 8277,
      "Ġlun": 8278,
      "Ġkeywords": 8279,
      "Ġplacement": 8280,
      "speed": 8281,
      "ĠPhoto": 8282,
      "Ġdividend": 8283,
      "Ġsubstrate": 8284,
      "linary": 8285,
      "otic": 8286,
      "ircles": 8287,
      "Ġcharity": 8288,
      "Ġdepos": 8289,
      "Ġcurriculum": 8290,
      "ĠSkin": 8291,
      "olesterol": 8292,
      "ĠOthers": 8293,
      "Ġjournalism": 8294,
      "ĠUrban": 8295,
      "MO": 8296,
      "Ġcompletely": 8297,
      "Ġcharts": 8298,
      "ĠBeing": 8299,
      "Ġnutritional": 8300,
      "ĠThroughout": 8301,
      "ĠBalance": 8302,
      "family": 8303,
      "16": 8304,
      "aped": 8305,
      "Ġchurch": 8306,
      "elfare": 8307,
      "ĠAdap": 8308,
      "Ġsyndrome": 8309,
      "ĠSpeed": 8310,
      "Ġesc": 8311,
      "redient": 8312,
      "ĠGuide": 8313,
      "Ġmoments": 8314,
      "Ġsummarize": 8315,
      "log": 8316,
      "ĠStore": 8317,
      "ĠHealthy": 8318,
      "Ġdifficulties": 8319,
      "Ġbranding": 8320,
      "bial": 8321,
      "athe": 8322,
      "ĠTurn": 8323,
      "lymp": 8324,
      "ĠDJ": 8325,
      "Ġcalculations": 8326,
      "Ġnumerical": 8327,
      "Ġaccountability": 8328,
      "atomy": 8329,
      "Ġprompt": 8330,
      "ĠConcrete": 8331,
      "ysts": 8332,
      "ĠOlymp": 8333,
      "Ġrepeti": 8334,
      "Ġvisible": 8335,
      "Ġconcentr": 8336,
      "Ġaccommodation": 8337,
      "itrogen": 8338,
      "ĠEnsure": 8339,
      "ĠPublished": 8340,
      "Ġjuice": 8341,
      "fl": 8342,
      "ĠCub": 8343,
      "Ġreact": 8344,
      "Ġimpress": 8345,
      "istent": 8346,
      "ĠJazz": 8347,
      "Ġmetrics": 8348,
      "ĠUses": 8349,
      "Ġcontributing": 8350,
      "tility": 8351,
      "Ġmicroorganisms": 8352,
      "Ġvote": 8353,
      "ĠStarted": 8354,
      "ĠSecondly": 8355,
      "Ġdemocracy": 8356,
      "Ġkidney": 8357,
      "ĠRNA": 8358,
      "ĠGain": 8359,
      "Ġdiscrimination": 8360,
      "ĠExt": 8361,
      "Ġ196": 8362,
      "Ġreplacing": 8363,
      "Ġsurvive": 8364,
      "Ġisolation": 8365,
      "ĠGermany": 8366,
      "estr": 8367,
      "Ġthing": 8368,
      "Ġyellow": 8369,
      "Ġroutes": 8370,
      "Ġinser": 8371,
      "Ġboards": 8372,
      "Ġeventually": 8373,
      "Ġcourts": 8374,
      "ĠBuild": 8375,
      "Ġbeginner": 8376,
      "Ġgardens": 8377,
      "ĠLGBT": 8378,
      "HA": 8379,
      "Ġmes": 8380,
      "Ġbeam": 8381,
      "ĠMor": 8382,
      "ĠNative": 8383,
      "Ġarithmetic": 8384,
      "ĠArtis": 8385,
      "Ġgrad": 8386,
      "ĠMeet": 8387,
      "Ġqualified": 8388,
      "Ġvoting": 8389,
      "Ġsentence": 8390,
      "ĠVacc": 8391,
      "ĠWebsite": 8392,
      "Ġproof": 8393,
      "Ġanything": 8394,
      "keep": 8395,
      "Ġherbs": 8396,
      "Ġtested": 8397,
      "Ġacquiring": 8398,
      "ĠDebate": 8399,
      "Ġrevolutionized": 8400,
      "Ġreceptor": 8401,
      "ĠAssociation": 8402,
      "Ns": 8403,
      "Ġharness": 8404,
      "Ġcomedy": 8405,
      "Ġvi": 8406,
      "Ġattor": 8407,
      "Ġcoach": 8408,
      "Ġmodes": 8409,
      "Ġ198": 8410,
      "Ġshoe": 8411,
      "Ġconventional": 8412,
      "Ġmelody": 8413,
      "ĠAR": 8414,
      "olar": 8415,
      "Ġdestro": 8416,
      "Ġnewsp": 8417,
      "Ġrelates": 8418,
      "Ġwriters": 8419,
      "diction": 8420,
      "Ġfermentation": 8421,
      "Ġbacterial": 8422,
      "Ġimmigration": 8423,
      "Ġobjectively": 8424,
      "ica": 8425,
      "entilation": 8426,
      "Ġaccessed": 8427,
      "Ġconditioning": 8428,
      "ĠParty": 8429,
      "lammatory": 8430,
      "ĠUSB": 8431,
      "mmar": 8432,
      "side": 8433,
      "Ġpets": 8434,
      "ĠPet": 8435,
      "ĠDivers": 8436,
      "ĠFix": 8437,
      "Ġsoap": 8438,
      "Ġstructured": 8439,
      "Ġsensitivity": 8440,
      "Ġshots": 8441,
      "Ġviewers": 8442,
      "Ġbringing": 8443,
      "Ġwait": 8444,
      "ĠFunction": 8445,
      "Ġultimately": 8446,
      "Ġmagaz": 8447,
      "iar": 8448,
      "ĠSources": 8449,
      "Ġhorses": 8450,
      "Ġbegins": 8451,
      "ĠDI": 8452,
      "Ġunders": 8453,
      "Ġsmoking": 8454,
      "Ġcorresp": 8455,
      "ĠPhotos": 8456,
      "Ġtriangle": 8457,
      "Ġamplif": 8458,
      "income": 8459,
      "ĠChain": 8460,
      "uming": 8461,
      "ĠPlants": 8462,
      "Ġchest": 8463,
      "ĠNext": 8464,
      "ĠRussia": 8465,
      "ĠDatab": 8466,
      "manship": 8467,
      "Ġcables": 8468,
      "Ġbold": 8469,
      "loper": 8470,
      "Ġhem": 8471,
      "Ġformats": 8472,
      "Ġflash": 8473,
      "Ġsupplements": 8474,
      "ĠStudying": 8475,
      "ĠPlaying": 8476,
      "ogenic": 8477,
      "Ġimagination": 8478,
      "Ġdifferentiate": 8479,
      "perture": 8480,
      "ĠNucle": 8481,
      "Ġartifacts": 8482,
      "Ġstudied": 8483,
      "ĠCommission": 8484,
      "Ġends": 8485,
      "Ġrepairing": 8486,
      "Ġretailers": 8487,
      "Ġstroke": 8488,
      "Ġopposite": 8489,
      "ĠMexico": 8490,
      "ĠPreventing": 8491,
      "allel": 8492,
      "Ġsession": 8493,
      "Ġsudden": 8494,
      "ectious": 8495,
      "Ġstations": 8496,
      "duced": 8497,
      "ĠMich": 8498,
      "Ġshop": 8499,
      "Ġorganizational": 8500,
      "Ġceramic": 8501,
      "ĠTraffic": 8502,
      "ĠSelection": 8503,
      "Ġactual": 8504,
      "Ġchannel": 8505,
      "Ġmutations": 8506,
      "Ġrecycled": 8507,
      "Ġenthusi": 8508,
      "Ġunnecessary": 8509,
      "estic": 8510,
      "Ġcope": 8511,
      "ĠSch": 8512,
      "Ġadvertise": 8513,
      "rylic": 8514,
      "ĠExposure": 8515,
      "rical": 8516,
      "ĠPresent": 8517,
      "Ġscrap": 8518,
      "Ġshareholders": 8519,
      "ĠDiffic": 8520,
      "500": 8521,
      "LL": 8522,
      "Rs": 8523,
      "Ġproceed": 8524,
      "ĠPH": 8525,
      "ĠBank": 8526,
      "Ġvia": 8527,
      "ocols": 8528,
      "Ġjoy": 8529,
      "aved": 8530,
      "ĠResidential": 8531,
      "Ġvend": 8532,
      "ocket": 8533,
      "Ġdiscovered": 8534,
      "Ġstreaming": 8535,
      "Ġclothes": 8536,
      "Ġimmersive": 8537,
      "',": 8538,
      "FC": 8539,
      "gia": 8540,
      "pay": 8541,
      "zer": 8542,
      "Ġtab": 8543,
      "icacy": 8544,
      "ĠISO": 8545,
      "Ġleaks": 8546,
      "oken": 8547,
      "Ġsket": 8548,
      "ĠRecycling": 8549,
      "Ġmention": 8550,
      "ĠEmployment": 8551,
      "Ġsmartphone": 8552,
      "ĠCapital": 8553,
      "ĠCourse": 8554,
      "pack": 8555,
      "uition": 8556,
      "Ġbad": 8557,
      "tatic": 8558,
      "Ġshift": 8559,
      "Ġsends": 8560,
      "gestion": 8561,
      "Ġshowing": 8562,
      "ĠAlways": 8563,
      "ĠDivid": 8564,
      "Ġhorizon": 8565,
      "Ġdrinking": 8566,
      "Ġdemonstrates": 8567,
      "Ġpremium": 8568,
      "ĠCorporate": 8569,
      "Ġfixtures": 8570,
      "ĠAccounting": 8571,
      "gar": 8572,
      "ĠConsequences": 8573,
      "ourcing": 8574,
      "Ġedit": 8575,
      "Ġcalm": 8576,
      "ĠBegin": 8577,
      "Ġadventure": 8578,
      ".)": 8579,
      "bb": 8580,
      "bell": 8581,
      "iate": 8582,
      "mers": 8583,
      "writing": 8584,
      "Ġmath": 8585,
      "ĠBox": 8586,
      "Ġarchitects": 8587,
      "Ġregister": 8588,
      "ĠDisplay": 8589,
      "ĠComparing": 8590,
      "ĠTransfer": 8591,
      "Ġtablets": 8592,
      "Ġcoordinating": 8593,
      "ĠIntelligence": 8594,
      "Ġfaith": 8595,
      "CS": 8596,
      "Ġpepti": 8597,
      "Ġfalse": 8598,
      "Ġretention": 8599,
      "Ġstars": 8600,
      "tries": 8601,
      "ĠMost": 8602,
      "ĠLi": 8603,
      "iesel": 8604,
      "Ġfinished": 8605,
      "ivered": 8606,
      "Ġlooks": 8607,
      "Ġsurroundings": 8608,
      "mble": 8609,
      "Ġpandemic": 8610,
      "etary": 8611,
      "Ġord": 8612,
      "Ġpersu": 8613,
      "Ġdetermination": 8614,
      "Ġreleases": 8615,
      "ĠObjectives": 8616,
      "Ġlaboratory": 8617,
      "ĠConnect": 8618,
      "Ġallocate": 8619,
      "fers": 8620,
      "Ġtheories": 8621,
      "Ġbones": 8622,
      "Ġlenses": 8623,
      "ĠMc": 8624,
      "ĠLoss": 8625,
      "istrative": 8626,
      "Ġpolish": 8627,
      "ĠShow": 8628,
      "ĠRecogn": 8629,
      "Ġdelays": 8630,
      "ĠWordPress": 8631,
      "RP": 8632,
      "ham": 8633,
      "Ġdemograph": 8634,
      "ĠFo": 8635,
      "icals": 8636,
      "ĠWeather": 8637,
      "Ġexpressing": 8638,
      "ĠInvestig": 8639,
      "ĠCrim": 8640,
      "ĠOrganization": 8641,
      "ometers": 8642,
      "Ġlicense": 8643,
      "ĠCharacteristics": 8644,
      "Ġventure": 8645,
      "Ġaroma": 8646,
      "ĠÎ": 8647,
      "ĠSS": 8648,
      "Ġho": 8649,
      "ĠRou": 8650,
      "Ġproductive": 8651,
      "Ġpolynom": 8652,
      "Ġsecurely": 8653,
      "itcoin": 8654,
      "Ġtenant": 8655,
      "Ġfulfill": 8656,
      "ĠTexas": 8657,
      "BC": 8658,
      "RNA": 8659,
      "teries": 8660,
      "Ġlig": 8661,
      "Ġspac": 8662,
      "Ġtele": 8663,
      "phy": 8664,
      "ĠInterior": 8665,
      "Ġassembly": 8666,
      "ĠNursing": 8667,
      "cue": 8668,
      "inator": 8669,
      "veloper": 8670,
      "ĠIniti": 8671,
      "Ġexhaust": 8672,
      "ĠBot": 8673,
      "Ġvo": 8674,
      "ĠGh": 8675,
      "Ġhelpful": 8676,
      "ateral": 8677,
      "ĠAnn": 8678,
      "ĠAnimal": 8679,
      "Ġsurge": 8680,
      "Ġaviation": 8681,
      "Ġencouraging": 8682,
      "Ġbulbs": 8683,
      "Ġhormones": 8684,
      "Ġrestrictions": 8685,
      "Ġawarded": 8686,
      "ĠContinuous": 8687,
      "Ġexceptional": 8688,
      "mits": 8689,
      "ports": 8690,
      "ened": 8691,
      "ora": 8692,
      "ĠIde": 8693,
      "ĠMag": 8694,
      "troll": 8695,
      "lder": 8696,
      "Ġdesk": 8697,
      "ĠWeight": 8698,
      "Ġsafer": 8699,
      "ĠAddition": 8700,
      "ĠUsers": 8701,
      "Ġtasting": 8702,
      "Ġdelivered": 8703,
      "Ġdecorations": 8704,
      "Ġpolymer": 8705,
      "Ġholiday": 8706,
      "ĠStandard": 8707,
      "AS": 8708,
      "lob": 8709,
      "ĠTherm": 8710,
      "urric": 8711,
      "Ġvaries": 8712,
      "ĠMari": 8713,
      "Ġrhyth": 8714,
      "redic": 8715,
      "Ġeditor": 8716,
      "Ġextensive": 8717,
      "Ġmassage": 8718,
      "ĠExpressions": 8719,
      "ĠIsrael": 8720,
      "Ġslightly": 8721,
      "kin": 8722,
      "Ġparas": 8723,
      "Ġoccasion": 8724,
      "ymakers": 8725,
      "Ġturns": 8726,
      "Ġdiscipline": 8727,
      "entral": 8728,
      "Ġyet": 8729,
      "Ġconferences": 8730,
      "izable": 8731,
      "ĠUN": 8732,
      "ĠExchange": 8733,
      "ĠSea": 8734,
      "Ġchemotherapy": 8735,
      "Ġorigins": 8736,
      "Ġfrequently": 8737,
      "icide": 8738,
      "Ġdie": 8739,
      "ĠLif": 8740,
      "ĠListing": 8741,
      "racing": 8742,
      "Ġkit": 8743,
      "Ġlearners": 8744,
      "Ġtiming": 8745,
      "rayer": 8746,
      "Ġphenomena": 8747,
      "ĠLibrary": 8748,
      "ĠProbability": 8749,
      "aft": 8750,
      "Ġâ": 8751,
      "Ġbeach": 8752,
      "Ġmodified": 8753,
      "Ġbaseball": 8754,
      "Ġupper": 8755,
      "Ġscreens": 8756,
      "son": 8757,
      "Ġhook": 8758,
      "iral": 8759,
      "ticing": 8760,
      "ĠBab": 8761,
      "Ġseamless": 8762,
      "lecular": 8763,
      "Ġunable": 8764,
      "Ġtransplant": 8765,
      "working": 8766,
      "Ġfluctu": 8767,
      "Ġfragr": 8768,
      "Ġconstraints": 8769,
      "ĠBreak": 8770,
      "ĠBetter": 8771,
      "ĠTemperature": 8772,
      "dies": 8773,
      "matic": 8774,
      "Ġtires": 8775,
      "alian": 8776,
      "aked": 8777,
      "ĠCondition": 8778,
      "Ġliabilities": 8779,
      "issors": 8780,
      "Ġtravelers": 8781,
      "Ġsteady": 8782,
      "ĠStandards": 8783,
      "ĠChristmas": 8784,
      "Ġsimultaneously": 8785,
      "Ġtoys": 8786,
      "ĠPil": 8787,
      "ĠMagnetic": 8788,
      "Ġinfected": 8789,
      "Ġkeys": 8790,
      "ĠComplex": 8791,
      "Ġtemplate": 8792,
      "ĠSeries": 8793,
      "Ġfranch": 8794,
      "ĠBuying": 8795,
      "Ġnegotiating": 8796,
      "Ġcontamination": 8797,
      "ĠShopping": 8798,
      "ĠKnowledge": 8799,
      "Ġrobots": 8800,
      "east": 8801,
      "inity": 8802,
      "ĠFair": 8803,
      "ria": 8804,
      "Ġadequ": 8805,
      "Ġkil": 8806,
      "Ġservers": 8807,
      "ĠTrust": 8808,
      "Ġcontributed": 8809,
      "Ġtimeline": 8810,
      "Ġconsume": 8811,
      "Ġcivilizations": 8812,
      "Ġpharmac": 8813,
      "ĠMachine": 8814,
      "Ġimmediately": 8815,
      "Ġrecreational": 8816,
      "Ġintake": 8817,
      "ĠAD": 8818,
      "rared": 8819,
      "ĠMa": 8820,
      "ĠRepe": 8821,
      "ĠRegulatory": 8822,
      "Ġfloors": 8823,
      "Ġprogression": 8824,
      "Ġspeaker": 8825,
      "Ġresolving": 8826,
      "ĠGraphic": 8827,
      "Ġlinked": 8828,
      "ĠInstructions": 8829,
      "onia": 8830,
      "Ġdating": 8831,
      "aceful": 8832,
      "ĠBay": 8833,
      "Ġattracting": 8834,
      "Ġtransl": 8835,
      "Ġbackup": 8836,
      "Ġmachinery": 8837,
      "Ġmindset": 8838,
      "Ġnearby": 8839,
      "Ġhunting": 8840,
      "Ġprostate": 8841,
      "ĠPor": 8842,
      "ĠHab": 8843,
      "Ġrestor": 8844,
      "ĠSculp": 8845,
      "Ġdefects": 8846,
      "Ġpresenting": 8847,
      "Ġbroken": 8848,
      "ĠBasketball": 8849,
      "Ġjoints": 8850,
      "Ġpermanent": 8851,
      "Ġbrought": 8852,
      "ida": 8853,
      "Ġorient": 8854,
      "Ġplacing": 8855,
      "Ġachievable": 8856,
      "Ġlooked": 8857,
      "Ġcostly": 8858,
      "Ġseller": 8859,
      "Ġ2018": 8860,
      "Ġverify": 8861,
      "ĠAmenities": 8862,
      "ĠStrong": 8863,
      "Ġcategory": 8864,
      "Ġvictims": 8865,
      "Ġfacilitate": 8866,
      "Ġwashing": 8867,
      "))": 8868,
      "RE": 8869,
      "writ": 8870,
      "ĠBut": 8871,
      "ĠFem": 8872,
      "ĠFuel": 8873,
      "ĠFestiv": 8874,
      "Ġsellers": 8875,
      "ĠIsland": 8876,
      "connected": 8877,
      "ĠFlexibility": 8878,
      "ĠEmotional": 8879,
      "Ġcro": 8880,
      "Ġmotors": 8881,
      "illance": 8882,
      "ĠMap": 8883,
      "ĠFurther": 8884,
      "Ġshock": 8885,
      "Ġlosing": 8886,
      "ĠCompos": 8887,
      "Ġfacts": 8888,
      "Ġdamages": 8889,
      "ĠRepair": 8890,
      "Ġathlete": 8891,
      "ocytes": 8892,
      "ĠGreece": 8893,
      "Ġdiameter": 8894,
      "ĠHospital": 8895,
      "Ġantibiotics": 8896,
      "can": 8897,
      "ject": 8898,
      "este": 8899,
      "nders": 8900,
      "eng": 8901,
      "uctions": 8902,
      "ĠMoun": 8903,
      "ipher": 8904,
      "ĠGreek": 8905,
      "Ġrocks": 8906,
      "ĠExec": 8907,
      "Ġoperator": 8908,
      "ĠTexture": 8909,
      "titudes": 8910,
      "Ġdrum": 8911,
      "Ġevaluated": 8912,
      "Ġframes": 8913,
      "Ġabsorption": 8914,
      "Ġbrowser": 8915,
      "ĠDurability": 8916,
      "Com": 8917,
      "function": 8918,
      "Ġcodes": 8919,
      "Ġpod": 8920,
      "Ġborder": 8921,
      "ĠBur": 8922,
      "Ġchord": 8923,
      "Ġsending": 8924,
      "Ġconsisting": 8925,
      "Ġtrap": 8926,
      "assment": 8927,
      "obe": 8928,
      "Ġ80": 8929,
      "Ġdocumentation": 8930,
      "Ġobserve": 8931,
      "ĠInterest": 8932,
      "Ġvoters": 8933,
      "17": 8934,
      "Ġster": 8935,
      "ĠIce": 8936,
      "Ġhiking": 8937,
      "Ġenabling": 8938,
      "ĠPrivacy": 8939,
      "immune": 8940,
      "Ġmapping": 8941,
      "ĠMilitary": 8942,
      "Ġbeta": 8943,
      "Ġdeck": 8944,
      "Ġingredient": 8945,
      "Ġlyrics": 8946,
      "ĠSimilarly": 8947,
      "wall": 8948,
      "inates": 8949,
      "Ġbass": 8950,
      "arter": 8951,
      "ĠTom": 8952,
      "Ġthr": 8953,
      "Ġencryption": 8954,
      "Ġsequences": 8955,
      "lows": 8956,
      "Ġperce": 8957,
      "ĠComprehens": 8958,
      "ĠRecovery": 8959,
      "Ġgeography": 8960,
      "Ġwelding": 8961,
      "Ġtall": 8962,
      "Ġfather": 8963,
      "ĠPD": 8964,
      "iveness": 8965,
      "ĠResistance": 8966,
      "ĠComparison": 8967,
      "Ġpossess": 8968,
      "Ġ2016": 8969,
      "Ġevolve": 8970,
      "Ġtumors": 8971,
      "Ġnurses": 8972,
      "Ġbelonging": 8973,
      "ĠPoetry": 8974,
      "ĠAdministration": 8975,
      "long": 8976,
      "tosis": 8977,
      "ĠLatin": 8978,
      "Ġvalves": 8979,
      "velength": 8980,
      "Ġcorruption": 8981,
      "Ġwriter": 8982,
      "Ġcollaborative": 8983,
      "Ġelectromagnetic": 8984,
      "Ġinterpretation": 8985,
      "ĠWireless": 8986,
      "Ġcouples": 8987,
      "14": 8988,
      "ĠEvolution": 8989,
      "ĠMen": 8990,
      "ĠFitness": 8991,
      "Ġconsulting": 8992,
      "Ġbudgeting": 8993,
      "Ġvacuum": 8994,
      "ĠSurve": 8995,
      "Ġearned": 8996,
      "Ġirrit": 8997,
      "Ġlegislation": 8998,
      "ĠHigher": 8999,
      "aired": 9000,
      "}{": 9001,
      "Ġtor": 9002,
      "rem": 9003,
      "orption": 9004,
      "Ġsperm": 9005,
      "Ġlogo": 9006,
      "Ġclarity": 9007,
      "ĠQual": 9008,
      "Ġpolitic": 9009,
      "ĠPoll": 9010,
      "Ġcaptures": 9011,
      "Ġnegotiation": 9012,
      "ĠâĢľ": 9013,
      "ya": 9014,
      "Ġreaching": 9015,
      "ĠSatellite": 9016,
      "Ġstem": 9017,
      "ĠMore": 9018,
      "tees": 9019,
      "Ġcholesterol": 9020,
      "Ġunf": 9021,
      "Ġcartr": 9022,
      "Ġemergencies": 9023,
      "ĠBranding": 9024,
      "ĠOutdoor": 9025,
      "ĠTourism": 9026,
      "nas": 9027,
      "Ġtag": 9028,
      "Ġcord": 9029,
[...]
