{
  "version": "1.0",
  "truncation": null,
  "padding": null,
  "added_tokens": [
    {
      "id": 0,
      "content": "<unk>",
      "single_word": false,
      "lstrip": false,
      "rstrip": false,
      "normalized": false,
      "special": true
    },
    {
      "id": 1,
      "content": "<pad>",
      "single_word": false,
      "lstrip": false,
      "rstrip": false,
      "normalized": false,
      "special": true
    },
    {
      "id": 2,
      "content": "<bos>",
      "single_word": false,
      "lstrip": false,
      "rstrip": false,
      "normalized": false,
      "special": true
    },
    {
      "id": 3,
      "content": "<eos>",
      "single_word": false,
      "lstrip": false,
      "rstrip": false,
      "normalized": false,
      "special": true
    }
  ],
  "normalizer": null,
  "pre_tokenizer": {
    "type": "Whitespace"
  },
  "post_processor": null,
  "decoder": {
    "type": "ByteLevel",
    "add_prefix_space": true,
    "trim_offsets": true,
    "use_regex": true
  },
  "model": {
    "type": "BPE",
    "dropout": null,
    "unk_token": "<unk>",
    "continuing_subword_prefix": null,
    "end_of_word_suffix": null,
    "fuse_unk": false,
    "byte_fallback": false,
    "ignore_merges": false,
    "vocab": {
      "<unk>": 0,
      "<pad>": 1,
      "<bos>": 2,
      "<eos>": 3,
      "!": 4,
      "\"": 5,
      "#": 6,
      "$": 7,
      "%": 8,
      "&": 9,
      "'": 10,
      "(": 11,
      ")": 12,
      "*": 13,
      "+": 14,
      ",": 15,
      "-": 16,
      ".": 17,
      "/": 18,
      "0": 19,
      "1": 20,
      "2": 21,
      "3": 22,
      "4": 23,
      "5": 24,
      "6": 25,
      "7": 26,
      "8": 27,
      "9": 28,
      ":": 29,
      ";": 30,
      "<": 31,
      "=": 32,
      ">": 33,
      "?": 34,
      "@": 35,
      "A": 36,
      "B": 37,
      "C": 38,
      "D": 39,
      "E": 40,
      "F": 41,
      "G": 42,
      "H": 43,
      "I": 44,
      "J": 45,
      "K": 46,
      "L": 47,
      "M": 48,
      "N": 49,
      "O": 50,
      "P": 51,
      "Q": 52,
      "R": 53,
      "S": 54,
      "T": 55,
      "U": 56,
      "V": 57,
      "W": 58,
      "X": 59,
      "Y": 60,
      "Z": 61,
      "[": 62,
      "\\": 63,
      "]": 64,
      "^": 65,
      "_": 66,
      "`": 67,
      "a": 68,
      "b": 69,
      "c": 70,
      "d": 71,
      "e": 72,
      "f": 73,
      "g": 74,
      "h": 75,
      "i": 76,
      "j": 77,
      "k": 78,
      "l": 79,
      "m": 80,
      "n": 81,
      "o": 82,
      "p": 83,
      "q": 84,
      "r": 85,
      "s": 86,
      "t": 87,
      "u": 88,
      "v": 89,
      "w": 90,
      "x": 91,
      "y": 92,
      "z": 93,
      "{": 94,
      "|": 95,
      "}": 96,
      "~": 97,
      "¡": 98,
      "¦": 99,
      "©": 100,
      "«": 101,
      "­": 102,
      "±": 103,
      "³": 104,
      "´": 105,
      "¶": 106,
      "»": 107,
      "Â": 108,
      "Ã": 109,
      "â": 110,
      "œ": 111,
      "Š": 112,
      "˜": 113,
      "“": 114,
      "”": 115,
      "•": 116,
      "‰": 117,
      "‹": 118,
      "€": 119,
      "™": 120,
      "he": 121,
      "an": 122,
      "the": 123,
      "ed": 124,
      "and": 125,
      "to": 126,
      "in": 127,
      "re": 128,
      "wa": 129,
      "ou": 130,
      "it": 131,
      "ha": 132,
      "er": 133,
      "was": 134,
      "\"\"": 135,
      "om": 136,
      "en": 137,
      "on": 138,
      "ar": 139,
      "The": 140,
      "is": 141,
      "ing": 142,
      "il": 143,
      "sa": 144,
      "id": 145,
      "le": 146,
      "ay": 147,
      "im": 148,
      "lo": 149,
      "al": 150,
      "st": 151,
      "or": 152,
      "her": 153,
      "He": 154,
      "She": 155,
      "ir": 156,
      "th": 157,
      "They": 158,
      "be": 159,
      "ne": 160,
      "ver": 161,
      "hat": 162,
      "ut": 163,
      "se": 164,
      "ke": 165,
      "at": 166,
      "ld": 167,
      "no": 168,
      "ce": 169,
      "ck": 170,
      "am": 171,
      "ve": 172,
      "ig": 173,
      "ily": 174,
      "said": 175,
      "she": 176,
      "pl": 177,
      "pp": 178,
      "ith": 179,
      "of": 180,
      "with": 181,
      "his": 182,
      "ri": 183,
      "ad": 184,
      "Lily": 185,
      "un": 186,
      "so": 187,
      "ked": 188,
      "day": 189,
      "ly": 190,
      "you": 191,
      "very": 192,
      "ome": 193,
      "we": 194,
      "li": 195,
      "that": 196,
      "up": 197,
      "my": 198,
      "go": 199,
      "ow": 200,
      "ant": 201,
      "ch": 202,
      "had": 203,
      "as": 204,
      "es": 205,
      "play": 206,
      "they": 207,
      "for": 208,
      "fe": 209,
      "mom": 210,
      "nd": 211,
      "ould": 212,
      "all": 213,
      "end": 214,
      "happ": 215,
      "bo": 216,
      "ent": 217,
      "itt": 218,
      "ge": 219,
      "want": 220,
      "ok": 221,
      "tim": 222,
      "are": 223,
      "It": 224,
      "out": 225,
      "do": 226,
      "ro": 227,
      "ound": 228,
      "not": 229,
      "ittle": 230,
      "time": 231,
      "ther": 232,
      "there": 233,
      "little": 234,
      ".\"": 235,
      "happy": 236,
      "ra": 237,
      "ht": 238,
      "sh": 239,
      "ry": 240,
      "big": 241,
      "sm": 242,
      "but": 243,
      "saw": 244,
      "ake": 245,
      "ys": 246,
      "riend": 247,
      "friend": 248,
      "ter": 249,
      "thing": 250,
      "ack": 251,
      "some": 252,
      "ul": 253,
      ".\"\"": 254,
      "One": 255,
      "ide": 256,
      "one": 257,
      "Tim": 258,
      "On": 259,
      "ved": 260,
      "ug": 261,
      "Once": 262,
      "were": 263,
      "!\"\"": 264,
      "ho": 265,
      "him": 266,
      "car": 267,
      "irl": 268,
      "pe": 269,
      "wanted": 270,
      "upon": 271,
      "girl": 272,
      "el": 273,
      "ful": 274,
      "them": 275,
      "Tom": 276,
      "ur": 277,
      "ind": 278,
      "ill": 279,
      "ag": 280,
      "could": 281,
      "their": 282,
      "Ben": 283,
      "did": 284,
      "co": 285,
      "me": 286,
      "smil": 287,
      "ex": 288,
      "mo": 289,
      "hen": 290,
      "have": 291,
      "went": 292,
      "rom": 293,
      "But": 294,
      "hel": 295,
      "ted": 296,
      "new": 297,
      "de": 298,
      "can": 299,
      "od": 300,
      "nam": 301,
      "ight": 302,
      "friends": 303,
      "help": 304,
      "hed": 305,
      "um": 306,
      "ab": 307,
      "fel": 308,
      "way": 309,
      "back": 310,
      "?\"\"": 311,
      "ain": 312,
      "side": 313,
      "fun": 314,
      "ic": 315,
      "par": 316,
      "man": 317,
      "fo": 318,
      "Timmy": 319,
      "like": 320,
      "ran": 321,
      "too": 322,
      "You": 323,
      "star": 324,
      "named": 325,
      "po": 326,
      "loved": 327,
      "oug": 328,
      "low": 329,
      "smiled": 330,
      "loo": 331,
      "felt": 332,
      "la": 333,
      "sto": 334,
      "around": 335,
      "asked": 336,
      "ard": 337,
      "ick": 338,
      "looked": 339,
      "see": 340,
      "own": 341,
      "ame": 342,
      "et": 343,
      "pr": 344,
      "Mom": 345,
      "ure": 346,
      "would": 347,
      "bir": 348,
      "make": 349,
      "wor": 350,
      "boy": 351,
      "fa": 352,
      "ong": 353,
      "now": 354,
      "gr": 355,
      "other": 356,
      "ll": 357,
      "bird": 358,
      "park": 359,
      "mad": 360,
      "what": 361,
      "op": 362,
      "tre": 363,
      "away": 364,
      "ice": 365,
      "ca": 366,
      "gether": 367,
      "started": 368,
      "ss": 369,
      "oud": 370,
      "made": 371,
      "something": 372,
      "came": 373,
      ",\"\"": 374,
      "dd": 375,
      "together": 376,
      "ts": 377,
      "ited": 378,
      "says": 379,
      "put": 380,
      "sad": 381,
      "got": 382,
      "na": 383,
      "get": 384,
      "exc": 385,
      "look": 386,
      "from": 387,
      "home": 388,
      "again": 389,
      "scar": 390,
      "mu": 391,
      "if": 392,
      "ach": 393,
      "who": 394,
      "ue": 395,
      "then": 396,
      "dec": 397,
      "found": 398,
      "good": 399,
      "wal": 400,
      "ie": 401,
      "ried": 402,
      "ci": 403,
      "br": 404,
      "pped": 405,
      "ep": 406,
      "when": 407,
      "more": 408,
      "king": 409,
      "hug": 410,
      "playing": 411,
      "ought": 412,
      "ally": 413,
      "ave": 414,
      "things": 415,
      "excited": 416,
      "by": 417,
      "Sam": 418,
      "ided": 419,
      "liked": 420,
      "decided": 421,
      "every": 422,
      "ous": 423,
      "der": 424,
      "us": 425,
      "spe": 426,
      "ouse": 427,
      "ny": 428,
      "ara": 429,
      "care": 430,
      "use": 431,
      "down": 432,
      "scared": 433,
      "An": 434,
      "than": 435,
      "ru": 436,
      "ax": 437,
      "ac": 438,
      "find": 439,
      "dog": 440,
      "pre": 441,
      "your": 442,
      "sha": 443,
      "take": 444,
      "feel": 445,
      "jo": 446,
      "ate": 447,
      "ways": 448,
      "dad": 449,
      "We": 450,
      "arn": 451,
      "udd": 452,
      "Sara": 453,
      "clo": 454,
      "Max": 455,
      "wo": 456,
      "didn": 457,
      "always": 458,
      "our": 459,
      "took": 460,
      "Anna": 461,
      "mommy": 462,
      "ang": 463,
      "bb": 464,
      "about": 465,
      "here": 466,
      "So": 467,
      "qu": 468,
      "ers": 469,
      "will": 470,
      "know": 471,
      "ma": 472,
      "ite": 473,
      "outside": 474,
      "toys": 475,
      "ise": 476,
      "tree": 477,
      "te": 478,
      "old": 479,
      "ened": 480,
      "thought": 481,
      "learn": 482,
      "ive": 483,
      "fore": 484,
      "wh": 485,
      "ust": 486,
      "speci": 487,
      "room": 488,
      "special": 489,
      "ty": 490,
      "sor": 491,
      "cat": 492,
      "When": 493,
      "laug": 494,
      "knew": 495,
      "Jo": 496,
      "ball": 497,
      "any": 498,
      "udden": 499,
      "run": 500,
      "ged": 501,
      "red": 502,
      "never": 503,
      "fter": 504,
      "Her": 505,
      "bu": 506,
      "pa": 507,
      "ish": 508,
      "house": 509,
      "come": 510,
      "Every": 511,
      "how": 512,
      "toy": 513,
      "uddenly": 514,
      "show": 515,
      "ol": 516,
      "ink": 517,
      "much": 518,
      "lf": 519,
      "rd": 520,
      "dre": 521,
      "sw": 522,
      "Jack": 523,
      "cre": 524,
      "ist": 525,
      "bl": 526,
      "able": 527,
      "ven": 528,
      "careful": 529,
      "cle": 530,
      "sorry": 531,
      "sk": 532,
      "gave": 533,
      "hand": 534,
      "ia": 535,
      "long": 536,
      "sun": 537,
      "into": 538,
      "water": 539,
      "inside": 540,
      "tried": 541,
      "told": 542,
      "box": 543,
      "proud": 544,
      "ta": 545,
      "cl": 546,
      "couldn": 547,
      "over": 548,
      "tter": 549,
      "eat": 550,
      "heard": 551,
      "cause": 552,
      "Then": 553,
      "ear": 554,
      "played": 555,
      "gre": 556,
      "dy": 557,
      "love": 558,
      "each": 559,
      "Suddenly": 560,
      "pick": 561,
      "ump": 562,
      "ion": 563,
      "sp": 564,
      "this": 565,
      "led": 566,
      "From": 567,
      "unt": 568,
      "pret": 569,
      "because": 570,
      "hugged": 571,
      "com": 572,
      "ct": 573,
      "Let": 574,
      "just": 575,
      "wat": 576,
      "Mia": 577,
      "off": 578,
      "che": 579,
      "nice": 580,
      "And": 581,
      "ile": 582,
      "His": 583,
      "fly": 584,
      "need": 585,
      "flow": 586,
      "exp": 587,
      "uc": 588,
      "many": 589,
      "iz": 590,
      "pot": 591,
      "small": 592,
      "try": 593,
      "shin": 594,
      "bear": 595,
      "ving": 596,
      "ough": 597,
      "read": 598,
      "lad": 599,
      "imal": 600,
      "uck": 601,
      "animal": 602,
      "until": 603,
      "ber": 604,
      "rabb": 605,
      "That": 606,
      "its": 607,
      "self": 608,
      "ket": 609,
      "learned": 610,
      "bed": 611,
      "fast": 612,
      "bea": 613,
      "better": 614,
      "per": 615,
      "kind": 616,
      "vent": 617,
      "call": 618,
      "urn": 619,
      "ass": 620,
      "bra": 621,
      "best": 622,
      "where": 623,
      "explo": 624,
      "thanked": 625,
      "even": 626,
      "fi": 627,
      "beaut": 628,
      "sky": 629,
      "gard": 630,
      "garden": 631,
      "pt": 632,
      "hur": 633,
      "fle": 634,
      "safe": 635,
      "say": 636,
      "laughed": 637,
      "fin": 638,
      "don": 639,
      "lots": 640,
      "ace": 641,
      "yes": 642,
      "jump": 643,
      "loud": 644,
      "nt": 645,
      "What": 646,
      "fam": 647,
      "rong": 648,
      "sur": 649,
      "Mommy": 650,
      "Yes": 651,
      "joy": 652,
      "let": 653,
      "under": 654,
      "ched": 655,
      "iful": 656,
      "beautiful": 657,
      "still": 658,
      "rain": 659,
      "give": 660,
      "list": 661,
      "ank": 662,
      "ama": 663,
      "animals": 664,
      "ell": 665,
      "ning": 666,
      "Joh": 667,
      "stay": 668,
      "John": 669,
      "turn": 670,
      "Can": 671,
      "won": 672,
      "ree": 673,
      "pu": 674,
      "book": 675,
      "both": 676,
      "ople": 677,
      "ble": 678,
      "lived": 679,
      "hard": 680,
      "brave": 681,
      "ground": 682,
      "As": 683,
      "bad": 684,
      "two": 685,
      "family": 686,
      "keep": 687,
      "ob": 688,
      "After": 689,
      "Th": 690,
      "ished": 691,
      "has": 692,
      "tru": 693,
      "app": 694,
      "cks": 695,
      "people": 696,
      "flew": 697,
      "hurt": 698,
      "rm": 699,
      "No": 700,
      "igh": 701,
      "walked": 702,
      "ine": 703,
      "kept": 704,
      "surpr": 705,
      "Luc": 706,
      "ort": 707,
      "lea": 708,
      "Lucy": 709,
      "Thank": 710,
      "!\"": 711,
      "called": 712,
      "real": 713,
      "con": 714,
      "should": 715,
      "arm": 716,
      "soon": 717,
      "pic": 718,
      "angry": 719,
      "sho": 720,
      "door": 721,
      "ised": 722,
      "share": 723,
      "ting": 724,
      "ane": 725,
      "Dad": 726,
      "clos": 727,
      "imp": 728,
      "clean": 729,
      "sl": 730,
      "going": 731,
      "opened": 732,
      "ummy": 733,
      "doll": 734,
      "pretty": 735,
      "advent": 736,
      "shiny": 737,
      "feeling": 738,
      "place": 739,
      "illy": 740,
      "wind": 741,
      "before": 742,
      "bro": 743,
      "noise": 744,
      "ste": 745,
      "lot": 746,
      "explore": 747,
      "cu": 748,
      "mor": 749,
      "ild": 750,
      "les": 751,
      "cry": 752,
      "colo": 753,
      "dra": 754,
      "Bob": 755,
      "nex": 756,
      "idea": 757,
      "set": 758,
      "lie": 759,
      "color": 760,
      "fish": 761,
      "picked": 762,
      "while": 763,
      "also": 764,
      "next": 765,
      "smile": 766,
      "ture": 767,
      "uch": 768,
      "tal": 769,
      "thr": 770,
      "face": 771,
      "ess": 772,
      "walking": 773,
      "clim": 774,
      "work": 775,
      "ied": 776,
      "right": 777,
      "hear": 778,
      "adventure": 779,
      "mber": 780,
      "less": 781,
      "€™": 782,
      "ark": 783,
      "iced": 784,
      "ak": 785,
      "ask": 786,
      "ever": 787,
      "picture": 788,
      "being": 789,
      "night": 790,
      "nodd": 791,
      "used": 792,
      "Lo": 793,
      "looking": 794,
      "head": 795,
      "nodded": 796,
      "food": 797,
      "ies": 798,
      "member": 799,
      "dif": 800,
      "stopped": 801,
      "aybe": 802,
      "walk": 803,
      "eyes": 804,
      "hair": 805,
      "after": 806,
      "ught": 807,
      "think": 808,
      "enjoy": 809,
      "flowers": 810,
      "ries": 811,
      "listen": 812,
      "great": 813,
      "wait": 814,
      "ized": 815,
      "noticed": 816,
      "remember": 817,
      "blue": 818,
      "quick": 819,
      "Spot": 820,
      "amaz": 821,
      "year": 822,
      "weet": 823,
      "forest": 824,
      "wonder": 825,
      "dis": 826,
      "everyone": 827,
      "vo": 828,
      "bye": 829,
      "irst": 830,
      "Sue": 831,
      "blo": 832,
      "slide": 833,
      "near": 834,
      "Do": 835,
      "mon": 836,
      "showed": 837,
      "ring": 838,
      "store": 839,
      "import": 840,
      "cake": 841,
      "gan": 842,
      "hands": 843,
      "bright": 844,
      "shout": 845,
      "strong": 846,
      "repl": 847,
      "top": 848,
      "watch": 849,
      "mean": 850,
      "rest": 851,
      "leave": 852,
      "sound": 853,
      "truck": 854,
      "important": 855,
      "tell": 856,
      "cho": 857,
      "boat": 858,
      "Look": 859,
      "stick": 860,
      "watched": 861,
      "sing": 862,
      "sure": 863,
      "fere": 864,
      "This": 865,
      "quickly": 866,
      "cream": 867,
      "swing": 868,
      "llow": 869,
      "differe": 870,
      "cook": 871,
      "okay": 872,
      "cou": 873,
      "bow": 874,
      "sn": 875,
      "follow": 876,
      "replied": 877,
      "Jane": 878,
      "lease": 879,
      "rabbit": 880,
      "pul": 881,
      "been": 882,
      "ner": 883,
      "ip": 884,
      "goodbye": 885,
      "became": 886,
      "ward": 887,
      "mag": 888,
      "stand": 889,
      "voice": 890,
      "Sarah": 891,
      "high": 892,
      "warm": 893,
      "dress": 894,
      "ff": 895,
      "oft": 896,
      "different": 897,
      "tor": 898,
      "curi": 899,
      "closer": 900,
      "tin": 901,
      "ung": 902,
      "bre": 903,
      "laugh": 904,
      "does": 905,
      "pie": 906,
      "Maybe": 907,
      "Everyone": 908,
      "ance": 909,
      "leep": 910,
      "ired": 911,
      "ready": 912,
      "ached": 913,
      "ph": 914,
      "andma": 915,
      "curious": 916,
      "anymore": 917,
      "tw": 918,
      "ond": 919,
      "flower": 920,
      "ila": 921,
      "grabb": 922,
      "fav": 923,
      "flo": 924,
      "mis": 925,
      "open": 926,
      "Lila": 927,
      "ered": 928,
      "three": 929,
      "cket": 930,
      "In": 931,
      "grabbed": 932,
      "bit": 933,
      "Joe": 934,
      "first": 935,
      "pain": 936,
      "light": 937,
      "squ": 938,
      "butter": 939,
      "kit": 940,
      "ster": 941,
      "helped": 942,
      "table": 943,
      "tr": 944,
      "kid": 945,
      "yel": 946,
      "med": 947,
      "air": 948,
      "times": 949,
      "fell": 950,
      "tow": 951,
      "Don": 952,
      "chen": 953,
      "only": 954,
      "unny": 955,
      "rock": 956,
      "deli": 957,
      "birds": 958,
      "ft": 959,
      "kitchen": 960,
      "dro": 961,
      "jumped": 962,
      "happened": 963,
      "pare": 964,
      "sand": 965,
      "glad": 966,
      "ash": 967,
      "cut": 968,
      "grass": 969,
      "fire": 970,
      "cr": 971,
      "reached": 972,
      "stop": 973,
      "fl": 974,
      "isy": 975,
      "having": 976,
      "brother": 977,
      "realized": 978,
      "shed": 979,
      "yummy": 980,
      "story": 981,
      "through": 982,
      "Hel": 983,
      "sees": 984,
      "zy": 985,
      "draw": 986,
      "piece": 987,
      "cra": 988,
      "bal": 989,
      "game": 990,
      "que": 991,
      "key": 992,
      "prin": 993,
      "soft": 994,
      "din": 995,
      "lady": 996,
      "col": 997,
      "ater": 998,
      "began": 999,
      "shouted": 1000,
      "sweet": 1001,
      "mum": 1002,
      "tired": 1003,
      "coming": 1004,
      "bor": 1005,
      "really": 1006,
      "favor": 1007,
      "magic": 1008,
      "himself": 1009,
      "tra": 1010,
      "done": 1011,
      "favorite": 1012,
      "Fin": 1013,
      "making": 1014,
      "olly": 1015,
      "world": 1016,
      "Now": 1017,
      "move": 1018,
      "wel": 1019,
      "fill": 1020,
      "rel": 1021,
      "Wh": 1022,
      "Tommy": 1023,
      "ins": 1024,
      "waved": 1025,
      "fix": 1026,
      "kids": 1027,
      "ba": 1028,
      "seen": 1029,
      "pretend": 1030,
      "pond": 1031,
      "ary": 1032,
      "nts": 1033,
      "cold": 1034,
      "prom": 1035,
      "catch": 1036,
      "bunny": 1037,
      "worry": 1038,
      "Sally": 1039,
      "funny": 1040,
      "duck": 1041,
      "touch": 1042,
      "bar": 1043,
      "why": 1044,
      "parents": 1045,
      "uff": 1046,
      "another": 1047,
      "thank": 1048,
      "name": 1049,
      "There": 1050,
      "ike": 1051,
      "cked": 1052,
      "mouse": 1053,
      "looks": 1054,
      "anc": 1055,
      "ped": 1056,
      "swim": 1057,
      "Wow": 1058,
      "ds": 1059,
      "fro": 1060,
      "farm": 1061,
      "river": 1062,
      "ppy": 1063,
      "cars": 1064,
      "cor": 1065,
      "paper": 1066,
      "ple": 1067,
      "cool": 1068,
      "stre": 1069,
      "close": 1070,
      "oney": 1071,
      "pro": 1072,
      "age": 1073,
      "cried": 1074,
      "mess": 1075,
      "full": 1076,
      "worked": 1077,
      "surprise": 1078,
      "green": 1079,
      "hold": 1080,
      "hind": 1081,
      "bag": 1082,
      "trees": 1083,
      "turned": 1084,
      "years": 1085,
      "sat": 1086,
      "floor": 1087,
      "andy": 1088,
      "aisy": 1089,
      "cast": 1090,
      "hopped": 1091,
      "ons": 1092,
      "remembered": 1093,
      "climb": 1094,
      "running": 1095,
      "sleep": 1096,
      "behind": 1097,
      "wear": 1098,
      "yard": 1099,
      "wood": 1100,
      "ation": 1101,
      "blocks": 1102,
      "race": 1103,
      "slow": 1104,
      "yellow": 1105,
      "wished": 1106,
      "Benny": 1107,
      "mar": 1108,
      "At": 1109,
      "window": 1110,
      "needed": 1111,
      "lesson": 1112,
      "far": 1113,
      "ign": 1114,
      "happily": 1115,
      "dark": 1116,
      "doing": 1117,
      "hole": 1118,
      "gu": 1119,
      "cious": 1120,
      "Billy": 1121,
      "pet": 1122,
      "aby": 1123,
      "surprised": 1124,
      "likes": 1125,
      "carefully": 1126,
      "To": 1127,
      "Em": 1128,
      "finished": 1129,
      "held": 1130,
      "Jim": 1131,
      "enjoyed": 1132,
      "dream": 1133,
      "ger": 1134,
      "lost": 1135,
      "butterfly": 1136,
      "cla": 1137,
      "stran": 1138,
      "buy": 1139,
      "Finally": 1140,
      "anything": 1141,
      "\"\".": 1142,
      "arri": 1143,
      "chil": 1144,
      "dren": 1145,
      "left": 1146,
      "frog": 1147,
      "hill": 1148,
      "oo": 1149,
      "tle": 1150,
      "children": 1151,
      "fr": 1152,
      "wrong": 1153,
      "Daisy": 1154,
      "spot": 1155,
      "tall": 1156,
      "Molly": 1157,
      "fair": 1158,
      "herself": 1159,
      "mou": 1160,
      "hung": 1161,
      "ross": 1162,
      "bug": 1163,
      "delicious": 1164,
      "em": 1165,
      "ens": 1166,
      "followed": 1167,
      "ued": 1168,
      "hid": 1169,
      "friendly": 1170,
      "forgot": 1171,
      "dir": 1172,
      "Jen": 1173,
      "reed": 1174,
      "contin": 1175,
      "tri": 1176,
      "ield": 1177,
      "bot": 1178,
      "vis": 1179,
      "build": 1180,
      "Hello": 1181,
      "ings": 1182,
      "snow": 1183,
      "hot": 1184,
      "spo": 1185,
      "ined": 1186,
      "most": 1187,
      "understand": 1188,
      "arrived": 1189,
      "cess": 1190,
      "filled": 1191,
      "oken": 1192,
      "wonderful": 1193,
      "gone": 1194,
      "ient": 1195,
      "might": 1196,
      "asure": 1197,
      "ange": 1198,
      "baby": 1199,
      "tight": 1200,
      "mat": 1201,
      "castle": 1202,
      "colors": 1203,
      "broken": 1204,
      "else": 1205,
      "agreed": 1206,
      "please": 1207,
      "sit": 1208,
      "creat": 1209,
      "gent": 1210,
      "land": 1211,
      "art": 1212,
      "irrel": 1213,
      "ather": 1214,
      "wards": 1215,
      "someone": 1216,
      "song": 1217,
      "continued": 1218,
      "fru": 1219,
      "gl": 1220,
      "getting": 1221,
      "leaves": 1222,
      "row": 1223,
      "fight": 1224,
      "Amy": 1225,
      "stayed": 1226,
      "erous": 1227,
      "lion": 1228,
      "wants": 1229,
      "squirrel": 1230,
      "pat": 1231,
      "finally": 1232,
      "scary": 1233,
      "mother": 1234,
      "books": 1235,
      "morning": 1236,
      "enough": 1237,
      "ju": 1238,
      "break": 1239,
      "ves": 1240,
      "pink": 1241,
      "je": 1242,
      "cha": 1243,
      "ence": 1244,
      "roll": 1245,
      "Why": 1246,
      "tast": 1247,
      "whe": 1248,
      "av": 1249,
      "fect": 1250,
      "OK": 1251,
      "grandma": 1252,
      "poin": 1253,
      "amazing": 1254,
      "fall": 1255,
      "ton": 1256,
      "dr": 1257,
      "icy": 1258,
      "moment": 1259,
      "Go": 1260,
      "perfect": 1261,
      "gon": 1262,
      "pictures": 1263,
      "hungry": 1264,
      "cover": 1265,
      "Jill": 1266,
      "pes": 1267,
      "wet": 1268,
      "trying": 1269,
      "few": 1270,
      "daddy": 1271,
      "pack": 1272,
      "sometimes": 1273,
      "Gr": 1274,
      "others": 1275,
      "dinner": 1276,
      "climbed": 1277,
      "puppy": 1278,
      "beach": 1279,
      "white": 1280,
      "mus": 1281,
      "listened": 1282,
      "thes": 1283,
      "ze": 1284,
      "fur": 1285,
      "plain": 1286,
      "brought": 1287,
      "tail": 1288,
      "wasn": 1289,
      "spl": 1290,
      "strange": 1291,
      "oup": 1292,
      "smiles": 1293,
      "clothes": 1294,
      "makes": 1295,
      "sail": 1296,
      "mi": 1297,
      "cookies": 1298,
      "ot": 1299,
      "spark": 1300,
      "uffy": 1301,
      "talk": 1302,
      "asks": 1303,
      "ballo": 1304,
      "appear": 1305,
      "ious": 1306,
      "everything": 1307,
      "ated": 1308,
      "kay": 1309,
      "sear": 1310,
      "ucky": 1311,
      "wall": 1312,
      "Soon": 1313,
      "met": 1314,
      "amazed": 1315,
      "bus": 1316,
      "waited": 1317,
      "Come": 1318,
      "alone": 1319,
      "woods": 1320,
      "bike": 1321,
      "nap": 1322,
      "ride": 1323,
      "train": 1324,
      "grow": 1325,
      "danc": 1326,
      "zz": 1327,
      "ose": 1328,
      "plan": 1329,
      "pping": 1330,
      "dang": 1331,
      "deep": 1332,
      "lake": 1333,
      "whis": 1334,
      "All": 1335,
      "gi": 1336,
      "af": 1337,
      "hor": 1338,
      "pulled": 1339,
      "Oh": 1340,
      "thy": 1341,
      "bath": 1342,
      "Be": 1343,
      "Some": 1344,
      "music": 1345,
      "treat": 1346,
      "cloud": 1347,
      "pur": 1348,
      "field": 1349,
      "hide": 1350,
      "silly": 1351,
      "Daddy": 1352,
      "pers": 1353,
      "towards": 1354,
      "flying": 1355,
      "teddy": 1356,
      "ses": 1357,
      "sis": 1358,
      "belie": 1359,
      "pen": 1360,
      "pieces": 1361,
      "fox": 1362,
      "owner": 1363,
      "promised": 1364,
      "ps": 1365,
      "shared": 1366,
      "ames": 1367,
      "cup": 1368,
      "mind": 1369,
      "visit": 1370,
      "board": 1371,
      "runs": 1372,
      "thinks": 1373,
      "dance": 1374,
      "Mama": 1375,
      "bigger": 1376,
      "faster": 1377,
      "ateful": 1378,
      "slowly": 1379,
      "ises": 1380,
      "grateful": 1381,
      "gs": 1382,
      "money": 1383,
      "bran": 1384,
      "such": 1385,
      "worried": 1386,
      "party": 1387,
      "sister": 1388,
      "qui": 1389,
      "ually": 1390,
      "living": 1391,
      "sed": 1392,
      "treasure": 1393,
      "ich": 1394,
      "gif": 1395,
      "magical": 1396,
      "dry": 1397,
      "reach": 1398,
      "quiet": 1399,
      "ctor": 1400,
      "colorful": 1401,
      "Just": 1402,
      "moral": 1403,
      "blan": 1404,
      "snack": 1405,
      "candy": 1406,
      "job": 1407,
      "explain": 1408,
      "plant": 1409,
      "Mr": 1410,
      "ele": 1411,
      "pass": 1412,
      "answ": 1413,
      "Okay": 1414,
      "Sure": 1415,
      "chair": 1416,
      "heav": 1417,
      "ment": 1418,
      "everywhere": 1419,
      "join": 1420,
      "lice": 1421,
      "must": 1422,
      "dolls": 1423,
      "black": 1424,
      "farmer": 1425,
      "pull": 1426,
      "mouth": 1427,
      "thre": 1428,
      "smel": 1429,
      "mix": 1430,
      "broke": 1431,
      "words": 1432,
      "monster": 1433,
      "kis": 1434,
      "helping": 1435,
      "across": 1436,
      "scream": 1437,
      "rot": 1438,
      "bee": 1439,
      "gra": 1440,
      "hes": 1441,
      "win": 1442,
      "igg": 1443,
      "dri": 1444,
      "heal": 1445,
      "same": 1446,
      "sy": 1447,
      "swa": 1448,
      "stepped": 1449,
      "smart": 1450,
      "dangerous": 1451,
      "Mary": 1452,
      "heavy": 1453,
      "ident": 1454,
      "Mum": 1455,
      "bowl": 1456,
      "Jimmy": 1457,
      "ap": 1458,
      "sign": 1459,
      "crying": 1460,
      "dirty": 1461,
      "ng": 1462,
      "start": 1463,
      "closed": 1464,
      "appeared": 1465,
      "wouldn": 1466,
      "hig": 1467,
      "doctor": 1468,
      "tent": 1469,
      "swam": 1470,
      "dragon": 1471,
      "believe": 1472,
      "teac": 1473,
      "shar": 1474,
      "press": 1475,
      "threw": 1476,
      "spr": 1477,
      "town": 1478,
      "wr": 1479,
      "princess": 1480,
      "twins": 1481,
      "Grandma": 1482,
      "min": 1483,
      "sc": 1484,
      "stuck": 1485,
      "pow": 1486,
      "bite": 1487,
      "Emma": 1488,
      "tower": 1489,
      "button": 1490,
      "ourse": 1491,
      "eating": 1492,
      "Please": 1493,
      "shine": 1494,
      "iting": 1495,
      "balloon": 1496,
      "unch": 1497,
      "chool": 1498,
      "comfor": 1499,
      "cheered": 1500,
      "stu": 1501,
      "Hi": 1502,
      "school": 1503,
      "free": 1504,
      "round": 1505,
      "bas": 1506,
      "hoped": 1507,
      "blanket": 1508,
      "paint": 1509,
      "clapped": 1510,
      "higher": 1511,
      "teacher": 1512,
      "ches": 1513,
      "plane": 1514,
      "cident": 1515,
      "har": 1516,
      "cray": 1517,
      "ub": 1518,
      "Inside": 1519,
      "Fl": 1520,
      "feels": 1521,
      ".\"\"\"": 1522,
      "sea": 1523,
      "neigh": 1524,
      "fairy": 1525,
      "ek": 1526,
      "str": 1527,
      "ventually": 1528,
      "child": 1529,
      "pushed": 1530,
      "stood": 1531,
      "fence": 1532,
      "today": 1533,
      "suddenly": 1534,
      "moved": 1535,
      "accident": 1536,
      "longer": 1537,
      "gentle": 1538,
      "wings": 1539,
      "without": 1540,
      "brown": 1541,
      "drove": 1542,
      "swings": 1543,
      "takes": 1544,
      "stead": 1545,
      "phone": 1546,
      "lone": 1547,
      "past": 1548,
      "da": 1549,
      "course": 1550,
      "basket": 1551,
      "games": 1552,
      "happen": 1553,
      "ire": 1554,
      "Fluffy": 1555,
      "welcome": 1556,
      "lonely": 1557,
      "noises": 1558,
      "sang": 1559,
      "wise": 1560,
      "along": 1561,
      "explained": 1562,
      "jour": 1563,
      "kno": 1564,
      "stone": 1565,
      "itch": 1566,
      "shoes": 1567,
      "upset": 1568,
      "stories": 1569,
      "ours": 1570,
      "singing": 1571,
      "ney": 1572,
      "rocks": 1573,
      "turns": 1574,
      "owl": 1575,
      "sent": 1576,
      "though": 1577,
      "ling": 1578,
      "val": 1579,
      "adventures": 1580,
      "apple": 1581,
      "bring": 1582,
      "secre": 1583,
      "throw": 1584,
      "ming": 1585,
      "phant": 1586,
      "pol": 1587,
      "well": 1588,
      "itting": 1589,
      "stars": 1590,
      "ible": 1591,
      "wish": 1592,
      "trou": 1593,
      "hugs": 1594,
      "late": 1595,
      "Their": 1596,
      "jar": 1597,
      "woke": 1598,
      "ntain": 1599,
      "add": 1600,
      "shop": 1601,
      "dist": 1602,
      "oun": 1603,
      "taking": 1604,
      "soup": 1605,
      "elephant": 1606,
      "del": 1607,
      "dropped": 1608,
      "ben": 1609,
      "lunch": 1610,
      "heart": 1611,
      "young": 1612,
      "backyard": 1613,
      "exploring": 1614,
      "forget": 1615,
      "pocket": 1616,
      "shook": 1617,
      "neck": 1618,
      "tiny": 1619,
      "Sammy": 1620,
      "belong": 1621,
      "seemed": 1622,
      "naught": 1623,
      "fused": 1624,
      "drink": 1625,
      "naughty": 1626,
      "orange": 1627,
      "caught": 1628,
      "mail": 1629,
      "pig": 1630,
      "hit": 1631,
      "juice": 1632,
      "des": 1633,
      "Later": 1634,
      "Pe": 1635,
      "body": 1636,
      "relie": 1637,
      "El": 1638,
      "part": 1639,
      "street": 1640,
      "nearby": 1641,
      "ions": 1642,
      "pra": 1643,
      "busy": 1644,
      "shapes": 1645,
      "kne": 1646,
      "rainbow": 1647,
      "hello": 1648,
      "hu": 1649,
      "mine": 1650,
      "coat": 1651,
      "shell": 1652,
      "My": 1653,
      "sco": 1654,
      "idge": 1655,
      "bucket": 1656,
      "cal": 1657,
      "su": 1658,
      "huge": 1659,
      "mil": 1660,
      "cow": 1661,
      "ser": 1662,
      "arms": 1663,
      "quest": 1664,
      "monkey": 1665,
      "fing": 1666,
      "fit": 1667,
      "ship": 1668,
      "forever": 1669,
      "wondered": 1670,
      "ughter": 1671,
      "sick": 1672,
      "branch": 1673,
      "purple": 1674,
      "nest": 1675,
      "nose": 1676,
      "oom": 1677,
      "ull": 1678,
      "driver": 1679,
      "erful": 1680,
      "ier": 1681,
      "daughter": 1682,
      "chas": 1683,
      "secret": 1684,
      "pper": 1685,
      "peace": 1686,
      "gift": 1687,
      "mer": 1688,
      "carry": 1689,
      "smell": 1690,
      "amp": 1691,
      "days": 1692,
      "comes": 1693,
      "covered": 1694,
      "band": 1695,
      "Le": 1696,
      "pil": 1697,
      "!\"\"\"": 1698,
      "craw": 1699,
      "boun": 1700,
      "swimming": 1701,
      "With": 1702,
      "brea": 1703,
      "cir": 1704,
      "raid": 1705,
      "afraid": 1706,
      "eg": 1707,
      "ese": 1708,
      "thday": 1709,
      "life": 1710,
      "nothing": 1711,
      "sitting": 1712,
      "ittens": 1713,
      "gest": 1714,
      "relieved": 1715,
      "wra": 1716,
      "count": 1717,
      "cute": 1718,
      "net": 1719,
      "push": 1720,
      "sug": 1721,
      "letter": 1722,
      "wand": 1723,
      "kite": 1724,
      "patient": 1725,
      "touc": 1726,
      "ars": 1727,
      "exciting": 1728,
      "touched": 1729,
      "Good": 1730,
      "mach": 1731,
      "holding": 1732,
      "va": 1733,
      "sounds": 1734,
      "bench": 1735,
      "vel": 1736,
      "live": 1737,
      "sunshine": 1738,
      "creature": 1739,
      "promise": 1740,
      "laughing": 1741,
      "inte": 1742,
      "Tweet": 1743,
      "interest": 1744,
      "colle": 1745,
      "accidentally": 1746,
      "loves": 1747,
      "birthday": 1748,
      "onto": 1749,
      "cozy": 1750,
      "orn": 1751,
      "journey": 1752,
      "How": 1753,
      "Of": 1754,
      "itten": 1755,
      "cave": 1756,
      "ness": 1757,
      "Jenny": 1758,
      "grab": 1759,
      "lucky": 1760,
      "coun": 1761,
      "gives": 1762,
      "irt": 1763,
      "sunny": 1764,
      "cheese": 1765,
      "di": 1766,
      "ye": 1767,
      "eas": 1768,
      "instead": 1769,
      "spin": 1770,
      "imag": 1771,
      "milk": 1772,
      "smiling": 1773,
      "storm": 1774,
      "bread": 1775,
      "Hey": 1776,
      "hope": 1777,
      "gather": 1778,
      "att": 1779,
      "ize": 1780,
      "word": 1781,
      "act": 1782,
      "uni": 1783,
      "wide": 1784,
      "sli": 1785,
      "pointed": 1786,
      "ian": 1787,
      "pudd": 1788,
      "bought": 1789,
      "ade": 1790,
      "anyone": 1791,
      "searched": 1792,
      "kick": 1793,
      "Ted": 1794,
      "neighbor": 1795,
      "shes": 1796,
      "bush": 1797,
      "comfortable": 1798,
      "gen": 1799,
      "watching": 1800,
      "ced": 1801,
      "gged": 1802,
      "later": 1803,
      "bottle": 1804,
      "nic": 1805,
      "tasty": 1806,
      "sandw": 1807,
      "talked": 1808,
      "num": 1809,
      "road": 1810,
      "rope": 1811,
      "sharp": 1812,
      "present": 1813,
      "person": 1814,
      "healthy": 1815,
      "blem": 1816,
      "problem": 1817,
      "ugg": 1818,
      "spid": 1819,
      "oman": 1820,
      "suc": 1821,
      "trouble": 1822,
      "puts": 1823,
      "Emily": 1824,
      "woman": 1825,
      "zoom": 1826,
      "honey": 1827,
      "tun": 1828,
      "shining": 1829,
      "lay": 1830,
      "bru": 1831,
      "snake": 1832,
      "interesting": 1833,
      "clouds": 1834,
      "apples": 1835,
      "pract": 1836,
      "log": 1837,
      "meet": 1838,
      "clever": 1839,
      "rolled": 1840,
      "ast": 1841,
      "roar": 1842,
      "puzz": 1843,
      "war": 1844,
      "organ": 1845,
      "cer": 1846,
      "smelled": 1847,
      "lovely": 1848,
      "orm": 1849,
      "ducks": 1850,
      "circle": 1851,
      "dest": 1852,
      "vill": 1853,
      "miss": 1854,
      "crayons": 1855,
      "myster": 1856,
      "pile": 1857,
      "spoon": 1858,
      "Mittens": 1859,
      "zoo": 1860,
      "gigg": 1861,
      "which": 1862,
      "isa": 1863,
      "matter": 1864,
      "horse": 1865,
      "splash": 1866,
      "inv": 1867,
      "snowman": 1868,
      "whole": 1869,
      "wheel": 1870,
      "fruit": 1871,
      "tea": 1872,
      "fron": 1873,
      "card": 1874,
      "path": 1875,
      "prote": 1876,
      "grand": 1877,
      "front": 1878,
      "bled": 1879,
      "Where": 1880,
      "tasted": 1881,
      "spotted": 1882,
      "wash": 1883,
      "hop": 1884,
      "ching": 1885,
      "era": 1886,
      "danced": 1887,
      "feather": 1888,
      "wearing": 1889,
      "giant": 1890,
      "Lisa": 1891,
      "pan": 1892,
      "eag": 1893,
      "thin": 1894,
      "cean": 1895,
      "ocean": 1896,
      "last": 1897,
      "fli": 1898,
      "shelf": 1899,
      "gy": 1900,
      "asleep": 1901,
      "places": 1902,
      "seat": 1903,
      "impress": 1904,
      "ned": 1905,
      "mud": 1906,
      "slid": 1907,
      "vie": 1908,
      "worm": 1909,
      "lock": 1910,
      "Sometimes": 1911,
      "screamed": 1912,
      "Are": 1913,
      "izz": 1914,
      "If": 1915,
      "minut": 1916,
      "oven": 1917,
      "wild": 1918,
      "Together": 1919,
      "bubb": 1920,
      "answer": 1921,
      "Jake": 1922,
      "picnic": 1923,
      "building": 1924,
      "spent": 1925,
      "corner": 1926,
      "respe": 1927,
      "goes": 1928,
      "pill": 1929,
      "itty": 1930,
      "mel": 1931,
      "dirt": 1932,
      "gently": 1933,
      "lar": 1934,
      "corn": 1935,
      "bell": 1936,
      "berries": 1937,
      "Mummy": 1938,
      "sack": 1939,
      "ones": 1940,
      "rubb": 1941,
      "foot": 1942,
      "string": 1943,
      "tool": 1944,
      "spider": 1945,
      "finish": 1946,
      "faces": 1947,
      "ased": 1948,
      "tries": 1949,
      "joke": 1950,
      "uce": 1951,
      "confused": 1952,
      "wave": 1953,
      "peaceful": 1954,
      "couch": 1955,
      "feet": 1956,
      "shr": 1957,
      "ladder": 1958,
      "teach": 1959,
      "embar": 1960,
      "remind": 1961,
      "chick": 1962,
      "blew": 1963,
      "mountain": 1964,
      "whenever": 1965,
      "embarr": 1966,
      "cele": 1967,
      "coin": 1968,
      "write": 1969,
      "Pa": 1970,
      "ipped": 1971,
      "helpful": 1972,
      "furry": 1973,
      "tid": 1974,
      "trip": 1975,
      "ert": 1976,
      "smoo": 1977,
      "paw": 1978,
      "œI": 1979,
      "delight": 1980,
      "collect": 1981,
      "eventually": 1982,
      "cookie": 1983,
      "drive": 1984,
      "forgive": 1985,
      "pread": 1986,
      "eth": 1987,
      "spread": 1988,
      "res": 1989,
      "embarrass": 1990,
      "test": 1991,
      "pour": 1992,
      "stair": 1993,
      "smooth": 1994,
      "respect": 1995,
      "kets": 1996,
      "Peter": 1997,
      "calm": 1998,
      "den": 1999,
      "rude": 2000,
      "pop": 2001,
      "pretended": 2002,
      "sol": 2003,
      "stret": 2004,
      "fighting": 2005,
      "ity": 2006,
      "shy": 2007,
      "teeth": 2008,
      "talking": 2009,
      "pool": 2010,
      "tur": 2011,
      "step": 2012,
      "hiding": 2013,
      "bugs": 2014,
      "machine": 2015,
      "waiting": 2016,
      "colour": 2017,
      "tomor": 2018,
      "tomorrow": 2019,
      "erly": 2020,
      "seek": 2021,
      "Everywhere": 2022,
      "celebr": 2023,
      "shirt": 2024,
      "Sus": 2025,
      "spray": 2026,
      "swe": 2027,
      "rich": 2028,
      "cloth": 2029,
      "ife": 2030,
      "chocol": 2031,
      "hum": 2032,
      "hang": 2033,
      "fold": 2034,
      "Here": 2035,
      "village": 2036,
      "large": 2037,
      "chased": 2038,
      "cross": 2039,
      "mir": 2040,
      "cannot": 2041,
      "sne": 2042,
      "lt": 2043,
      "cord": 2044,
      "prince": 2045,
      "ban": 2046,
      "rots": 2047,
      "carrot": 2048,
      "fixed": 2049,
      "Teddy": 2050,
      "spit": 2051,
      "Johnny": 2052,
      "whistle": 2053,
      "puddle": 2054,
      "Little": 2055,
      "treats": 2056,
      "knee": 2057,
      "protect": 2058,
      "shake": 2059,
      "barked": 2060,
      "emp": 2061,
      "leaf": 2062,
      "While": 2063,
      "tidy": 2064,
      "banan": 2065,
      "empty": 2066,
      "lace": 2067,
      "embarrassed": 2068,
      "stir": 2069,
      "carrots": 2070,
      "taste": 2071,
      "wore": 2072,
      "ighed": 2073,
      "selfish": 2074,
      "songs": 2075,
      "shad": 2076,
      "forward": 2077,
      "Stop": 2078,
      "plate": 2079,
      "rag": 2080,
      "Who": 2081,
      "kitten": 2082,
      "ungle": 2083,
      "lves": 2084,
      "stra": 2085,
      "ult": 2086,
      "onest": 2087,
      "rank": 2088,
      "getable": 2089,
      "creative": 2090,
      "scre": 2091,
      "jungle": 2092,
      "tightly": 2093,
      "grew": 2094,
      "vegetable": 2095,
      "ending": 2096,
      "chocolate": 2097,
      "oin": 2098,
      "ten": 2099,
      "os": 2100,
      "maybe": 2101,
      "save": 2102,
      "Help": 2103,
      "sparkly": 2104,
      "moon": 2105,
      "crab": 2106,
      "hero": 2107,
      "knocked": 2108,
      "adow": 2109,
      "trust": 2110,
      "necklace": 2111,
      "Bo": 2112,
      "Even": 2113,
      "appoin": 2114,
      "legs": 2115,
      "spicy": 2116,
      "meadow": 2117,
      "kiss": 2118,
      "tie": 2119,
      "honest": 2120,
      "sque": 2121,
      "robot": 2122,
      "deter": 2123,
      "decor": 2124,
      "meant": 2125,
      "cur": 2126,
      "cted": 2127,
      "lemon": 2128,
      "jumping": 2129,
      "umpy": 2130,
      "Rex": 2131,
      "disappoin": 2132,
      "clear": 2133,
      "hears": 2134,
      "sheep": 2135,
      "Fred": 2136,
      "Alice": 2137,
      "tells": 2138,
      "sour": 2139,
      "missed": 2140,
      "almost": 2141,
      "glow": 2142,
      "line": 2143,
      "sharing": 2144,
      "puzzle": 2145,
      "gun": 2146,
      "fear": 2147,
      "elly": 2148,
      "nut": 2149,
      "cage": 2150,
      "breath": 2151,
      "stairs": 2152,
      "Today": 2153,
      "landed": 2154,
      "hours": 2155,
      "pri": 2156,
      "ancy": 2157,
      "Re": 2158,
      "note": 2159,
      "hidden": 2160,
      "seed": 2161,
      "ee": 2162,
      "group": 2163,
      "burn": 2164,
      "pizz": 2165,
      "carried": 2166,
      "knowing": 2167,
      "rocket": 2168,
      "gray": 2169,
      "block": 2170,
      "ugly": 2171,
      "tu": 2172,
      "packed": 2173,
      "blow": 2174,
      "asha": 2175,
      "sup": 2176,
      "disappointed": 2177,
      "cop": 2178,
      "Ann": 2179,
      "thankful": 2180,
      "snacks": 2181,
      "ail": 2182,
      "pay": 2183,
      "ants": 2184,
      "balls": 2185,
      "coura": 2186,
      "Mark": 2187,
      "brush": 2188,
      "jewel": 2189,
      "van": 2190,
      "cape": 2191,
      "TV": 2192,
      "returned": 2193,
      "gets": 2194,
      "gold": 2195,
      "sticks": 2196,
      "frustr": 2197,
      "sleepy": 2198,
      "understood": 2199,
      "pin": 2200,
      "orry": 2201,
      "rad": 2202,
      "vous": 2203,
      "shore": 2204,
      "law": 2205,
      "mysterious": 2206,
      "messy": 2207,
      "pillow": 2208,
      "Sorry": 2209,
      "Susie": 2210,
      "fancy": 2211,
      "success": 2212,
      "kin": 2213,
      "plants": 2214,
      "pizza": 2215,
      "twirl": 2216,
      "drew": 2217,
      "polite": 2218,
      "berry": 2219,
      "standing": 2220,
      "ashamed": 2221,
      "frustrated": 2222,
      "keeper": 2223,
      "yelled": 2224,
      "spital": 2225,
      "sandwich": 2226,
      "tro": 2227,
      "hospital": 2228,
      "ony": 2229,
      "bedroom": 2230,
      "mummy": 2231,
      "mark": 2232,
      "taught": 2233,
      "flies": 2234,
      "fla": 2235,
      "Me": 2236,
      "nods": 2237,
      "gas": 2238,
      "gathered": 2239,
      "easy": 2240,
      "osa": 2241,
      "these": 2242,
      "itter": 2243,
      "bridge": 2244,
      "spla": 2245,
      "cy": 2246,
      "poor": 2247,
      "ual": 2248,
      "ignor": 2249,
      "fig": 2250,
      "spoil": 2251,
      "mined": 2252,
      "cries": 2253,
      "ensive": 2254,
      "police": 2255,
      "expensive": 2256,
      "nervous": 2257,
      "determined": 2258,
      "waves": 2259,
      "usual": 2260,
      "powerful": 2261,
      "wolf": 2262,
      "dancing": 2263,
      "ird": 2264,
      "generous": 2265,
      "passed": 2266,
      "ken": 2267,
      "izzy": 2268,
      "sold": 2269,
      "fre": 2270,
      "deer": 2271,
      "flag": 2272,
      "Leo": 2273,
      "vase": 2274,
      "sage": 2275,
      "known": 2276,
      "erpill": 2277,
      "caterpill": 2278,
      "excite": 2279,
      "dle": 2280,
      "fil": 2281,
      "often": 2282,
      "cri": 2283,
      "osaur": 2284,
      "exam": 2285,
      "gate": 2286,
      "bat": 2287,
      "bored": 2288,
      "bul": 2289,
      "dinosaur": 2290,
      "minutes": 2291,
      "closet": 2292,
      "finger": 2293,
      "Your": 2294,
      "whisper": 2295,
      "pir": 2296,
      "aser": 2297,
      "lit": 2298,
      "case": 2299,
      "saved": 2300,
      "towel": 2301,
      "working": 2302,
      "bers": 2303,
      "feed": 2304,
      "week": 2305,
      "boring": 2306,
      "kissed": 2307,
      "taken": 2308,
      "excitement": 2309,
      "iddle": 2310,
      "chew": 2311,
      "jelly": 2312,
      "scarf": 2313,
      "stum": 2314,
      "pleased": 2315,
      "Give": 2316,
      "sighed": 2317,
      "Mar": 2318,
      "Pet": 2319,
      "spa": 2320,
      "iness": 2321,
      "caterpillar": 2322,
      "bone": 2323,
      "ina": 2324,
      "vegetables": 2325,
      "lown": 2326,
      "leg": 2327,
      "hose": 2328,
      "lly": 2329,
      "chest": 2330,
      "jog": 2331,
      "tears": 2332,
      "rela": 2333,
      "relax": 2334,
      "medic": 2335,
      "Kitty": 2336,
      "match": 2337,
      "answered": 2338,
      "espe": 2339,
      "issor": 2340,
      "au": 2341,
      "class": 2342,
      "drum": 2343,
      "yourself": 2344,
      "weak": 2345,
      "illed": 2346,
      "clown": 2347,
      "issors": 2348,
      "Ch": 2349,
      "number": 2350,
      "Bl": 2351,
      "smelly": 2352,
      "medicine": 2353,
      "form": 2354,
      "hopping": 2355,
      "middle": 2356,
      "scissors": 2357,
      "crown": 2358,
      "tig": 2359,
      "cand": 2360,
      "wagged": 2361,
      "pair": 2362,
      "knight": 2363,
      "stuff": 2364,
      "grumpy": 2365,
      "cially": 2366,
      "especially": 2367,
      "ror": 2368,
      "lazy": 2369,
      "true": 2370,
      "space": 2371,
      "team": 2372,
      "content": 2373,
      "See": 2374,
      "bark": 2375,
      "playground": 2376,
      "fruits": 2377,
      "allow": 2378,
      "change": 2379,
      "pray": 2380,
      "distance": 2381,
      "asking": 2382,
      "Whe": 2383,
      "soar": 2384,
      "Pete": 2385,
      "lying": 2386,
      "eggs": 2387,
      "giggled": 2388,
      "flut": 2389,
      "licked": 2390,
      "ruined": 2391,
      "kn": 2392,
      "son": 2393,
      "picks": 2394,
      "mistake": 2395,
      "rid": 2396,
      "sight": 2397,
      "wake": 2398,
      "painting": 2399,
      "drawing": 2400,
      "eld": 2401,
      "become": 2402,
      "mic": 2403,
      "inc": 2404,
      "Bobby": 2405,
      "lif": 2406,
      "sailed": 2407,
      "ates": 2408,
      "father": 2409,
      "walks": 2410,
      "questions": 2411,
      "splashed": 2412,
      "boss": 2413,
      "micro": 2414,
      "End": 2415,
      "bathroom": 2416,
      "lose": 2417,
      "stones": 2418,
      "fluffy": 2419,
      "ella": 2420,
      "ating": 2421,
      "queen": 2422,
      "bake": 2423,
      "Eventually": 2424,
      "suit": 2425,
      "feathers": 2426,
      "disappeared": 2427,
      "toes": 2428,
      "lead": 2429,
      "order": 2430,
      "moving": 2431,
      "aged": 2432,
      "mirror": 2433,
      "Mrs": 2434,
      "Blue": 2435,
      "alous": 2436,
      "sell": 2437,
      "soap": 2438,
      "ham": 2439,
      "boys": 2440,
      "dogs": 2441,
      "skipped": 2442,
      "calling": 2443,
      "juicy": 2444,
      "jealous": 2445,
      "rote": 2446,
      "wrote": 2447,
      "using": 2448,
      "sweetie": 2449,
      "fake": 2450,
      "cher": 2451,
      "eye": 2452,
      "unusual": 2453,
      "sugar": 2454,
      "suggest": 2455,
      "incred": 2456,
      "glue": 2457,
      "giving": 2458,
      "Mandy": 2459,
      "measure": 2460,
      "fine": 2461,
      "tub": 2462,
      "discovered": 2463,
      "als": 2464,
      "dish": 2465,
      "elderly": 2466,
      "drank": 2467,
      "jam": 2468,
      "wip": 2469,
      "extra": 2470,
      "noisy": 2471,
      "vest": 2472,
      "cil": 2473,
      "decide": 2474,
      "bubbles": 2475,
      "glass": 2476,
      "famous": 2477,
      "thick": 2478,
      "Br": 2479,
      "sil": 2480,
      "ears": 2481,
      "ero": 2482,
      "crawled": 2483,
      "yal": 2484,
      "eager": 2485,
      "Ne": 2486,
      "dig": 2487,
      "arage": 2488,
      "map": 2489,
      "colourful": 2490,
      "Rose": 2491,
      "garage": 2492,
      "tain": 2493,
      "branches": 2494,
      "pencil": 2495,
      "motor": 2496,
      "check": 2497,
      "cleaned": 2498,
      "Ella": 2499,
      "tape": 2500,
      "tiger": 2501,
      "cam": 2502,
      "incredible": 2503,
      "gue": 2504,
      "once": 2505,
      "nod": 2506,
      "organized": 2507,
      "fu": 2508,
      "shows": 2509,
      "horn": 2510,
      "chang": 2511,
      "happening": 2512,
      "locked": 2513,
      "wrapped": 2514,
      "Dave": 2515,
      "borrow": 2516,
      "yours": 2517,
      "gust": 2518,
      "lid": 2519,
      "realised": 2520,
      "Letâ": 2521,
      "cro": 2522,
      "tag": 2523,
      "offered": 2524,
      "adventur": 2525,
      "wha": 2526,
      "banana": 2527,
      "figure": 2528,
      "ery": 2529,
      "knife": 2530,
      "Well": 2531,
      "mighty": 2532,
      "supp": 2533,
      "breakfast": 2534,
      "rare": 2535,
      "boxes": 2536,
      "unique": 2537,
      "tom": 2538,
      "smo": 2539,
      "uggled": 2540,
      "adventurous": 2541,
      "barn": 2542,
      "flash": 2543,
      "ately": 2544,
      "city": 2545,
      "bloom": 2546,
      "Ducky": 2547,
      "loyal": 2548,
      "enjoying": 2549,
      "cient": 2550,
      "dol": 2551,
      "spun": 2552,
      "added": 2553,
      "Bu": 2554,
      "ular": 2555,
      "ured": 2556,
      "bottom": 2557,
      "chase": 2558,
      "chicken": 2559,
      "louder": 2560,
      "managed": 2561,
      "straw": 2562,
      "cheerful": 2563,
      "impressed": 2564,
      "against": 2565,
      "shells": 2566,
      "dizzy": 2567,
      "toug": 2568,
      "St": 2569,
      "lamp": 2570,
      "illi": 2571,
      "kindness": 2572,
      "choose": 2573,
      "frown": 2574,
      "Dan": 2575,
      "dolph": 2576,
      "runk": 2577,
      "port": 2578,
      "fridge": 2579,
      "fic": 2580,
      "ipe": 2581,
      "lift": 2582,
      "Brown": 2583,
      "tory": 2584,
      "comple": 2585,
      "favour": 2586,
      "rough": 2587,
      "?\"\".": 2588,
      "selves": 2589,
      "goat": 2590,
      "happiness": 2591,
      "ez": 2592,
      "market": 2593,
      "rat": 2594,
      "harm": 2595,
      "Bella": 2596,
      "ging": 2597,
      "sword": 2598,
      "nel": 2599,
      "fool": 2600,
      "favourite": 2601,
      "wagon": 2602,
      "grown": 2603,
      "nail": 2604,
      "loudly": 2605,
      "diffic": 2606,
      "norm": 2607,
      "belonged": 2608,
      "Whenever": 2609,
      "dep": 2610,
      "apo": 2611,
      "moms": 2612,
      "whale": 2613,
      "pee": 2614,
      "coins": 2615,
      "balloons": 2616,
      "imed": 2617,
      "fright": 2618,
      "apolog": 2619,
      "needs": 2620,
      "smoke": 2621,
      "Ow": 2622,
      "men": 2623,
      "trucks": 2624,
      "tough": 2625,
      "Mil": 2626,
      "balance": 2627,
      "difficult": 2628,
      "fat": 2629,
      "egg": 2630,
      "lean": 2631,
      "ilt": 2632,
      "hurts": 2633,
      "bs": 2634,
      "Nemo": 2635,
      "boo": 2636,
      "shark": 2637,
      "slipped": 2638,
      "safely": 2639,
      "grace": 2640,
      "four": 2641,
      "nur": 2642,
      "swan": 2643,
      "normal": 2644,
      "Ho": 2645,
      "pump": 2646,
      "ga": 2647,
      "laughs": 2648,
      "stream": 2649,
      "courage": 2650,
      "guess": 2651,
      "dreamed": 2652,
      "weird": 2653,
      "record": 2654,
      "ishes": 2655,
      "scare": 2656,
      "circles": 2657,
      "foolish": 2658,
      "stubb": 2659,
      "pointing": 2660,
      "search": 2661,
      "obed": 2662,
      "acce": 2663,
      "learning": 2664,
      "means": 2665,
      "yell": 2666,
      "already": 2667,
      "brothers": 2668,
      "agree": 2669,
      "movie": 2670,
      "depend": 2671,
      "buttons": 2672,
      "bald": 2673,
      "weal": 2674,
      "mixed": 2675,
      "stubborn": 2676,
      "eng": 2677,
      "sounded": 2678,
      "fresh": 2679,
      "dreams": 2680,
      "lifted": 2681,
      "falls": 2682,
      "Bobo": 2683,
      "tunnel": 2684,
      "sca": 2685,
      "nosy": 2686,
      "bitter": 2687,
      "Paul": 2688,
      "cart": 2689,
      "obedient": 2690,
      "ature": 2691,
      "office": 2692,
      "Grand": 2693,
      "reli": 2694,
      "kinds": 2695,
      "aw": 2696,
      "angel": 2697,
      "edge": 2698,
      "adm": 2699,
      "shape": 2700,
      "escape": 2701,
      "clap": 2702,
      "helps": 2703,
      "compet": 2704,
      "saying": 2705,
      "ination": 2706,
      "clay": 2707,
      "bounce": 2708,
      "scr": 2709,
      "arry": 2710,
      "bble": 2711,
      "graceful": 2712,
      "reliable": 2713,
      "skin": 2714,
      "walls": 2715,
      "trunk": 2716,
      "pal": 2717,
      "hats": 2718,
      "crayon": 2719,
      "competit": 2720,
      "Ju": 2721,
      "wing": 2722,
      "island": 2723,
      "vide": 2724,
      "thoughtful": 2725,
      "stronger": 2726,
      "valu": 2727,
      "vet": 2728,
      "brilli": 2729,
      "useful": 2730,
      "frightened": 2731,
      "libr": 2732,
      "rh": 2733,
      "stri": 2734,
      "camera": 2735,
      "roof": 2736,
      "successful": 2737,
      "bove": 2738,
      "rubbed": 2739,
      "harder": 2740,
      "brilliant": 2741,
      "cab": 2742,
      "joined": 2743,
      "tools": 2744,
      "ancient": 2745,
      "guit": 2746,
      "invited": 2747,
      "jac": 2748,
      "proudly": 2749,
      "hi": 2750,
      "houses": 2751,
      "above": 2752,
      "aced": 2753,
      "bossy": 2754,
      "terri": 2755,
      "ext": 2756,
      "fier": 2757,
      "dependable": 2758,
      "Will": 2759,
      "explored": 2760,
      "enorm": 2761,
      "enormous": 2762,
      "notice": 2763,
      "Ellie": 2764,
      "grandpa": 2765,
      "stru": 2766,
      "knows": 2767,
      "Next": 2768,
      "Ro": 2769,
      "counted": 2770,
      "orge": 2771,
      "yarn": 2772,
      "suggested": 2773,
      "tank": 2774,
      "fierce": 2775,
      "epend": 2776,
      "crack": 2777,
      "cudd": 2778,
      "twig": 2779,
      "changed": 2780,
      "amond": 2781,
      "spoiled": 2782,
      "Joey": 2783,
      "turtle": 2784,
      "bushes": 2785,
      "batter": 2786,
      "tummy": 2787,
      "yo": 2788,
      "oph": 2789,
      "lights": 2790,
      "reg": 2791,
      "independ": 2792,
      "cleaning": 2793,
      "gem": 2794,
      "excla": 2795,
      "Ge": 2796,
      "exclaimed": 2797,
      "frag": 2798,
      "meal": 2799,
      "chose": 2800,
      "reminded": 2801,
      "post": 2802,
      "Grandpa": 2803,
      "guitar": 2804,
      "ountain": 2805,
      "bags": 2806,
      "valuable": 2807,
      "beet": 2808,
      "poured": 2809,
      "fountain": 2810,
      "shone": 2811,
      "shadow": 2812,
      "stumbled": 2813,
      "raced": 2814,
      "rushed": 2815,
      "Andy": 2816,
      "smaller": 2817,
      "nurse": 2818,
      "cabin": 2819,
      "built": 2820,
      "diamond": 2821,
      "dom": 2822,
      "velo": 2823,
      "rode": 2824,
      "clock": 2825,
      "admired": 2826,
      "study": 2827,
      "fingers": 2828,
      "anut": 2829,
      "comput": 2830,
      "wealthy": 2831,
      "showing": 2832,
      "ado": 2833,
      "arrow": 2834,
      "envelo": 2835,
      "liz": 2836,
      "practice": 2837,
      "cing": 2838,
      "thirst": 2839,
      "seem": 2840,
      "brightly": 2841,
      "mes": 2842,
      "George": 2843,
      "Al": 2844,
      "wrap": 2845,
      "kicked": 2846,
      "delighted": 2847,
      "solve": 2848,
      "fragile": 2849,
      "spinning": 2850,
      "Ale": 2851,
      "themselves": 2852,
      "independent": 2853,
      "stove": 2854,
      "tele": 2855,
      "cod": 2856,
      "guard": 2857,
      "parrot": 2858,
      "irp": 2859,
      "march": 2860,
      "dge": 2861,
      "uring": 2862,
      "excitedly": 2863,
      "Soph": 2864,
      "dough": 2865,
      "ray": 2866,
      "dove": 2867,
      "playful": 2868,
      "picking": 2869,
      "cereal": 2870,
      "glo": 2871,
      "hun": 2872,
      "sof": 2873,
      "mole": 2874,
      "power": 2875,
      "tooth": 2876,
      "design": 2877,
      "wiped": 2878,
      "toast": 2879,
      "sauce": 2880,
      "marble": 2881,
      "ended": 2882,
      "cheer": 2883,
      "Lola": 2884,
      "Kim": 2885,
      "lli": 2886,
      "screen": 2887,
      "Alex": 2888,
      "prize": 2889,
      "crocod": 2890,
      "scrat": 2891,
      "dead": 2892,
      "beak": 2893,
      "Would": 2894,
      "robe": 2895,
      "load": 2896,
      "keys": 2897,
      "painted": 2898,
      "thirsty": 2899,
      "view": 2900,
      "cate": 2901,
      "ti": 2902,
      "hay": 2903,
      "searching": 2904,
      "hoop": 2905,
      "clum": 2906,
      "vi": 2907,
      "yet": 2908,
      "dreaming": 2909,
      "inal": 2910,
      "popcorn": 2911,
      "upid": 2912,
      "orig": 2913,
      "spend": 2914,
      "steal": 2915,
      "oc": 2916,
      "stat": 2917,
      "hairy": 2918,
      "snif": 2919,
      "goose": 2920,
      "beetle": 2921,
      "Grace": 2922,
      "forth": 2923,
      "biggest": 2924,
      "metal": 2925,
      "pota": 2926,
      "boats": 2927,
      "Tweety": 2928,
      "erry": 2929,
      "stupid": 2930,
      "serious": 2931,
      "original": 2932,
      "dull": 2933,
      "compass": 2934,
      "unknown": 2935,
      "peanut": 2936,
      "finding": 2937,
      "iver": 2938,
      "bean": 2939,
      "cane": 2940,
      "nicely": 2941,
      "cone": 2942,
      "noon": 2943,
      "hammer": 2944,
      "salad": 2945,
      "bees": 2946,
      "telling": 2947,
      "delicate": 2948,
      "careless": 2949,
      "wander": 2950,
      "clumsy": 2951,
      "birdie": 2952,
      "polish": 2953,
      "gum": 2954,
      "handle": 2955,
      "computer": 2956,
      "memor": 2957,
      "pumpkin": 2958,
      "fork": 2959,
      "fed": 2960,
      "return": 2961,
      "tem": 2962,
      "regular": 2963,
      "pup": 2964,
      "desk": 2965,
      "Mike": 2966,
      "jug": 2967,
      "moder": 2968,
      "carrying": 2969,
      "seeds": 2970,
      "allowed": 2971,
      "lizard": 2972,
      "eze": 2973,
      "ilty": 2974,
      "leaving": 2975,
      "pige": 2976,
      "lolli": 2977,
      "guilty": 2978,
      "reward": 2979,
      "those": 2980,
      "Toby": 2981,
      "whispered": 2982,
      "zip": 2983,
      "persist": 2984,
      "tern": 2985,
      "bump": 2986,
      "scat": 2987,
      "half": 2988,
      "ordin": 2989,
      "numbers": 2990,
      "ordinary": 2991,
      "vice": 2992,
      "Pat": 2993,
      "scatter": 2994,
      "wire": 2995,
      "acorn": 2996,
      "stops": 2997,
      "imagined": 2998,
      "fan": 2999,
      "envelope": 3000,
      "cco": 3001,
      "bel": 3002,
      "earth": 3003,
      "peeked": 3004,
      "modern": 3005,
      "sparkled": 3006,
      "compassion": 3007,
      "lim": 3008,
      "thunder": 3009,
      "avo": 3010,
      "deliver": 3011,
      "print": 3012,
      "terrible": 3013,
      "pattern": 3014,
      "jolly": 3015,
      "Bye": 3016,
      "friendship": 3017,
      "umbre": 3018,
      "stranger": 3019,
      "ject": 3020,
      "illa": 3021,
      "warned": 3022,
      "washed": 3023,
      "doesn": 3024,
      "flashlight": 3025,
      "jacket": 3026,
      "pirate": 3027,
      "crocodile": 3028,
      "aunt": 3029,
      "dust": 3030,
      "shiver": 3031,
      "sink": 3032,
      "spilled": 3033,
      "cupboard": 3034,
      "rose": 3035,
      "host": 3036,
      "coo": 3037,
      "holds": 3038,
      "sudden": 3039,
      "growing": 3040,
      "ugged": 3041,
      "popul": 3042,
      "flex": 3043,
      "missing": 3044,
      "sleeping": 3045,
      "driving": 3046,
      "popular": 3047,
      "ingred": 3048,
      "news": 3049,
      "ingredient": 3050,
      "pasta": 3051,
      "twirled": 3052,
      "otter": 3053,
      "ines": 3054,
      "env": 3055,
      "ges": 3056,
      "toma": 3057,
      "shut": 3058,
      "cheap": 3059,
      "square": 3060,
      "flute": 3061,
      "rug": 3062,
      "uncomfortable": 3063,
      "lives": 3064,
      "handed": 3065,
      "tti": 3066,
      "tied": 3067,
      "uddy": 3068,
      "complete": 3069,
      "persistent": 3070,
      "early": 3071,
      "cooking": 3072,
      "witch": 3073,
      "penny": 3074,
      "crawl": 3075,
      "dolphin": 3076,
      "rise": 3077,
      "sty": 3078,
      "opens": 3079,
      "bull": 3080,
      "isted": 3081,
      "mailbox": 3082,
      "thinking": 3083,
      "travel": 3084,
      "hetti": 3085,
      "aghetti": 3086,
      "attic": 3087,
      "slides": 3088,
      "intell": 3089,
      "stage": 3090,
      "snuggled": 3091,
      "intellig": 3092,
      "charm": 3093,
      "est": 3094,
      "sses": 3095,
      "sorts": 3096,
      "counting": 3097,
      "melon": 3098,
      "doors": 3099,
      "sunflower": 3100,
      "reading": 3101,
      "spaghetti": 3102,
      "beauty": 3103,
      "serve": 3104,
      "flexible": 3105,
      "Polly": 3106,
      "trum": 3107,
      "gling": 3108,
      "cakes": 3109,
      "crazy": 3110,
      "celebrate": 3111,
      "question": 3112,
      "planet": 3113,
      "humble": 3114,
      "shocked": 3115,
      "trap": 3116,
      "scoo": 3117,
      "impressive": 3118,
      "gloom": 3119,
      "ingredients": 3120,
      "Sandy": 3121,
      "bent": 3122,
      "vol": 3123,
      "barber": 3124,
      "ations": 3125,
      "cards": 3126,
      "towers": 3127,
      "destro": 3128,
      "placed": 3129,
      "advice": 3130,
      "fort": 3131,
      "refused": 3132,
      "harmless": 3133,
      "ither": 3134,
      "nature": 3135,
      "chance": 3136,
      "stickers": 3137,
      "Tweetie": 3138,
      "ghost": 3139,
      "coco": 3140,
      "butterflies": 3141,
      "statue": 3142,
      "tled": 3143,
      "œIt": 3144,
      "creatures": 3145,
      "rece": 3146,
      "uncle": 3147,
      "!\"\".": 3148,
      "pear": 3149,
      "truth": 3150,
      "ages": 3151,
      "destroy": 3152,
      "hunter": 3153,
      "Ru": 3154,
      "cran": 3155,
      "scale": 3156,
      "anx": 3157,
      "neighb": 3158,
      "œWhat": 3159,
      "chasing": 3160,
      "pants": 3161,
      "base": 3162,
      "Millie": 3163,
      "œLetâ": 3164,
      "cano": 3165,
      "given": 3166,
      "purse": 3167,
      "jet": 3168,
      "discover": 3169,
      "squash": 3170,
      "lla": 3171,
      "ince": 3172,
      "ezed": 3173,
      "umbrella": 3174,
      "aid": 3175,
      "leo": 3176,
      "library": 3177,
      "pigeon": 3178,
      "hive": 3179,
      "disgust": 3180,
      "brighter": 3181,
      "letters": 3182,
      "gasped": 3183,
      "spring": 3184,
      "anxious": 3185,
      "pho": 3186,
      "speed": 3187,
      "photo": 3188,
      "Un": 3189,
      "windows": 3190,
      "dug": 3191,
      "pale": 3192,
      "patch": 3193,
      "ignorant": 3194,
      "main": 3195,
      "gloomy": 3196,
      "math": 3197,
      "ctive": 3198,
      "wheels": 3199,
      "coll": 3200,
      "stretched": 3201,
      "station": 3202,
      "neat": 3203,
      "couldnâ": 3204,
      "competitive": 3205,
      "beep": 3206,
      "inde": 3207,
      "engine": 3208,
      "verse": 3209,
      "shoot": 3210,
      "impat": 3211,
      "charming": 3212,
      "Everything": 3213,
      "badly": 3214,
      "itself": 3215,
      "fearful": 3216,
      "suppl": 3217,
      "scooter": 3218,
      "create": 3219,
      "flour": 3220,
      "arian": 3221,
      "intelligent": 3222,
      "trumpet": 3223,
      "ahead": 3224,
      "crane": 3225,
      "gir": 3226,
      "may": 3227,
      "anywhere": 3228,
      "torn": 3229,
      "sofa": 3230,
      "cture": 3231,
      "reci": 3232,
      "remain": 3233,
      "thus": 3234,
      "pepper": 3235,
      "jumps": 3236,
      "pretending": 3237,
      "nuts": 3238,
      "collar": 3239,
      "separ": 3240,
      "sadly": 3241,
      "spell": 3242,
      "trash": 3243,
      "volcano": 3244,
      "magnet": 3245,
      "enthus": 3246,
      "spoke": 3247,
      "shield": 3248,
      "iches": 3249,
      "restless": 3250,
      "Before": 3251,
      "impatient": 3252,
      "carto": 3253,
      "attra": 3254,
      "cube": 3255,
      "sandwiches": 3256,
      "names": 3257,
      "trick": 3258,
      "practiced": 3259,
      "tic": 3260,
      "leopar": 3261,
      "ribb": 3262,
      "hood": 3263,
      "bathtub": 3264,
      "Buddy": 3265,
      "ded": 3266,
      "salt": 3267,
      "jeep": 3268,
      "ience": 3269,
      "aches": 3270,
      "split": 3271,
      "ckets": 3272,
      "ener": 3273,
      "gifted": 3274,
      "ffle": 3275,
      "five": 3276,
      "cush": 3277,
      "Sophie": 3278,
      "value": 3279,
      "super": 3280,
      "Char": 3281,
      "mill": 3282,
      "meas": 3283,
      "compassionate": 3284,
      "bin": 3285,
      "hurry": 3286,
      "steps": 3287,
      "disgusting": 3288,
      "pian": 3289,
      "Bill": 3290,
      "Yay": 3291,
      "asses": 3292,
      "cact": 3293,
      "afternoon": 3294,
      "aur": 3295,
      "unk": 3296,
      "restaur": 3297,
      "kers": 3298,
      "bandage": 3299,
      "Jerry": 3300,
      "gor": 3301,
      "stack": 3302,
      "nowhere": 3303,
      "shaking": 3304,
      "firework": 3305,
      "further": 3306,
      "admi": 3307,
      "pebble": 3308,
      "sport": 3309,
      "drawer": 3310,
      "envious": 3311,
      "sity": 3312,
      "decorate": 3313,
      "Bear": 3314,
      "tire": 3315,
      "stal": 3316,
      "piano": 3317,
      "drop": 3318,
      "starts": 3319,
      "erable": 3320,
      "miserable": 3321,
      "cricket": 3322,
      "dess": 3323,
      "waffle": 3324,
      "impro": 3325,
      "scoop": 3326,
      "Whis": 3327,
      "cli": 3328,
      "rice": 3329,
      "shoe": 3330,
      "yaw": 3331,
      "cau": 3332,
      "cooked": 3333,
      "admire": 3334,
      "Or": 3335,
      "pony": 3336,
      "ino": 3337,
      "restaurant": 3338,
      "œYes": 3339,
      "parade": 3340,
      "brace": 3341,
      "iest": 3342,
      "rub": 3343,
      "package": 3344,
      "ffin": 3345,
      "gn": 3346,
      "ppo": 3347,
      "deaf": 3348,
      "human": 3349,
      "octop": 3350,
      "gain": 3351,
      "carpet": 3352,
      "skip": 3353,
      "bri": 3354,
      "ley": 3355,
      "leash": 3356,
      "hook": 3357,
      "tray": 3358,
      "bet": 3359,
      "anyway": 3360,
      "club": 3361,
      "io": 3362,
      "perform": 3363,
      "sticker": 3364,
      "pressed": 3365,
      "cauli": 3366,
      "alert": 3367,
      "ceed": 3368,
      "cats": 3369,
      "filthy": 3370,
      "rules": 3371,
      "soldier": 3372,
      "octopus": 3373,
      "laser": 3374,
      "shroom": 3375,
      "comb": 3376,
      "clu": 3377,
      "sailor": 3378,
      "Sm": 3379,
      "golf": 3380,
      "cycle": 3381,
      "leopard": 3382,
      "cactus": 3383,
      "cel": 3384,
      "triang": 3385,
      "cocoa": 3386,
      "pun": 3387,
      "Maria": 3388,
      "oy": 3389,
      "nobody": 3390,
      "wallet": 3391,
      "distant": 3392,
      "attractive": 3393,
      "ief": 3394,
      "wheat": 3395,
      "pengu": 3396,
      "tube": 3397,
      "vine": 3398,
      "seal": 3399,
      "mushroom": 3400,
      "cows": 3401,
      "sweater": 3402,
      "barrel": 3403,
      "ccoli": 3404,
      "sheet": 3405,
      "helpless": 3406,
      "shouts": 3407,
      "paws": 3408,
      "candle": 3409,
      "giggle": 3410,
      "ost": 3411,
      "switch": 3412,
      "rolling": 3413,
      "jokes": 3414,
      "tion": 3415,
      "distur": 3416,
      "ummer": 3417,
      "older": 3418,
      "ubby": 3419,
      "Did": 3420,
      "raven": 3421,
      "bounced": 3422,
      "organize": 3423,
      "turkey": 3424,
      "dessert": 3425,
      "Harry": 3426,
      "zi": 3427,
      "silver": 3428,
      "gorilla": 3429,
      "bracelet": 3430,
      "size": 3431,
      "succeed": 3432,
      "cauliflower": 3433,
      "ador": 3434,
      "vator": 3435,
      "reco": 3436,
      "helmet": 3437,
      "Whiskers": 3438,
      "aff": 3439,
      "camp": 3440,
      "tick": 3441,
      "meow": 3442,
      "elevator": 3443,
      "Annie": 3444,
      "anda": 3445,
      "goal": 3446,
      "icycle": 3447,
      "Red": 3448,
      "mug": 3449,
      "aroo": 3450,
      "cob": 3451,
      "hedge": 3452,
      "angaroo": 3453,
      "stirred": 3454,
      "screw": 3455,
      "hippo": 3456,
      "stic": 3457,
      "backpack": 3458,
      "bicycle": 3459,
      "lollipop": 3460,
      "recogn": 3461,
      "sle": 3462,
      "pulls": 3463,
      "listening": 3464,
      "quite": 3465,
      "fee": 3466,
      "holes": 3467,
      "stared": 3468,
      "olin": 3469,
      "lively": 3470,
      "mission": 3471,
      "por": 3472,
      "repe": 3473,
      "chubby": 3474,
      "needle": 3475,
      "Brownie": 3476,
      "kangaroo": 3477,
      "leton": 3478,
      "keleton": 3479,
      "broccoli": 3480,
      "wever": 3481,
      "curtain": 3482,
      "celery": 3483,
      "aked": 3484,
      "happier": 3485,
      "iron": 3486,
      "thread": 3487,
      "modest": 3488,
      "clapping": 3489,
      "avail": 3490,
      "country": 3491,
      "hall": 3492,
      "offee": 3493,
      "spir": 3494,
      "harsh": 3495,
      "microphone": 3496,
      "avoc": 3497,
      "knot": 3498,
      "exper": 3499,
      "sym": 3500,
      "counter": 3501,
      "Kate": 3502,
      "oat": 3503,
      "ween": 3504,
      "rod": 3505,
      "track": 3506,
      "pushing": 3507,
      "roared": 3508,
      "wishes": 3509,
      "bol": 3510,
      "treasures": 3511,
      "inking": 3512,
      "repair": 3513,
      "adorable": 3514,
      "Hen": 3515,
      "Mag": 3516,
      "swinging": 3517,
      "colours": 3518,
      "available": 3519,
      "behave": 3520,
      "somewhere": 3521,
      "barking": 3522,
      "zzy": 3523,
      "lions": 3524,
      "starting": 3525,
      "luck": 3526,
      "secon": 3527,
      "dive": 3528,
      "troph": 3529,
      "skeleton": 3530,
      "cap": 3531,
      "pilot": 3532,
      "riding": 3533,
      "rend": 3534,
      "object": 3535,
      "cooler": 3536,
      "castles": 3537,
      "football": 3538,
      "message": 3539,
      "stretch": 3540,
      "Bunny": 3541,
      "œThat": 3542,
      "forgave": 3543,
      "axe": 3544,
      "grabs": 3545,
      "ea": 3546,
      "thief": 3547,
      "send": 3548,
      "symbol": 3549,
      "onion": 3550,
      "resist": 3551,
      "ostrich": 3552,
      "gro": 3553,
      "muffin": 3554,
      "finds": 3555,
      "painter": 3556,
      "respectful": 3557,
      "radio": 3558,
      "Sp": 3559,
      "paid": 3560,
      "ucked": 3561,
      "pushes": 3562,
      "point": 3563,
      "gie": 3564,
      "didnâ": 3565,
      "hadn": 3566,
      "sandbox": 3567,
      "Charlie": 3568,
      "Cl": 3569,
      "summer": 3570,
      "speak": 3571,
      "grapes": 3572,
      "knock": 3573,
      "zoomed": 3574,
      "support": 3575,
      "lter": 3576,
      "sort": 3577,
      "dishes": 3578,
      "troubled": 3579,
      "Henry": 3580,
      "Bun": 3581,
      "crystal": 3582,
      "monkeys": 3583,
      "trains": 3584,
      "neighbour": 3585,
      "energy": 3586,
      "Smith": 3587,
      "bikes": 3588,
      "coffee": 3589,
      "eraser": 3590,
      "belt": 3591,
      "shelter": 3592,
      "stume": 3593,
      "Is": 3594,
      "Snow": 3595,
      "scold": 3596,
      "These": 3597,
      "costume": 3598,
      "glasses": 3599,
      "shopkeeper": 3600,
      "either": 3601,
      "quar": 3602,
      "frame": 3603,
      "frowned": 3604,
      "Lilly": 3605,
      "meat": 3606,
      "buzz": 3607,
      "tripped": 3608,
      "notebook": 3609,
      "lightning": 3610,
      "crow": 3611,
      "swee": 3612,
      "marched": 3613,
      "visited": 3614,
      "mixer": 3615,
      "appl": 3616,
      "hoping": 3617,
      "Papa": 3618,
      "boots": 3619,
      "learnt": 3620,
      "checked": 3621,
      "aled": 3622,
      "shovel": 3623,
      "airport": 3624,
      "iastic": 3625,
      "evening": 3626,
      "enthusiastic": 3627,
      "James": 3628,
      "trem": 3629,
      "chain": 3630,
      "raining": 3631,
      "zebra": 3632,
      "Lee": 3633,
      "trophy": 3634,
      "tax": 3635,
      "drawings": 3636,
      "pole": 3637,
      "poem": 3638,
      "ache": 3639,
      "shrimp": 3640,
      "rhino": 3641,
      "Po": 3642,
      "theater": 3643,
      "cushion": 3644,
      "Tony": 3645,
      "lk": 3646,
      "bbles": 3647,
      "surrend": 3648,
      "tuna": 3649,
      "leaned": 3650,
      "alive": 3651,
      "papers": 3652,
      "complain": 3653,
      "fields": 3654,
      "bur": 3655,
      "chan": 3656,
      "thanks": 3657,
      "task": 3658,
      "resc": 3659,
      "astic": 3660,
      "rescue": 3661,
      "Flo": 3662,
      "ator": 3663,
      "reef": 3664,
      "bears": 3665,
      "climbing": 3666,
      "mask": 3667,
      "tear": 3668,
      "ckey": 3669,
      "mild": 3670,
      "oe": 3671,
      "reinde": 3672,
      "choice": 3673,
      "fireman": 3674,
      "film": 3675,
      "taxi": 3676,
      "mas": 3677,
      "inclu": 3678,
      "comet": 3679,
      "appreci": 3680,
      "tricks": 3681,
      "Jess": 3682,
      "haircut": 3683,
      "peek": 3684,
      "tap": 3685,
      "peach": 3686,
      "stuffed": 3687,
      "azz": 3688,
      "yach": 3689,
      "hockey": 3690,
      "sprink": 3691,
      "isher": 3692,
      "skill": 3693,
      "€“": 3694,
      "chalk": 3695,
      "ccer": 3696,
      "inse": 3697,
      "Thanks": 3698,
      "judge": 3699,
      "danger": 3700,
      "lang": 3701,
      "web": 3702,
      "licop": 3703,
      "laun": 3704,
      "violin": 3705,
      "langu": 3706,
      "licopter": 3707,
      "dar": 3708,
      "una": 3709,
      "soccer": 3710,
      "twist": 3711,
      "affe": 3712,
      "bubble": 3713,
      "spirit": 3714,
      "chanic": 3715,
      "Su": 3716,
      "edy": 3717,
      "iling": 3718,
      "teas": 3719,
      "reindeer": 3720,
      "iss": 3721,
      "stamp": 3722,
      "petal": 3723,
      "mechanic": 3724,
      "strawberry": 3725,
      "Bet": 3726,
      "pit": 3727,
      "helicopter": 3728,
      "enny": 3729,
      "yacht": 3730,
      "soil": 3731,
      "pipe": 3732,
      "theart": 3733,
      "igator": 3734,
      "unhappy": 3735,
      "putting": 3736,
      "lands": 3737,
      "powder": 3738,
      "motorcycle": 3739,
      "laundry": 3740,
      "beam": 3741,
      "unlock": 3742,
      "cardboard": 3743,
      "porch": 3744,
      "sock": 3745,
      "shoo": 3746,
      "scope": 3747,
      "shakes": 3748,
      "Baby": 3749,
      "aero": 3750,
      "erc": 3751,
      "shade": 3752,
      "apologized": 3753,
      "raft": 3754,
      "medal": 3755,
      "softly": 3756,
      "enter": 3757,
      "mule": 3758,
      "falling": 3759,
      "oyster": 3760,
      "pas": 3761,
      "armchair": 3762,
      "kayak": 3763,
      "Danny": 3764,
      "triangle": 3765,
      "First": 3766,
      "kitty": 3767,
      "sweetheart": 3768,
      "alligator": 3769,
      "jellyfish": 3770,
      "giraffe": 3771,
      "seeing": 3772,
      "reeze": 3773,
      "sneak": 3774,
      "attent": 3775,
      "closely": 3776,
      "pastry": 3777,
      "comm": 3778,
      "breaks": 3779,
      "perfectly": 3780,
      "fisher": 3781,
      "exerc": 3782,
      "kingdom": 3783,
      "quit": 3784,
      "smells": 3785,
      "diary": 3786,
      "bulb": 3787,
      "Ste": 3788,
      "ides": 3789,
      "bey": 3790,
      "marry": 3791,
      "between": 3792,
      "oil": 3793,
      "Instead": 3794,
      "celebrated": 3795,
      "ison": 3796,
      "ceros": 3797,
      "grocer": 3798,
      "mama": 3799,
      "page": 3800,
      "Because": 3801,
      "lime": 3802,
      "comed": 3803,
      "welcomed": 3804,
      "crib": 3805,
      "resp": 3806,
      "cups": 3807,
      "winter": 3808,
      "barks": 3809,
      "Zoe": 3810,
      "waving": 3811,
      "sunset": 3812,
      "Car": 3813,
      "cable": 3814,
      "pted": 3815,
      "minute": 3816,
      "rhinoceros": 3817,
      "attention": 3818,
      "Ros": 3819,
      "glove": 3820,
      "blowing": 3821,
      "drops": 3822,
      "chickens": 3823,
      "Rosie": 3824,
      "Tr": 3825,
      "awe": 3826,
      "weather": 3827,
      "umber": 3828,
      "feelings": 3829,
      "heads": 3830,
      "hut": 3831,
      "seum": 3832,
      "poss": 3833,
      "museum": 3834,
      "ding": 3835,
      "vroom": 3836,
      "hotel": 3837,
      "created": 3838,
      "vend": 3839,
      "shouldn": 3840,
      "baking": 3841,
      "golden": 3842,
      "fac": 3843,
      "swung": 3844,
      "Maggie": 3845,
      "parent": 3846,
      "basketball": 3847,
      "Clara": 3848,
      "sau": 3849,
      "presents": 3850,
      "petals": 3851,
      "twink": 3852,
      "quarrel": 3853,
      "died": 3854,
      "fog": 3855,
      "freez": 3856,
      "rubber": 3857,
      "sting": 3858,
      "stable": 3859,
      "crash": 3860,
      "forgotten": 3861,
      "comfort": 3862,
      "lawy": 3863,
      "bulance": 3864,
      "vendor": 3865,
      "panda": 3866,
      "ambulance": 3867,
      "imagine": 3868,
      "shower": 3869,
      "cuss": 3870,
      "fishing": 3871,
      "flame": 3872,
      "trail": 3873,
      "frogs": 3874,
      "cherries": 3875,
      "short": 3876,
      "flea": 3877,
      "bananas": 3878,
      "Kat": 3879,
      "ait": 3880,
      "fauce": 3881,
      "steak": 3882,
      "headed": 3883,
      "Rac": 3884,
      "pine": 3885,
      "ppery": 3886,
      "discuss": 3887,
      "napkin": 3888,
      "slippery": 3889,
      "fisherman": 3890,
      "..": 3891,
      "squi": 3892,
      "slept": 3893,
      "chy": 3894,
      "journ": 3895,
      "wife": 3896,
      "inarian": 3897,
      "terinarian": 3898,
      "dressed": 3899,
      "Rachel": 3900,
      "veterinarian": 3901,
      "aeroplane": 3902,
      "faucet": 3903,
      "breeze": 3904,
      "nes": 3905,
      "imagination": 3906,
      "az": 3907,
      "iture": 3908,
      "urniture": 3909,
      "shoulder": 3910,
      "trave": 3911,
      "eagerly": 3912,
      "izes": 3913,
      "furniture": 3914,
      "cheek": 3915,
      "potato": 3916,
      "May": 3917,
      "unpack": 3918,
      "ction": 3919,
      "dancer": 3920,
      "language": 3921,
      "œYou": 3922,
      "mystery": 3923,
      "baseball": 3924,
      "sla": 3925,
      "tress": 3926,
      "radish": 3927,
      "urt": 3928,
      "journal": 3929,
      "horses": 3930,
      "ignored": 3931,
      "applau": 3932,
      "mosqui": 3933,
      "shouting": 3934,
      "squirrels": 3935,
      "pastel": 3936,
      "meeting": 3937,
      "memories": 3938,
      "washer": 3939,
      "offer": 3940,
      "donâ": 3941,
      "avocado": 3942,
      "sprayed": 3943,
      "skull": 3944,
      "lawyer": 3945,
      "fant": 3946,
      "ense": 3947,
      "loop": 3948,
      "skirt": 3949,
      "palace": 3950,
      "zipper": 3951,
      "planes": 3952,
      "served": 3953,
      "breathe": 3954,
      "glowing": 3955,
      "Co": 3956,
      "streng": 3957,
      "weigh": 3958,
      "chim": 3959,
      "holid": 3960,
      "poke": 3961,
      "dishwasher": 3962,
      "accepted": 3963,
      "holiday": 3964,
      "aking": 3965,
      "reve": 3966,
      "magaz": 3967,
      "sailing": 3968,
      "cell": 3969,
      "weep": 3970,
      "fireplace": 3971,
      "pirates": 3972,
      "strength": 3973,
      "invest": 3974,
      "argue": 3975,
      "ceiling": 3976,
      "prevent": 3977,
      "maze": 3978,
      "throws": 3979,
      "hanging": 3980,
      "intro": 3981,
      "chor": 3982,
      "ents": 3983,
      "lawn": 3984,
      "microscope": 3985,
      "second": 3986,
      "introd": 3987,
      "plastic": 3988,
      "bury": 3989,
      "burned": 3990,
      "classroom": 3991,
      "ris": 3992,
      "straight": 3993,
      "worth": 3994,
      "creek": 3995,
      "attach": 3996,
      "tomato": 3997,
      "investig": 3998,
      "God": 3999,
      "slice": 4000,
      "happens": 4001,
      "mop": 4002,
      "mattress": 4003,
      "accept": 4004,
      "sniffed": 4005,
      "sir": 4006,
      "toil": 4007,
      "chirp": 4008,
      "collected": 4009,
      "superhero": 4010,
      "tip": 4011,
      "player": 4012,
      "opera": 4013,
      "capt": 4014,
      "wool": 4015,
      "belongs": 4016,
      "relaxed": 4017,
      "separate": 4018,
      "toilet": 4019,
      "factory": 4020,
      "novel": 4021,
      "since": 4022,
      "alarm": 4023,
      "umb": 4024,
      "steam": 4025,
      "rake": 4026,
      "disappear": 4027,
      "possible": 4028,
      "Each": 4029,
      "apr": 4030,
      "quack": 4031,
      "puddles": 4032,
      "Iâ": 4033,
      "Wait": 4034,
      "bouncing": 4035,
      "wardrobe": 4036,
      "imi": 4037,
      "asis": 4038,
      "rush": 4039,
      "moves": 4040,
      "flapped": 4041,
      "surrender": 4042,
      "oasis": 4043,
      "oking": 4044,
      "surround": 4045,
      "married": 4046,
      "points": 4047,
      "shrink": 4048,
      "penguin": 4049,
      "Wel": 4050,
      "hopes": 4051,
      "dear": 4052,
      "mistakes": 4053,
      "medi": 4054,
      "blankets": 4055,
      "writing": 4056,
      "throwing": 4057,
      "experience": 4058,
      "chimney": 4059,
      "Welcome": 4060,
      "Have": 4061,
      "greedy": 4062,
      "yog": 4063,
      "hon": 4064,
      "si": 4065,
      "ups": 4066,
      "warning": 4067,
      "cts": 4068,
      "hic": 4069,
      "fortun": 4070,
      "pru": 4071,
      "investigate": 4072,
      "veil": 4073,
      "Mimi": 4074,
      "yield": 4075,
      "staff": 4076,
      "popped": 4077,
      "grin": 4078,
      "sticky": 4079,
      "temple": 4080,
      "vehic": 4081,
      "gym": 4082,
      "True": 4083,
      "regre": 4084,
      "eaten": 4085,
      "Ruby": 4086,
      "freezer": 4087,
      "mediately": 4088,
      "argu": 4089,
      "improve": 4090,
      "scolded": 4091,
      "wipe": 4092,
      "inked": 4093,
      "yogurt": 4094,
      "anchor": 4095,
      "ornam": 4096,
      "chur": 4097,
      "folder": 4098,
      "crossed": 4099,
      "Sun": 4100,
      "church": 4101,
      "fought": 4102,
      "iv": 4103,
      "igloo": 4104,
      "float": 4105,
      "model": 4106,
      "blackboard": 4107,
      "appro": 4108,
      "miner": 4109,
      "apart": 4110,
      "Joy": 4111,
      "vision": 4112,
      "However": 4113,
      "cared": 4114,
      "spear": 4115,
      "Penny": 4116,
      "sna": 4117,
      "follows": 4118,
      "crawling": 4119,
      "regret": 4120,
      "lend": 4121,
      "entered": 4122,
      "makeup": 4123,
      "display": 4124,
      "Happ": 4125,
      "bang": 4126,
      "mand": 4127,
      "ox": 4128,
      "shrugged": 4129,
      "wags": 4130,
      "bother": 4131,
      "rooms": 4132,
      "Sad": 4133,
      "lab": 4134,
      "tucked": 4135,
      "ason": 4136,
      "itâ": 4137,
      "demand": 4138,
      "œItâ": 4139,
      "Miss": 4140,
      "junk": 4141,
      "request": 4142,
      "helper": 4143,
      "pinch": 4144,
      "television": 4145,
      "chess": 4146,
      "squeezed": 4147,
      "grill": 4148,
      "fortunately": 4149,
      "sizes": 4150,
      "lier": 4151,
      "blinked": 4152,
      "Not": 4153,
      "bathe": 4154,
      "claw": 4155,
      "mint": 4156,
      "splashing": 4157,
      "Steve": 4158,
      "below": 4159,
      "quietly": 4160,
      "Tina": 4161,
      "mm": 4162,
      "amazem": 4163,
      "amazement": 4164,
      "tug": 4165,
      "zor": 4166,
      "easily": 4167,
      "apron": 4168,
      "bbie": 4169,
      "razor": 4170,
      "sunglasses": 4171,
      "calls": 4172,
      "sparkle": 4173,
      "Luck": 4174,
      "beef": 4175,
      "lemonade": 4176,
      "Spike": 4177,
      "bby": 4178,
      "oak": 4179,
      "vac": 4180,
      "rail": 4181,
      "kisses": 4182,
      "yoga": 4183,
      "reaches": 4184,
      "omed": 4185,
      "couraged": 4186,
      "label": 4187,
      "video": 4188,
      "recomm": 4189,
      "mob": 4190,
      "Milly": 4191,
      "padd": 4192,
      "sters": 4193,
      "caring": 4194,
      "llen": 4195,
      "candles": 4196,
      "suff": 4197,
      "keeping": 4198,
      "harbor": 4199,
      "auto": 4200,
      "cabinet": 4201,
      "passport": 4202,
      "'.": 4203,
      "incre": 4204,
      "bookcase": 4205,
      "blueberries": 4206,
      "hurting": 4207,
      "kneel": 4208,
      "melt": 4209,
      "telephone": 4210,
      "sigh": 4211,
      "yucky": 4212,
      "ometer": 4213,
      "matches": 4214,
      "ticket": 4215,
      "Luckily": 4216,
      "ms": 4217,
      "pected": 4218,
      "safety": 4219,
      "chairs": 4220,
      "squeeze": 4221,
      "scattered": 4222,
      "automob": 4223,
      "lumber": 4224,
      "fastest": 4225,
      "surprises": 4226,
      "sparkling": 4227,
      "trusted": 4228,
      "Freddy": 4229,
      "dresses": 4230,
      "fume": 4231,
      "cliff": 4232,
      "waste": 4233,
      "boot": 4234,
      "spending": 4235,
      "letting": 4236,
      "ringing": 4237,
      "Buzz": 4238,
      "file": 4239,
      "mbers": 4240,
      "therm": 4241,
      "mustache": 4242,
      "magazine": 4243,
      "Qu": 4244,
      "icing": 4245,
      "quiz": 4246,
      "perfume": 4247,
      "swamp": 4248,
      "delay": 4249,
      "skills": 4250,
      "thermometer": 4251,
      "mosquito": 4252,
      "mist": 4253,
      "saving": 4254,
      "musician": 4255,
      "uniform": 4256,
      "Happy": 4257,
      "laught": 4258,
      "knob": 4259,
      "bravely": 4260,
      "hills": 4261,
      "chamber": 4262,
      "coats": 4263,
      "nce": 4264,
      "reverse": 4265,
      "oper": 4266,
      "wandered": 4267,
      "supply": 4268,
      "Snowy": 4269,
      "understanding": 4270,
      "Katie": 4271,
      "crun": 4272,
      "raise": 4273,
      "spots": 4274,
      "whist": 4275,
      "vanished": 4276,
      "flutter": 4277,
      "wigg": 4278,
      "fallen": 4279,
      "battery": 4280,
      "ribbon": 4281,
      "laughter": 4282,
      "remove": 4283,
      "settled": 4284,
      "praised": 4285,
      "wine": 4286,
      "prepar": 4287,
      "buck": 4288,
      "spade": 4289,
      "taller": 4290,
      "Luna": 4291,
      "isn": 4292,
      "weap": 4293,
      "growled": 4294,
      "snap": 4295,
      "members": 4296,
      "earlier": 4297,
      "trade": 4298,
      "puzzles": 4299,
      "Sha": 4300,
      "plates": 4301,
      "decis": 4302,
      "missile": 4303,
      "fuel": 4304,
      "recei": 4305,
      "cus": 4306,
      "nore": 4307,
      "Its": 4308,
      "uggling": 4309,
      "ctions": 4310,
      "moments": 4311,
      "People": 4312,
      "dried": 4313,
      "licks": 4314,
      "surf": 4315,
      "hardly": 4316,
      "hearts": 4317,
      "following": 4318,
      "destination": 4319,
      "poo": 4320,
      "mailman": 4321,
      "worms": 4322,
      "immediately": 4323,
      "shooting": 4324,
      "King": 4325,
      "infant": 4326,
      "claws": 4327,
      "poison": 4328,
      "invit": 4329,
      "dire": 4330,
      "gers": 4331,
      "prepare": 4332,
      "Everyday": 4333,
      "cherry": 4334,
      "beamed": 4335,
      "ium": 4336,
      "ival": 4337,
      "admir": 4338,
      "beans": 4339,
      "scooped": 4340,
      "muscle": 4341,
      "strawberries": 4342,
      "shot": 4343,
      "lotion": 4344,
      "warmth": 4345,
      "cuddled": 4346,
      "thumb": 4347,
      "coal": 4348,
      "leak": 4349,
      "exercise": 4350,
      "Liz": 4351,
      "poked": 4352,
      "buried": 4353,
      "solved": 4354,
      "jewels": 4355,
      "drain": 4356,
      "punish": 4357,
      "omeday": 4358,
      "automobile": 4359,
      "Ex": 4360,
      "pages": 4361,
      "anna": 4362,
      "perm": 4363,
      "balanc": 4364,
      "Chirp": 4365,
      "orang": 4366,
      "difference": 4367,
      "calend": 4368,
      "snapped": 4369,
      "oranges": 4370,
      "cartoon": 4371,
      "calendar": 4372,
      "€.": 4373,
      "pride": 4374,
      "perfor": 4375,
      "brain": 4376,
      "insisted": 4377,
      "Ol": 4378,
      "ining": 4379,
      "ideas": 4380,
      "sham": 4381,
      "blouse": 4382,
      "blood": 4383,
      "sandcastle": 4384,
      "erator": 4385,
      "dam": 4386,
      "ggy": 4387,
      "wed": 4388,
      "restore": 4389,
      "ignore": 4390,
      "myself": 4391,
      "inky": 4392,
      "rabbits": 4393,
      "destroyed": 4394,
      "captain": 4395,
      "bill": 4396,
      "dic": 4397,
      "refr": 4398,
      "igerator": 4399,
      "tornado": 4400,
      "yawned": 4401,
      "refrigerator": 4402,
      "Je": 4403,
      "washing": 4404,
      "shampoo": 4405,
      "Cat": 4406,
      "Ma": 4407,
      "floating": 4408,
      "panic": 4409,
      "jazz": 4410,
      "sub": 4411,
      "stad": 4412,
      "gear": 4413,
      "conf": 4414,
      "tongue": 4415,
      "tionary": 4416,
      "stadium": 4417,
      "lia": 4418,
      "palm": 4419,
      "dictionary": 4420,
      "someday": 4421,
      "tol": 4422,
      "asht": 4423,
      "weeks": 4424,
      "vacation": 4425,
      "ashtray": 4426,
      "homes": 4427,
      "floated": 4428,
      "jewelry": 4429,
      "structure": 4430,
      "Rob": 4431,
      "received": 4432,
      "equ": 4433,
      "pis": 4434,
      "sneeze": 4435,
      "pistol": 4436,
      "Yuck": 4437,
      "airplane": 4438,
      "fest": 4439,
      "setting": 4440,
      "izard": 4441,
      "permission": 4442,
      "examine": 4443,
      "vehicle": 4444,
      "Cla": 4445,
      "Tin": 4446,
      "digg": 4447,
      "fy": 4448,
      "encouraged": 4449,
      "comp": 4450,
      "none": 4451,
      "ady": 4452,
      "plays": 4453,
      "achie": 4454,
      "digging": 4455,
      "bleed": 4456,
      "invite": 4457,
      "bumped": 4458,
      "measured": 4459,
      "ues": 4460,
      "offic": 4461,
      "patiently": 4462,
      "Ollie": 4463,
      "Ouch": 4464,
      "begged": 4465,
      "parts": 4466,
      "tutor": 4467,
      "dare": 4468,
      "daisy": 4469,
      "tide": 4470,
      "believed": 4471,
      "insect": 4472,
      "approached": 4473,
      "unite": 4474,
      "lic": 4475,
      "chir": 4476,
      "whip": 4477,
      "climbs": 4478,
      "sparkles": 4479,
      "pulling": 4480,
      "melted": 4481,
      "teaching": 4482,
      "cobweb": 4483,
      "Ha": 4484,
      "nies": 4485,
      "wizard": 4486,
      "score": 4487,
      "festival": 4488,
      "ef": 4489,
      "hits": 4490,
      "alright": 4491,
      "disturb": 4492,
      "Poppy": 4493,
      "obey": 4494,
      "replace": 4495,
      "lip": 4496,
      "chores": 4497,
      "grape": 4498,
      "signs": 4499,
      "struggling": 4500,
      "Unfortunately": 4501,
      "price": 4502,
      "buzzing": 4503,
      "hers": 4504,
      "antly": 4505,
      "bling": 4506,
      "deeper": 4507,
      "Someone": 4508,
      "gifts": 4509,
      "burning": 4510,
      "bab": 4511,
      "wag": 4512,
      "upstairs": 4513,
      "provide": 4514,
      "Goodbye": 4515,
      "neighborhood": 4516,
      "collecting": 4517,
      "sits": 4518,
      "zipped": 4519,
      "jail": 4520,
      "nie": 4521,
      "glowed": 4522,
      "iers": 4523,
      "mall": 4524,
      "lest": 4525,
      "collection": 4526,
      "osed": 4527,
      "tore": 4528,
      "root": 4529,
      "bookshelf": 4530,
      "thrilled": 4531,
      "mention": 4532,
      "supposed": 4533,
      "appreciate": 4534,
      "wis": 4535,
      "paused": 4536,
      "bak": 4537,
      "repeat": 4538,
      "hesit": 4539,
      "toe": 4540,
      "stomach": 4541,
      "bathrobe": 4542,
      "chirping": 4543,
      "wre": 4544,
      "compl": 4545,
      "contain": 4546,
      "uggle": 4547,
      "bricks": 4548,
      "For": 4549,
      "Nut": 4550,
      "sip": 4551,
      "girls": 4552,
      "sunlight": 4553,
      "bites": 4554,
      "jogging": 4555,
      "sprinkles": 4556,
      "ipping": 4557,
      "asc": 4558,
      "rhy": 4559,
      "disco": 4560,
      "weapon": 4561,
      "safar": 4562,
      "ranch": 4563,
      "famil": 4564,
      "valley": 4565,
      "discovery": 4566,
      "watered": 4567,
      "hanger": 4568,
      "soldiers": 4569,
      "bbled": 4570,
      "fied": 4571,
      "massage": 4572,
      "lick": 4573,
      "proper": 4574,
      "meowed": 4575,
      "grocery": 4576,
      "crunchy": 4577,
      "fut": 4578,
      "olive": 4579,
      "sunrise": 4580,
      "twisted": 4581,
      "scur": 4582,
      "laid": 4583,
      "wherever": 4584,
      "elephants": 4585,
      "billboard": 4586,
      "future": 4587,
      "vy": 4588,
      "birdcage": 4589,
      "emer": 4590,
      "attached": 4591,
      "Remember": 4592,
      "Betsy": 4593,
      "Abig": 4594,
      "lily": 4595,
      "teaspo": 4596,
      "Abigail": 4597,
      "uggage": 4598,
      "decorations": 4599,
      "luggage": 4600,
      "nation": 4601,
      "œNo": 4602,
      "chip": 4603,
      "rang": 4604,
      "flood": 4605,
      "pigs": 4606,
      "prayed": 4607,
      "newspaper": 4608,
      "Tiny": 4609,
      "manage": 4610,
      "comfy": 4611,
      "Ready": 4612,
      "potatoes": 4613,
      "sausage": 4614,
      "safari": 4615,
      "bun": 4616,
      "fasc": 4617,
      "mitten": 4618,
      "€\"": 4619,
      "quake": 4620,
      "observe": 4621,
      "drinking": 4622,
      "problems": 4623,
      "actually": 4624,
      "patterns": 4625,
      "whistling": 4626,
      "Jam": 4627,
      "Mor": 4628,
      "watches": 4629,
      "blueberry": 4630,
      "velvet": 4631,
      "marbles": 4632,
      "scratch": 4633,
      "Mo": 4634,
      "urge": 4635,
      "Exc": 4636,
      "chirped": 4637,
      "Fro": 4638,
      "during": 4639,
      "lecture": 4640,
      "sore": 4641,
      "crashed": 4642,
      "sliding": 4643,
      "curled": 4644,
      "earthquake": 4645,
      "rum": 4646,
      "company": 4647,
      "license": 4648,
      "Frank": 4649,
      "grey": 4650,
      "rested": 4651,
      "tease": 4652,
      "flav": 4653,
      "Ok": 4654,
      "fixing": 4655,
      "beat": 4656,
      "doggy": 4657,
      "remained": 4658,
      "Mmm": 4659,
      "ipment": 4660,
      "measuring": 4661,
      "fireworks": 4662,
      "decision": 4663,
      "teaspoon": 4664,
      "ities": 4665,
      "socks": 4666,
      "buildings": 4667,
      "planted": 4668,
      "agreement": 4669,
      "receive": 4670,
      "recognized": 4671,
      "respons": 4672,
      "ornament": 4673,
      "equipment": 4674,
      "fascin": 4675,
      "!'": 4676,
      "remembers": 4677,
      "lets": 4678,
      "esca": 4679,
      "pets": 4680,
      "tracks": 4681,
      "marching": 4682,
      "freshed": 4683,
      "tles": 4684,
      "refreshed": 4685,
      "raised": 4686,
      "racing": 4687,
      "poppy": 4688,
      "satis": 4689,
      "folded": 4690,
      "operation": 4691,
      "beg": 4692,
      "peanuts": 4693,
      "style": 4694,
      "suffer": 4695,
      "rhyth": 4696,
      "unic": 4697,
      "worse": 4698,
      "easier": 4699,
      "cartoons": 4700,
      "grinned": 4701,
      "Chirpy": 4702,
      "By": 4703,
      "bank": 4704,
      "stitch": 4705,
      "hated": 4706,
      "skipping": 4707,
      "chewed": 4708,
      "ordered": 4709,
      "Gre": 4710,
      "works": 4711,
      "seats": 4712,
      "Zoom": 4713,
      "ising": 4714,
      "whistled": 4715,
      "Hoppy": 4716,
      "Nutty": 4717,
      "mountains": 4718,
      "zero": 4719,
      "buckle": 4720,
      "waits": 4721,
      "peered": 4722,
      "turning": 4723,
      "escaped": 4724,
      "Like": 4725,
      "stom": 4726,
      "rained": 4727,
      "invitation": 4728,
      "copper": 4729,
      "ddy": 4730,
      "hurri": 4731,
      "Ke": 4732,
      "lung": 4733,
      "loe": 4734,
      "hate": 4735,
      "happiest": 4736,
      "sidewalk": 4737,
      "strangers": 4738,
      "Beth": 4739,
      "memory": 4740,
      "surrounded": 4741,
      "admiring": 4742,
      "\"\",": 4743,
      "weight": 4744,
      "owned": 4745,
      "sings": 4746,
      "soared": 4747,
      "pitch": 4748,
      "iggling": 4749,
      "clearing": 4750,
      "dinosaurs": 4751,
      "zag": 4752,
      "disagreed": 4753,
      "heat": 4754,
      "monsters": 4755,
      "petted": 4756,
      "continue": 4757,
      "universe": 4758,
      "hurricane": 4759,
      "stam": 4760,
      "mister": 4761,
      "brick": 4762,
      "Moral": 4763,
      "orts": 4764,
      "freeze": 4765,
      "drinks": 4766,
      "selling": 4767,
      "Julie": 4768,
      "oxy": 4769,
      "Sh": 4770,
      "beside": 4771,
      "peel": 4772,
      "screams": 4773,
      "lu": 4774,
      "simp": 4775,
      "onwards": 4776,
      "beha": 4777,
      "brings": 4778,
      "anytime": 4779,
      "Big": 4780,
      "growl": 4781,
      "œIâ": 4782,
      "challen": 4783,
      "reminder": 4784,
      "oats": 4785,
      "œThatâ": 4786,
      "Sharing": 4787,
      "ona": 4788,
      "leather": 4789,
      "cutting": 4790,
      "revealed": 4791,
      "six": 4792,
      "mineral": 4793,
      "rhythm": 4794,
      "event": 4795,
      "ric": 4796,
      "wanting": 4797,
      "aren": 4798,
      "weren": 4799,
      "precious": 4800,
      "trapped": 4801,
      "spoons": 4802,
      "mouths": 4803,
      "Yum": 4804,
      "ase": 4805,
      "Anne": 4806,
      "slip": 4807,
      "practicing": 4808,
      "Sadly": 4809,
      "subway": 4810,
      "lips": 4811,
      "muddy": 4812,
      "univer": 4813,
      "tomatoes": 4814,
      "Suzy": 4815,
      "prepared": 4816,
      "bones": 4817,
      "brand": 4818,
      "spike": 4819,
      "kindly": 4820,
      "!\"\",": 4821,
      "bringing": 4822,
      "Remy": 4823,
      "Chloe": 4824,
      "Bubbles": 4825,
      "Uncle": 4826,
      "fash": 4827,
      "swo": 4828,
      "united": 4829,
      "settle": 4830,
      "paints": 4831,
      "sneezed": 4832,
      "scratched": 4833,
      "waffles": 4834,
      "university": 4835,
      "oh": 4836,
      "gotten": 4837,
      "navy": 4838,
      "everyday": 4839,
      "spill": 4840,
      "shopping": 4841,
      "talent": 4842,
      "twigs": 4843,
      "Mic": 4844,
      "Sunny": 4845,
      "snail": 4846,
      "secrets": 4847,
      "pillows": 4848,
      "menu": 4849,
      "osity": 4850,
      "drag": 4851,
      "firefight": 4852,
      "villag": 4853,
      "beds": 4854,
      "circus": 4855,
      "perched": 4856,
      "hurried": 4857,
      "catching": 4858,
      "answers": 4859,
      "wisdom": 4860,
      "glitter": 4861,
      "solut": 4862,
      "pupil": 4863,
      "dent": 4864,
      "mice": 4865,
      "uses": 4866,
      "tune": 4867,
      "apologize": 4868,
      "Sunday": 4869,
      "Jamie": 4870,
      "benea": 4871,
      "Really": 4872,
      "beneath": 4873,
      "Pi": 4874,
      "ath": 4875,
      "weighed": 4876,
      "crept": 4877,
      "officer": 4878,
      "simple": 4879,
      "Jan": 4880,
      "exact": 4881,
      "rs": 4882,
      "sages": 4883,
      "pedal": 4884,
      "guessed": 4885,
      "wreck": 4886,
      "fashion": 4887,
      "image": 4888,
      "visiting": 4889,
      "writ": 4890,
      "comforted": 4891,
      "grandmother": 4892,
      "gaz": 4893,
      "Always": 4894,
      "bare": 4895,
      "œThank": 4896,
      "creation": 4897,
      "shadows": 4898,
      "disturbed": 4899,
      "succeeded": 4900,
      "tremble": 4901,
      "Lucky": 4902,
      "Sant": 4903,
      "costum": 4904,
      "brid": 4905,
      "Santa": 4906,
      "chat": 4907,
      "tch": 4908,
      "history": 4909,
      "villagers": 4910,
      "costumes": 4911,
      "olives": 4912,
      "vow": 4913,
      "tour": 4914,
      "items": 4915,
      "curiosity": 4916,
      "struggled": 4917,
      "spaceship": 4918,
      "Lu": 4919,
      "Spark": 4920,
      "zig": 4921,
      "œWe": 4922,
      "ripped": 4923,
      "lap": 4924,
      "sterday": 4925,
      "knelt": 4926,
      "prune": 4927,
      "permit": 4928,
      "gloves": 4929,
      "encourage": 4930,
      "bowed": 4931,
      "Something": 4932,
      "argued": 4933,
      "Lul": 4934,
      "Afterwards": 4935,
      "Adam": 4936,
      "Itâ": 4937,
      "stripes": 4938,
      "loaded": 4939,
      "izing": 4940,
      "studied": 4941,
      "activ": 4942,
      "pancakes": 4943,
      "nails": 4944,
      "Coco": 4945,
      "bridges": 4946,
      "lines": 4947,
      "wid": 4948,
      "sadness": 4949,
      "Donâ": 4950,
      "wooden": 4951,
      "rubbing": 4952,
      "decorated": 4953,
      "mare": 4954,
      "indy": 4955,
      "pops": 4956,
      "ffic": 4957,
      "zooming": 4958,
      "examined": 4959,
      "recognize": 4960,
      "Tilly": 4961,
      "fully": 4962,
      "Josh": 4963,
      "pinched": 4964,
      "rides": 4965,
      "neighbourhood": 4966,
      "Hop": 4967,
      "decides": 4968,
      "situ": 4969,
      "accidents": 4970,
      "gained": 4971,
      "Pip": 4972,
      "area": 4973,
      "brushed": 4974,
      "lemons": 4975,
      "begin": 4976,
      "aded": 4977,
      "whatever": 4978,
      "joyed": 4979,
      "nightmare": 4980,
      "Floppy": 4981,
      "unicorn": 4982,
      "exactly": 4983,
      "Fol": 4984,
      "overjoyed": 4985,
      "underground": 4986,
      "rescu": 4987,
      "pearl": 4988,
      "tickets": 4989,
      "bleeding": 4990,
      "flavor": 4991,
      "fascinated": 4992,
      "Lulu": 4993,
      "Follow": 4994,
      "rul": 4995,
      "wink": 4996,
      "neath": 4997,
      "cuddle": 4998,
      "spiders": 4999,
      "soaring": 5000,
      "stealing": 5001,
      "Dav": 5002,
      "bunnies": 5003,
      "stored": 5004,
      "downstairs": 5005,
      "chef": 5006,
      "acorns": 5007,
      "Out": 5008,
      "vic": 5009,
      "heel": 5010,
      "sal": 5011,
      "loving": 5012,
      "stro": 5013,
      "umbs": 5014,
      "powers": 5015,
      "Claire": 5016,
      "oxygen": 5017,
      "mittens": 5018,
      "west": 5019,
      "caut": 5020,
      "doctors": 5021,
      "stretching": 5022,
      "twirling": 5023,
      "satisfied": 5024,
      "David": 5025,
      "waist": 5026,
      "parked": 5027,
      "yawn": 5028,
      "travell": 5029,
      "slapped": 5030,
      "recommend": 5031,
      "emergen": 5032,
      "Hanna": 5033,
      "aster": 5034,
      "kins": 5035,
      "herb": 5036,
      "riage": 5037,
      "rust": 5038,
      "printed": 5039,
      "completed": 5040,
      "struck": 5041,
      "Jeff": 5042,
      "hunt": 5043,
      "instru": 5044,
      "accompl": 5045,
      "breaking": 5046,
      "vowed": 5047,
      "zen": 5048,
      "realize": 5049,
      "wonders": 5050,
      "Lizzy": 5051,
      "tugged": 5052,
      "inch": 5053,
      "atch": 5054,
      "soak": 5055,
      "voices": 5056,
      "neighbors": 5057,
      "printer": 5058,
      "ago": 5059,
      "œLook": 5060,
      "steel": 5061,
      "foods": 5062,
      "iggy": 5063,
      "nicer": 5064,
      "markers": 5065,
      "pies": 5066,
      "unlocked": 5067,
      "tastes": 5068,
      "introduc": 5069,
      "motion": 5070,
      "eats": 5071,
      "prettie": 5072,
      "slim": 5073,
      "piles": 5074,
      "punished": 5075,
      "Suz": 5076,
      "prettiest": 5077,
      "Bir": 5078,
      "De": 5079,
      "Those": 5080,
      "€”": 5081,
      "loose": 5082,
      "draws": 5083,
      "bloomed": 5084,
      "barely": 5085,
      "ruin": 5086,
      "pupp": 5087,
      "wondering": 5088,
      "protected": 5089,
      "eagle": 5090,
      "guns": 5091,
      "challenge": 5092,
      "bouncy": 5093,
      "yelling": 5094,
      "Tues": 5095,
      "rele": 5096,
      "frozen": 5097,
      "winning": 5098,
      "stirring": 5099,
      "scurried": 5100,
      "writes": 5101,
      "zigzag": 5102,
      "Cindy": 5103,
      "Nina": 5104,
      "exit": 5105,
      "jogged": 5106,
      "underneath": 5107,
      "firemen": 5108,
      "prov": 5109,
      "Leave": 5110,
      "trol": 5111,
      "season": 5112,
      "keeps": 5113,
      "cones": 5114,
      "bottles": 5115,
      "Slow": 5116,
      "planned": 5117,
      "lied": 5118,
      "brushes": 5119,
      "sights": 5120,
      "landscape": 5121,
      "muscles": 5122,
      "mentioned": 5123,
      "responsible": 5124,
      "fer": 5125,
      "fab": 5126,
      "touching": 5127,
      "properly": 5128,
      "mater": 5129,
      "sides": 5130,
      "traffic": 5131,
      "gathering": 5132,
      "figured": 5133,
      "increase": 5134,
      "wagging": 5135,
      "stamps": 5136,
      "materi": 5137,
      "xu": 5138,
      "rance": 5139,
      "shoulders": 5140,
      "rocked": 5141,
      "winner": 5142,
      "sniff": 5143,
      "burrow": 5144,
      "Suzie": 5145,
      "Wed": 5146,
      "outdoors": 5147,
      "smar": 5148,
      "pears": 5149,
      "urged": 5150,
      "applauded": 5151,
      "introduce": 5152,
      "Pr": 5153,
      "east": 5154,
      "œCan": 5155,
      "budge": 5156,
      "rainbows": 5157,
      "pouring": 5158,
      "planets": 5159,
      "supplies": 5160,
      "emergency": 5161,
      "Wednes": 5162,
      "ler": 5163,
      "uct": 5164,
      "amb": 5165,
      "stole": 5166,
      "opin": 5167,
      "luxu": 5168,
      "beard": 5169,
      "pockets": 5170,
      "grant": 5171,
      "buckets": 5172,
      "control": 5173,
      "silence": 5174,
      "shivered": 5175,
      "instructions": 5176,
      "eight": 5177,
      "youth": 5178,
      "claps": 5179,
      "purred": 5180,
      "machines": 5181,
      "Susan": 5182,
      "honk": 5183,
      "Hannah": 5184,
      "Abby": 5185,
      "giggling": 5186,
      "tonight": 5187,
      "roo": 5188,
      "nets": 5189,
      "hoo": 5190,
      "ledge": 5191,
      "surface": 5192,
      "letâ": 5193,
      "Johnson": 5194,
      "frosting": 5195,
      "sneaked": 5196,
      "wedding": 5197,
      "vies": 5198,
      "steep": 5199,
      "choo": 5200,
      "included": 5201,
      "babies": 5202,
      "roaring": 5203,
      "strip": 5204,
      "ruler": 5205,
      "prints": 5206,
      "marriage": 5207,
      "ourselves": 5208,
      "fabric": 5209,
      ".'": 5210,
      "Get": 5211,
      "Kay": 5212,
      "Nick": 5213,
      "tex": 5214,
      "ica": 5215,
      "sorting": 5216,
      "horns": 5217,
      "confident": 5218,
      "En": 5219,
      "pebbles": 5220,
      "movies": 5221,
      "introduced": 5222,
      "texture": 5223,
      "bend": 5224,
      "rees": 5225,
      "shelves": 5226,
      "weed": 5227,
      "rac": 5228,
      "strings": 5229,
      "chewing": 5230,
      "guest": 5231,
      "dragons": 5232,
      "ppers": 5233,
      "entire": 5234,
      "twinkling": 5235,
      "omas": 5236,
      "acted": 5237,
      "master": 5238,
      "shock": 5239,
      "flap": 5240,
      "paintings": 5241,
      "Slowly": 5242,
      "Lou": 5243,
      "Put": 5244,
      "knowledge": 5245,
      "Thomas": 5246,
      "jects": 5247,
      "released": 5248,
      "plent": 5249,
      "inda": 5250,
      "goodnight": 5251,
      "mixing": 5252,
      "victory": 5253,
      "plenty": 5254,
      "bunch": 5255,
      "soaked": 5256,
      "dragged": 5257,
      "screaming": 5258,
      "Buzzy": 5259,
      "tickle": 5260,
      "Jessie": 5261,
      "demanded": 5262,
      "ira": 5263,
      "odd": 5264,
      "storekeeper": 5265,
      "teasing": 5266,
      "Tuesday": 5267,
      "Watch": 5268,
      "hest": 5269,
      "ads": 5270,
      "boom": 5271,
      "colored": 5272,
      "matched": 5273,
      "deser": 5274,
      "uctantly": 5275,
      "rr": 5276,
      "œThis": 5277,
      "sorted": 5278,
      "bert": 5279,
      "guys": 5280,
      "sisters": 5281,
      "Betty": 5282,
      "Carl": 5283,
      "ni": 5284,
      "release": 5285,
      "youn": 5286,
      "Wednesday": 5287,
      "Day": 5288,
      "ults": 5289,
      "Momo": 5290,
      "contest": 5291,
      "spraying": 5292,
      "policeman": 5293,
      "dusty": 5294,
      "Aunt": 5295,
      "Linda": 5296,
      "homework": 5297,
      "rocking": 5298,
      "network": 5299,
      "solution": 5300,
      "bravery": 5301,
      "nexpected": 5302,
      "izzie": 5303,
      "crackers": 5304,
      "cheering": 5305,
      "balancing": 5306,
      "cautious": 5307,
      "Lizzie": 5308,
      "pout": 5309,
      "unexpected": 5310,
      "lee": 5311,
      "cot": 5312,
      "expected": 5313,
      "cans": 5314,
      "matching": 5315,
      "chases": 5316,
      "Both": 5317,
      "shivering": 5318,
      "swoop": 5319,
      "situation": 5320,
      "slimy": 5321,
      "cough": 5322,
      "die": 5323,
      "sire": 5324,
      "becoming": 5325,
      "nect": 5326,
      "blink": 5327,
      "singer": 5328,
      "crumbs": 5329,
      "result": 5330,
      "luxury": 5331,
      "siren": 5332,
      "Che": 5333,
      "ik": 5334,
      "sway": 5335,
      "œDonâ": 5336,
      "peaches": 5337,
      "owners": 5338,
      "hugging": 5339,
      "passing": 5340,
      "Milo": 5341,
      "Rab": 5342,
      "rip": 5343,
      "rious": 5344,
      "pect": 5345,
      "reluctantly": 5346,
      "baked": 5347,
      "drives": 5348,
      "competition": 5349,
      "effort": 5350,
      "goals": 5351,
      "waiter": 5352,
      "rolls": 5353,
      "written": 5354,
      "recorded": 5355,
      "scales": 5356,
      "discovering": 5357,
      "Luke": 5358,
      "Jones": 5359,
      "List": 5360,
      "Time": 5361,
      "sports": 5362,
      "sweeties": 5363,
      "healed": 5364,
      "blooming": 5365,
      "muffins": 5366,
      "Listen": 5367,
      "dies": 5368,
      "wound": 5369,
      "irm": 5370,
      "fetch": 5371,
      "expect": 5372,
      "arrive": 5373,
      "Jenna": 5374,
      "Quick": 5375,
      "tum": 5376,
      "disagree": 5377,
      "cuts": 5378,
      "threat": 5379,
      "achieve": 5380,
      "poking": 5381,
      "truly": 5382,
      "sweets": 5383,
      "suitcase": 5384,
      "librarian": 5385,
      "strike": 5386,
      "cost": 5387,
      "countryside": 5388,
      "direction": 5389,
      "ien": 5390,
      "creating": 5391,
      "pastries": 5392,
      "roads": 5393,
      "Yea": 5394,
      "stare": 5395,
      "trips": 5396,
      "strum": 5397,
      "struggle": 5398,
      "coloured": 5399,
      "prayer": 5400,
      "completely": 5401,
      "kneeled": 5402,
      "ripe": 5403,
      "theirs": 5404,
      "canâ": 5405,
      "Jacky": 5406,
      "desert": 5407,
      "relief": 5408,
      "kicking": 5409,
      "polishing": 5410,
      "camping": 5411,
      "trembling": 5412,
      "Two": 5413,
      "worries": 5414,
      "caused": 5415,
      "zookeeper": 5416,
      "vanish": 5417,
      "dolphins": 5418,
      "ribbons": 5419,
      "include": 5420,
      "sighs": 5421,
      "Bird": 5422,
      "œHello": 5423,
      "herbs": 5424,
      "igi": 5425,
      "exha": 5426,
      "ranger": 5427,
      "staring": 5428,
      "seesaw": 5429,
      "partic": 5430,
      "curly": 5431,
      "studying": 5432,
      "awesome": 5433,
      "chips": 5434,
      "Our": 5435,
      "immer": 5436,
      "bbed": 5437,
      "dresser": 5438,
      "highest": 5439,
      "marks": 5440,
      "Quack": 5441,
      "Yeah": 5442,
      "Bon": 5443,
      "Matt": 5444,
      "cky": 5445,
      "catches": 5446,
      "curtains": 5447,
      "dared": 5448,
      "applaud": 5449,
      "pastels": 5450,
      "dentist": 5451,
      "gazed": 5452,
      "exhaust": 5453,
      "Bad": 5454,
      "Larry": 5455,
      "lamb": 5456,
      "vin": 5457,
      "œOh": 5458,
      "irts": 5459,
      "shined": 5460,
      "ventured": 5461,
      "importance": 5462,
      "valued": 5463,
      "Julia": 5464,
      "Keep": 5465,
      "Friend": 5466,
      "broom": 5467,
      "ib": 5468,
      "pite": 5469,
      "scra": 5470,
      "marker": 5471,
      "towels": 5472,
      "wandering": 5473,
      "repeated": 5474,
      "firm": 5475,
      "len": 5476,
      "lower": 5477,
      "Emmy": 5478,
      "reaching": 5479,
      "snakes": 5480,
      "ezing": 5481,
      "peeking": 5482,
      "particular": 5483,
      "Fe": 5484,
      "Sur": 5485,
      "ud": 5486,
      "agrees": 5487,
      "jamas": 5488,
      "Maya": 5489,
      "prunes": 5490,
      "regretted": 5491,
      "Ame": 5492,
      "Ba": 5493,
      "Jazz": 5494,
      "Mira": 5495,
      "thro": 5496,
      "seag": 5497,
      "fault": 5498,
      "sticking": 5499,
      "char": 5500,
      "tails": 5501,
      "traveled": 5502,
      "Pipp": 5503,
      "exhausted": 5504,
      "seagull": 5505,
      "Gigi": 5506,
      "Ja": 5507,
      "icky": 5508,
      "...": 5509,
      "throat": 5510,
      "Tara": 5511,
      "entrance": 5512,
      "observed": 5513,
      "ladybug": 5514,
      "crabs": 5515,
      "leader": 5516,
      "penguins": 5517,
      "Jessica": 5518,
      "arguing": 5519,
      "Rabbit": 5520,
      "freed": 5521,
      "learns": 5522,
      "Being": 5523,
      "radishes": 5524,
      "sausages": 5525,
      "reveal": 5526,
      "activities": 5527,
      "ah": 5528,
      "removed": 5529,
      "safer": 5530,
      "bars": 5531,
      "patted": 5532,
      "laying": 5533,
      "warn": 5534,
      "seems": 5535,
      "wiggled": 5536,
      "single": 5537,
      "sandcastles": 5538,
      "patience": 5539,
      "growling": 5540,
      "adding": 5541,
      "wires": 5542,
      "rescued": 5543,
      "cash": 5544,
      "lined": 5545,
      "rist": 5546,
      "ene": 5547,
      "youâ": 5548,
      "pots": 5549,
      "aky": 5550,
      "flat": 5551,
      "faraway": 5552,
      "polished": 5553,
      "squealed": 5554,
      "Christ": 5555,
      "pencils": 5556,
      "fuzzy": 5557,
      "groceries": 5558,
      "roots": 5559,
      "Mat": 5560,
      "ker": 5561,
      "œWhy": 5562,
      "ists": 5563,
      "rubs": 5564,
      "wasnâ": 5565,
      "organizing": 5566,
      "quacked": 5567,
      "ena": 5568,
      "misses": 5569,
      "delivery": 5570,
      "marked": 5571,
      "inviting": 5572,
      "knights": 5573,
      "Excuse": 5574,
      "Enjoy": 5575,
      "Many": 5576,
      "pajamas": 5577,
      "itchy": 5578,
      "Bess": 5579,
      "wow": 5580,
      "farther": 5581,
      "flags": 5582,
      "baker": 5583,
      "families": 5584,
      "opinion": 5585,
      "ky": 5586,
      "restored": 5587,
      "liqu": 5588,
      "faced": 5589,
      "Nothing": 5590,
      "worker": 5591,
      "darkness": 5592,
      "covers": 5593,
      "slap": 5594,
      "Amelia": 5595,
      "liquid": 5596,
      "Uh": 5597,
      "bumpy": 5598,
      "fted": 5599,
      "rockets": 5600,
      "however": 5601,
      "rusty": 5602,
      "startled": 5603,
      "melting": 5604,
      "weeping": 5605,
      "Kayla": 5606,
      "Jacob": 5607,
      "Christmas": 5608,
      "Pam": 5609,
      "Sn": 5610,
      "haw": 5611,
      "stolen": 5612,
      "magnets": 5613,
      "flames": 5614,
      "sneaky": 5615,
      "Ear": 5616,
      "Pinky": 5617,
      "awake": 5618,
      "iding": 5619,
      "sew": 5620,
      "everybody": 5621,
      "usually": 5622,
      "resting": 5623,
      "miles": 5624,
      "gaze": 5625,
      "lollipops": 5626,
      "paddled": 5627,
      "nectar": 5628,
      "Abbie": 5629,
      "Run": 5630,
      "sen": 5631,
      "beads": 5632,
      "chuck": 5633,
      "somebody": 5634,
      "angled": 5635,
      "cub": 5636,
      "interested": 5637,
      "princesses": 5638,
      "tickled": 5639,
      "Fu": 5640,
      "Jay": 5641,
      "Li": 5642,
      "Ral": 5643,
      "Take": 5644,
      "Everybody": 5645,
      "objects": 5646,
      "opening": 5647,
      "insist": 5648,
      "winked": 5649,
      "dipped": 5650,
      "firefighters": 5651,
      "provided": 5652,
      "Prin": 5653,
      "gar": 5654,
      "workers": 5655,
      "trig": 5656,
      "balanced": 5657,
      "swooped": 5658,
      "Boo": 5659,
      "belly": 5660,
      "wallow": 5661,
      "tallest": 5662,
      "rings": 5663,
      "project": 5664,
      "celebration": 5665,
      "Sparky": 5666,
      "Days": 5667,
      "Dolly": 5668,
      "Water": 5669,
      "swallow": 5670,
      "œMommy": 5671,
      "replaced": 5672,
      "pretends": 5673,
      "twinkle": 5674,
      "paddle": 5675,
      "cent": 5676,
      "cure": 5677,
      "wasted": 5678,
      "tractor": 5679,
      "buying": 5680,
      "teaches": 5681,
      "Sophia": 5682,
      "crowd": 5683,
      "Ralph": 5684,
      "ranny": 5685,
      "pause": 5686,
      "cracked": 5687,
      "filling": 5688,
      "leaning": 5689,
      "iar": 5690,
      "toss": 5691,
      "seven": 5692,
      "splashes": 5693,
      "familiar": 5694,
      "rumble": 5695,
      "cautiously": 5696,
      "Earth": 5697,
      "Mon": 5698,
      "Wo": 5699,
      "mane": 5700,
      "forehead": 5701,
      "smiley": 5702,
      "stern": 5703,
      "naps": 5704,
      "yesterday": 5705,
      "folding": 5706,
      "Flops": 5707,
      "accomplish": 5708,
      "allo": 5709,
      "hissed": 5710,
      "timer": 5711,
      "shaped": 5712,
      "staying": 5713,
      "packing": 5714,
      "actions": 5715,
      "silent": 5716,
      "improved": 5717,
      "Farm": 5718,
      "Squ": 5719,
      "Todd": 5720,
      "tasks": 5721,
      "swims": 5722,
      "Fine": 5723,
      "Mel": 5724,
      "ks": 5725,
      "snat": 5726,
      "œWhatâ": 5727,
      "Robby": 5728,
      "bakery": 5729,
      "talented": 5730,
      "Any": 5731,
      "celebrating": 5732,
      "protecting": 5733,
      "Stay": 5734,
      "beginning": 5735,
      "glee": 5736,
      "raind": 5737,
      "explorers": 5738,
      "cashier": 5739,
      "raindro": 5740,
      "Hoo": 5741,
      "logs": 5742,
      "hog": 5743,
      "speaking": 5744,
      "swirl": 5745,
      "reads": 5746,
      "snuck": 5747,
      "Karen": 5748,
      "fits": 5749,
      "opp": 5750,
      "ana": 5751,
      "secure": 5752,
      "hops": 5753,
      "reply": 5754,
      "pedals": 5755,
      "tricked": 5756,
      "photos": 5757,
      "affes": 5758,
      "piggy": 5759,
      "itches": 5760,
      "robb": 5761,
      "bedtime": 5762,
      "squish": 5763,
      "fairies": 5764,
      "June": 5765,
      "temper": 5766,
      "giraffes": 5767,
      "Ash": 5768,
      "Mi": 5769,
      "todd": 5770,
      "ongest": 5771,
      "froze": 5772,
      "closes": 5773,
      "recording": 5774,
      "Flopsy": 5775,
      "astr": 5776,
      "itor": 5777,
      "ory": 5778,
      "unpacked": 5779,
      "deal": 5780,
      "pered": 5781,
      "stem": 5782,
      "mination": 5783,
      "determination": 5784,
      "yells": 5785,
      "Robbie": 5786,
      "bumps": 5787,
      "screws": 5788,
      "recommended": 5789,
      "Farmer": 5790,
      "raindrops": 5791,
      "mies": 5792,
      "sled": 5793,
      "ido": 5794,
      "impossible": 5795,
      "sobbed": 5796,
      "fever": 5797,
      "shirts": 5798,
      "scaring": 5799,
      "listens": 5800,
      "calmed": 5801,
      "Without": 5802,
      "attack": 5803,
      "leading": 5804,
      "gems": 5805,
      "beyond": 5806,
      "Fido": 5807,
      "ware": 5808,
      "chop": 5809,
      "backed": 5810,
      "twin": 5811,
      "sailboat": 5812,
      "drifted": 5813,
      "health": 5814,
      "parties": 5815,
      "tricky": 5816,
      "poems": 5817,
      "onaut": 5818,
      "chuckled": 5819,
      "astronaut": 5820,
      "iles": 5821,
      "anger": 5822,
      "scrubbed": 5823,
      "diving": 5824,
      "paying": 5825,
      "wipes": 5826,
      "insects": 5827,
      "Zoey": 5828,
      "minerals": 5829,
      "directions": 5830,
      "behaved": 5831,
      "younger": 5832,
      "Gina": 5833,
      "Olive": 5834,
      "Zip": 5835,
      "wadd": 5836,
      "ora": 5837,
      "ths": 5838,
      "scarves": 5839,
      "yourselves": 5840,
      "steer": 5841,
      "Robert": 5842,
      "smarter": 5843,
      "pouted": 5844,
      "Oli": 5845,
      "ners": 5846,
      "sense": 5847,
      "rever": 5848,
      "peck": 5849,
      "stays": 5850,
      "pleasure": 5851,
      "wears": 5852,
      "guy": 5853,
      "wouldnâ": 5854,
      "Princess": 5855,
      "Ah": 5856,
      "copy": 5857,
      "Whee": 5858,
      "delivered": 5859,
      "discussed": 5860,
      "slices": 5861,
      "Excited": 5862,
      "Surpr": 5863,
      "temperature": 5864,
      "Jon": 5865,
      "Sque": 5866,
      "stain": 5867,
      "forts": 5868,
      "?\"\",": 5869,
      "treehouse": 5870,
      "handful": 5871,
      "coloring": 5872,
      "dancers": 5873,
      "bowls": 5874,
      "Meow": 5875,
      "Bluey": 5876,
      "hedgehog": 5877,
      "hallway": 5878,
      "cheeks": 5879,
      "fluttered": 5880,
      "behavi": 5881,
      "hitting": 5882,
      "toed": 5883,
      "isies": 5884,
      "sequ": 5885,
      "ortun": 5886,
      "slam": 5887,
      "Doggy": 5888,
      "rivers": 5889,
      "cupcakes": 5890,
      "daisies": 5891,
      "sweat": 5892,
      "blows": 5893,
      "hesitated": 5894,
      "snatched": 5895,
      "click": 5896,
      "fluttering": 5897,
      "masks": 5898,
      "€˜": 5899,
      "orted": 5900,
      "dots": 5901,
      "roses": 5902,
      "darker": 5903,
      "ences": 5904,
      "Dani": 5905,
      "Roar": 5906,
      "Pre": 5907,
      "Sim": 5908,
      "sie": 5909,
      "yum": 5910,
      "spice": 5911,
      "afterwards": 5912,
      "bows": 5913,
      "mixture": 5914,
      "knees": 5915,
      "kicks": 5916,
      "candies": 5917,
      "mesmer": 5918,
      "squares": 5919,
      "materials": 5920,
      "Fox": 5921,
      "Rover": 5922,
      "joking": 5923,
      "losing": 5924,
      "creamy": 5925,
      "horiz": 5926,
      "salty": 5927,
      "cous": 5928,
      "œLet": 5929,
      "refle": 5930,
      "oni": 5931,
      "ford": 5932,
      "badge": 5933,
      "weekend": 5934,
      "achieved": 5935,
      "stroked": 5936,
      "travelled": 5937,
      "iki": 5938,
      "horizon": 5939,
      "Binky": 5940,
      "Honey": 5941,
      "instrum": 5942,
      "tered": 5943,
      "mance": 5944,
      "needles": 5945,
      "hearing": 5946,
      "dreamt": 5947,
      "hider": 5948,
      "snowballs": 5949,
      "knocks": 5950,
      "darling": 5951,
      "performance": 5952,
      "Cu": 5953,
      "ping": 5954,
      "tty": 5955,
      "ref": 5956,
      "noses": 5957,
      "potion": 5958,
      "raincoat": 5959,
      "consequ": 5960,
      "lighter": 5961,
      "flake": 5962,
      "visitor": 5963,
      "swept": 5964,
      "flapping": 5965,
      "requested": 5966,
      "Since": 5967,
      "tangled": 5968,
      "iled": 5969,
      "videos": 5970,
      "neighbours": 5971,
      "indeed": 5972,
      "separated": 5973,
      "Mabel": 5974,
      "stomped": 5975,
      "Very": 5976,
      "yan": 5977,
      "arran": 5978,
      "ility": 5979,
      "third": 5980,
      "players": 5981,
      "kites": 5982,
      "signed": 5983,
      "audi": 5984,
      "widened": 5985,
      "hawk": 5986,
      "--": 5987,
      "eted": 5988,
      "itted": 5989,
      "outfit": 5990,
      "urry": 5991,
      "grassy": 5992,
      "drawn": 5993,
      "uggles": 5994,
      "pans": 5995,
      "tunnels": 5996,
      "jackets": 5997,
      "arrows": 5998,
      "Although": 5999,
      "consequences": 6000,
      "audience": 6001,
      "Zero": 6002,
      "œDo": 6003,
      "onions": 6004,
      "sale": 6005,
      "gobbled": 6006,
      "forgiven": 6007,
      "mets": 6008,
      "helmets": 6009,
      "artist": 6010,
      "wraps": 6011,
      "seeker": 6012,
      "Davey": 6013,
      "including": 6014,
      "Mad": 6015,
      "Pandy": 6016,
      "echo": 6017,
      "anno": 6018,
      "inst": 6019,
      "meals": 6020,
      "backwards": 6021,
      "dollhouse": 6022,
      "windy": 6023,
      "snowmen": 6024,
      "shrinking": 6025,
      "rewarded": 6026,
      "lungs": 6027,
      "immering": 6028,
      "Woof": 6029,
      "annoy": 6030,
      "?'": 6031,
      "Tuna": 6032,
      "hour": 6033,
      "remo": 6034,
      "igning": 6035,
      "lett": 6036,
      "ments": 6037,
      "wrapping": 6038,
      "blocking": 6039,
      "gracefully": 6040,
      "scratches": 6041,
      "complaining": 6042,
      "burst": 6043,
      "remote": 6044,
      "Spe": 6045,
      "Unt": 6046,
      "helpers": 6047,
      "rule": 6048,
      "pointy": 6049,
      "panick": 6050,
      "tigers": 6051,
      "Owl": 6052,
      "ornaments": 6053,
      "Until": 6054,
      "Along": 6055,
      "Spl": 6056,
      "œWow": 6057,
      "beloved": 6058,
      "teased": 6059,
      "Finn": 6060,
      "afford": 6061,
      "wrist": 6062,
      "drums": 6063,
      "basement": 6064,
      "rising": 6065,
      "Frog": 6066,
      "Squirrel": 6067,
      "During": 6068,
      "center": 6069,
      "scor": 6070,
      "ropes": 6071,
      "blings": 6072,
      "Nobody": 6073,
      "printing": 6074,
      "suits": 6075,
      "merry": 6076,
      "limes": 6077,
      "Great": 6078,
      "Friends": 6079,
      "Boun": 6080,
      "pon": 6081,
      "repa": 6082,
      "resis": 6083,
      "atur": 6084,
      "handsome": 6085,
      "greeted": 6086,
      "cond": 6087,
      "plans": 6088,
      "seconds": 6089,
      "siblings": 6090,
      "Shh": 6091,
      "Bessie": 6092,
      "repaired": 6093,
      "Ew": 6094,
      "hus": 6095,
      "ount": 6096,
      "itched": 6097,
      "among": 6098,
      "ados": 6099,
      "racco": 6100,
      "ruining": 6101,
      "creations": 6102,
      "wonâ": 6103,
      "couple": 6104,
      "peacefully": 6105,
      "borrowed": 6106,
      "forks": 6107,
      "avoid": 6108,
      "cubes": 6109,
      "avocados": 6110,
      "Mine": 6111,
      "dip": 6112,
      "forgetting": 6113,
      "ters": 6114,
      "heading": 6115,
      "clowns": 6116,
      "Judy": 6117,
      "tiptoed": 6118,
      "puppet": 6119,
      "Cra": 6120,
      "Jax": 6121,
      "Lena": 6122,
      "Tess": 6123,
      "gg": 6124,
      "willing": 6125,
      "choices": 6126,
      "deserve": 6127,
      "Fire": 6128,
      "Vroom": 6129,
      "hael": 6130,
      "amed": 6131,
      "acting": 6132,
      "concer": 6133,
      "grabbing": 6134,
      "action": 6135,
      "spreading": 6136,
      "source": 6137,
      "complained": 6138,
      "ivity": 6139,
      "Michael": 6140,
      "toddler": 6141,
      "lettuce": 6142,
      "Lau": 6143,
      "rup": 6144,
      "tou": 6145,
      "\"\"\"": 6146,
      "stung": 6147,
      "thorn": 6148,
      "item": 6149,
      "bage": 6150,
      "vanilla": 6151,
      "zipping": 6152,
      "Mouse": 6153,
      "Und": 6154,
      "wins": 6155,
      "webs": 6156,
      "fears": 6157,
      "peppers": 6158,
      "spins": 6159,
      "twice": 6160,
      "sation": 6161,
      "neatly": 6162,
      "surroundings": 6163,
      "hesitant": 6164,
      "Mickey": 6165,
      "granted": 6166,
      "Daniel": 6167,
      "raccoon": 6168,
      "Yummy": 6169,
      "dents": 6170,
      "mallow": 6171,
      "ude": 6172,
      "œCome": 6173,
      "reass": 6174,
      "neither": 6175,
      "rior": 6176,
      "lies": 6177,
      "shmallow": 6178,
      "starfish": 6179,
      "crew": 6180,
      "snowflake": 6181,
      "warrior": 6182,
      "sprinkled": 6183,
      "warnings": 6184,
      "growls": 6185,
      "accomplishment": 6186,
      "resisted": 6187,
      "husband": 6188,
      "Lia": 6189,
      "gross": 6190,
      "œHi": 6191,
      "intrig": 6192,
      "antic": 6193,
      "Only": 6194,
      "tram": 6195,
      "rotted": 6196,
      "wishing": 6197,
      "Back": 6198,
      "Try": 6199,
      "dama": 6200,
      "stool": 6201,
      "itude": 6202,
      "\"\".\"": 6203,
      "isty": 6204,
      "adult": 6205,
      "Ange": 6206,
      "conne": 6207,
      "creativity": 6208,
      "napkins": 6209,
      "spoonful": 6210,
      "decorating": 6211,
      "chefs": 6212,
      "trampol": 6213,
      "damage": 6214,
      "bodies": 6215,
      "Joan": 6216,
      "throughout": 6217,
      "planning": 6218,
      "Bee": 6219,
      "heavier": 6220,
      "Stella": 6221,
      "cuddly": 6222,
      "batteries": 6223,
      "buzzed": 6224,
      "Mikey": 6225,
      "trampoline": 6226,
      "Kelly": 6227,
      "pad": 6228,
      "toaster": 6229,
      "ids": 6230,
      "nood": 6231,
      "ades": 6232,
      "feast": 6233,
      "wobb": 6234,
      "Thatâ": 6235,
      "healing": 6236,
      "scam": 6237,
      "delivering": 6238,
      "enthusi": 6239,
      "sailors": 6240,
      "breathed": 6241,
      "superheroes": 6242,
      "Green": 6243,
      "Spr": 6244,
      "mate": 6245,
      "asm": 6246,
      "worn": 6247,
      "skunk": 6248,
      "iley": 6249,
      "thrown": 6250,
      "promises": 6251,
      "imagining": 6252,
      "bully": 6253,
      "designed": 6254,
      "recipe": 6255,
      "enthusiasm": 6256,
      "Rain": 6257,
      "nine": 6258,
      "wept": 6259,
      "pecked": 6260,
      "Momma": 6261,
      "prett": 6262,
      "confli": 6263,
      "slower": 6264,
      "dances": 6265,
      "praying": 6266,
      "tempt": 6267,
      "Sadie": 6268,
      "wiggle": 6269,
      "Louise": 6270,
      "Pretty": 6271,
      "Curious": 6272,
      "Under": 6273,
      "Granny": 6274,
      "Sof": 6275,
      "onge": 6276,
      "behaving": 6277,
      "ply": 6278,
      "forgets": 6279,
      "dod": 6280,
      "pose": 6281,
      "ongrat": 6282,
      "ops": 6283,
      "presses": 6284,
      "sponge": 6285,
      "conver": 6286,
      "snuggle": 6287,
      "dropping": 6288,
      "drawers": 6289,
      "hides": 6290,
      "Beep": 6291,
      "seaweed": 6292,
      "serving": 6293,
      "certain": 6294,
      "squeak": 6295,
      "mushrooms": 6296,
      "rushing": 6297,
      "honked": 6298,
      "firefighter": 6299,
      "Bongo": 6300,
      "squishy": 6301,
      "Splash": 6302,
      "touches": 6303,
      "prettier": 6304,
      "Ali": 6305,
      "Que": 6306,
      "bits": 6307,
      "blast": 6308,
      "cused": 6309,
      "alien": 6310,
      "plucked": 6311,
      "sunflowers": 6312,
      "joyful": 6313,
      "glued": 6314,
      "pumpkins": 6315,
      "œYouâ": 6316,
      "increased": 6317,
      "puppies": 6318,
      "waddled": 6319,
      "Laura": 6320,
      "ongratul": 6321,
      "Kiki": 6322,
      "Mina": 6323,
      "aven": 6324,
      "seas": 6325,
      "express": 6326,
      "abby": 6327,
      "talks": 6328,
      "passeng": 6329,
      "matters": 6330,
      "loading": 6331,
      "performing": 6332,
      "Queen": 6333,
      "passengers": 6334,
      "Am": 6335,
      "Ryan": 6336,
      "Wally": 6337,
      "sever": 6338,
      "softer": 6339,
      "Patty": 6340,
      "cushions": 6341,
      "stroke": 6342,
      "guests": 6343,
      "swallowed": 6344,
      "Holly": 6345,
      "Moo": 6346,
      "œMy": 6347,
      "students": 6348,
      "shops": 6349,
      "lifting": 6350,
      "cousin": 6351,
      "intrigued": 6352,
      "Hold": 6353,
      "Nice": 6354,
      "Ye": 6355,
      "kittens": 6356,
      "nif": 6357,
      "rout": 6358,
      "refresh": 6359,
      "ouch": 6360,
      "wobbled": 6361,
      "remembering": 6362,
      "curiously": 6363,
      "wrink": 6364,
      "hopeful": 6365,
      "corners": 6366,
      "Stan": 6367,
      "postman": 6368,
      "symbols": 6369,
      "appreciation": 6370,
      "rustling": 6371,
      "Birdy": 6372,
      "spices": 6373,
      "sank": 6374,
      "ann": 6375,
      "encou": 6376,
      "unsure": 6377,
      "asing": 6378,
      "oky": 6379,
      "streets": 6380,
      "raging": 6381,
      "triangles": 6382,
      "surrendered": 6383,
      "yielded": 6384,
      "Birthday": 6385,
      "scraped": 6386,
      "scampered": 6387,
      "inger": 6388,
      "thud": 6389,
      "rains": 6390,
      "dollars": 6391,
      "Love": 6392,
      "Janey": 6393,
      "marshmallow": 6394,
      "genie": 6395,
      "respected": 6396,
      "Chris": 6397,
      "changing": 6398,
      "trembled": 6399,
      "Baa": 6400,
      "Mart": 6401,
      "Oops": 6402,
      "cas": 6403,
      "flight": 6404,
      "reason": 6405,
      "allest": 6406,
      "neare": 6407,
      "smallest": 6408,
      "moo": 6409,
      "focused": 6410,
      "woof": 6411,
      "gardener": 6412,
      "puff": 6413,
      "chosen": 6414,
      "necklaces": 6415,
      "swans": 6416,
      "ease": 6417,
      "slammed": 6418,
      "Yesterday": 6419,
      "Min": 6420,
      "pens": 6421,
      "sou": 6422,
      "scient": 6423,
      "œNow": 6424,
      "anny": 6425,
      "rect": 6426,
      "iment": 6427,
      "formed": 6428,
      "geese": 6429,
      "dads": 6430,
      "flown": 6431,
      "explorer": 6432,
      "twisty": 6433,
      "Too": 6434,
      "charac": 6435,
      "sails": 6436,
      "Elly": 6437,
      "paths": 6438,
      "grandparents": 6439,
      "screwdriver": 6440,
      "respond": 6441,
      "refreshing": 6442,
      "Bang": 6443,
      "Ginger": 6444,
      "ais": 6445,
      "nu": 6446,
      "edges": 6447,
      "ition": 6448,
      "onward": 6449,
      "amount": 6450,
      "least": 6451,
      "Helen": 6452,
      "joining": 6453,
      "feeding": 6454,
      "Paula": 6455,
      "daring": 6456,
      "Carol": 6457,
      "spikes": 6458,
      "wider": 6459,
      "Snuggles": 6460,
      "Ashley": 6461,
      "scored": 6462,
      "noodles": 6463,
      "Bri": 6464,
      "Wil": 6465,
      "pours": 6466,
      "swords": 6467,
      "stroll": 6468,
      "finite": 6469,
      "tables": 6470,
      "coral": 6471,
      "emma": 6472,
      "whispers": 6473,
      "tested": 6474,
      "sneezing": 6475,
      "belts": 6476,
      "firmly": 6477,
      "freedom": 6478,
      "Bru": 6479,
      "Win": 6480,
      "earn": 6481,
      "lings": 6482,
      "munch": 6483,
      "tuck": 6484,
      "bras": 6485,
      "chopped": 6486,
      "magician": 6487,
      "steady": 6488,
      "smelling": 6489,
      "finishing": 6490,
      "Mean": 6491,
      "ignoring": 6492,
      "suggestion": 6493,
      "wiping": 6494,
      "Star": 6495,
      "Fuzzy": 6496,
      "Des": 6497,
      "hil": 6498,
      "œWell": 6499,
      "roars": 6500,
      "notes": 6501,
      "cosy": 6502,
      "defe": 6503,
      "causing": 6504,
      "spat": 6505,
      "final": 6506,
      "zebras": 6507,
      "heroes": 6508,
      "occas": 6509,
      "stacked": 6510,
      "oysters": 6511,
      "oatmeal": 6512,
      "surfboard": 6513,
      "robber": 6514,
      "mesmerized": 6515,
      "Maddy": 6516,
      "wobbly": 6517,
      "Sofia": 6518,
      "Dr": 6519,
      "aimed": 6520,
      "ading": 6521,
      "manag": 6522,
      "napping": 6523,
      "maker": 6524,
      "leapt": 6525,
      "prove": 6526,
      "races": 6527,
      "bells": 6528,
      "pays": 6529,
      "examining": 6530,
      "crashing": 6531,
      "performed": 6532,
      "travelling": 6533,
      "Squeaky": 6534,
      "encouraging": 6535,
      "finitely": 6536,
      "Zara": 6537,
      "sending": 6538,
      "playroom": 6539,
      "nearly": 6540,
      "stands": 6541,
      "baskets": 6542,
      "strongest": 6543,
      "nervously": 6544,
      "rays": 6545,
      "Froggy": 6546,
      "bi": 6547,
      "fishes": 6548,
      "faded": 6549,
      "height": 6550,
      "shown": 6551,
      "definitely": 6552,
      "colla": 6553,
      "Still": 6554,
      "streamers": 6555,
      "suffered": 6556,
      "punishment": 6557,
      "efforts": 6558,
      "Pippin": 6559,
      "Simon": 6560,
      "reflection": 6561,
      "marshmallows": 6562,
      "Meg": 6563,
      "pant": 6564,
      "via": 6565,
      "ilder": 6566,
      "sadd": 6567,
      "gears": 6568,
      "grum": 6569,
      "acles": 6570,
      "surfing": 6571,
      "colder": 6572,
      "drivers": 6573,
      "dived": 6574,
      "politely": 6575,
      "burying": 6576,
      "obeyed": 6577,
      "flavors": 6578,
      "ponies": 6579,
      "Martha": 6580,
      "Despite": 6581,
      "Madd": 6582,
      "Tig": 6583,
      "ppies": 6584,
      "poster": 6585,
      "lessons": 6586,
      "Dog": 6587,
      "ounced": 6588,
      "puzzled": 6589,
      "frowning": 6590,
      "charge": 6591,
      "panicked": 6592,
      "Brian": 6593,
      "Meanwhile": 6594,
      "Maddie": 6595,
      "ev": 6596,
      "lending": 6597,
      "onse": 6598,
      "essa": 6599,
      "playtime": 6600,
      "cope": 6601,
      "rainy": 6602,
      "bravest": 6603,
      "counts": 6604,
      "warmer": 6605,
      "baths": 6606,
      "rotten": 6607,
      "slips": 6608,
      "crossing": 6609,
      "lifts": 6610,
      "leads": 6611,
      "Roger": 6612,
      "response": 6613,
      "twinkled": 6614,
      "preparing": 6615,
      "sniffs": 6616,
      "Surprise": 6617,
      "arranged": 6618,
      "echoed": 6619,
      "conflict": 6620,
      "nuzz": 6621,
      "Gra": 6622,
      "Mother": 6623,
      "Sleep": 6624,
      "recor": 6625,
      "aside": 6626,
      "months": 6627,
      "mints": 6628,
      "Elsa": 6629,
      "humans": 6630,
      "campfire": 6631,
      "licking": 6632,
      "Feel": 6633,
      "reversed": 6634,
      "Gabby": 6635,
      "jack": 6636,
      "tran": 6637,
      "ya": 6638,
      "reunited": 6639,
      "adults": 6640,
      "elf": 6641,
      "newfound": 6642,
      "waterfall": 6643,
      "overcome": 6644,
      "cleaner": 6645,
      "planting": 6646,
      "results": 6647,
      "designs": 6648,
      "Speedy": 6649,
      "connected": 6650,
      "Ava": 6651,
      "Never": 6652,
      "Up": 6653,
      "Wend": 6654,
      "lever": 6655,
      "stitches": 6656,
      "dot": 6657,
      "poppies": 6658,
      "Annabel": 6659,
      "teles": 6660,
      "tying": 6661,
      "watering": 6662,
      "tage": 6663,
      "braver": 6664,
      "surprising": 6665,
      "duckling": 6666,
      "correct": 6667,
      "Megan": 6668,
      "shovels": 6669,
      "scurry": 6670,
      "pupils": 6671,
      "Wendy": 6672,
      "telescope": 6673,
      "Tessa": 6674,
      "ening": 6675,
      "sewed": 6676,
      "cept": 6677,
      "blocked": 6678,
      "cloudy": 6679,
      "seashells": 6680,
      "driveway": 6681,
      "seller": 6682,
      "Snowman": 6683,
      "fantastic": 6684,
      "garbage": 6685,
      "tossed": 6686,
      "behavior": 6687,
      "Nana": 6688,
      "Pu": 6689,
      "dred": 6690,
      "locks": 6691,
      "sewing": 6692,
      "assm": 6693,
      "force": 6694,
      "coach": 6695,
      "fact": 6696,
      "wobble": 6697,
      "quie": 6698,
      "conqu": 6699,
      "tablet": 6700,
      "firefly": 6701,
      "worrying": 6702,
      "gonna": 6703,
      "packages": 6704,
      "mailed": 6705,
      "Zoomy": 6706,
      "Deal": 6707,
      "evil": 6708,
      "asers": 6709,
      "idey": 6710,
      "gras": 6711,
      "sweetest": 6712,
      "polar": 6713,
      "distra": 6714,
      "despite": 6715,
      "ezes": 6716,
      "spells": 6717,
      "luckily": 6718,
      "Spidey": 6719,
      "material": 6720,
      "cottage": 6721,
      "several": 6722,
      "Playing": 6723,
      "Phil": 6724,
      "Smo": 6725,
      "ashed": 6726,
      "sim": 6727,
      "œThe": 6728,
      "soaking": 6729,
      "ugs": 6730,
      "blinking": 6731,
      "tapped": 6732,
      "greet": 6733,
      "bless": 6734,
      "pennies": 6735,
      "rotting": 6736,
      "tidied": 6737,
      "shady": 6738,
      "angels": 6739,
      "appreciated": 6740,
      "damaged": 6741,
      "Hoot": 6742,
      "Ana": 6743,
      "Gary": 6744,
      "Izzy": 6745,
      "ippy": 6746,
      "pins": 6747,
      "tar": 6748,
      "stopping": 6749,
      "JoJo": 6750,
      "forests": 6751,
      "creams": 6752,
      "biting": 6753,
      "swimsuit": 6754,
      "artwork": 6755,
      "believing": 6756,
      "slither": 6757,
      "brushing": 6758,
      "Start": 6759,
      "Stitch": 6760,
      "otters": 6761,
      "burger": 6762,
      "risks": 6763,
      "Vel": 6764,
      "congratul": 6765,
      "lent": 6766,
      "mered": 6767,
      "toward": 6768,
      "rier": 6769,
      "loops": 6770,
      "blu": 6771,
      "ilda": 6772,
      "Does": 6773,
      "heartbroken": 6774,
      "Goodnight": 6775,
      "calmly": 6776,
      "battle": 6777,
      "wakes": 6778,
      "discussing": 6779,
      "vehicles": 6780,
      "Frankie": 6781,
      "Kevin": 6782,
      "Feeling": 6783,
      "quieter": 6784,
      "Velvet": 6785,
      "awoke": 6786,
      "trotted": 6787,
      "lody": 6788,
      "bots": 6789,
      "whose": 6790,
      "thoughts": 6791,
      "beautifully": 6792,
      "hairdresser": 6793,
      "fills": 6794,
      "probab": 6795,
      "spooky": 6796,
      "purr": 6797,
      "ships": 6798,
      "breathing": 6799,
      "slipping": 6800,
      "chocolates": 6801,
      "Freddie": 6802,
      "whispering": 6803,
      "Marie": 6804,
      "permitted": 6805,
      "Pippa": 6806,
      "refuse": 6807,
      "probably": 6808,
      "Bow": 6809,
      "Fight": 6810,
      "Nora": 6811,
      "œMom": 6812,
      "œIf": 6813,
      "posit": 6814,
      "Jojo": 6815,
      "sparks": 6816,
      "Elsie": 6817,
      "imagin": 6818,
      "grandchild": 6819,
      "reminding": 6820,
      "trusting": 6821,
      "Seeing": 6822,
      "frowns": 6823,
      "scram": 6824,
      "cuddles": 6825,
      "Alan": 6826,
      "travels": 6827,
      "repeating": 6828,
      "issue": 6829,
      "exercises": 6830,
      "Claus": 6831,
      "Frosty": 6832,
      "accomplished": 6833,
      "anticip": 6834,
      "conversation": 6835,
      "Fighting": 6836,
      "?!\"\"": 6837,
      "Barry": 6838,
      "Cara": 6839,
      "Jod": 6840,
      "aim": 6841,
      "pound": 6842,
      "œOf": 6843,
      "sets": 6844,
      "thatâ": 6845,
      "girlâ": 6846,
      "maid": 6847,
      "compe": 6848,
      "cheers": 6849,
      "misch": 6850,
      "tricycle": 6851,
      "understands": 6852,
      "grows": 6853,
      "Becky": 6854,
      "paintbrush": 6855,
      "stumble": 6856,
      "erosity": 6857,
      "hundred": 6858,
      "sniffing": 6859,
      "clues": 6860,
      "tubes": 6861,
      "cobwebs": 6862,
      "Jonny": 6863,
      "Hurry": 6864,
      "afar": 6865,
      "ties": 6866,
      "œOkay": 6867,
      "€,": 6868,
      "idence": 6869,
      "ative": 6870,
      "address": 6871,
      "except": 6872,
      "goodby": 6873,
      "handing": 6874,
      "covering": 6875,
      "flips": 6876,
      "squeaked": 6877,
      "supported": 6878,
      "Poor": 6879,
      "admiration": 6880,
      "Outside": 6881,
      "masterpiece": 6882,
      "snowflakes": 6883,
      "goodbyes": 6884,
      "dump": 6885,
      "vegg": 6886,
      "forgiving": 6887,
      "Which": 6888,
      "snowball": 6889,
      "tighter": 6890,
      "belongings": 6891,
      "desper": 6892,
      "gesture": 6893,
      "squeezing": 6894,
      "pigeons": 6895,
      "responsib": 6896,
      "Angel": 6897,
      "anticipation": 6898,
      "veggies": 6899,
      "Ly": 6900,
      "munk": 6901,
      "œWhere": 6902,
      "ister": 6903,
      "Shelly": 6904,
      "robots": 6905,
      "shrunk": 6906,
      "mood": 6907,
      "doorway": 6908,
      "custom": 6909,
      "squir": 6910,
      "yelped": 6911,
      "pedaled": 6912,
      "tasting": 6913,
      "generosity": 6914,
      "presented": 6915,
      "solving": 6916,
      "prayers": 6917,
      "cocoon": 6918,
      "tires": 6919,
      "quarreling": 6920,
      "wiggly": 6921,
      "disturbing": 6922,
      "lipstick": 6923,
      "weeds": 6924,
      "scientist": 6925,
      "customers": 6926,
      "Fre": 6927,
      "Hallo": 6928,
      "Kids": 6929,
      "Lion": 6930,
      "Other": 6931,
      "tipped": 6932,
      "tissue": 6933,
      "œBut": 6934,
      "insp": 6935,
      "ammy": 6936,
      "treated": 6937,
      "kings": 6938,
      "untie": 6939,
      "flowing": 6940,
      "wisely": 6941,
      "bandages": 6942,
      "prick": 6943,
      "guessing": 6944,
      "wealth": 6945,
      "experien": 6946,
      "Janie": 6947,
      "tumbled": 6948,
      "insisting": 6949,
      "congratulated": 6950,
      "scrambled": 6951,
      "Halloween": 6952,
      "Ca": 6953,
      "Ever": 6954,
      "Pin": 6955,
      "osh": 6956,
      "py": 6957,
      "tweet": 6958,
      "vines": 6959,
      "zed": 6960,
      "ider": 6961,
      "although": 6962,
      "acle": 6963,
      "fins": 6964,
      "scent": 6965,
      "cowboy": 6966,
      "grandfather": 6967,
      "Bobbie": 6968,
      "camel": 6969,
      "apologised": 6970,
      "diamonds": 6971,
      "speeding": 6972,
      "decisions": 6973,
      "nibbled": 6974,
      "Excitedly": 6975,
      "annoyed": 6976,
      "concert": 6977,
      "Spring": 6978,
      "Choo": 6979,
      "Isn": 6980,
      "Mu": 6981,
      "Sw": 6982,
      "inter": 6983,
      "issa": 6984,
      "chant": 6985,
      "Joanna": 6986,
      "builder": 6987,
      "untied": 6988,
      "uctor": 6989,
      "cons": 6990,
      "pleaded": 6991,
      "marve": 6992,
      "images": 6993,
      "Hope": 6994,
      "toothbrush": 6995,
      "Ruth": 6996,
      "knots": 6997,
      "passports": 6998,
      "...\"\"": 6999,
      "honking": 7000,
      "suffering": 7001,
      "inchworm": 7002,
      "swayed": 7003,
      "Jas": 7004,
      "date": 7005,
      "antha": 7006,
      "Samantha": 7007,
      "joked": 7008,
      "teen": 7009,
      "squin": 7010,
      "business": 7011,
      "dangers": 7012,
      "cupcake": 7013,
      "drift": 7014,
      "syrup": 7015,
      "granddaughter": 7016,
      "flip": 7017,
      "toolbox": 7018,
      "bats": 7019,
      "figures": 7020,
      "discoveries": 7021,
      "mosquitoes": 7022,
      "gazing": 7023,
      "conductor": 7024,
      "reassured": 7025,
      "Tiger": 7026,
      "Brad": 7027,
      "Dory": 7028,
      "Pink": 7029,
      "Snap": 7030,
      "sill": 7031,
      "ilted": 7032,
      "chilly": 7033,
      "smashed": 7034,
      "bracele": 7035,
      "Elle": 7036,
      "serv": 7037,
      "mermaid": 7038,
      "cleared": 7039,
      "crowns": 7040,
      "scarecrow": 7041,
      "Patch": 7042,
      "confidence": 7043,
      "chipmunk": 7044,
      "encouragement": 7045,
      "Annabelle": 7046,
      "inspired": 7047,
      "experienced": 7048,
      "bracelets": 7049,
      "Eva": 7050,
      "Ray": 7051,
      "Say": 7052,
      "Woo": 7053,
      "Willi": 7054,
      "cour": 7055,
      "zing": 7056,
      "encounter": 7057,
      "ilities": 7058,
      "unfortunately": 7059,
      "rather": 7060,
      "shorts": 7061,
      "deed": 7062,
      "nasty": 7063,
      "type": 7064,
      "swimmer": 7065,
      "jobs": 7066,
      "teachers": 7067,
      "jars": 7068,
      "flick": 7069,
      "footsteps": 7070,
      "humming": 7071,
      "decoration": 7072,
      "emerged": 7073,
      "Quackers": 7074,
      "instruments": 7075,
      "forgiveness": 7076,
      "wrinkled": 7077,
      "William": 7078,
      "Abi": 7079,
      "Se": 7080,
      "Taking": 7081,
      "Trust": 7082,
      "œPlease": 7083,
      "œHey": 7084,
      "argum": 7085,
      "beating": 7086,
      "manners": 7087,
      "goodies": 7088,
      "thanking": 7089,
      "warmly": 7090,
      "jud": 7091,
      "wrigg": 7092,
      "million": 7093,
      "statues": 7094,
      "bothering": 7095,
      "spills": 7096,
      "laptop": 7097,
      "cotton": 7098,
      "astronauts": 7099,
      "Olivia": 7100,
      "nearest": 7101,
      "scurrying": 7102,
      "Care": 7103,
      "Jona": 7104,
      "Right": 7105,
      "Sup": 7106,
      "Ty": 7107,
      "Twink": 7108,
      "grip": 7109,
      "tment": 7110,
      "rely": 7111,
      "erk": 7112,
      "ends": 7113,
      "spits": 7114,
      "chea": 7115,
      "purrs": 7116,
      "Pepper": 7117,
      "giggles": 7118,
      "Paw": 7119,
      "ghosts": 7120,
      "twisting": 7121,
      "activity": 7122,
      "Oliver": 7123,
      "Amanda": 7124,
      "routine": 7125,
      "aisle": 7126,
      "nuzzled": 7127,
      "Startled": 7128,
      "Fortun": 7129,
      "Ka": 7130,
      "Rav": 7131,
      "Ricky": 7132,
      "lasers": 7133,
      "ppa": 7134,
      "range": 7135,
      "whoever": 7136,
      "nights": 7137,
      "Looking": 7138,
      "flock": 7139,
      "purpose": 7140,
      "dripping": 7141,
      "ugging": 7142,
      "osite": 7143,
      "Boys": 7144,
      "sharks": 7145,
      "questioned": 7146,
      "scooters": 7147,
      "repairman": 7148,
      "delayed": 7149,
      "officers": 7150,
      "peeled": 7151,
      "seagulls": 7152,
      "Liam": 7153,
      "opportun": 7154,
      "opposite": 7155,
      "sweaty": 7156,
      "thorns": 7157,
      "manager": 7158,
      "Twinkle": 7159,
      "Fortunately": 7160,
      "Ravi": 7161,
      "Fion": 7162,
      "Gu": 7163,
      "Gemma": 7164,
      "Open": 7165,
      "Per": 7166,
      "Wor": 7167,
      "clicked": 7168,
      "fond": 7169,
      "gap": 7170,
      "iscu": 7171,
      "stall": 7172,
      "within": 7173,
      "lyn": 7174,
      "shimmering": 7175,
      "winding": 7176,
      "dressing": 7177,
      "rows": 7178,
      "foxes": 7179,
      "explains": 7180,
      "elect": 7181,
      "seashell": 7182,
      "tidying": 7183,
      "nurses": 7184,
      "sheets": 7185,
      "Katy": 7186,
      "increasing": 7187,
      "swollen": 7188,
      "steering": 7189,
      "responded": 7190,
      "Fiona": 7191,
      "Hank": 7192,
      "Zee": 7193,
      "aware": 7194,
      "œGood": 7195,
      "œWho": 7196,
      "heaven": 7197,
      "tho": 7198,
      "raising": 7199,
      "shall": 7200,
      "joins": 7201,
      "sped": 7202,
      "displayed": 7203,
      "magnif": 7204,
      "slowed": 7205,
      "visits": 7206,
      "scul": 7207,
      "reminds": 7208,
      "turtles": 7209,
      "extraordinary": 7210,
      "slee": 7211,
      "uniforms": 7212,
      "nibble": 7213,
      "swaying": 7214,
      "characters": 7215,
      "trans": 7216,
      "correctly": 7217,
      "simply": 7218,
      "Jasmine": 7219,
      "Ano": 7220,
      "Ally": 7221,
      "Again": 7222,
      "Er": 7223,
      "Grac": 7224,
      "Im": 7225,
      "Mam": 7226,
      "Nancy": 7227,
      "ashes": 7228,
      "sess": 7229,
      "wenty": 7230,
      "grat": 7231,
      "quet": 7232,
      "clerk": 7233,
      "doorbell": 7234,
      "riverbank": 7235,
      "psed": 7236,
      "beehive": 7237,
      "comforting": 7238,
      "storms": 7239,
      "flipped": 7240,
      "envelopes": 7241,
      "beaming": 7242,
      "novels": 7243,
      "rrr": 7244,
      "Bonnie": 7245,
      "Anytime": 7246,
      "Joanne": 7247,
      "collapsed": 7248,
      "encountered": 7249,
      "Jonathan": 7250,
      "Super": 7251,
      "Another": 7252,
      "Gracie": 7253,
      "Dear": 7254,
      "Man": 7255,
      "Maisy": 7256,
      "Mona": 7257,
      "Sand": 7258,
      "bou": 7259,
      "bitten": 7260,
      "ration": 7261,
      "plugged": 7262,
      "chin": 7263,
      "Youâ": 7264,
      "quilt": 7265,
      "tops": 7266,
      "germs": 7267,
      "rowed": 7268,
      "tentacles": 7269,
      "hardest": 7270,
      "Peggy": 7271,
      "Peppa": 7272,
      "teams": 7273,
      "soapy": 7274,
      "changes": 7275,
      "vibr": 7276,
      "darlings": 7277,
      "prevented": 7278,
      "banged": 7279,
      "glittering": 7280,
      "tummies": 7281,
      "enemy": 7282,
      "Libby": 7283,
      "sadder": 7284,
      "recorder": 7285,
      "gratitude": 7286,
      "bouquet": 7287,
      "''": 7288,
      "Yo": 7289,
      "intent": 7290,
      "wasting": 7291,
      "loses": 7292,
      "focus": 7293,
      "failed": 7294,
      "cares": 7295,
      "waters": 7296,
      "taped": 7297,
      "classm": 7298,
      "gardens": 7299,
      "conv": 7300,
      "airplanes": 7301,
      "gues": 7302,
      "guide": 7303,
      "grandson": 7304,
      "sweep": 7305,
      "rats": 7306,
      "Rudolph": 7307,
      "applauding": 7308,
      "magazines": 7309,
      "whistles": 7310,
      "Jean": 7311,
      "Mae": 7312,
      "rescuing": 7313,
      "occasion": 7314,
      "Duck": 7315,
      "Ice": 7316,
      "Pick": 7317,
      "Sk": 7318,
      "soo": 7319,
      "forgives": 7320,
      "whoosh": 7321,
      "declar": 7322,
      "ives": 7323,
      "brains": 7324,
      "stetho": 7325,
      "squished": 7326,
      "airy": 7327,
      "movements": 7328,
      "designing": 7329,
      "nests": 7330,
      "picnics": 7331,
      "clearly": 7332,
      "pizzas": 7333,
      "flaps": 7334,
      "Alison": 7335,
      "beeped": 7336,
      "meowing": 7337,
      "labels": 7338,
      "Birdie": 7339,
      "Feli": 7340,
      "Bounce": 7341,
      "Shar": 7342,
      "Satur": 7343,
      "Terry": 7344,
      "bond": 7345,
      "twenty": 7346,
      "vive": 7347,
      "œSee": 7348,
      "lope": 7349,
      "bec": 7350,
      "ittered": 7351,
      "smoking": 7352,
      "?\"\"\"": 7353,
      "parted": 7354,
      "angle": 7355,
      "exploded": 7356,
      "fleas": 7357,
      "cracks": 7358,
      "Behind": 7359,
      "curl": 7360,
      "relaxing": 7361,
      "vests": 7362,
      "flashing": 7363,
      "Allie": 7364,
      "Alright": 7365,
      "globe": 7366,
      "windowsill": 7367,
      "Magic": 7368,
      "bothered": 7369,
      "Melissa": 7370,
      "attacked": 7371,
      "Crabby": 7372,
      "munching": 7373,
      "argument": 7374,
      "Mamma": 7375,
      "classmates": 7376,
      "declared": 7377,
      "Saturday": 7378,
      "Colin": 7379,
      "Ri": 7380,
      "Sasha": 7381,
      "œSure": 7382,
      "momâ": 7383,
      "birdhouse": 7384,
      "acy": 7385,
      "switched": 7386,
      "expert": 7387,
      "survive": 7388,
      "brightest": 7389,
      "bathing": 7390,
      "sprout": 7391,
      "sprays": 7392,
      "Martin": 7393,
      "checkout": 7394,
      "crocodiles": 7395,
      "crawls": 7396,
      "pepperoni": 7397,
      "models": 7398,
      "sternly": 7399,
      "expression": 7400,
      "Caroline": 7401,
      "conquered": 7402,
      "Muffin": 7403,
      "cheaper": 7404,
      "stethoscope": 7405,
      "buddy": 7406,
      "gallo": 7407,
      "stals": 7408,
      "fet": 7409,
      "mommies": 7410,
      "speople": 7411,
      "compan": 7412,
      "badger": 7413,
      "observing": 7414,
      "convin": 7415,
      "nodding": 7416,
      "singers": 7417,
      "Finny": 7418,
      "pleas": 7419,
      "floors": 7420,
      "petting": 7421,
      "minds": 7422,
      "townspeople": 7423,
      "zooms": 7424,
      "stretches": 7425,
      "environ": 7426,
      "Rudy": 7427,
      "burgers": 7428,
      "tearing": 7429,
      "paddling": 7430,
      "instrument": 7431,
      "imaginary": 7432,
      "sculpt": 7433,
      "convinced": 7434,
      "environment": 7435,
      "Make": 7436,
      "Sal": 7437,
      "ause": 7438,
      "natur": 7439,
      "rewards": 7440,
      "outfits": 7441,
      "robin": 7442,
      "getic": 7443,
      "ievous": 7444,
      "skies": 7445,
      "cled": 7446,
      "spy": 7447,
      "compar": 7448,
      "donkey": 7449,
      "closing": 7450,
      "snug": 7451,
      "squaw": 7452,
      "erase": 7453,
      "hangers": 7454,
      "breaths": 7455,
      "flashed": 7456,
      "Rocky": 7457,
      "scratching": 7458,
      "tickling": 7459,
      "applause": 7460,
      "films": 7461,
      "sprinkle": 7462,
      "languages": 7463,
      "unpacking": 7464,
      "buckled": 7465,
      "particularly": 7466,
      "Matilda": 7467,
      "mischievous": 7468,
      "prickly": 7469,
      "Pinchy": 7470,
      "court": 7471,
      "sculpture": 7472,
      "Ac": 7473,
      "Arrr": 7474,
      "Fish": 7475,
      "Gus": 7476,
      "Roo": 7477,
      "Riley": 7478,
      "buses": 7479,
      "killed": 7480,
      "ali": 7481,
      "seals": 7482,
      "peep": 7483,
      "ability": 7484,
      "tapping": 7485,
      "custo": 7486,
      "crystals": 7487,
      "sandy": 7488,
      "glimmering": 7489,
      "smelt": 7490,
      "scen": 7491,
      "troubles": 7492,
      "Bubb": 7493,
      "terrified": 7494,
      "computers": 7495,
      "supplied": 7496,
      "container": 7497,
      "textures": 7498,
      "expecting": 7499,
      "visitors": 7500,
      "Con": 7501,
      "Doug": 7502,
      "Lenny": 7503,
      "Mila": 7504,
      "Stri": 7505,
      "awhile": 7506,
      "fain": 7507,
      "hew": 7508,
      "rent": 7509,
      "waded": 7510,
      "ering": 7511,
      "necess": 7512,
      "aret": 7513,
      "shor": 7514,
      "foam": 7515,
      "sunscreen": 7516,
      "overhead": 7517,
      "checks": 7518,
      "phones": 7519,
      "sandpit": 7520,
      "fires": 7521,
      "scrun": 7522,
      "orders": 7523,
      "fascinating": 7524,
      "heels": 7525,
      "instantly": 7526,
      "companion": 7527,
      "Ar": 7528,
      "Ele": 7529,
      "Eliz": 7530,
      "Jump": 7531,
      "Orange": 7532,
      "wig": 7533,
      "whim": 7534,
      "haven": 7535,
      "immered": 7536,
      "lor": 7537,
      "utter": 7538,
      "plug": 7539,
      "cooper": 7540,
      "ips": 7541,
      "Peep": 7542,
      "active": 7543,
      "cheerfully": 7544,
      "Juli": 7545,
      "scolds": 7546,
      "traveling": 7547,
      "weapons": 7548,
      "snaps": 7549,
      "youngest": 7550,
      "sirens": 7551,
      "customer": 7552,
      "shorter": 7553,
      "Eliza": 7554,
      "Sweet": 7555,
      "tilted": 7556,
      "ime": 7557,
      "pea": 7558,
      "shallow": 7559,
      "Jackie": 7560,
      "exploration": 7561,
      "Lots": 7562,
      "surely": 7563,
      "traded": 7564,
      "scrub": 7565,
      "practised": 7566,
      "mattered": 7567,
      "teapot": 7568,
      "pinching": 7569,
      "Robo": 7570,
      "returning": 7571,
      "meows": 7572,
      "quacking": 7573,
      "stamped": 7574,
      "Stanley": 7575,
      "squinted": 7576,
      "Immediately": 7577,
      "Sandra": 7578,
      "natural": 7579,
      "Apr": 7580,
      "Ber": 7581,
      "Du": 7582,
      "Ed": 7583,
      "Show": 7584,
      "shat": 7585,
      "signing": 7586,
      "washes": 7587,
      "oma": 7588,
      "issy": 7589,
      "sometime": 7590,
      "hotter": 7591,
      "lowered": 7592,
      "llas": 7593,
      "spies": 7594,
      "leaking": 7595,
      "lotte": 7596,
      "snowy": 7597,
      "mysteries": 7598,
      "testing": 7599,
      "blown": 7600,
      "checking": 7601,
      "messes": 7602,
      "Albert": 7603,
      "umbrellas": 7604,
      "energetic": 7605,
      "Charlotte": 7606,
      "backpacks": 7607,
      "knocking": 7608,
      "Carly": 7609,
      "wiser": 7610,
      "dodged": 7611,
      "necessary": 7612,
      "April": 7613,
      "Alf": 7614,
      "Blo": 7615,
      "Ky": 7616,
      "Sir": 7617,
      "bound": 7618,
      "gul": 7619,
      "int": 7620,
      "insepar": 7621,
      "rew": 7622,
      "reappeared": 7623,
      "adds": 7624,
      "upside": 7625,
      "carries": 7626,
      "poles": 7627,
      "Thankfully": 7628,
      "soundly": 7629,
      "traps": 7630,
      "scribb": 7631,
      "burns": 7632,
      "gasp": 7633,
      "scares": 7634,
      "awful": 7635,
      "groan": 7636,
      "Bruce": 7637,
      "earned": 7638,
      "defeated": 7639,
      "opportunity": 7640,
      "convince": 7641,
      "inseparable": 7642,
      "Dra": 7643,
      "Dino": 7644,
      "Na": 7645,
      "Silly": 7646,
      "fif": 7647,
      "plo": 7648,
      "puck": 7649,
      "œBe": 7650,
      "anie": 7651,
      "ita": 7652,
      "stantly": 7653,
      "thump": 7654,
      "cops": 7655,
      "backs": 7656,
      "napped": 7657,
      "bbit": 7658,
      "venir": 7659,
      "common": 7660,
      "keepers": 7661,
      "concent": 7662,
      "stew": 7663,
      "cubs": 7664,
      "twists": 7665,
      "queens": 7666,
      "baa": 7667,
      "wildflowers": 7668,
      "thicker": 7669,
      "digs": 7670,
      "goats": 7671,
      "apology": 7672,
      "guarding": 7673,
      "destroying": 7674,
      "weighing": 7675,
      "tips": 7676,
      "More": 7677,
      "spilling": 7678,
      "wounds": 7679,
      "Monkey": 7680,
      "Hootie": 7681,
      "souvenir": 7682,
      "grassho": 7683,
      "Freya": 7684,
      "Ribbit": 7685,
      "Wigg": 7686,
      "cuc": 7687,
      "mun": 7688,
      "ramp": 7689,
      "vor": 7690,
      "whel": 7691,
      "inches": 7692,
      "erg": 7693,
      "adually": 7694,
      "hover": 7695,
      "peas": 7696,
      "details": 7697,
      "faith": 7698,
      "grily": 7699,
      "whatâ": 7700,
      "types": 7701,
      "bud": 7702,
      "watermelon": 7703,
      "clut": 7704,
      "cheated": 7705,
      "Johny": 7706,
      "discouraged": 7707,
      "torto": 7708,
      "crou": 7709,
      "glided": 7710,
      "glittered": 7711,
      "Gray": 7712,
      "minded": 7713,
      "pressing": 7714,
      "Leah": 7715,
      "embarrassing": 7716,
      "squeaky": 7717,
      "knives": 7718,
      "quarre": 7719,
      "demanding": 7720,
      "rumbling": 7721,
      "hunting": 7722,
      "Quickly": 7723,
      "aliens": 7724,
      "Bubba": 7725,
      "Duke": 7726,
      "shattered": 7727,
      "',": 7728,
      "Cher": 7729,
      "Life": 7730,
      "Te": 7731,
      "Tammy": 7732,
      "longest": 7733,
      "uing": 7734,
      "vas": 7735,
      "œOk": 7736,
      "amused": 7737,
      "oks": 7738,
      "roast": 7739,
      "Butter": 7740,
      "umble": 7741,
      "ruff": 7742,
      "overwhel": 7743,
      "combed": 7744,
      "cting": 7745,
      "beaver": 7746,
      "brake": 7747,
      "calmer": 7748,
      "cowboys": 7749,
      "answering": 7750,
      "Whoever": 7751,
      "whales": 7752,
      "engines": 7753,
      "bounces": 7754,
      "tanks": 7755,
      "messages": 7756,
      "experiment": 7757,
      "offering": 7758,
      "Sunshine": 7759,
      "floats": 7760,
      "Catty": 7761,
      "salon": 7762,
      "providing": 7763,
      "behaviour": 7764,
      "temptation": 7765,
      "announced": 7766,
      "pantry": 7767,
      "responsibility": 7768,
      "grasshopper": 7769,
      "munched": 7770,
      "Amber": 7771,
      "Ami": 7772,
      "Jason": 7773,
      "Nur": 7774,
      "Zack": 7775,
      "mow": 7776,
      "swat": 7777,
      "sipped": 7778,
      "ssess": 7779,
      "tions": 7780,
      "zes": 7781,
      "œMaybe": 7782,
      "inju": 7783,
      "idnight": 7784,
      "orrow": 7785,
      "unable": 7786,
      "liar": 7787,
      "elle": 7788,
      "melody": 7789,
      "moat": 7790,
      "def": 7791,
      "canvas": 7792,
      "icle": 7793,
      "possess": 7794,
      "treas": 7795,
      "cafe": 7796,
      "ddie": 7797,
      "bride": 7798,
      "preschool": 7799,
      "shines": 7800,
      "ketch": 7801,
      "barrow": 7802,
      "prod": 7803,
      "roller": 7804,
      "drowned": 7805,
      "boards": 7806,
      "student": 7807,
      "bubbly": 7808,
      "moonlight": 7809,
      "honesty": 7810,
      "squeezes": 7811,
      "burnt": 7812,
      "gasps": 7813,
      "crops": 7814,
      "Hopper": 7815,
      "awn": 7816,
      "hunters": 7817,
      "beeping": 7818,
      "luckiest": 7819,
      "communic": 7820,
      "Carla": 7821,
      "freezing": 7822,
      "risk": 7823,
      "experiences": 7824,
      "snapping": 7825,
      "Liza": 7826,
      "repeats": 7827,
      "opinions": 7828,
      "Auntie": 7829,
      "ibly": 7830,
      "Matty": 7831,
      "matey": 7832,
      "vibrant": 7833,
      "pleasant": 7834,
      "Nurse": 7835,
      "Cro": 7836,
      "Hmm": 7837,
      "Over": 7838,
      "Pene": 7839,
      "aboard": 7840,
      "pip": 7841,
      "shave": 7842,
      "enem": 7843,
      "necks": 7844,
      "amboo": 7845,
      "ricity": 7846,
      "chill": 7847,
      "elbow": 7848,
      "moons": 7849,
      "faction": 7850,
      "Jackâ": 7851,
      "beast": 7852,
      "finishes": 7853,
      "joyfully": 7854,
      "realizes": 7855,
      "cleans": 7856,
      "cidents": 7857,
      "harvest": 7858,
      "Peanut": 7859,
      "circled": 7860,
      "croaked": 7861,
      "strips": 7862,
      "successfully": 7863,
      "Moon": 7864,
      "satisfaction": 7865,
      "situations": 7866,
      "Prince": 7867,
      "robbers": 7868,
      "Bouncy": 7869,
      "slithered": 7870,
      "Swim": 7871,
      "wriggled": 7872,
      "Tyler": 7873,
      "intently": 7874,
      "compared": 7875,
      "Accidents": 7876,
      "tortoise": 7877,
      "Penelope": 7878,
      "enemies": 7879,
      "Danger": 7880,
      "Lina": 7881,
      "passes": 7882,
      "ands": 7883,
      "ared": 7884,
      "aming": 7885,
      "cia": 7886,
      "actor": 7887,
      "uddles": 7888,
      "bbing": 7889,
      "bluebird": 7890,
      "bloss": 7891,
      "meaning": 7892,
      "snorted": 7893,
      "cris": 7894,
      "born": 7895,
      "welcoming": 7896,
      "swap": 7897,
      "hummed": 7898,
      "protection": 7899,
      "tunes": 7900,
      "caterpillars": 7901,
      "cherish": 7902,
      "Step": 7903,
      "cracker": 7904,
      "improving": 7905,
      "vinegar": 7906,
      "supporting": 7907,
      "lumberjack": 7908,
      "compliment": 7909,
      "annoying": 7910,
      "grumbled": 7911,
      "compete": 7912,
      "peeped": 7913,
      "concentr": 7914,
      "Bark": 7915,
      "Bugg": 7916,
      "Fa": 7917,
      "Kar": 7918,
      "Sa": 7919,
      "TH": 7920,
      "Tru": 7921,
      "bom": 7922,
      "biscu": 7923,
      "lump": 7924,
      "inspe": 7925,
      "enchant": 7926,
      "rick": 7927,
      "hoses": 7928,
      "dears": 7929,
      "funn": 7930,
      "poses": 7931,
      "maje": 7932,
      "Josie": 7933,
      "blank": 7934,
      "sprang": 7935,
      "Through": 7936,
      "medals": 7937,
      "kayaking": 7938,
      "explaining": 7939,
      "attitude": 7940,
      "bruises": 7941,
      "wheelbarrow": 7942,
      "miracle": 7943,
      "flashes": 7944,
      "beetles": 7945,
      "guards": 7946,
      "mugs": 7947,
      "haircuts": 7948,
      "Cheese": 7949,
      "Fuzz": 7950,
      "target": 7951,
      "Wooly": 7952,
      "Carefully": 7953,
      "treasured": 7954,
      "Ethan": 7955,
      "Eddie": 7956,
      "Gold": 7957,
      "Greg": 7958,
      "Jilly": 7959,
      "Ken": 7960,
      "Rich": 7961,
      "Was": 7962,
      "Wake": 7963,
      "fade": 7964,
      "groom": 7965,
      "hike": 7966,
      "lers": 7967,
      "invent": 7968,
      "local": 7969,
      "hisses": 7970,
      "weâ": 7971,
      "dolly": 7972,
      "noticing": 7973,
      "raking": 7974,
      "ulars": 7975,
      "Tomorrow": 7976,
      "ifi": 7977,
      "whined": 7978,
      "Whatâ": 7979,
      "underwater": 7980,
      "enjoyable": 7981,
      "snor": 7982,
      "differently": 7983,
      "craf": 7984,
      "dashed": 7985,
      "vast": 7986,
      "larger": 7987,
      "tests": 7988,
      "stirs": 7989,
      "chooses": 7990,
      "volcanoes": 7991,
      "miller": 7992,
      "Snowball": 7993,
      "shoots": 7994,
      "Share": 7995,
      "chatted": 7996,
      "swirls": 7997,
      "Minnie": 7998,
      "positive": 7999,
      "Jody": 8000,
      "electricity": 8001,
      "scenery": 8002,
      "faint": 8003,
      "crouched": 8004,
      "overwhelmed": 8005,
      "ketchup": 8006,
      "Bra": 8007,
      "Imag": 8008,
      "Sil": 8009,
      "bamboo": 8010,
      "fus": 8011,
      "wiggling": 8012,
      "€¦": 8013,
      "theat": 8014,
      "oray": 8015,
      "ige": 8016,
      "unfamiliar": 8017,
      "storing": 8018,
      "goodness": 8019,
      "runner": 8020,
      "olf": 8021,
      "blur": 8022,
      "Andrew": 8023,
      "venture": 8024,
      "leap": 8025,
      "winds": 8026,
      "floppy": 8027,
      "dryer": 8028,
      "drying": 8029,
      "alongside": 8030,
      "Lemon": 8031,
      "pills": 8032,
      "disappointment": 8033,
      "oculars": 8034,
      "rewarding": 8035,
      "Rufus": 8036,
      "binoculars": 8037,
      "Flora": 8038,
      "Steven": 8039,
      "nightmares": 8040,
      "trigger": 8041,
      "distracted": 8042,
      "Smoke": 8043,
      "blushed": 8044,
      "Buggy": 8045,
      "theatre": 8046,
      "Eat": 8047,
      "Fifi": 8048,
      "Girl": 8049,
      "Midnight": 8050,
      "Pear": 8051,
      "Stu": 8052,
      "Turn": 8053,
      "Tears": 8054,
      "Toni": 8055,
      "Wis": 8056,
      "dou": 8057,
      "jured": 8058,
      "lull": 8059,
      "pouch": 8060,
      "wn": 8061,
      "ying": 8062,
      "thir": 8063,
      "thumbs": 8064,
      "igner": 8065,
      "plumber": 8066,
      "bold": 8067,
      "rags": 8068,
      "racer": 8069,
      "ully": 8070,
      "dee": 8071,
      "popping": 8072,
      "acing": 8073,
      "joys": 8074,
      "Weâ": 8075,
      "whir": 8076,
      "papa": 8077,
      "paste": 8078,
      "blades": 8079,
      "tale": 8080,
      "thrill": 8081,
      "Dot": 8082,
      "chopping": 8083,
      "Jennie": 8084,
      "appearance": 8085,
      "gratefully": 8086,
      "Flutter": 8087,
      "daily": 8088,
      "ounce": 8089,
      "bubbling": 8090,
      "shrugs": 8091,
      "meadows": 8092,
      "jogger": 8093,
      "stuffing": 8094,
      "allowing": 8095,
      "microwave": 8096,
      "scattering": 8097,
      "clip": 8098,
      "hooks": 8099,
      "sleigh": 8100,
      "slapping": 8101,
      "hesitation": 8102,
      "chatting": 8103,
      "Sparkle": 8104,
      "revealing": 8105,
      "levers": 8106,
      "consider": 8107,
      "judges": 8108,
      "Skip": 8109,
      "pipes": 8110,
      "Pearl": 8111,
      "Wisdom": 8112,
      "Cow": 8113,
      "Dee": 8114,
      "Fo": 8115,
      "Foxy": 8116,
      "Years": 8117,
      "cine": 8118,
      "ka": 8119,
      "nations": 8120,
      "yl": 8121,
      "œYay": 8122,
      "angrily": 8123,
      "injured": 8124,
      "erup": 8125,
      "aroma": 8126,
      "idi": 8127,
      "level": 8128,
      "alley": 8129,
      "Heidi": 8130,
      "secur": 8131,
      "momma": 8132,
      "timid": 8133,
      "roamed": 8134,
      "lowers": 8135,
      "worst": 8136,
      "cases": 8137,
      "iff": 8138,
      "atest": 8139,
      "whipped": 8140,
      "nicest": 8141,
      "shares": 8142,
      "stepping": 8143,
      "bowing": 8144,
      "drip": 8145,
      "lizards": 8146,
      "Patrick": 8147,
      "intelligence": 8148,
      "tickles": 8149,
      "unlocking": 8150,
      "poisonous": 8151,
      "lush": 8152,
      "honks": 8153,
      "hooves": 8154,
      "Puppy": 8155,
      "marveled": 8156,
      "transformed": 8157,
      "Elephant": 8158,
      "Bernie": 8159,
      "THE": 8160,
      "Eric": 8161,
      "Fairy": 8162,
      "Tell": 8163,
      "Wal": 8164,
      "hudd": 8165,
      "rinse": 8166,
      "sno": 8167,
      "œHow": 8168,
      "andas": 8169,
      "rebuild": 8170,
      "stun": 8171,
      "becomes": 8172,
      "amps": 8173,
      "unwrapped": 8174,
      "doves": 8175,
      "!\"\".\"": 8176,
      "oughed": 8177,
      "whizz": 8178,
      "gress": 8179,
      "Johnâ": 8180,
      "dollar": 8181,
      "talents": 8182,
      "Doctor": 8183,
      "stores": 8184,
      "Toto": 8185,
      "drill": 8186,
      "Got": 8187,
      "seatbelt": 8188,
      "trusts": 8189,
      "crickets": 8190,
      "example": 8191,
      "weaker": 8192,
      "hoops": 8193,
      "coolest": 8194,
      "springtime": 8195,
      "sweeter": 8196,
      "quacks": 8197,
      "invites": 8198,
      "property": 8199,
      "Move": 8200,
      "stomp": 8201,
      "œWeâ": 8202,
      "smartest": 8203,
      "choosing": 8204,
      "yumm": 8205,
      "Yoga": 8206,
      "soothing": 8207,
      "Felix": 8208,
      "cinema": 8209,
      "Aho": 8210,
      "Goo": 8211,
      "Nate": 8212,
      "Play": 8213,
      "Summer": 8214,
      "cages": 8215,
      "lou": 8216,
      "nanny": 8217,
      "tugging": 8218,
      "yuck": 8219,
      "thew": 8220,
      "waking": 8221,
      "onde": 8222,
      "stur": 8223,
      "neys": 8224,
      "hatched": 8225,
      "ats": 8226,
      "undone": 8227,
      "alled": 8228,
      "elace": 8229,
      "exchange": 8230,
      "exhi": 8231,
      "facing": 8232,
      "wolves": 8233,
      "bbling": 8234,
      "comets": 8235,
      "blade": 8236,
      "blonde": 8237,
      "greatest": 8238,
      "compromise": 8239,
      "obst": 8240,
      "Things": 8241,
      "sooner": 8242,
      "shoelace": 8243,
      "month": 8244,
      "sweetly": 8245,
      "movement": 8246,
      "winking": 8247,
      "designer": 8248,
      "scores": 8249,
      "Books": 8250,
      "Chick": 8251,
      "hamster": 8252,
      "harmony": 8253,
      "cuddling": 8254,
      "ticking": 8255,
      "meatballs": 8256,
      "aeroplanes": 8257,
      "exercising": 8258,
      "facts": 8259,
      "rails": 8260,
      "bends": 8261,
      "deserved": 8262,
      "udged": 8263,
      "silently": 8264,
      "certainly": 8265,
      "seasons": 8266,
      "stroller": 8267,
      "Guess": 8268,
      "Juliet": 8269,
      "Kyle": 8270,
      "communicate": 8271,
      "huddled": 8272,
      "yummiest": 8273,
      "Ahoy": 8274,
      "Bro": 8275,
      "Clim": 8276,
      "Fla": 8277,
      "Isa": 8278,
      "Oink": 8279,
      "Rita": 8280,
      "Stre": 8281,
      "Tri": 8282,
      "coughed": 8283,
      "glistening": 8284,
      "mp": 8285,
      "pts": 8286,
      "prank": 8287,
      "pounced": 8288,
      "xy": 8289,
      "œThanks": 8290,
      "ori": 8291,
      "thie": 8292,
      "section": 8293,
      "attem": 8294,
      "hiss": 8295,
      "gogg": 8296,
      "playhouse": 8297,
      "allerg": 8298,
      "boiling": 8299,
      "royal": 8300,
      "parks": 8301,
      "ift": 8302,
      "usion": 8303,
      "acts": 8304,
      "spare": 8305,
      "cheat": 8306,
      "Three": 8307,
      "doorstep": 8308,
      "warmed": 8309,
      "Instantly": 8310,
      "messed": 8311,
      "Toys": 8312,
      "hunger": 8313,
      "glared": 8314,
      "juic": 8315,
      "tents": 8316,
      "striches": 8317,
      "Rock": 8318,
      "Rosy": 8319,
      "cupboards": 8320,
      "performers": 8321,
      "crowded": 8322,
      "Bruno": 8323,
      "pounds": 8324,
      "whimpered": 8325,
      "enchanted": 8326,
      "Flappy": 8327,
      "goggles": 8328,
      "Bree": 8329,
      "Boom": 8330,
      "Fly": 8331,
      "Randy": 8332,
      "Sitting": 8333,
      "Use": 8334,
      "Willy": 8335,
      "gates": 8336,
      "ix": 8337,
      "nch": 8338,
      "riddle": 8339,
      "ream": 8340,
      "recess": 8341,
      "rips": 8342,
      "endant": 8343,
      "shrank": 8344,
      "peak": 8345,
      "eline": 8346,
      "pollen": 8347,
      "lava": 8348,
      "otherwise": 8349,
      "pres": 8350,
      "armor": 8351,
      "fishy": 8352,
      "trim": 8353,
      "ladybird": 8354,
      "sweetness": 8355,
      "sleeps": 8356,
      "marking": 8357,
      "visible": 8358,
      "countries": 8359,
      "iana": 8360,
      "zookeepers": 8361,
      "scree": 8362,
      "chews": 8363,
      "incredibly": 8364,
      "striking": 8365,
      "styles": 8366,
      "Jere": 8367,
      "caution": 8368,
      "costs": 8369,
      "stains": 8370,
      "defeat": 8371,
      "hundreds": 8372,
      "Imagine": 8373,
      "!'.": 8374,
      "Close": 8375,
      "Din": 8376,
      "Find": 8377,
      "Faster": 8378,
      "Kait": 8379,
      "Light": 8380,
      "Ms": 8381,
      "Mason": 8382,
      "Missy": 8383,
      "Rosa": 8384,
      "Sab": 8385,
      "Tree": 8386,
      "jing": 8387,
      "pandas": 8388,
      "rink": 8389,
      "sus": 8390,
      "till": 8391,
      "œMummy": 8392,
      "illie": 8393,
      "state": 8394,
      "strolled": 8395,
      "keen": 8396,
      "unless": 8397,
      "boil": 8398,
      "ently": 8399,
      "umed": 8400,
      "spears": 8401,
      "ankle": 8402,
      "Lucas": 8403,
      "trading": 8404,
      "cutter": 8405,
      "crumb": 8406,
      "magically": 8407,
      "process": 8408,
      "boarded": 8409,
      "scrubbing": 8410,
      "scene": 8411,
      "lunchtime": 8412,
      "rubbish": 8413,
      "peacefulness": 8414,
      "shrug": 8415,
      "teamwork": 8416,
      "borrowing": 8417,
      "loyalty": 8418,
      "Hooray": 8419,
      "Juice": 8420,
      "zips": 8421,
      "dustpan": 8422,
      "mayor": 8423,
      "clubs": 8424,
      "Copper": 8425,
      "weighs": 8426,
      "disappearing": 8427,
      "bathed": 8428,
      "confusion": 8429,
      "stomachs": 8430,
      "charged": 8431,
      "sweaters": 8432,
      "Smokey": 8433,
      "desperately": 8434,
      "cooperate": 8435,
      "Dragon": 8436,
      "bomb": 8437,
      "lullaby": 8438,
      "Kaitlyn": 8439,
      "Har": 8440,
      "Jelly": 8441,
      "Shad": 8442,
      "Span": 8443,
      "Using": 8444,
      "fries": 8445,
      "gle": 8446,
      "liness": 8447,
      "sinking": 8448,
      "ans": 8449,
      "soda": 8450,
      "pest": 8451,
      "mest": 8452,
      "dete": 8453,
      "pace": 8454,
      "creep": 8455,
      "sphere": 8456,
      "leting": 8457,
      "snuggling": 8458,
      "ancing": 8459,
      "chili": 8460,
      "continuing": 8461,
      "benches": 8462,
      "warmest": 8463,
      "Wherever": 8464,
      "oceans": 8465,
      "prizes": 8466,
      "files": 8467,
      "Marty": 8468,
      "contented": 8469,
      "Stand": 8470,
      "courageous": 8471,
      "guardian": 8472,
      "bumping": 8473,
      "jets": 8474,
      "leopards": 8475,
      "dedic": 8476,
      "sincere": 8477,
      "approach": 8478,
      "musicians": 8479,
      "glittery": 8480,
      "Janet": 8481,
      "Janice": 8482,
      "Anything": 8483,
      "strokes": 8484,
      "servant": 8485,
      "fetched": 8486,
      "Goose": 8487,
      "Climb": 8488,
      "thieves": 8489,
      "Spanish": 8490,
      "Bert": 8491,
      "Cho": 8492,
      "Sky": 8493,
      "Tur": 8494,
      "ey": 8495,
      "mur": 8496,
      "narrow": 8497,
      "heâ": 8498,
      "tock": 8499,
      "army": 8500,
      "aling": 8501,
      "Lilyâ": 8502,
      "unity": 8503,
      "aston": 8504,
      "shh": 8505,
      "coop": 8506,
      "cotch": 8507,
      "birdseed": 8508,
      "ousel": 8509,
      "Angie": 8510,
      "uster": 8511,
      "baller": 8512,
      "realizing": 8513,
      "liest": 8514,
      "disagreement": 8515,
      "Doll": 8516,
      "rocky": 8517,
      "bait": 8518,
      "heavily": 8519,
      "bushy": 8520,
      "current": 8521,
      "Rebec": 8522,
      "scoops": 8523,
      "barrels": 8524,
      "possib": 8525,
      "kneeling": 8526,
      "invitations": 8527,
      "challenged": 8528,
      "solute": 8529,
      "coughing": 8530,
      "hopscotch": 8531,
      "healthier": 8532,
      "reversing": 8533,
      "desperate": 8534,
      "builders": 8535,
      "groaned": 8536,
      "sturdy": 8537,
      "Jeremy": 8538,
      "astonished": 8539,
      "Rebecca": 8540,
      ",'": 8541,
      "Cars": 8542,
      "Cleaning": 8543,
      "Down": 8544,
      "Fru": 8545,
      "La": 8546,
      "NO": 8547,
      "Pl": 8548,
      "Raven": 8549,
      "Want": 8550,
      "xoph": 8551,
      "\"\"!": 8552,
      "saxoph": 8553,
      "iments": 8554,
      "kest": 8555,
      "adv": 8556,
      "dozed": 8557,
      "carton": 8558,
      "pecks": 8559,
      "illas": 8560,
      "coaster": 8561,
      "ics": 8562,
      "caw": 8563,
      "ssy": 8564,
      "carefree": 8565,
      "whine": 8566,
      "usty": 8567,
      "Jog": 8568,
      "hearted": 8569,
      "fluff": 8570,
      "welve": 8571,
      "progress": 8572,
      "Jennif": 8573,
      "patches": 8574,
      "champ": 8575,
      "tongues": 8576,
      "Bees": 8577,
      "shyly": 8578,
      "groups": 8579,
      "allowance": 8580,
      "cherished": 8581,
      "camps": 8582,
      "freshly": 8583,
      "desks": 8584,
      "juggling": 8585,
      "persistence": 8586,
      "yawning": 8587,
      "dives": 8588,
      "alligators": 8589,
      "Cook": 8590,
      "completing": 8591,
      "achievement": 8592,
      "Matthew": 8593,
      "squirted": 8594,
      "Kai": 8595,
      "plopped": 8596,
      "blossom": 8597,
      "exhibit": 8598,
      "allergic": 8599,
      "solutely": 8600,
      "saxophone": 8601,
      "Jennifer": 8602,
      "Achoo": 8603,
      "Buster": 8604,
      "CD": 8605,
      "Might": 8606,
      "Nor": 8607,
      "Pru": 8608,
      "Ring": 8609,
      "Tre": 8610,
      "Wr": 8611,
      "limp": 8612,
      "ostriches": 8613,
      "tling": 8614,
      "ani": 8615,
      "habit": 8616,
      "enn": 8617,
      "enjoys": 8618,
      "leys": 8619,
      "hissing": 8620,
      "adab": 8621,
      "owled": 8622,
      "ulous": 8623,
      "carousel": 8624,
      "manâ": 8625,
      "lleng": 8626,
      "cluck": 8627,
      "untangle": 8628,
      "explode": 8629,
      "realise": 8630,
      "cooled": 8631,
      "chains": 8632,
      "challeng": 8633,
      "lakes": 8634,
      "Bea": 8635,
      "dragonfly": 8636,
      "freely": 8637,
      "cutest": 8638,
      "feathered": 8639,
      "sneezes": 8640,
      "trusty": 8641,
      "copied": 8642,
      "formation": 8643,
      "blooms": 8644,
      "spelling": 8645,
      "energ": 8646,
      "gorillas": 8647,
      "speaks": 8648,
      "Cole": 8649,
      "attaching": 8650,
      "capture": 8651,
      "floaty": 8652,
      "Robin": 8653,
      "flavour": 8654,
      "weights": 8655,
      "Should": 8656,
      "pedaling": 8657,
      "fashionable": 8658,
      "sensation": 8659,
      "mesmerised": 8660,
      "condition": 8661,
      "Angela": 8662,
      "tempting": 8663,
      "attempts": 8664,
      "presence": 8665,
      "ballerina": 8666,
      "campsite": 8667,
      "Mighty": 8668,
      "adabra": 8669,
      "challenges": 8670,
      "?\"": 8671,
      "Freeze": 8672,
      "Gl": 8673,
      "Gw": 8674,
      "NG": 8675,
      "Pain": 8676,
      "Ra": 8677,
      "Son": 8678,
      "Sing": 8679,
      "ial": 8680,
      "pac": 8681,
      "rins": 8682,
      "tant": 8683,
      "ww": 8684,
      "œDon": 8685,
      "œWelcome": 8686,
      "indoors": 8687,
      "sacks": 8688,
      "igaret": 8689,
      "pled": 8690,
      "god": 8691,
      "shimmered": 8692,
      "hollow": 8693,
      "umbers": 8694,
      "ety": 8695,
      "grump": 8696,
      "lling": 8697,
      "birdy": 8698,
      "parking": 8699,
      "lookout": 8700,
      "angrier": 8701,
      "maps": 8702,
      "taps": 8703,
      "clam": 8704,
      "clue": 8705,
      "cheating": 8706,
      "droop": 8707,
      "flu": 8708,
      "swimsuits": 8709,
      "gliding": 8710,
      "Grumpy": 8711,
      "appears": 8712,
      "whiskers": 8713,
      "horri": 8714,
      "mustered": 8715,
      "Flash": 8716,
      "wrapper": 8717,
      "lasted": 8718,
      "bulbs": 8719,
      "leans": 8720,
      "obediently": 8721,
      "trunks": 8722,
      "toothpaste": 8723,
      "thunderstorm": 8724,
      "ribbit": 8725,
      "kangaroos": 8726,
      "hadnâ": 8727,
      "speaker": 8728,
      "Math": 8729,
      "niece": 8730,
      "chatter": 8731,
      "sniffled": 8732,
      "sleds": 8733,
      "pecking": 8734,
      "Cathy": 8735,
      "magnifying": 8736,
      "Confused": 8737,
      "Cherry": 8738,
      "majestic": 8739,
      "detective": 8740,
      "possibilities": 8741,
      "Gwen": 8742,
      "rinsed": 8743,
      "tantrum": 8744,
      "Belle": 8745,
      "Com": 8746,
      "Could": 8747,
      "Ni": 8748,
      "Off": 8749,
      "Ping": 8750,
      "Shoo": 8751,
      "Scot": 8752,
      "Ta": 8753,
      "Tw": 8754,
      "cigaret": 8755,
      "dumb": 8756,
      "gorge": 8757,
      "hips": 8758,
      "lur": 8759,
      "pads": 8760,
      "phew": 8761,
      "ridge": 8762,
      "œThere": 8763,
      "thest": 8764,
      "ande": 8765,
      "rec": 8766,
      "restoring": 8767,
      "aloud": 8768,
      "stings": 8769,
      "hatch": 8770,
      "unload": 8771,
      "boiled": 8772,
      "rack": 8773,
      "absolutely": 8774,
      "owns": 8775,
      "foreshadow": 8776,
      "shinier": 8777,
      "headache": 8778,
      "disobey": 8779,
      "painful": 8780,
      "keyhole": 8781,
      "anced": 8782,
      "farms": 8783,
      "proved": 8784,
      "tons": 8785,
      "purring": 8786,
      "hideout": 8787,
      "minding": 8788,
      "dripped": 8789,
      "strated": 8790,
      "valleys": 8791,
      "descri": 8792,
      "folds": 8793,
      "laces": 8794,
      "spoiling": 8795,
      "Petey": 8796,
      "incts": 8797,
      "suitcases": 8798,
      "cooed": 8799,
      "stacking": 8800,
      "peeks": 8801,
      "aprons": 8802,
      "banging": 8803,
      "isnâ": 8804,
      "differences": 8805,
      "peels": 8806,
      "racers": 8807,
      "centre": 8808,
      "instincts": 8809,
      "puppets": 8810,
      "mooed": 8811,
      "soul": 8812,
      "character": 8813,
      "heights": 8814,
      "Otherwise": 8815,
      "galloped": 8816,
      "brakes": 8817,
      "Faith": 8818,
      "crafts": 8819,
      "loudest": 8820,
      "shoelaces": 8821,
      "gorgeous": 8822,
      "Abra": 8823,
      "Eating": 8824,
      "Hor": 8825,
      "Mus": 8826,
      "Pizz": 8827,
      "Piggy": 8828,
      "Ze": 8829,
      "mers": 8830,
      "ots": 8831,
      "rina": 8832,
      "twelve": 8833,
      "uel": 8834,
      "xie": 8835,
      "œOK": 8836,
      "topp": 8837,
      "inny": 8838,
      "halves": 8839,
      "isie": 8840,
      "savor": 8841,
      "iring": 8842,
      "belli": 8843,
      "nephew": 8844,
      "ppos": 8845,
      "ripp": 8846,
      "playdate": 8847,
      "dock": 8848,
      "roam": 8849,
      "smash": 8850,
      "poop": 8851,
      "homeless": 8852,
      "oldest": 8853,
      "rung": 8854,
      "skirts": 8855,
      "handy": 8856,
      "combs": 8857,
      "kindest": 8858,
      "rightful": 8859,
      "listener": 8860,
      "fireflies": 8861,
      "rowing": 8862,
      "knobs": 8863,
      "partment": 8864,
      "praise": 8865,
      "calf": 8866,
      "widely": 8867,
      "invol": 8868,
      "frightening": 8869,
      "Miles": 8870,
      "admit": 8871,
      "Roy": 8872,
      "loads": 8873,
      "regularly": 8874,
      "Patches": 8875,
      "scooping": 8876,
      "clips": 8877,
      "bicycles": 8878,
      "porridge": 8879,
      "repairing": 8880,
      "crows": 8881,
      "Maisie": 8882,
      "solutions": 8883,
      "popsicle": 8884,
      "nibbling": 8885,
      "panicking": 8886,
      "Mint": 8887,
      "occasions": 8888,
      "interrup": 8889,
      "Kathy": 8890,
      "Percy": 8891,
      "funniest": 8892,
      "Brave": 8893,
      "thirty": 8894,
      "security": 8895,
      "Sabrina": 8896,
      "Pizza": 8897,
      "Aar": 8898,
      "Ama": 8899,
      "Carri": 8900,
      "Nan": 8901,
      "Near": 8902,
      "Old": 8903,
      "Pup": 8904,
      "Rat": 8905,
      "Ziggy": 8906,
      "atop": 8907,
      "damp": 8908,
      "granny": 8909,
      "juggle": 8910,
      "ki": 8911,
      "lil": 8912,
      "mie": 8913,
      "woken": 8914,
      "rejo": 8915,
      "ern": 8916,
      "aring": 8917,
      "sobbing": 8918,
      "pecu": 8919,
      "icent": 8920,
      "launch": 8921,
      "mushy": 8922,
      "deciding": 8923,
      "mast": 8924,
      "blamed": 8925,
      "umpkin": 8926,
      "kinder": 8927,
      "connect": 8928,
      "throne": 8929,
      "nightstand": 8930,
      "Dove": 8931,
      "gladly": 8932,
      "softened": 8933,
      "softness": 8934,
      "ducklings": 8935,
      "landing": 8936,
      "Belie": 8937,
      "kissing": 8938,
      "fences": 8939,
      "Elisa": 8940,
      "piled": 8941,
      "grandkids": 8942,
      "hangs": 8943,
      "frustration": 8944,
      "Melody": 8945,
      "Petal": 8946,
      "pairs": 8947,
      "hamburger": 8948,
      "depths": 8949,
      "hippos": 8950,
      "fans": 8951,
      "avoided": 8952,
      "auntie": 8953,
      "disgusted": 8954,
      "Small": 8955,
      "Clare": 8956,
      "BunBun": 8957,
      "motorcycles": 8958,
      "pokes": 8959,
      "vacu": 8960,
      "supplying": 8961,
      "prices": 8962,
      "writer": 8963,
      "swirling": 8964,
      "refusing": 8965,
      "magnificent": 8966,
      "Ernie": 8967,
      "Nathan": 8968,
      "defend": 8969,
      "Walter": 8970,
      "Turtle": 8971,
      "bellies": 8972,
      "Carrie": 8973,
      "peculiar": 8974,
      "Bar": 8975,
      "Cle": 8976,
      "Candy": 8977,
      "Dora": 8978,
      "Jemma": 8979,
      "Mac": 8980,
      "Pop": 8981,
      "Rory": 8982,
      "Slim": 8983,
      "Trees": 8984,
      "Vio": 8985,
      "bly": 8986,
      "dates": 8987,
      "tiring": 8988,
      "wick": 8989,
      "reaction": 8990,
      "erts": 8991,
      "sel": 8992,
      "ria": 8993,
      "bolt": 8994,
      "rods": 8995,
      "raked": 8996,
      "urging": 8997,
      "mold": 8998,
      "deck": 8999,
      "fail": 9000,
      "speck": 9001,
      "shaky": 9002,
      "clover": 9003,
      "clothing": 9004,
      "Jose": 9005,
      "blend": 9006,
      "spied": 9007,
      "commotion": 9008,
      "brightened": 9009,
      "farmers": 9010,
      "fris": 9011,
      "glimp": 9012,
      "mindful": 9013,
      "passion": 9014,
      "mustn": 9015,
      "swapped": 9016,
      "service": 9017,
      "sickness": 9018,
      "pilots": 9019,
      "grandparent": 9020,
      "ladders": 9021,
      "Mei": 9022,
      "Marcus": 9023,
      "Chuck": 9024,
      "contents": 9025,
      "knit": 9026,
      "ordering": 9027,
      "fuss": 9028,
      "croak": 9029,
      "seriously": 9030,
      "tempted": 9031,
      "desserts": 9032,
      "sends": 9033,
      "massages": 9034,
      "shooed": 9035,
      "community": 9036,
      "Trina": 9037,
      "foggy": 9038,
      "imaginations": 9039,
      "automobiles": 9040,
      "chirps": 9041,
      "Pippy": 9042,
      "winks": 9043,
      "deserves": 9044,
      "scrape": 9045,
      "amongst": 9046,
      "concerned": 9047,
      "nearer": 9048,
      "panting": 9049,
      "squirmed": 9050,
      "scrunched": 9051,
      "mower": 9052,
      "Steph": 9053,
      "complimented": 9054,
      "deeply": 9055,
      "toppings": 9056,
      "Violet": 9057,
      "Clar": 9058,
      "Land": 9059,
      "Nel": 9060,
      "Prom": 9061,
      "Past": 9062,
      "aa": 9063,
      "cru": 9064,
      "chard": 9065,
      "crushed": 9066,
      "dled": 9067,
      "mit": 9068,
      "wil": 9069,
      "œWould": 9070,
      "hey": 9071,
      "invisible": 9072,
      "enger": 9073,
      "online": 9074,
      "stinky": 9075,
      "orchard": 9076,
      "ute": 9077,
      "yous": 9078,
      "cock": 9079,
      "boyâ": 9080,
      "gradually": 9081,
      "caves": 9082,
      "Ant": 9083,
      "skating": 9084,
      "cling": 9085,
      "untangled": 9086,
      "tingle": 9087,
      "blob": 9088,
      "craft": 9089,
      "dining": 9090,
      "props": 9091,
      "glin": 9092,
      "Beware": 9093,
      "Justin": 9094,
      "loneliness": 9095,
      "owls": 9096,
      "polka": 9097,
      "patients": 9098,
      "melons": 9099,
      "Susy": 9100,
      "bullies": 9101,
      "Marvin": 9102,
      "cabbage": 9103,
      "guitars": 9104,
      "fiercely": 9105,
      "halfway": 9106,
      "Beary": 9107,
      "skips": 9108,
      "resisting": 9109,
      "wrecked": 9110,
      "flooded": 9111,
      "bundle": 9112,
      "stomping": 9113,
      "Sparkles": 9114,
      "recommendation": 9115,
      "Madeline": 9116,
      "blush": 9117,
      "Jodie": 9118,
      "Alfred": 9119,
      "bounded": 9120,
      "possession": 9121,
      "snoring": 9122,
      "Chickie": 9123,
      "juiciest": 9124,
      "Aaron": 9125,
      "lilies": 9126,
      "frisbee": 9127,
      "?!": 9128,
      "Ce": 9129,
      "Nature": 9130,
      "Oscar": 9131,
      "Rani": 9132,
      "Zig": 9133,
      "cadabra": 9134,
      "een": 9135,
      "gummy": 9136,
      "hy": 9137,
      "lish": 9138,
      "nudged": 9139,
      "som": 9140,
      "sizz": 9141,
      "tut": 9142,
      "vit": 9143,
      "œA": 9144,
      "inno": 9145,
      "reck": 9146,
      "reappear": 9147,
      "wax": 9148,
      "ouchy": 9149,
      "ites": 9150,
      "ersa": 9151,
      "ality": 9152,
      "thous": 9153,
      "adjust": 9154,
      "unted": 9155,
      "unfair": 9156,
      "wea": 9157,
      "arewell": 9158,
      "exchanged": 9159,
      "birth": 9160,
      "cience": 9161,
      "joyous": 9162,
      "quizz": 9163,
      "mashed": 9164,
      "buys": 9165,
      "showers": 9166,
      "constru": 9167,
      "snar": 9168,
      "snip": 9169,
      "twitched": 9170,
      "misty": 9171,
      "lightly": 9172,
      "glimmer": 9173,
      "glanced": 9174,
      "towns": 9175,
      "scowled": 9176,
      "lunchbox": 9177,
      "Learn": 9178,
      "delightful": 9179,
      "glows": 9180,
      "spapers": 9181,
      "Chil": 9182,
      "rider": 9183,
      "Stir": 9184,
      "softest": 9185,
      "stalk": 9186,
      "helicopters": 9187,
      "sneaks": 9188,
      "cells": 9189,
      "approval": 9190,
      "crunch": 9191,
      "structures": 9192,
      "contained": 9193,
      "slime": 9194,
      "Chew": 9195,
      "tumbling": 9196,
      "Bailey": 9197,
      "aisles": 9198,
      "blessed": 9199,
      "gulped": 9200,
      "clutched": 9201,
      "ruffled": 9202,
      "double": 9203,
      "snoo": 9204,
      "packet": 9205,
      "lurking": 9206,
      "Abracadabra": 9207,
      "glimpse": 9208,
      "Zigzag": 9209,
      "somersa": 9210,
      "Beat": 9211,
      "Cleo": 9212,
      "Ding": 9213,
      "Dina": 9214,
      "Flowers": 9215,
      "Kind": 9216,
      "Mack": 9217,
      "None": 9218,
      "Pil": 9219,
      "Park": 9220,
      "Rusty": 9221,
      "lumpy": 9222,
      "pom": 9223,
      "plow": 9224,
      "pals": 9225,
      "ratt": 9226,
      "une": 9227,
      "wanna": 9228,
      "œJohn": 9229,
      "œMe": 9230,
      "thed": 9231,
      "information": 9232,
      "begun": 9233,
      "wee": 9234,
      "wetter": 9235,
      "forming": 9236,
      "bobbed": 9237,
      "ysitter": 9238,
      "hoof": 9239,
      "code": 9240,
      "cocon": 9241,
      "motions": 9242,
      "newspapers": 9243,
      "canes": 9244,
      "ably": 9245,
      "stor": 9246,
      "prison": 9247,
      "whirl": 9248,
      "earrings": 9249,
      "raincoats": 9250,
      "Lucyâ": 9251,
      "disaster": 9252,
      "disobeyed": 9253,
      "Sarahâ": 9254,
      "fixer": 9255,
      "snowing": 9256,
      "mates": 9257,
      "fights": 9258,
      "whether": 9259,
      "horror": 9260,
      "partner": 9261,
      "honeycomb": 9262,
      "missiles": 9263,
      "Black": 9264,
      "suggests": 9265,
      "fourth": 9266,
      "striped": 9267,
      "Alexa": 9268,
      "scratchy": 9269,
      "tippy": 9270,
      "doesnâ": 9271,
      "speedy": 9272,
      "ironing": 9273,
      "surrounding": 9274,
      "honor": 9275,
      "babysitter": 9276,
      "victo": 9277,
      "Chess": 9278,
      "Bao": 9279,
      "Monster": 9280,
      "cousins": 9281,
      "dips": 9282,
      "route": 9283,
      "tucks": 9284,
      "collage": 9285,
      "Lyn": 9286,
      "Brady": 9287,
      "servants": 9288,
      "sleeves": 9289,
      "guesses": 9290,
      "Salt": 9291,
      "Stripe": 9292,
      "Bloom": 9293,
      "cucumber": 9294,
      "crispy": 9295,
      "considerate": 9296,
      "Dinner": 9297,
      "suspic": 9298,
      "dedication": 9299,
      "champion": 9300,
      "energized": 9301,
      "Believe": 9302,
      "reckless": 9303,
      "Children": 9304,
      "Beatrice": 9305,
      "coconut": 9306,
      "Aid": 9307,
      "Chad": 9308,
      "Cuddles": 9309,
      "DV": 9310,
      "Dawn": 9311,
      "Dancing": 9312,
      "Harri": 9313,
      "Jet": 9314,
      "Kit": 9315,
      "Kenny": 9316,
      "OO": 9317,
      "Oak": 9318,
      "Pumpkin": 9319,
      "SH": 9320,
      "Wolf": 9321,
      "jay": 9322,
      "jaw": 9323,
      "lens": 9324,
      "nug": 9325,
      "sum": 9326,
      "spar": 9327,
      "scut": 9328,
      "tally": 9329,
      "zo": 9330,
      "œWait": 9331,
      "oned": 9332,
      "los": 9333,
      "atmo": 9334,
      "adop": 9335,
      "unloaded": 9336,
      "gobble": 9337,
      "forced": 9338,
      "helle": 9339,
      "department": 9340,
      "aback": 9341,
      "abilities": 9342,
      "owning": 9343,
      "lled": 9344,
      "cawed": 9345,
      "creak": 9346,
      "fived": 9347,
      "gardening": 9348,
      "leaped": 9349,
      "Janeâ": 9350,
      "ladybugs": 9351,
      "sations": 9352,
      "woodpeck": 9353,
      "guided": 9354,
      "ooh": 9355,
      "embra": 9356,
      "tripping": 9357,
      "patting": 9358,
      "tastiest": 9359,
      "affect": 9360,
      "springs": 9361,
      "wrists": 9362,
      "calming": 9363,
      "pudding": 9364,
[...]
