{
  "version": "1.0",
  "truncation": null,
  "padding": null,
  "added_tokens": [
    {
      "id": 0,
      "content": "<unk>",
      "single_word": false,
      "lstrip": false,
      "rstrip": false,
      "normalized": false,
      "special": true
    },
    {
      "id": 1,
      "content": "<pad>",
      "single_word": false,
      "lstrip": false,
      "rstrip": false,
      "normalized": false,
      "special": true
    },
    {
      "id": 2,
      "content": "<bos>",
      "single_word": false,
      "lstrip": false,
      "rstrip": false,
      "normalized": false,
      "special": true
    },
    {
      "id": 3,
      "content": "<eos>",
      "single_word": false,
      "lstrip": false,
      "rstrip": false,
      "normalized": false,
      "special": true
    }
  ],
  "normalizer": null,
  "pre_tokenizer": {
    "type": "ByteLevel",
    "add_prefix_space": true,
    "trim_offsets": true,
    "use_regex": true
  },
  "post_processor": null,
  "decoder": {
    "type": "ByteLevel",
    "add_prefix_space": true,
    "trim_offsets": true,
    "use_regex": true
  },
  "model": {
    "type": "BPE",
    "dropout": null,
    "unk_token": "<unk>",
    "continuing_subword_prefix": null,
    "end_of_word_suffix": null,
    "fuse_unk": false,
    "byte_fallback": false,
    "ignore_merges": false,
    "vocab": {
      "<unk>": 0,
      "<pad>": 1,
      "<bos>": 2,
      "<eos>": 3,
      "!": 4,
      "\"": 5,
      "#": 6,
      "$": 7,
      "%": 8,
      "&": 9,
      "'": 10,
      "(": 11,
      ")": 12,
      "*": 13,
      "+": 14,
      ",": 15,
      "-": 16,
      ".": 17,
      "/": 18,
      "0": 19,
      "1": 20,
      "2": 21,
      "3": 22,
      "4": 23,
      "5": 24,
      "6": 25,
      "7": 26,
      "8": 27,
      "9": 28,
      ":": 29,
      ";": 30,
      "<": 31,
      "=": 32,
      ">": 33,
      "?": 34,
      "@": 35,
      "A": 36,
      "B": 37,
      "C": 38,
      "D": 39,
      "E": 40,
      "F": 41,
      "G": 42,
      "H": 43,
      "I": 44,
      "J": 45,
      "K": 46,
      "L": 47,
      "M": 48,
      "N": 49,
      "O": 50,
      "P": 51,
      "Q": 52,
      "R": 53,
      "S": 54,
      "T": 55,
      "U": 56,
      "V": 57,
      "W": 58,
      "X": 59,
      "Y": 60,
      "Z": 61,
      "[": 62,
      "\\": 63,
      "]": 64,
      "^": 65,
      "_": 66,
      "`": 67,
      "a": 68,
      "b": 69,
      "c": 70,
      "d": 71,
      "e": 72,
      "f": 73,
      "g": 74,
      "h": 75,
      "i": 76,
      "j": 77,
      "k": 78,
      "l": 79,
      "m": 80,
      "n": 81,
      "o": 82,
      "p": 83,
      "q": 84,
      "r": 85,
      "s": 86,
      "t": 87,
      "u": 88,
      "v": 89,
      "w": 90,
      "x": 91,
      "y": 92,
      "z": 93,
      "{": 94,
      "|": 95,
      "}": 96,
      "~": 97,
      "¡": 98,
      "¢": 99,
      "£": 100,
      "¤": 101,
      "¥": 102,
      "¦": 103,
      "§": 104,
      "¨": 105,
      "©": 106,
      "ª": 107,
      "«": 108,
      "¬": 109,
      "®": 110,
      "¯": 111,
      "°": 112,
      "±": 113,
      "²": 114,
      "³": 115,
      "´": 116,
      "µ": 117,
      "¶": 118,
      "·": 119,
      "¸": 120,
      "¹": 121,
      "º": 122,
      "»": 123,
      "¼": 124,
      "½": 125,
      "¾": 126,
      "¿": 127,
      "Â": 128,
      "Ã": 129,
      "Ä": 130,
      "Å": 131,
      "Æ": 132,
      "Ç": 133,
      "È": 134,
      "É": 135,
      "Ê": 136,
      "Ë": 137,
      "Ì": 138,
      "Í": 139,
      "Î": 140,
      "Ï": 141,
      "Ð": 142,
      "Ñ": 143,
      "Ò": 144,
      "Ó": 145,
      "Ô": 146,
      "Õ": 147,
      "Ö": 148,
      "×": 149,
      "Ø": 150,
      "Ù": 151,
      "Ú": 152,
      "Û": 153,
      "Ü": 154,
      "Ý": 155,
      "Þ": 156,
      "ß": 157,
      "à": 158,
      "á": 159,
      "â": 160,
      "ã": 161,
      "ä": 162,
      "å": 163,
      "æ": 164,
      "ç": 165,
      "è": 166,
      "é": 167,
      "ê": 168,
      "ë": 169,
      "ì": 170,
      "í": 171,
      "ï": 172,
      "ð": 173,
      "Ġ": 174,
      "Ģ": 175,
      "ģ": 176,
      "Ĥ": 177,
      "ĥ": 178,
      "Ħ": 179,
      "ħ": 180,
      "Ĩ": 181,
      "ĩ": 182,
      "Ī": 183,
      "ī": 184,
      "Ĭ": 185,
      "ĭ": 186,
      "Į": 187,
      "į": 188,
      "İ": 189,
      "ı": 190,
      "Ĳ": 191,
      "ĳ": 192,
      "Ĵ": 193,
      "ĵ": 194,
      "Ķ": 195,
      "ķ": 196,
      "ĸ": 197,
      "Ĺ": 198,
      "ĺ": 199,
      "Ļ": 200,
      "ļ": 201,
      "Ľ": 202,
      "ľ": 203,
      "Ŀ": 204,
      "ŀ": 205,
      "Ł": 206,
      "ł": 207,
      "Ń": 208,
      "Ġt": 209,
      "he": 210,
      "Ġa": 211,
      "in": 212,
      "er": 213,
      "on": 214,
      "Ġthe": 215,
      "re": 216,
      "Ġo": 217,
      "an": 218,
      "at": 219,
      "en": 220,
      "Ġs": 221,
      "ed": 222,
      "is": 223,
      "or": 224,
      "es": 225,
      "it": 226,
      "Ġc": 227,
      "al": 228,
      "Ġof": 229,
      "Ġw": 230,
      "Ġan": 231,
      "ar": 232,
      "Ġin": 233,
      "ic": 234,
      "Ġf": 235,
      "Ġp": 236,
      "Ġb": 237,
      "Ġand": 238,
      "ion": 239,
      "ing": 240,
      "as": 241,
      "ro": 242,
      "Ġm": 243,
      "Ġd": 244,
      "Ġto": 245,
      "le": 246,
      "ent": 247,
      "Ġh": 248,
      "ou": 249,
      "ĠA": 250,
      "ĠT": 251,
      "om": 252,
      "ĠC": 253,
      "st": 254,
      "Ġre": 255,
      "ĠS": 256,
      "il": 257,
      "ct": 258,
      "Ġ1": 259,
      "el": 260,
      "Ġe": 261,
      "ol": 262,
      "Ġl": 263,
      "Ġth": 264,
      "Ġn": 265,
      "Ġ(": 266,
      "am": 267,
      "ĠI": 268,
      "ation": 269,
      "us": 270,
      "et": 271,
      "ĠM": 272,
      "ly": 273,
      "ur": 274,
      "ĠB": 275,
      "ch": 276,
      "iv": 277,
      "ad": 278,
      "im": 279,
      "ce": 280,
      "ĠThe": 281,
      "id": 282,
      "Ġis": 283,
      "un": 284,
      "ig": 285,
      "ut": 286,
      "ot": 287,
      "ĠP": 288,
      "Ġfor": 289,
      "Ġg": 290,
      "Ġas": 291,
      "Ġbe": 292,
      "ir": 293,
      "ers": 294,
      "ist": 295,
      "ĠH": 296,
      "Ġon": 297,
      "ul": 298,
      "ow": 299,
      "ith": 300,
      "ra": 301,
      "Ġ19": 302,
      "Ġwas": 303,
      "ĠE": 304,
      "em": 305,
      "os": 306,
      "ĠF": 307,
      "ter": 308,
      "ĠG": 309,
      "her": 310,
      "Ġst": 311,
      "ĠD": 312,
      "ĠL": 313,
      "ĠR": 314,
      "Ġcon": 315,
      "Ġwith": 316,
      "ay": 317,
      "Ġby": 318,
      "ver": 319,
      "th": 320,
      "Ġal": 321,
      "and": 322,
      "Ġthat": 323,
      "um": 324,
      "Ġ2": 325,
      "Ġwh": 326,
      "âĢ": 327,
      "op": 328,
      "Ġpro": 329,
      "ĠIn": 330,
      "'s": 331,
      "ĠW": 332,
      "od": 333,
      "ian": 334,
      "ag": 335,
      "ĠN": 336,
      "ies": 337,
      "if": 338,
      "Ġde": 339,
      "av": 340,
      "Ġor": 341,
      "est": 342,
      "Ġ\"": 343,
      "ĠJ": 344,
      "rom": 345,
      "Ġcom": 346,
      "res": 347,
      "âĢĵ": 348,
      "ac": 349,
      "Ġv": 350,
      "ain": 351,
      "ity": 352,
      "ab": 353,
      "Ġit": 354,
      "00": 355,
      "Ġsu": 356,
      "Ġare": 357,
      "Ġex": 358,
      "pe": 359,
      "Ġat": 360,
      "ate": 361,
      "ri": 362,
      "Ġfrom": 363,
      "oun": 364,
      "oc": 365,
      "qu": 366,
      "ĠO": 367,
      "Ġhe": 368,
      "ud": 369,
      "ich": 370,
      "ort": 371,
      "ess": 372,
      "ant": 373,
      "art": 374,
      "ical": 375,
      "ore": 376,
      "ld": 377,
      "Ġr": 378,
      "Ġse": 379,
      "ial": 380,
      "se": 381,
      "ment": 382,
      "ĠK": 383,
      "ĠU": 384,
      "ia": 385,
      "ill": 386,
      "ive": 387,
      "all": 388,
      "ew": 389,
      "og": 390,
      "pp": 391,
      "Ġhis": 392,
      "Ġun": 393,
      "igh": 394,
      "ated": 395,
      "ard": 396,
      "pt": 397,
      "ber": 398,
      "ish": 399,
      "ak": 400,
      "ction": 401,
      "Ġus": 402,
      "Ġwhich": 403,
      "end": 404,
      "ure": 405,
      "ary": 406,
      "ere": 407,
      "Ġch": 408,
      "ĠâĢĵ": 409,
      "ther": 410,
      "gh": 411,
      "ge": 412,
      "ost": 413,
      "ine": 414,
      "mer": 415,
      "Ġwere": 416,
      "ell": 417,
      "ov": 418,
      "ip": 419,
      "cl": 420,
      "ĠCh": 421,
      "ast": 422,
      "per": 423,
      "ran": 424,
      "du": 425,
      "Ġnot": 426,
      "ong": 427,
      "our": 428,
      "Ġle": 429,
      "Ġpl": 430,
      "rit": 431,
      "ave": 432,
      "Ġcomp": 433,
      "ord": 434,
      "ĠSt": 435,
      "so": 436,
      "Ġk": 437,
      "ame": 438,
      "Ġ20": 439,
      "ub": 440,
      "ition": 441,
      "ous": 442,
      "ect": 443,
      "),": 444,
      "ire": 445,
      "ap": 446,
      "up": 447,
      "cc": 448,
      "iz": 449,
      "ear": 450,
      "ight": 451,
      "ome": 452,
      "ations": 453,
      "Ġcont": 454,
      "ry": 455,
      "Ġsh": 456,
      "ence": 457,
      "Ġar": 458,
      "Ġint": 459,
      "der": 460,
      "Ġalso": 461,
      "ult": 462,
      "ff": 463,
      "Ġhave": 464,
      "ust": 465,
      "ass": 466,
      "ign": 467,
      "erm": 468,
      "ib": 469,
      "ĠV": 470,
      "ican": 471,
      "age": 472,
      "ks": 473,
      "ie": 474,
      "pl": 475,
      "Ġhas": 476,
      "ĠUn": 477,
      "ru": 478,
      "fer": 479,
      "Ġad": 480,
      "Ġhad": 481,
      "Ġy": 482,
      "tern": 483,
      "ide": 484,
      "ory": 485,
      "ren": 486,
      "Ġwor": 487,
      "ĠTh": 488,
      "Ġcl": 489,
      "Ġits": 490,
      "19": 491,
      "ally": 492,
      "Ġwhe": 493,
      "ph": 494,
      "Ġres": 495,
      "ang": 496,
      "irst": 497,
      "Ġ18": 498,
      "Ġpart": 499,
      "Ġtheir": 500,
      "Ġab": 501,
      "ates": 502,
      ").": 503,
      "act": 504,
      "ue": 505,
      "ount": 506,
      "Ġim": 507,
      "Ġbut": 508,
      "ater": 509,
      "ces": 510,
      "Ġother": 511,
      "Ġ200": 512,
      "Ġall": 513,
      "con": 514,
      "any": 515,
      "Ġen": 516,
      "ould": 517,
      "over": 518,
      "ĠAn": 519,
      "red": 520,
      "orm": 521,
      "ree": 522,
      "clud": 523,
      "Ġdis": 524,
      "land": 525,
      "ime": 526,
      "ely": 527,
      "Ġthis": 528,
      "ress": 529,
      "ĠAmer": 530,
      "ĠAl": 531,
      "ions": 532,
      "Ġfirst": 533,
      "ĠRe": 534,
      "out": 535,
      "Ġ201": 536,
      "Ġcan": 537,
      "own": 538,
      "Ġone": 539,
      "ice": 540,
      "ational": 541,
      "ach": 542,
      "ack": 543,
      "hed": 544,
      "ĠIt": 545,
      "ens": 546,
      "port": 547,
      "ok": 548,
      "Ġper": 549,
      "Ġbec": 550,
      "und": 551,
      "able": 552,
      "Ġbeen": 553,
      "ile": 554,
      "erv": 555,
      "te": 556,
      "wo": 557,
      "Ġinclud": 558,
      "fter": 559,
      "vel": 560,
      "ism": 561,
      "ound": 562,
      "ict": 563,
      "ubl": 564,
      "Ġte": 565,
      "oll": 566,
      "ace": 567,
      "Ġro": 568,
      "ited": 569,
      "ugh": 570,
      "ors": 571,
      "ced": 572,
      "olog": 573,
      "ĠHe": 574,
      "Ġsy": 575,
      "ke": 576,
      "ĠEn": 577,
      "Ġj": 578,
      "Ġwho": 579,
      "Ġcomm": 580,
      "ance": 581,
      "ents": 582,
      "aw": 583,
      "ĠAmerican": 584,
      "ose": 585,
      "Ġdes": 586,
      "we": 587,
      "Ġsuch": 588,
      "Ġne": 589,
      "Ġag": 590,
      "Ġsc": 591,
      "uring": 592,
      "ase": 593,
      "Ġsp": 594,
      "ough": 595,
      "les": 596,
      "Ġyear": 597,
      "ron": 598,
      "ĠSe": 599,
      "Ġform": 600,
      "ĠAr": 601,
      "ics": 602,
      "ite": 603,
      "Ġused": 604,
      "Ġcent": 605,
      "Ġmore": 606,
      "ts": 607,
      "ath": 608,
      "Ġev": 609,
      "ied": 610,
      "ade": 611,
      "Ġrec": 612,
      "Ġspe": 613,
      "Ġcons": 614,
      "Ġele": 615,
      "Ġtwo": 616,
      "Ġ3": 617,
      "Ġmost": 618,
      "Ġrel": 619,
      "Ġ199": 620,
      "Ġinto": 621,
      "amp": 622,
      "ne": 623,
      "Ġme": 624,
      "reat": 625,
      "Ġpr": 626,
      "ular": 627,
      "ob": 628,
      "ans": 629,
      "Ġthey": 630,
      "Ġpol": 631,
      "old": 632,
      "aus": 633,
      "Ġgro": 634,
      "ep": 635,
      "form": 636,
      "ener": 637,
      "rib": 638,
      "Ġbet": 639,
      "Ġpre": 640,
      "Ġover": 641,
      "ual": 642,
      "rans": 643,
      "ury": 644,
      "oin": 645,
      "Ġprodu": 646,
      "iss": 647,
      "are": 648,
      "ased": 649,
      "one": 650,
      "Ġplay": 651,
      "Ġact": 652,
      "ark": 653,
      "Ġreg": 654,
      "ĠY": 655,
      "ious": 656,
      "Ġthan": 657,
      "ĠAs": 658,
      "ons": 659,
      "ĠCom": 660,
      "ood": 661,
      "Âł": 662,
      "Ġapp": 663,
      "ings": 664,
      "Ġout": 665,
      "wn": 666,
      "ft": 667,
      "Ġafter": 668,
      "Ġkn": 669,
      "rough": 670,
      "ween": 671,
      "stem": 672,
      "Ġatt": 673,
      "gan": 674,
      "ific": 675,
      "Ġph": 676,
      "ivers": 677,
      "Ġ198": 678,
      "ĠThis": 679,
      "ail": 680,
      "ric": 681,
      "oth": 682,
      "ys": 683,
      "ĠEng": 684,
      "Ġsub": 685,
      "ind": 686,
      "Ġnum": 687,
      "Ġsome": 688,
      "Ġtime": 689,
      "ond": 690,
      "Ġpe": 691,
      "Ġunder": 692,
      "Ġonly": 693,
      "Ġbetween": 694,
      "uc": 695,
      "overn": 696,
      "Ġinter": 697,
      "Ġacc": 698,
      "ative": 699,
      "Ġwould": 700,
      "ĠDe": 701,
      "ten": 702,
      "Ġear": 703,
      "Ġnew": 704,
      "ram": 705,
      "cre": 706,
      "ted": 707,
      "Ġac": 708,
      "Ġ197": 709,
      "ars": 710,
      "ution": 711,
      "orn": 712,
      "iet": 713,
      "arg": 714,
      "ists": 715,
      "ild": 716,
      "ral": 717,
      "Ġup": 718,
      "\".": 719,
      "Ġind": 720,
      "ug": 721,
      "Ġam": 722,
      "ities": 723,
      "Ġra": 724,
      "rad": 725,
      "Ġmod": 726,
      "ident": 727,
      "als": 728,
      "oy": 729,
      "ĠLe": 730,
      "ern": 731,
      "the": 732,
      "oh": 733,
      "ilm": 734,
      "Ġso": 735,
      "Ġtrans": 736,
      "lish": 737,
      "Ġwhen": 738,
      "ject": 739,
      "Ġoff": 740,
      "uro": 741,
      "Ġcount": 742,
      "Ġsystem": 743,
      "Ġwork": 744,
      "ople": 745,
      "Ġqu": 746,
      "Ġpop": 747,
      "ished": 748,
      "Ġthere": 749,
      "ower": 750,
      "Ġ4": 751,
      "ward": 752,
      "Ġmay": 753,
      "li": 754,
      "Ġpubl": 755,
      "cial": 756,
      "ince": 757,
      "Ġmany": 758,
      "velop": 759,
      "Ġcol": 760,
      "Ġass": 761,
      "Ġdef": 762,
      "urn": 763,
      "Ġwe": 764,
      "ines": 765,
      "ve": 766,
      "ĠNew": 767,
      "ĠCon": 768,
      "ah": 769,
      "Ġfl": 770,
      "io": 771,
      "Ġem": 772,
      "Ġdif": 773,
      "Ġ196": 774,
      "ann": 775,
      "ating": 776,
      "ĠGerm": 777,
      "Ġthem": 778,
      "Ġco": 779,
      "Ġhim": 780,
      "Ġinv": 781,
      "ake": 782,
      "Ġpres": 783,
      "arch": 784,
      "ient": 785,
      "ĠIs": 786,
      "20": 787,
      "ever": 788,
      "ĠUnited": 789,
      "Ġyears": 790,
      "Ġduring": 791,
      "Ġuse": 792,
      "Ġcall": 793,
      "ollow": 794,
      "Ġthrough": 795,
      "ays": 796,
      "\",": 797,
      "Ġrem": 798,
      "Ġpos": 799,
      "Ġabout": 800,
      "Ġ5": 801,
      "Ġset": 802,
      "Ġmet": 803,
      "ix": 804,
      "Ġwhere": 805,
      "aj": 806,
      "hip": 807,
      "cept": 808,
      "Ġdo": 809,
      "Ġgener": 810,
      "Ġmem": 811,
      "Ġsupp": 812,
      "Ġher": 813,
      "ĠInd": 814,
      "inal": 815,
      "Ġwrit": 816,
      "Ġbo": 817,
      "Ġdevelop": 818,
      "ered": 819,
      "ures": 820,
      "angu": 821,
      "Ġgovern": 822,
      "hes": 823,
      "cted": 824,
      "ins": 825,
      "Ġprov": 826,
      "Ġman": 827,
      "ily": 828,
      "ale": 829,
      "Ġob": 830,
      "Ġfilm": 831,
      "ife": 832,
      "Ġknown": 833,
      "Ġinf": 834,
      "Ġ194": 835,
      "cy": 836,
      "cess": 837,
      "Ġinst": 838,
      "Ġest": 839,
      "Ġaut": 840,
      "ĠEuro": 841,
      "Ġfound": 842,
      "very": 843,
      "hen": 844,
      ".\"": 845,
      "ert": 846,
      "owever": 847,
      "ĠBrit": 848,
      "Ġexp": 849,
      "Ġtra": 850,
      "Ġli": 851,
      "ise": 852,
      "ement": 853,
      "ctions": 854,
      "cent": 855,
      "ized": 856,
      "Ġbl": 857,
      "iel": 858,
      "Ġvar": 859,
      "ĠFor": 860,
      "ause": 861,
      "ĠOn": 862,
      "Ġno": 863,
      "fore": 864,
      "Ġ17": 865,
      "ology": 866,
      "rist": 867,
      "Ġserv": 868,
      "att": 869,
      "000": 870,
      "az": 871,
      "Ġthese": 872,
      "ically": 873,
      "ork": 874,
      "Ġhist": 875,
      "ium": 876,
      "outh": 877,
      "ĠEnglish": 878,
      "ature": 879,
      "Ġpolit": 880,
      "led": 881,
      "ton": 882,
      "ments": 883,
      "ually": 884,
      "Ġend": 885,
      "Ġdist": 886,
      "Ġfollow": 887,
      "ians": 888,
      "ural": 889,
      "ck": 890,
      "uch": 891,
      "raph": 892,
      "Ġimp": 893,
      "uss": 894,
      "cond": 895,
      "Ġagain": 896,
      "ĠPro": 897,
      "ĠSp": 898,
      "ĠFran": 899,
      "ible": 900,
      "Ġrep": 901,
      "Ġadd": 902,
      "ick": 903,
      "round": 904,
      "ĠEurope": 905,
      "Ġpeople": 906,
      "Ġnumber": 907,
      "hem": 908,
      "man": 909,
      "Ġgroup": 910,
      "its": 911,
      "Ġmade": 912,
      "Ġent": 913,
      "Ġ195": 914,
      "Ġcentury": 915,
      "Ġstud": 916,
      "Ġed": 917,
      "Ġext": 918,
      "Ġap": 919,
      "ames": 920,
      "Ġwell": 921,
      "bers": 922,
      "Ġloc": 923,
      "Ġdiffer": 924,
      "Ġlater": 925,
      "ĠJoh": 926,
      "Ġeff": 927,
      "ather": 928,
      "Ġ6": 929,
      "Ġbeing": 930,
      "Ġcalled": 931,
      "ĠSc": 932,
      "ĠStates": 933,
      "Ġincluding": 934,
      "Ġany": 935,
      "Ã©": 936,
      "ision": 937,
      "Ġlangu": 938,
      "Ġsur": 939,
      "ool": 940,
      "ages": 941,
      "ex": 942,
      "Ġbecame": 943,
      "inist": 944,
      "Ġthen": 945,
      "Ġboth": 946,
      "Ġsign": 947,
      "ences": 948,
      "Ġmain": 949,
      "yp": 950,
      "Ġdire": 951,
      "18": 952,
      "ax": 953,
      "Ġmov": 954,
      "orth": 955,
      "Ġfe": 956,
      "Ġart": 957,
      "Ġwhile": 958,
      "Ġret": 959,
      "elf": 960,
      "ĠWar": 961,
      "Ġmon": 962,
      "ved": 963,
      "Ġthree": 964,
      "Ġmus": 965,
      "Ġworld": 966,
      "ros": 967,
      "imes": 968,
      "other": 969,
      "ility": 970,
      "Ġchar": 971,
      "ock": 972,
      "iversity": 973,
      "ived": 974,
      "rol": 975,
      "Ġsim": 976,
      "ajor": 977,
      "ĠChrist": 978,
      "Ġbel": 979,
      "Ġhigh": 980,
      "Ġ.": 981,
      "ulation": 982,
      "ĠSh": 983,
      "Ġterm": 984,
      "ĠJohn": 985,
      "ĠEx": 986,
      "ĠZ": 987,
      "inn": 988,
      "Ġ16": 989,
      "ier": 990,
      "ues": 991,
      "Ġlead": 992,
      "ield": 993,
      "ract": 994,
      "air": 995,
      "ĠWor": 996,
      "els": 997,
      "Ġ193": 998,
      "Ġcar": 999,
      "Ġ15": 1000,
      "Ġbu": 1001,
      "conom": 1002,
      "iew": 1003,
      "Ġearly": 1004,
      "Ġconst": 1005,
      "Ġsm": 1006,
      "Ġcre": 1007,
      "erson": 1008,
      "rench": 1009,
      "Ġorig": 1010,
      "ty": 1011,
      "Ġgovernment": 1012,
      "Ġdec": 1013,
      "ives": 1014,
      "oman": 1015,
      "Ġ7": 1016,
      "ĠAt": 1017,
      "Ġpartic": 1018,
      "Ġdep": 1019,
      "Ġresult": 1020,
      "Ġspec": 1021,
      "ful": 1022,
      "ants": 1023,
      "ained": 1024,
      "Ġsing": 1025,
      "ĠBe": 1026,
      "hor": 1027,
      "Ġ8": 1028,
      "ember": 1029,
      "ined": 1030,
      "Ġser": 1031,
      "Ġcontin": 1032,
      "ĠCl": 1033,
      "Ġstate": 1034,
      "Ġsever": 1035,
      "ene": 1036,
      "ĠCol": 1037,
      "Ġoper": 1038,
      "iod": 1039,
      "vent": 1040,
      "gy": 1041,
      "Ġ|": 1042,
      "Ġcity": 1043,
      "ĠComm": 1044,
      "Ġlong": 1045,
      "Ġcomple": 1046,
      "yn": 1047,
      "Ġfam": 1048,
      "Ġsame": 1049,
      "Ġoften": 1050,
      "ĠGerman": 1051,
      "ĠFrench": 1052,
      "ting": 1053,
      "ĠWorld": 1054,
      "ball": 1055,
      "ample": 1056,
      "Ġsch": 1057,
      "illion": 1058,
      "atic": 1059,
      "Ġdesc": 1060,
      "ĠMar": 1061,
      "osed": 1062,
      "ble": 1063,
      "ute": 1064,
      "ĠAf": 1065,
      "ĠBritish": 1066,
      "âĢĶ": 1067,
      "ina": 1068,
      "oot": 1069,
      "Ġlaw": 1070,
      "Ġappe": 1071,
      "Ġsecond": 1072,
      "ange": 1073,
      "Ġmajor": 1074,
      "urch": 1075,
      "Ġwar": 1076,
      "ternational": 1077,
      "ĠAd": 1078,
      "ilit": 1079,
      "ared": 1080,
      "Ġown": 1081,
      "ording": 1082,
      "Ġdisc": 1083,
      "ĠOr": 1084,
      "rop": 1085,
      "Ġsupport": 1086,
      "Ġocc": 1087,
      "ĠPh": 1088,
      "ĠEm": 1089,
      "Ġwill": 1090,
      "ctor": 1091,
      "til": 1092,
      "though": 1093,
      "ograph": 1094,
      "Ġlarg": 1095,
      "lu": 1096,
      "iver": 1097,
      "Ġequ": 1098,
      "Ġconsid": 1099,
      "omet": 1100,
      "ank": 1101,
      "Ġagainst": 1102,
      "ĠCan": 1103,
      "ional": 1104,
      "chn": 1105,
      "apt": 1106,
      "Ġstr": 1107,
      "ital": 1108,
      "Ġincre": 1109,
      "Ġair": 1110,
      "ash": 1111,
      "Ġdesign": 1112,
      "ik": 1113,
      "Ġprog": 1114,
      "ĠUniversity": 1115,
      "ĠAust": 1116,
      "Ġmed": 1117,
      "Ġcould": 1118,
      "ired": 1119,
      "Ġcommon": 1120,
      "Ġsoc": 1121,
      "ries": 1122,
      "ica": 1123,
      "ris": 1124,
      "ience": 1125,
      "ouse": 1126,
      "aking": 1127,
      "oint": 1128,
      "Ġif": 1129,
      "Ġexample": 1130,
      "Ġdifferent": 1131,
      "eg": 1132,
      "Ġbefore": 1133,
      "Ġeach": 1134,
      "to": 1135,
      "eng": 1136,
      "Ġtrad": 1137,
      "arge": 1138,
      "ĠWh": 1139,
      "ices": 1140,
      "aid": 1141,
      "ruct": 1142,
      "Ġsince": 1143,
      "Ġhum": 1144,
      "rent": 1145,
      "Ġfour": 1146,
      "Ġseveral": 1147,
      "Ġpower": 1148,
      "enn": 1149,
      "Ġsmall": 1150,
      "Ġ,": 1151,
      "way": 1152,
      "ccess": 1153,
      "Ġname": 1154,
      "Ġfun": 1155,
      "Ġins": 1156,
      "Ġcharact": 1157,
      "Ġpublic": 1158,
      "ued": 1159,
      "ĠPol": 1160,
      "ains": 1161,
      "Ġclass": 1162,
      "ĠHowever": 1163,
      "Ġbecause": 1164,
      "my": 1165,
      "Ġorgan": 1166,
      "ively": 1167,
      "Ġsl": 1168,
      "ĠCar": 1169,
      "Ġrev": 1170,
      "ised": 1171,
      "ober": 1172,
      "olution": 1173,
      "Ġbro": 1174,
      "Ġeconom": 1175,
      "ided": 1176,
      "Ġelect": 1177,
      "Ġ10": 1178,
      "Ġ9": 1179,
      "Ġuntil": 1180,
      "Ġmat": 1181,
      "ĠPr": 1182,
      "Ġdet": 1183,
      "itions": 1184,
      "ĠII": 1185,
      "Ġcountry": 1186,
      "com": 1187,
      "ason": 1188,
      "Ġshe": 1189,
      "Ġperiod": 1190,
      "Ġrefer": 1191,
      "ĠThere": 1192,
      "ets": 1193,
      "ĠKing": 1194,
      "ization": 1195,
      "pect": 1196,
      "ĠQ": 1197,
      "Ġmin": 1198,
      "ley": 1199,
      "Ġ192": 1200,
      "ll": 1201,
      "ified": 1202,
      "Ġrequ": 1203,
      "ius": 1204,
      "Ġref": 1205,
      "inc": 1206,
      "resent": 1207,
      "Ġrele": 1208,
      "ides": 1209,
      "oph": 1210,
      "ator": 1211,
      "Ġestab": 1212,
      "lect": 1213,
      "Ġpo": 1214,
      "ĠBl": 1215,
      "Ġleg": 1216,
      "Ġinclude": 1217,
      "Ġcur": 1218,
      "ec": 1219,
      "Ġeffect": 1220,
      "Ġlife": 1221,
      "Ġauthor": 1222,
      "ĠAp": 1223,
      "Ġcap": 1224,
      "ĠAm": 1225,
      "Ġimport": 1226,
      "rodu": 1227,
      "ĠGe": 1228,
      "Ġshow": 1229,
      "Ġdeath": 1230,
      "Ġlarge": 1231,
      "ands": 1232,
      "ĠHist": 1233,
      "Ġlit": 1234,
      "ases": 1235,
      "ull": 1236,
      "ox": 1237,
      "Ġop": 1238,
      "au": 1239,
      "Ġallow": 1240,
      "por": 1241,
      "ey": 1242,
      "ords": 1243,
      "Ġtr": 1244,
      "Ġ'": 1245,
      "Ġcult": 1246,
      "ird": 1247,
      "Ġcommun": 1248,
      "omin": 1249,
      "Ġval": 1250,
      "Ġdid": 1251,
      "Ġmusic": 1252,
      "Ġcor": 1253,
      "The": 1254,
      "ook": 1255,
      "aim": 1256,
      "arm": 1257,
      "gg": 1258,
      "Ġgu": 1259,
      "xt": 1260,
      "Ġback": 1261,
      "oci": 1262,
      "eb": 1263,
      "ross": 1264,
      "..": 1265,
      "ĠMus": 1266,
      "Ġprocess": 1267,
      "ration": 1268,
      "Ġlanguage": 1269,
      "ilitary": 1270,
      "icial": 1271,
      "ring": 1272,
      "Ġsuccess": 1273,
      "ĠSch": 1274,
      "iving": 1275,
      "ission": 1276,
      "Ġeng": 1277,
      "ink": 1278,
      "Ġnon": 1279,
      "ese": 1280,
      "rid": 1281,
      "ĠNational": 1282,
      "Ġconf": 1283,
      "Ġpopulation": 1284,
      "Ġcontrol": 1285,
      "Ġposs": 1286,
      "Ġthough": 1287,
      "ole": 1288,
      "ove": 1289,
      "ended": 1290,
      "que": 1291,
      "Ġaround": 1292,
      "Ġpar": 1293,
      "Ġthose": 1294,
      "iety": 1295,
      "ament": 1296,
      "ven": 1297,
      "Ġbased": 1298,
      "ĠGu": 1299,
      "iven": 1300,
      "Ġprogram": 1301,
      "Ġappro": 1302,
      "med": 1303,
      "Ġfin": 1304,
      "Ġperson": 1305,
      "Ġright": 1306,
      "ĠAfter": 1307,
      "ĠGree": 1308,
      "oss": 1309,
      "apan": 1310,
      "iam": 1311,
      "yl": 1312,
      "omen": 1313,
      "Ġseries": 1314,
      "Ġbegan": 1315,
      "ym": 1316,
      "son": 1317,
      "Ġdescrib": 1318,
      "ĠItal": 1319,
      "Ġexpl": 1320,
      "ai": 1321,
      "par": 1322,
      "Ġdem": 1323,
      "lands": 1324,
      "ĠUS": 1325,
      "tle": 1326,
      "ae": 1327,
      "Ġinflu": 1328,
      "Ġperform": 1329,
      "Ġmark": 1330,
      "ĠThey": 1331,
      "ival": 1332,
      "ternal": 1333,
      "Ġ12": 1334,
      "Ġorder": 1335,
      "ript": 1336,
      "Ġexper": 1337,
      "ĠPl": 1338,
      "Ġeven": 1339,
      "ried": 1340,
      "Ġwithin": 1341,
      "ĠCent": 1342,
      "ĠEar": 1343,
      "Ġbelie": 1344,
      "17": 1345,
      "une": 1346,
      "ĠJapan": 1347,
      "ilar": 1348,
      "ently": 1349,
      "Ġusing": 1350,
      "ged": 1351,
      "ize": 1352,
      "Ġtechn": 1353,
      "Ġmar": 1354,
      "epend": 1355,
      "gen": 1356,
      "Ġmodern": 1357,
      "Ġopp": 1358,
      "Ġprop": 1359,
      "ata": 1360,
      "ories": 1361,
      "Ġvers": 1362,
      "Ġdiv": 1363,
      "ately": 1364,
      "amed": 1365,
      "urther": 1366,
      "Ġpass": 1367,
      "Ġamong": 1368,
      "Ġnear": 1369,
      "ĠPar": 1370,
      "ze": 1371,
      "vers": 1372,
      "ĠCanad": 1373,
      "by": 1374,
      "Ġarea": 1375,
      "Ġmuch": 1376,
      "Ġdr": 1377,
      "ode": 1378,
      "ĠThese": 1379,
      "Ġlike": 1380,
      "Ġstand": 1381,
      "Ġ14": 1382,
      "aced": 1383,
      "ĠRuss": 1384,
      "ple": 1385,
      "ĠAb": 1386,
      "Ġindu": 1387,
      "Ġann": 1388,
      "200": 1389,
      "Ġcrit": 1390,
      "ness": 1391,
      "ĠRoman": 1392,
      "amb": 1393,
      "ĠBy": 1394,
      "Ġfollowing": 1395,
      "itional": 1396,
      "ĠEd": 1397,
      "Ġmembers": 1398,
      "Ġfact": 1399,
      "aving": 1400,
      "ĠEuropean": 1401,
      "Ġrece": 1402,
      "Ġpolitical": 1403,
      "yd": 1404,
      "reen": 1405,
      "tic": 1406,
      "ves": 1407,
      "ological": 1408,
      "dom": 1409,
      "Ġhistor": 1410,
      "raft": 1411,
      "Ġdue": 1412,
      "estern": 1413,
      "cer": 1414,
      "ality": 1415,
      "Ġav": 1416,
      "ential": 1417,
      "Ġprom": 1418,
      "Ġrest": 1419,
      "Ġvery": 1420,
      "ane": 1421,
      "read": 1422,
      "Ġbas": 1423,
      "ivil": 1424,
      "ms": 1425,
      "ense": 1426,
      "row": 1427,
      "ĠMay": 1428,
      "Ġstat": 1429,
      "Ġcharacter": 1430,
      "ĠSouth": 1431,
      "ung": 1432,
      "Ġtyp": 1433,
      "Ġplayer": 1434,
      "Ġresp": 1435,
      "Ġadv": 1436,
      "ats": 1437,
      "ĠYork": 1438,
      "Ġhistory": 1439,
      "ilos": 1440,
      "Ġfre": 1441,
      "Ġpopular": 1442,
      "ĠRep": 1443,
      "Ġnow": 1444,
      "ĠAll": 1445,
      "ĠHis": 1446,
      "ublic": 1447,
      "Ġchild": 1448,
      "af": 1449,
      "Ġgeneral": 1450,
      "Ġrad": 1451,
      "alth": 1452,
      "ody": 1453,
      "ĠAir": 1454,
      "Ġstill": 1455,
      "Ġled": 1456,
      "Ġland": 1457,
      "Ġgl": 1458,
      "rew": 1459,
      "Ġschool": 1460,
      "Ġwater": 1461,
      "Ġteam": 1462,
      "ument": 1463,
      "Ġinc": 1464,
      "Ġes": 1465,
      "ĠMon": 1466,
      "Ġlast": 1467,
      "10": 1468,
      "ĠNorth": 1469,
      "rand": 1470,
      "Ġreport": 1471,
      "Ġrepresent": 1472,
      "Ġreturn": 1473,
      "agn": 1474,
      "Ġread": 1475,
      "Ġpublished": 1476,
      "Ġfore": 1477,
      "Ġrecord": 1478,
      "ti": 1479,
      "Ġstart": 1480,
      "tal": 1481,
      "isc": 1482,
      "Ġparticular": 1483,
      "16": 1484,
      "Ġmilitary": 1485,
      "Ġrun": 1486,
      "Ġnational": 1487,
      "Ġfoot": 1488,
      "Ġ13": 1489,
      "ĠAcc": 1490,
      "Ġconsidered": 1491,
      "ior": 1492,
      "Ġline": 1493,
      "Ġalong": 1494,
      "ards": 1495,
      "Ġhuman": 1496,
      "Ġhead": 1497,
      "idd": 1498,
      "Ġwhat": 1499,
      "Ġopen": 1500,
      "15": 1501,
      "Ġ-": 1502,
      "Ġcomput": 1503,
      "hod": 1504,
      "ician": 1505,
      "Ġphys": 1506,
      "ĠAustral": 1507,
      "Ġ190": 1508,
      "Ġgreat": 1509,
      "ĠBar": 1510,
      "line": 1511,
      "ald": 1512,
      "Ġpresent": 1513,
      "Ġgo": 1514,
      "eter": 1515,
      "iction": 1516,
      "ĠWill": 1517,
      "ĠSome": 1518,
      "lic": 1519,
      "Ġfield": 1520,
      "Ġtem": 1521,
      "ĠMan": 1522,
      "ĠChar": 1523,
      "ott": 1524,
      "ones": 1525,
      "Ġsaid": 1526,
      "ĠComp": 1527,
      "ĠChristian": 1528,
      "ele": 1529,
      "ĠX": 1530,
      "rem": 1531,
      "day": 1532,
      "Ġsimilar": 1533,
      "ribut": 1534,
      "Ġter": 1535,
      "formation": 1536,
      "Ġshort": 1537,
      "ĠJan": 1538,
      "Ġbus": 1539,
      "Ġfamily": 1540,
      "Ġcour": 1541,
      "ling": 1542,
      "app": 1543,
      "Ġimportant": 1544,
      "Ġrelig": 1545,
      "eder": 1546,
      "Ġold": 1547,
      "Ġplace": 1548,
      "ugust": 1549,
      "attle": 1550,
      "ĠPres": 1551,
      "Ġpract": 1552,
      "Ġgen": 1553,
      "Ġide": 1554,
      "cing": 1555,
      "Ġdown": 1556,
      "Ġhig": 1557,
      "ĠAnd": 1558,
      "tt": 1559,
      "Ġless": 1560,
      "empt": 1561,
      "Ġpat": 1562,
      "ner": 1563,
      "Ġident": 1564,
      "Ġprot": 1565,
      "ĠPe": 1566,
      "ination": 1567,
      "ales": 1568,
      "akes": 1569,
      "aster": 1570,
      "lished": 1571,
      "Ġsol": 1572,
      "Ġcountries": 1573,
      "pire": 1574,
      "ĠJew": 1575,
      "ler": 1576,
      "iness": 1577,
      "ĠJu": 1578,
      "ondon": 1579,
      "Ġcomb": 1580,
      "wards": 1581,
      "stit": 1582,
      "ĠDuring": 1583,
      "urs": 1584,
      "Ġintrodu": 1585,
      "adem": 1586,
      "irc": 1587,
      "Ġclaim": 1588,
      "Ġanother": 1589,
      "cil": 1590,
      "Ġofficial": 1591,
      "ĠOther": 1592,
      "Ġstruct": 1593,
      "ĠHar": 1594,
      "ither": 1595,
      "rote": 1596,
      "Ġevery": 1597,
      "ban": 1598,
      "Ġdirect": 1599,
      "ek": 1600,
      "ĠNov": 1601,
      "ague": 1602,
      "Ġ<": 1603,
      "ilt": 1604,
      "Ġaff": 1605,
      "Ġdevelopment": 1606,
      "istic": 1607,
      "Ġel": 1608,
      ".,": 1609,
      "iron": 1610,
      "ĠAugust": 1611,
      "ĠInternational": 1612,
      "Ġlevel": 1613,
      "sc": 1614,
      "Ġvis": 1615,
      "Ġview": 1616,
      "ĠGeor": 1617,
      "lex": 1618,
      "ured": 1619,
      "Ġla": 1620,
      "Ġexist": 1621,
      "ether": 1622,
      "urg": 1623,
      "Ġgiven": 1624,
      "born": 1625,
      "Ġdeveloped": 1626,
      "Ġer": 1627,
      "Ġstates": 1628,
      "ths": 1629,
      "Ġbuild": 1630,
      "Ġsocial": 1631,
      "Ġmult": 1632,
      "Ġgame": 1633,
      "Ġrepl": 1634,
      "Ġarg": 1635,
      "Ġsomet": 1636,
      "Ġiss": 1637,
      "Ġadm": 1638,
      "ule": 1639,
      "199": 1640,
      "ĠCal": 1641,
      "uary": 1642,
      "ean": 1643,
      "Ġsour": 1644,
      "ĠDav": 1645,
      "ivid": 1646,
      "Ġhome": 1647,
      "ĠLondon": 1648,
      "ography": 1649,
      "ĠSw": 1650,
      "Ġlim": 1651,
      "Ġtele": 1652,
      "ertain": 1653,
      "ogn": 1654,
      "hest": 1655,
      "Ġpoint": 1656,
      "ĠAss": 1657,
      "Ġday": 1658,
      "less": 1659,
      "Ġwithout": 1660,
      "Ġtheory": 1661,
      "Ġvarious": 1662,
      "Ġcolle": 1663,
      "Ġlate": 1664,
      "Ġsingle": 1665,
      "Ġactiv": 1666,
      "ony": 1667,
      "12": 1668,
      "Ġbecome": 1669,
      "Ġleft": 1670,
      "etic": 1671,
      "ĠHistory": 1672,
      "Ġindust": 1673,
      "Ġformer": 1674,
      "Ġprim": 1675,
      "Ġbeg": 1676,
      "lear": 1677,
      "ĠHer": 1678,
      "rab": 1679,
      "ĠLat": 1680,
      "pecial": 1681,
      "ĠBo": 1682,
      "ĠAccording": 1683,
      "Ġport": 1684,
      "ĠChurch": 1685,
      "Ġorigin": 1686,
      "Ġfunction": 1687,
      "ĠBro": 1688,
      "ray": 1689,
      "ĠPart": 1690,
      "Ġtook": 1691,
      "ger": 1692,
      "Ġmake": 1693,
      "ril": 1694,
      "ead": 1695,
      "ably": 1696,
      "Ġdecl": 1697,
      "ances": 1698,
      "bos": 1699,
      "Ġrul": 1700,
      "Ġsk": 1701,
      "Ġbi": 1702,
      "anish": 1703,
      "Ġinvol": 1704,
      "aining": 1705,
      "ĠGreek": 1706,
      "Ġestablished": 1707,
      "Ġlocal": 1708,
      "Ġsym": 1709,
      "Ġneed": 1710,
      "14": 1711,
      "ĠEl": 1712,
      "Ġfew": 1713,
      "oks": 1714,
      "Ġjust": 1715,
      "Ġcr": 1716,
      "Ġbook": 1717,
      "Ġindepend": 1718,
      "Ġincluded": 1719,
      "Ġcell": 1720,
      "Ġeduc": 1721,
      "ĠMed": 1722,
      "eos": 1723,
      "ĠWhen": 1724,
      "Ġprof": 1725,
      "ipp": 1726,
      "Ġwrote": 1727,
      "alf": 1728,
      "ĠGod": 1729,
      "olic": 1730,
      "Ġarch": 1731,
      "Ġcaus": 1732,
      "Ġchang": 1733,
      "itive": 1734,
      "ering": 1735,
      "Ġvol": 1736,
      "Ġway": 1737,
      "inks": 1738,
      "Ġlight": 1739,
      "Ġhowever": 1740,
      "ges": 1741,
      "ches": 1742,
      "ividual": 1743,
      "ĠFrance": 1744,
      "Ġhand": 1745,
      "atural": 1746,
      "Ġheld": 1747,
      "Ã¡": 1748,
      "mber": 1749,
      "Ġlargest": 1750,
      "ploy": 1751,
      "ĠOne": 1752,
      "Ġcase": 1753,
      "ency": 1754,
      "Ġevent": 1755,
      "ĠUnion": 1756,
      "val": 1757,
      "Ġpain": 1758,
      "Ġhel": 1759,
      "Ġmean": 1760,
      "ĠGermany": 1761,
      "13": 1762,
      "Ġproper": 1763,
      "Ġcond": 1764,
      "ote": 1765,
      "ferences": 1766,
      "ouncil": 1767,
      "vision": 1768,
      "Ġtit": 1769,
      "Ġusually": 1770,
      "aul": 1771,
      "arian": 1772,
      "Ġ189": 1773,
      "ham": 1774,
      "Ġrelations": 1775,
      "astern": 1776,
      "ĠWilliam": 1777,
      "ored": 1778,
      "most": 1779,
      "ĠWest": 1780,
      "Ġfootball": 1781,
      "Ġproduction": 1782,
      "ruction": 1783,
      "Ġgrow": 1784,
      "Ġmater": 1785,
      "acy": 1786,
      "ĠAng": 1787,
      "side": 1788,
      "co": 1789,
      "Ġlow": 1790,
      "Ġcal": 1791,
      "ification": 1792,
      "Ġmillion": 1793,
      "yle": 1794,
      "Ġkill": 1795,
      "Ġreal": 1796,
      "Ġredu": 1797,
      "ĠEngland": 1798,
      "ificant": 1799,
      "Ġsystems": 1800,
      "ergy": 1801,
      "Ġassoci": 1802,
      "iation": 1803,
      "Ġgroups": 1804,
      "ĠOct": 1805,
      "Ġmethod": 1806,
      "ability": 1807,
      "Ġproble": 1808,
      "ites": 1809,
      "Ġalthough": 1810,
      "Ġinit": 1811,
      "emb": 1812,
      "Ġworks": 1813,
      "rict": 1814,
      "ĠBC": 1815,
      "serv": 1816,
      "Ġattempt": 1817,
      "Ġoriginal": 1818,
      "Ġep": 1819,
      "abor": 1820,
      "ĠJanuary": 1821,
      "omb": 1822,
      "Ġtop": 1823,
      "ested": 1824,
      "Ġnamed": 1825,
      "50": 1826,
      "oviet": 1827,
      "cember": 1828,
      "Ġanal": 1829,
      "ourn": 1830,
      "inning": 1831,
      "idence": 1832,
      "int": 1833,
      "Ġrole": 1834,
      "bum": 1835,
      "ype": 1836,
      "Ġ$": 1837,
      "rated": 1838,
      "ids": 1839,
      "ining": 1840,
      "Ġder": 1841,
      "sequ": 1842,
      "for": 1843,
      "ends": 1844,
      "ison": 1845,
      "Ġdev": 1846,
      "Ġindividual": 1847,
      "Ġsong": 1848,
      "Ġengine": 1849,
      "ĠBr": 1850,
      "Ġwritten": 1851,
      "Ġdoes": 1852,
      "ĠSoc": 1853,
      "Ġphilos": 1854,
      "Ġrese": 1855,
      "ention": 1856,
      "arn": 1857,
      "Ġ&": 1858,
      "Ġreleased": 1859,
      "Ġsignificant": 1860,
      "Ġproduct": 1861,
      "sy": 1862,
      "Ġfive": 1863,
      "Ġregion": 1864,
      "hern": 1865,
      "de": 1866,
      "Ġmy": 1867,
      "augh": 1868,
      "ĠCity": 1869,
      "century": 1870,
      "ĠFl": 1871,
      "ĠSu": 1872,
      "ĠSept": 1873,
      "Ġbeh": 1874,
      "ĠMarch": 1875,
      "craft": 1876,
      "cul": 1877,
      "Ġcamp": 1878,
      "Ġshould": 1879,
      "eneral": 1880,
      "Ġpost": 1881,
      "Ġmust": 1882,
      "ĠJune": 1883,
      "avy": 1884,
      "Ġtimes": 1885,
      "Ġmaterial": 1886,
      "Ġsugg": 1887,
      "ware": 1888,
      "ĠDecember": 1889,
      "Ġareas": 1890,
      "inister": 1891,
      "Ġspace": 1892,
      "Ġobject": 1893,
      "ots": 1894,
      "work": 1895,
      "ops": 1896,
      "writ": 1897,
      "Ġtotal": 1898,
      "Ġlanguages": 1899,
      "Ġproduced": 1900,
      "here": 1901,
      "ander": 1902,
      "Ġsepar": 1903,
      "ĠJuly": 1904,
      "ĠEast": 1905,
      "ĠSoviet": 1906,
      "ĠBer": 1907,
      "ĠOctober": 1908,
      "Ġlinks": 1909,
      "Ġsix": 1910,
      "ille": 1911,
      "lin": 1912,
      "osp": 1913,
      "Ġcompos": 1914,
      "Ġpolitician": 1915,
      "Ġstudy": 1916,
      "ests": 1917,
      "of": 1918,
      "incip": 1919,
      "Ġhelp": 1920,
      "bert": 1921,
      "Ġnov": 1922,
      "Ġmanag": 1923,
      "Ġmass": 1924,
      "Ġturn": 1925,
      "Ġdel": 1926,
      "ĠReferences": 1927,
      "oon": 1928,
      "ĠMal": 1929,
      "ĠAmerica": 1930,
      "Ġconc": 1931,
      "ways": 1932,
      "Ġsold": 1933,
      "ĠSeptember": 1934,
      "vious": 1935,
      "sh": 1936,
      "ery": 1937,
      "ĠHol": 1938,
      "orthern": 1939,
      "Ġliter": 1940,
      "ĠSee": 1941,
      "Ġdata": 1942,
      "rag": 1943,
      "ĠPresident": 1944,
      "self": 1945,
      "Ġmen": 1946,
      "Ġanim": 1947,
      "rial": 1948,
      "Ġcirc": 1949,
      "Ġcame": 1950,
      "Ġothers": 1951,
      "Ġhaving": 1952,
      "yr": 1953,
      "rap": 1954,
      "Ġbody": 1955,
      "Ġwomen": 1956,
      "Ġtreat": 1957,
      "hers": 1958,
      "iol": 1959,
      "Ġcurrent": 1960,
      "ĠCo": 1961,
      "Ġspecial": 1962,
      "Ġbre": 1963,
      "aces": 1964,
      "ected": 1965,
      "Ġappear": 1966,
      "put": 1967,
      "Ġdescribed": 1968,
      "aken": 1969,
      "reg": 1970,
      "eth": 1971,
      "imate": 1972,
      "Ġalbum": 1973,
      "alk": 1974,
      "Ġforces": 1975,
      "Ġstrong": 1976,
      "Ġz": 1977,
      "ope": 1978,
      "21": 1979,
      "ĠApril": 1980,
      "Ġspecies": 1981,
      "ief": 1982,
      "rican": 1983,
      "Ġcreated": 1984,
      "ĠIndian": 1985,
      "Ġcare": 1986,
      "ĠIndia": 1987,
      "198": 1988,
      "ĠNovember": 1989,
      "Ġmeas": 1990,
      "lam": 1991,
      "ĠWith": 1992,
      "ude": 1993,
      "ators": 1994,
      "ĠEmpire": 1995,
      "ĠShe": 1996,
      "Ġanc": 1997,
      "Ġge": 1998,
      "Ġeither": 1999,
      "Ġinternational": 2000,
      "ret": 2001,
      "ĠLi": 2002,
      "thern": 2003,
      "Ġdest": 2004,
      "Ġ188": 2005,
      "ana": 2006,
      "umb": 2007,
      "Ġfurther": 2008,
      "ĠNe": 2009,
      "ĠCor": 2010,
      "ows": 2011,
      "Ġthird": 2012,
      "used": 2013,
      "atures": 2014,
      "Ġnet": 2015,
      "ĠAlex": 2016,
      "iddle": 2017,
      "Ġsent": 2018,
      "bit": 2019,
      "asing": 2020,
      "ression": 2021,
      "Ġ0": 2022,
      "ched": 2023,
      "Ġcivil": 2024,
      "Ġlist": 2025,
      "ĠDes": 2026,
      "ĠIm": 2027,
      "ĠAlthough": 2028,
      "Ġ2010": 2029,
      "Ġbase": 2030,
      "Ġking": 2031,
      "ending": 2032,
      "acks": 2033,
      "rael": 2034,
      "nd": 2035,
      "pecially": 2036,
      "outhern": 2037,
      "sp": 2038,
      "let": 2039,
      "ape": 2040,
      "Ġsw": 2041,
      "Ġplayed": 2042,
      "ĠCath": 2043,
      "Ġbusiness": 2044,
      "Ġversion": 2045,
      "ĠItalian": 2046,
      "Ġtake": 2047,
      "ino": 2048,
      "Ġeconomic": 2049,
      "Ġword": 2050,
      "11": 2051,
      "Ġnorth": 2052,
      "Ġseason": 2053,
      "Ġservice": 2054,
      "Ġage": 2055,
      "inese": 2056,
      "uel": 2057,
      "Ġmot": 2058,
      "ĠPort": 2059,
      "Ġbuilt": 2060,
      "Ġwon": 2061,
      "Ġobserv": 2062,
      "ĠPress": 2063,
      "ĠChina": 2064,
      "rain": 2065,
      "Ġsometimes": 2066,
      "Ã¶": 2067,
      "ify": 2068,
      "oms": 2069,
      "ĠLa": 2070,
      "Ġchildren": 2071,
      "Ġfree": 2072,
      "wh": 2073,
      "Ġproject": 2074,
      "Ġchem": 2075,
      "Ġcompany": 2076,
      "Ġreceived": 2077,
      "ĠRes": 2078,
      "Ġrecogn": 2079,
      "ster": 2080,
      "ĠKingdom": 2081,
      "ressed": 2082,
      "Ġrather": 2083,
      "Ġgenerally": 2084,
      "Ġterrit": 2085,
      "ĠExternal": 2086,
      "Ġpolic": 2087,
      "ique": 2088,
      "bo": 2089,
      "Ġson": 2090,
      "Ġ186": 2091,
      "Ġcontinued": 2092,
      "ky": 2093,
      "ridge": 2094,
      "ĠAg": 2095,
      "ental": 2096,
      "Ġ11": 2097,
      "oung": 2098,
      "Ġke": 2099,
      "Ġposition": 2100,
      "Ġcompet": 2101,
      "Ġ[": 2102,
      "atter": 2103,
      "overed": 2104,
      "Ġhow": 2105,
      "Ġsum": 2106,
      "ĠJames": 2107,
      "Ġ1990": 2108,
      "Ġwid": 2109,
      "enced": 2110,
      "197": 2111,
      "Ġsubject": 2112,
      "ĠMc": 2113,
      "ĠState": 2114,
      "ebru": 2115,
      "aries": 2116,
      "ĠWhile": 2117,
      "Ġforce": 2118,
      "ara": 2119,
      "ĠRepublic": 2120,
      "cret": 2121,
      "Ġband": 2122,
      "Ġpresident": 2123,
      "Ġcomplex": 2124,
      "ford": 2125,
      "ibr": 2126,
      "ĠRober": 2127,
      "ebruary": 2128,
      "Ġmember": 2129,
      "ĠDavid": 2130,
      "Ġpossible": 2131,
      "Ġsuff": 2132,
      "ĠJapanese": 2133,
      "Ġgood": 2134,
      "face": 2135,
      "Ġhalf": 2136,
      "Ġaddition": 2137,
      "Ġconcept": 2138,
      "Ġtransl": 2139,
      "Ġinformation": 2140,
      "Ġstandard": 2141,
      "viron": 2142,
      "Ġfilms": 2143,
      "Ġfrequ": 2144,
      "off": 2145,
      "ĠArab": 2146,
      "rica": 2147,
      "not": 2148,
      "ĠDay": 2149,
      "ney": 2150,
      "ĠAct": 2151,
      "ĠChinese": 2152,
      "ĠGeneral": 2153,
      "Ġoccur": 2154,
      "ournal": 2155,
      "Ġsouth": 2156,
      "ume": 2157,
      "itted": 2158,
      "ĠAfrican": 2159,
      "ĠBel": 2160,
      "Ġ2008": 2161,
      "Ġ1980": 2162,
      "Ġenergy": 2163,
      "uk": 2164,
      "Ġnatural": 2165,
      "Ġpa": 2166,
      "ĠHouse": 2167,
      "Ġ187": 2168,
      "ĠSer": 2169,
      "ĠMor": 2170,
      "Ġ2012": 2171,
      "bon": 2172,
      "ĠTe": 2173,
      "ps": 2174,
      "ĠSpanish": 2175,
      "Ġgames": 2176,
      "oyal": 2177,
      "ements": 2178,
      "uf": 2179,
      "Ġtown": 2180,
      "Ġenc": 2181,
      "cur": 2182,
      "Ġdeb": 2183,
      "Ġnever": 2184,
      "Ġavail": 2185,
      "Ġ2000": 2186,
      "Ġpred": 2187,
      "Ġ2011": 2188,
      "Ġ2007": 2189,
      "ĠCount": 2190,
      "Ġisland": 2191,
      "ula": 2192,
      "Ġdi": 2193,
      "ĠGreat": 2194,
      "Ġnumbers": 2195,
      "Ġconstit": 2196,
      "Ġpress": 2197,
      "Ġgr": 2198,
      "Ġpriv": 2199,
      "ĠHen": 2200,
      "Ġaccount": 2201,
      "ĠAc": 2202,
      "Ġ2013": 2203,
      "ĠFebruary": 2204,
      "Ġinteg": 2205,
      "Ġespecially": 2206,
      "ingu": 2207,
      "ming": 2208,
      "Ġattack": 2209,
      "Ġaccept": 2210,
      "Ġcapital": 2211,
      "Ġ(\"": 2212,
      "ĠLatin": 2213,
      "Ġprevious": 2214,
      "Ġdiff": 2215,
      "ounced": 2216,
      "lo": 2217,
      "ĠRev": 2218,
      "aut": 2219,
      "ĠList": 2220,
      "Ġimpro": 2221,
      "Ġmer": 2222,
      "Ġ30": 2223,
      "ocr": 2224,
      "Ġscient": 2225,
      "Ġterms": 2226,
      "Ġleast": 2227,
      "Ġship": 2228,
      "Ġprincip": 2229,
      "Ġdied": 2230,
      "ĠMany": 2231,
      "Ġfail": 2232,
      "Ġren": 2233,
      "ĠWestern": 2234,
      "ush": 2235,
      "chan": 2236,
      "Ġcy": 2237,
      "raw": 2238,
      "Ġelectron": 2239,
      "ĠAfrica": 2240,
      "ma": 2241,
      "ĠIsrael": 2242,
      "ached": 2243,
      "Ġhimself": 2244,
      "Ġhost": 2245,
      "liament": 2246,
      "ĠLou": 2247,
      "ria": 2248,
      "Ġmarket": 2249,
      "Ġcertain": 2250,
      "Ġagre": 2251,
      "Ġfinal": 2252,
      "ĠIr": 2253,
      "Ġchange": 2254,
      "ports": 2255,
      "ĠWe": 2256,
      "ights": 2257,
      "eum": 2258,
      "Ġparty": 2259,
      "Ġresearch": 2260,
      "Ġbir": 2261,
      "ĠColle": 2262,
      "ĠPal": 2263,
      "Ġ2009": 2264,
      "aff": 2265,
      "ĠGovern": 2266,
      "bs": 2267,
      "Ġregard": 2268,
      "sych": 2269,
      "ĠÃ": 2270,
      "ĠIf": 2271,
      "ront": 2272,
      "ydro": 2273,
      "imately": 2274,
      "Ġhold": 2275,
      "ensive": 2276,
      "Ġ2014": 2277,
      "Ġtype": 2278,
      "ĠPer": 2279,
      "arily": 2280,
      "lement": 2281,
      "ising": 2282,
      "ples": 2283,
      "Ġver": 2284,
      "ĠRussian": 2285,
      "ĠGeorge": 2286,
      "ĠGl": 2287,
      "ĠCharles": 2288,
      "Ġtw": 2289,
      "ateg": 2290,
      "ĠPaul": 2291,
      "Ġ1970": 2292,
      "Ġ2006": 2293,
      "BC": 2294,
      "kn": 2295,
      "ĠDem": 2296,
      "hib": 2297,
      "Ġmodel": 2298,
      "Ġseen": 2299,
      "Ġabove": 2300,
      "Ġbest": 2301,
      "Ġfund": 2302,
      "Ġmaking": 2303,
      "ĠCanadian": 2304,
      "Ã¼": 2305,
      "Ġfem": 2306,
      "Ġpot": 2307,
      "peror": 2308,
      "Ġschol": 2309,
      "Ġmeans": 2310,
      "Ġpur": 2311,
      "ĠNot": 2312,
      "be": 2313,
      "Ġparts": 2314,
      "Ġfather": 2315,
      "Ġ25": 2316,
      "Ġcoll": 2317,
      "Ġculture": 2318,
      "Ġnext": 2319,
      "Ġinvest": 2320,
      "ially": 2321,
      "ĠTr": 2322,
      "ĠThom": 2323,
      "ĠPhil": 2324,
      "Ġformed": 2325,
      "Ġside": 2326,
      "hel": 2327,
      "ama": 2328,
      "Ġbroad": 2329,
      "II": 2330,
      "ĠEarth": 2331,
      "Ġintroduced": 2332,
      "ĠBra": 2333,
      "Ġtrade": 2334,
      "Ġfull": 2335,
      "ĠCouncil": 2336,
      "Ġeth": 2337,
      "Ġtemper": 2338,
      ".)": 2339,
      "iles": 2340,
      "Ġstory": 2341,
      "ĠParty": 2342,
      "Ġdeterm": 2343,
      "Ġden": 2344,
      "ĠArmy": 2345,
      "Ġforms": 2346,
      "pite": 2347,
      "Ġdays": 2348,
      "Ġsyn": 2349,
      "Ġsound": 2350,
      "Ġhigher": 2351,
      "Ġknow": 2352,
      "Ġdoc": 2353,
      "lim": 2354,
      "Ġill": 2355,
      "Ġmathem": 2356,
      "Ġindic": 2357,
      "stand": 2358,
      "Ġrate": 2359,
      "vironment": 2360,
      "rest": 2361,
      "ning": 2362,
      "Ġavailable": 2363,
      "iter": 2364,
      "Ġ2005": 2365,
      "ours": 2366,
      "Ġ2015": 2367,
      "Ġneg": 2368,
      "ĠTo": 2369,
      "Ġadminist": 2370,
      "Ġfollowed": 2371,
      "Ġmultip": 2372,
      "Ġelements": 2373,
      "action": 2374,
      "Ġtelevision": 2375,
      "Ġjoin": 2376,
      "ols": 2377,
      "Ġfac": 2378,
      "order": 2379,
      "Ġrange": 2380,
      "Ġinfluence": 2381,
      "Ġthus": 2382,
      "chie": 2383,
      "cript": 2384,
      "ption": 2385,
      "Ġstyle": 2386,
      "Ġsuper": 2387,
      "ĠRiver": 2388,
      "Ġscience": 2389,
      "ĠQu": 2390,
      "Ġimm": 2391,
      "aves": 2392,
      "na": 2393,
      "play": 2394,
      "cle": 2395,
      "Ġcentral": 2396,
      "ceed": 2397,
      "Ġreligious": 2398,
      "ĠFre": 2399,
      "Ġperm": 2400,
      "Ġlo": 2401,
      "ĠCatholic": 2402,
      "ophy": 2403,
      "Ġcomputer": 2404,
      "Ġemploy": 2405,
      "ĠFrom": 2406,
      "Ġthroughout": 2407,
      "mar": 2408,
      "Ġcapt": 2409,
      "Ġmid": 2410,
      "Ġaccording": 2411,
      "Ġoffer": 2412,
      "Ġmovement": 2413,
      "Ġprofess": 2414,
      "Ġlower": 2415,
      "Ġlog": 2416,
      "Ġvalue": 2417,
      "Ġfood": 2418,
      "ĠSy": 2419,
      "istan": 2420,
      "ef": 2421,
      "icle": 2422,
      "alt": 2423,
      "uments": 2424,
      "ĠMost": 2425,
      "writer": 2426,
      "iest": 2427,
      "ĠCanada": 2428,
      "ĠTur": 2429,
      "ĠRobert": 2430,
      "Ġhouse": 2431,
      "Ġitself": 2432,
      "uation": 2433,
      "ĠSince": 2434,
      "Ġfind": 2435,
      "aps": 2436,
      "anc": 2437,
      "Ġtraditional": 2438,
      "ades": 2439,
      "eh": 2440,
      "Ġrespect": 2441,
      "Ġprote": 2442,
      "Ġplan": 2443,
      "Ġforeign": 2444,
      "unic": 2445,
      "like": 2446,
      "Ġtext": 2447,
      "stant": 2448,
      "aur": 2449,
      "ĠMich": 2450,
      "Ġfri": 2451,
      "ĠReg": 2452,
      "Ġsinger": 2453,
      "Ġfeature": 2454,
      "ĠCentral": 2455,
      "ĠRich": 2456,
      "Ġactor": 2457,
      "196": 2458,
      "ving": 2459,
      "ecut": 2460,
      "Ġabs": 2461,
      "Ġacross": 2462,
      "Ġtog": 2463,
      "Ġnovel": 2464,
      "Ġcritic": 2465,
      "Ġstructure": 2466,
      "Ġcost": 2467,
      "Ġadop": 2468,
      "ĠLeague": 2469,
      "ĠJewish": 2470,
      "ari": 2471,
      "ington": 2472,
      "Ġtro": 2473,
      "Ġpoin": 2474,
      "Ġtogether": 2475,
      "atives": 2476,
      "gypt": 2477,
      "NA": 2478,
      "Ġwords": 2479,
      "Ġconsist": 2480,
      "Ġevidence": 2481,
      "Ġfig": 2482,
      "Ġentire": 2483,
      "ĠMod": 2484,
      "ĠCont": 2485,
      "30": 2486,
      "ett": 2487,
      "ĠSm": 2488,
      "osition": 2489,
      "Ġcolon": 2490,
      "Ġdeg": 2491,
      "Ġaver": 2492,
      "Ġ1960": 2493,
      "men": 2494,
      "Ġalmost": 2495,
      "Ġkey": 2496,
      "udd": 2497,
      "anted": 2498,
      "ĠSchool": 2499,
      "atory": 2500,
      "Ġdefe": 2501,
      "ream": 2502,
      "erous": 2503,
      "Ġsee": 2504,
      "ĠNo": 2505,
      "Ġcop": 2506,
      "Ġ2016": 2507,
      "Ġ21": 2508,
      "Ġborn": 2509,
      "Ġrule": 2510,
      "bor": 2511,
      "Ġbecom": 2512,
      "Ġstar": 2513,
      "key": 2514,
      "ico": 2515,
      "ĠMet": 2516,
      "Ġtest": 2517,
      "\")": 2518,
      "ĠKh": 2519,
      "ĠTrans": 2520,
      "aint": 2521,
      "Ġeducation": 2522,
      "Ã³": 2523,
      "rick": 2524,
      "iers": 2525,
      "itect": 2526,
      "Ġacadem": 2527,
      "Ġlaun": 2528,
      "Ġinstead": 2529,
      "Ġaircraft": 2530,
      "mon": 2531,
      "Ġupon": 2532,
      "Ġunivers": 2533,
      "Ġapplic": 2534,
      "Ġcoast": 2535,
      "ÃŃ": 2536,
      "itor": 2537,
      "ĠEgypt": 2538,
      "Ġanti": 2539,
      "ened": 2540,
      "Ġmaint": 2541,
      "rast": 2542,
      "ought": 2543,
      "Ġfoc": 2544,
      "Ġwhose": 2545,
      "Ġaccess": 2546,
      "Ġhard": 2547,
      "Ġviol": 2548,
      "Ġthought": 2549,
      "Ġblack": 2550,
      "Ġlik": 2551,
      "ĠMac": 2552,
      "Ġrights": 2553,
      "Ġfall": 2554,
      "utch": 2555,
      "itz": 2556,
      "ĠCong": 2557,
      "ideo": 2558,
      "ror": 2559,
      "oted": 2560,
      "Ġsuccessful": 2561,
      "Ġmeaning": 2562,
      "ka": 2563,
      "oid": 2564,
      "ĠCour": 2565,
      "Ġred": 2566,
      "ĠAustralian": 2567,
      "Ġincreased": 2568,
      "iff": 2569,
      "ĠArt": 2570,
      "sel": 2571,
      "Ġpers": 2572,
      "rel": 2573,
      "Ġtradition": 2574,
      "ael": 2575,
      "Ġlet": 2576,
      "40": 2577,
      "Ġant": 2578,
      "ein": 2579,
      "ysis": 2580,
      "Ġlocated": 2581,
      "Ġnuc": 2582,
      "Ġfar": 2583,
      "mercial": 2584,
      "Ġfav": 2585,
      "ĠHenry": 2586,
      "ĠFirst": 2587,
      "ux": 2588,
      "Ġ100": 2589,
      "ĠMex": 2590,
      "icult": 2591,
      "Ġsoft": 2592,
      "Ġuses": 2593,
      "Ġ2004": 2594,
      "Ġdou": 2595,
      "ems": 2596,
      "Ġassociated": 2597,
      "Ġdistin": 2598,
      "ĠLouis": 2599,
      "Ġnorm": 2600,
      "Ġtaken": 2601,
      "Ġexcept": 2602,
      "ĠPeople": 2603,
      "Ġremained": 2604,
      "Ġsit": 2605,
      "Ġestim": 2606,
      "oe": 2607,
      "clus": 2608,
      "Ġfounded": 2609,
      "atively": 2610,
      "Ġreferred": 2611,
      "ĠIslam": 2612,
      "Ġsex": 2613,
      "Ġsymb": 2614,
      "ĠMart": 2615,
      "Ġreported": 2616,
      "Ġestablish": 2617,
      "aign": 2618,
      "Ġcondu": 2619,
      "Ġconn": 2620,
      "ounter": 2621,
      "Ġlost": 2622,
      "Ġfire": 2623,
      "right": 2624,
      "ufact": 2625,
      "Ġ2020": 2626,
      "ĠMinister": 2627,
      "ĠFrank": 2628,
      "omm": 2629,
      "Ġdefin": 2630,
      "Ġcompan": 2631,
      "ederal": 2632,
      "Ġincludes": 2633,
      "Ġpoet": 2634,
      "Ġservices": 2635,
      "Ġdomin": 2636,
      "Ġrespons": 2637,
      "iting": 2638,
      "Ġcases": 2639,
      "ĠArch": 2640,
      "Ġmechan": 2641,
      "utes": 2642,
      "Ġindustry": 2643,
      "Ġet": 2644,
      "ength": 2645,
      "ee": 2646,
      "amples": 2647,
      "ĠHigh": 2648,
      "Ġdirector": 2649,
      "roy": 2650,
      "Ġarmy": 2651,
      "Ġrelated": 2652,
      "ĠBritain": 2653,
      "ĠPark": 2654,
      "Ġmeet": 2655,
      "Ġallowed": 2656,
      "curity": 2657,
      "Ġprob": 2658,
      "ha": 2659,
      "Ġground": 2660,
      "rim": 2661,
      "25": 2662,
      "Ġparticularly": 2663,
      "inter": 2664,
      "Ġ2018": 2665,
      "Ġpercent": 2666,
      "rian": 2667,
      "Ġrelationship": 2668,
      "Ġhydro": 2669,
      "ference": 2670,
      "uth": 2671,
      "Ġconcern": 2672,
      "Ġapprox": 2673,
      "oney": 2674,
      "Ġ2017": 2675,
      "ixed": 2676,
      "ston": 2677,
      "Ġtitle": 2678,
      "Ġachie": 2679,
      "rought": 2680,
      "itar": 2681,
      "inary": 2682,
      "Ġ2001": 2683,
      "icro": 2684,
      "ĠMe": 2685,
      "Ġsource": 2686,
      "Ġox": 2687,
      "Ġmale": 2688,
      "Ġrequired": 2689,
      "istics": 2690,
      "Ġcommunity": 2691,
      "Ġbar": 2692,
      "ago": 2693,
      "lier": 2694,
      "isl": 2695,
      "ĠApp": 2696,
      "icient": 2697,
      "Ġhom": 2698,
      "Ġleading": 2699,
      "year": 2700,
      "elling": 2701,
      "Ġsurv": 2702,
      "ledge": 2703,
      "Ġleaders": 2704,
      "Ġrock": 2705,
      "Ġprovided": 2706,
      "Ġtru": 2707,
      "ĠInt": 2708,
      "ques": 2709,
      "Ġ2019": 2710,
      "Ġamount": 2711,
      "vention": 2712,
      "Ġsat": 2713,
      "Ġancient": 2714,
      "Ġâ": 2715,
      "atal": 2716,
      "Ġwent": 2717,
      "Ġprovide": 2718,
      "medi": 2719,
      "Ġinstit": 2720,
      "Ġess": 2721,
      "Ġable": 2722,
      "Ġincreasing": 2723,
      "ibility": 2724,
      "Ġcourt": 2725,
      "ributed": 2726,
      "ĠSim": 2727,
      "ads": 2728,
      "berg": 2729,
      "Ġclos": 2730,
      "ĠBlack": 2731,
      "Ġmoved": 2732,
      "Ġcities": 2733,
      "Ġ24": 2734,
      "Ġsize": 2735,
      "Ġconsider": 2736,
      "ires": 2737,
      "cast": 2738,
      "Ġmach": 2739,
      "Ġelection": 2740,
      "ĠFurther": 2741,
      "Ġmonths": 2742,
      "Ġcross": 2743,
      "ĠItaly": 2744,
      "Ġinterp": 2745,
      "Ġinstr": 2746,
      "uries": 2747,
      "ores": 2748,
      "Ġput": 2749,
      "Ġstri": 2750,
      "Ġevents": 2751,
      "ĠRoyal": 2752,
      "Ġbelieved": 2753,
      "ini": 2754,
      "ta": 2755,
      "Ġparticip": 2756,
      "Ġgave": 2757,
      "Ġquest": 2758,
      "Ġaverage": 2759,
      "ulated": 2760,
      "Ġdifficult": 2761,
      "ĠRed": 2762,
      "Ġonce": 2763,
      "Ġmagn": 2764,
      "ishing": 2765,
      "utions": 2766,
      "oses": 2767,
      "Ġgra": 2768,
      ");": 2769,
      "Ġexperim": 2770,
      "iforn": 2771,
      "go": 2772,
      "ki": 2773,
      "ĠAustralia": 2774,
      "anded": 2775,
      "Ġspecific": 2776,
      "ĠIsland": 2777,
      "Ġmag": 2778,
      "Ġdom": 2779,
      "Ġbooks": 2780,
      "itude": 2781,
      "Ġjud": 2782,
      "rior": 2783,
      "Ġappeared": 2784,
      "Ġvict": 2785,
      "Ġannounced": 2786,
      "ĠScott": 2787,
      "Ġstarted": 2788,
      "'t": 2789,
      "Ġchurch": 2790,
      "Ġarr": 2791,
      "Ġrail": 2792,
      "Ġgre": 2793,
      "Ġtax": 2794,
      "iding": 2795,
      "Ġbuilding": 2796,
      "asc": 2797,
      "Ġcreat": 2798,
      "Ġcommercial": 2799,
      "Ġpast": 2800,
      "pper": 2801,
      "Ġradio": 2802,
      "ension": 2803,
      "Ġ2003": 2804,
      "owers": 2805,
      "based": 2806,
      "Ġmight": 2807,
      "uture": 2808,
      "Ġmanufact": 2809,
      "Ġserved": 2810,
      "itte": 2811,
      "ilities": 2812,
      "Ġnetwork": 2813,
      "ania": 2814,
      "Ġinterest": 2815,
      "Ġemer": 2816,
      "Ġclose": 2817,
      "Ġwriting": 2818,
      "Ġfeatures": 2819,
      "ift": 2820,
      "Ġincrease": 2821,
      "ibrary": 2822,
      "Ġten": 2823,
      "Ġdefined": 2824,
      "Ġself": 2825,
      "Ġast": 2826,
      "ero": 2827,
      "ĠUK": 2828,
      "lor": 2829,
      "ĠDutch": 2830,
      "Ġhealth": 2831,
      "antic": 2832,
      "Ġacademic": 2833,
      "Ġeconomy": 2834,
      "burg": 2835,
      "...": 2836,
      "ĠInstit": 2837,
      "Ġlab": 2838,
      "artment": 2839,
      "ĠThomas": 2840,
      "Ġlive": 2841,
      "Ġnature": 2842,
      "oul": 2843,
      "Ġclub": 2844,
      "Ġlearn": 2845,
      "Ġpolicy": 2846,
      "Ġmount": 2847,
      "ĠGro": 2848,
      "ĠFin": 2849,
      "ĠInter": 2850,
      "itch": 2851,
      "ranch": 2852,
      "Ġdesigned": 2853,
      "Ġpsych": 2854,
      "ĠFilm": 2855,
      "Ġyoung": 2856,
      "Ġeventually": 2857,
      "ĠSan": 2858,
      "Ġgrowth": 2859,
      "):": 2860,
      "Ġoutside": 2861,
      "gar": 2862,
      "ump": 2863,
      "ĠHam": 2864,
      "Ġste": 2865,
      "ya": 2866,
      "ulf": 2867,
      "lict": 2868,
      "uke": 2869,
      "asion": 2870,
      "ties": 2871,
      "Ġjournal": 2872,
      "Amer": 2873,
      "Ġeffort": 2874,
      "Ġmajority": 2875,
      "ĠCro": 2876,
      "ĠCaliforn": 2877,
      "icles": 2878,
      "Ġmother": 2879,
      "ĠAward": 2880,
      "Ġreb": 2881,
      "Ġplayers": 2882,
      "ev": 2883,
      "ĠCollege": 2884,
      "Ġsaw": 2885,
      "Ġlegal": 2886,
      "rate": 2887,
      "Ġlittle": 2888,
      "Ġgrad": 2889,
      "Ġmiss": 2890,
      "ĠTreat": 2891,
      "Ġenvironment": 2892,
      "Ġworking": 2893,
      "Ġpractice": 2894,
      "che": 2895,
      "ĠCourt": 2896,
      "ĠRo": 2897,
      "Ġcampaign": 2898,
      "ĠIrish": 2899,
      "ĠBattle": 2900,
      "resp": 2901,
      "ĠBas": 2902,
      "Ġtypes": 2903,
      "lied": 2904,
      "oice": 2905,
      "Ġur": 2906,
      "ternet": 2907,
      "Ġsay": 2908,
      "Ġarchitect": 2909,
      "ĠDep": 2910,
      "ij": 2911,
      "Ġdig": 2912,
      "ĠEr": 2913,
      "Ġstated": 2914,
      "ĠHistor": 2915,
      "Ġmor": 2916,
      "Ġoccup": 2917,
      "Ġ50": 2918,
      "Ġtypically": 2919,
      "Ġindependent": 2920,
      "aval": 2921,
      "ĠJud": 2922,
      "aching": 2923,
      "Ġnecess": 2924,
      "Ġquant": 2925,
      "Ġdyn": 2926,
      "eff": 2927,
      "ĠCalifornia": 2928,
      "Ġsequ": 2929,
      "Ġ||": 2930,
      "Ġproblem": 2931,
      "Ġeffects": 2932,
      "obal": 2933,
      "Ġ=": 2934,
      "ĠCons": 2935,
      "Ġprivate": 2936,
      "Ġaud": 2937,
      "Ġtour": 2938,
      "Ġproducer": 2939,
      "Ġfight": 2940,
      "Ġliving": 2941,
      "Ġyou": 2942,
      "cies": 2943,
      "Ġtransport": 2944,
      "itiz": 2945,
      "Ġbrought": 2946,
      "Ġaction": 2947,
      "uck": 2948,
      "Ġbeginning": 2949,
      "ĠNor": 2950,
      "Ġ1999": 2951,
      "umn": 2952,
      "Åį": 2953,
      "Ġsurface": 2954,
      "pir": 2955,
      "ĠLaw": 2956,
      "ĠRichard": 2957,
      "ĠAsia": 2958,
      "ĠMy": 2959,
      "Ġsite": 2960,
      "Ġaltern": 2961,
      "Ġtri": 2962,
      "ancial": 2963,
      "Ġreturned": 2964,
      "Ġloss": 2965,
      "Ġcaused": 2966,
      "ĠSociety": 2967,
      "Ġnames": 2968,
      "American": 2969,
      "field": 2970,
      "ricult": 2971,
      "ĠJose": 2972,
      "och": 2973,
      "Ġsem": 2974,
      "Ġcompanies": 2975,
      "Ġlarger": 2976,
      "onic": 2977,
      "ios": 2978,
      "Ġcover": 2979,
      "rug": 2980,
      "ĠPat": 2981,
      "alled": 2982,
      "Ġarm": 2983,
      "ellig": 2984,
      "Ġchanges": 2985,
      "Ġscreen": 2986,
      "ont": 2987,
      "ĠBur": 2988,
      "pro": 2989,
      "Ġfootballer": 2990,
      "ĠKn": 2991,
      "Ġsubsequ": 2992,
      "Ġcommonly": 2993,
      "Ġ2002": 2994,
      "reet": 2995,
      "Ġemb": 2996,
      "spe": 2997,
      "ĠâĢ": 2998,
      "Ġrecorded": 2999,
      "hing": 3000,
      "Ġcontinu": 3001,
      "ills": 3002,
      "Ġhon": 3003,
      "Ġwhite": 3004,
      "Ġfa": 3005,
      "Ġthemsel": 3006,
      "Ġwidely": 3007,
      "Ġthemselves": 3008,
      "ribution": 3009,
      "wood": 3010,
      "Ġalways": 3011,
      "Ġdam": 3012,
      "ĠSea": 3013,
      "Ġkilled": 3014,
      "Ġdise": 3015,
      "million": 3016,
      "porary": 3017,
      "ĠOff": 3018,
      "Ġlines": 3019,
      "Ġreading": 3020,
      "Ġsources": 3021,
      "itt": 3022,
      "Ġcause": 3023,
      "aker": 3024,
      "known": 3025,
      "Ġnorthern": 3026,
      "ĠFranc": 3027,
      "Ġelement": 3028,
      "irit": 3029,
      "Ġearlier": 3030,
      "Ġexecut": 3031,
      "reme": 3032,
      "Ġphot": 3033,
      "ĠSpain": 3034,
      "airs": 3035,
      "Ġguitar": 3036,
      "Ġpoints": 3037,
      "Ġtre": 3038,
      "Ġtrib": 3039,
      "lying": 3040,
      "ĠSal": 3041,
      "ection": 3042,
      "Ġcharacters": 3043,
      "SA": 3044,
      "Ġpurp": 3045,
      "Ġ1950": 3046,
      "ĠSl": 3047,
      "ĠGal": 3048,
      "ĠEarly": 3049,
      "ĠVol": 3050,
      "Ġang": 3051,
      "perial": 3052,
      "Ġlay": 3053,
      "eleb": 3054,
      "Ġspeed": 3055,
      "ĠOld": 3056,
      "ĠGold": 3057,
      "Ġgod": 3058,
      "ĠMuseum": 3059,
      "igned": 3060,
      "reland": 3061,
      "isation": 3062,
      "Ġproduce": 3063,
      "Ġresults": 3064,
      "ĠVal": 3065,
      "iences": 3066,
      "Ġball": 3067,
      "oper": 3068,
      "Ġtravel": 3069,
      "Ġregular": 3070,
      "anks": 3071,
      "ĠCommun": 3072,
      "Ġwhether": 3073,
      "view": 3074,
      "Ġlimited": 3075,
      "ipl": 3076,
      "Ġ185": 3077,
      "Ġconver": 3078,
      "ĠJer": 3079,
      "respond": 3080,
      "Äģ": 3081,
      "ĠHall": 3082,
      "Ġ184": 3083,
      "Ġschools": 3084,
      "Ġbrother": 3085,
      "Ġbelow": 3086,
      "Ġdocument": 3087,
      "Ġbirth": 3088,
      "Ġacqu": 3089,
      "Ġprimary": 3090,
      "ĠParis": 3091,
      "Ġpen": 3092,
      "Ġcareer": 3093,
      "ables": 3094,
      "ĠSam": 3095,
      "ĠIslands": 3096,
      "ister": 3097,
      "Ġadded": 3098,
      "ĠEv": 3099,
      "Ġlack": 3100,
      "Ġsoftware": 3101,
      "Ġrequire": 3102,
      "ili": 3103,
      "Ġproposed": 3104,
      "Ġvir": 3105,
      "ocratic": 3106,
      "Ġord": 3107,
      "Ġlaws": 3108,
      "me": 3109,
      "Ġclear": 3110,
      "ĠBudd": 3111,
      "aged": 3112,
      "Ġpersonal": 3113,
      "ĠAssoci": 3114,
      "Ġconditions": 3115,
      "ĠMuslim": 3116,
      "Ġtoo": 3117,
      "Ġelected": 3118,
      "Ġsouthern": 3119,
      "ĠGreen": 3120,
      "Ġhighest": 3121,
      "aughter": 3122,
      "ext": 3123,
      "Ġpotential": 3124,
      "ously": 3125,
      "ĠAcadem": 3126,
      "22": 3127,
      "Ġopt": 3128,
      "Ġoffice": 3129,
      "Ġconstruction": 3130,
      "ĠIreland": 3131,
      "Ġreplaced": 3132,
      "Ġvideo": 3133,
      "Ġris": 3134,
      "Ġlonger": 3135,
      "anced": 3136,
      "Ġche": 3137,
      "ĠBut": 3138,
      "izing": 3139,
      "Ġcode": 3140,
      "ĠStud": 3141,
      "ĠSwed": 3142,
      "gor": 3143,
      "ources": 3144,
      "Ġcust": 3145,
      "Ġaway": 3146,
      "Ġletter": 3147,
      "ivity": 3148,
      "Ġbattle": 3149,
      "ĠFore": 3150,
      "pected": 3151,
      "Ġphysical": 3152,
      "ĠMat": 3153,
      "istance": 3154,
      "uit": 3155,
      "Ġremov": 3156,
      "isions": 3157,
      "ithm": 3158,
      "Ġvari": 3159,
      "Ġtoday": 3160,
      "ĠMiddle": 3161,
      "ĠZe": 3162,
      "Ġmostly": 3163,
      "ĠDon": 3164,
      "Ġeight": 3165,
      "onse": 3166,
      "Ġrank": 3167,
      "ĠPers": 3168,
      "Ġreason": 3169,
      "Ġwriters": 3170,
      "Ġhor": 3171,
      "ground": 3172,
      "Ġpay": 3173,
      "Ġmole": 3174,
      "Ġbound": 3175,
      "ĠQue": 3176,
      ",\"": 3177,
      "Ġeast": 3178,
      "Ġinvolved": 3179,
      "Ġmetal": 3180,
      "ĠLeg": 3181,
      "Ġproblems": 3182,
      "Ġfuture": 3183,
      "ittee": 3184,
      "Ġoil": 3185,
      "ready": 3186,
      "Ġcou": 3187,
      "Ġ26": 3188,
      "Ġdiscuss": 3189,
      "Ġwest": 3190,
      "Ġimplement": 3191,
      "ĠPeter": 3192,
      "Ġadapt": 3193,
      "ĠProt": 3194,
      "ĠAlexander": 3195,
      "Ġ23": 3196,
      "ĠAnother": 3197,
      "Ġdestroy": 3198,
      "Ġlength": 3199,
      "Ġvia": 3200,
      "odes": 3201,
      "isms": 3202,
      "Ġdial": 3203,
      "ĠKore": 3204,
      "Ġunits": 3205,
      "Ġcommunic": 3206,
      "ĠDo": 3207,
      "ĠCongress": 3208,
      "ĠPre": 3209,
      "Ġminor": 3210,
      "ĠHum": 3211,
      "Ġstation": 3212,
      "Ġperformance": 3213,
      "Ġ1998": 3214,
      "Ġsett": 3215,
      "Ġcome": 3216,
      "ĠEastern": 3217,
      "ĠCamb": 3218,
      "Ġrelease": 3219,
      "Ġstudents": 3220,
      "Ġbehav": 3221,
      "ĠGrand": 3222,
      "Ġprec": 3223,
      "ĠHung": 3224,
      "ĠPortug": 3225,
      "Ġaward": 3226,
      "Ġlikely": 3227,
      "Ġscholars": 3228,
      "idents": 3229,
      "ĠMer": 3230,
      "elled": 3231,
      "ĠSecond": 3232,
      "ĠDef": 3233,
      "Ġactress": 3234,
      "Ġremains": 3235,
      "ampions": 3236,
      "Ġmathemat": 3237,
      "ĠRussia": 3238,
      "Ġsociety": 3239,
      "Ġ+": 3240,
      "hab": 3241,
      "Ġsqu": 3242,
      "gian": 3243,
      "uns": 3244,
      "ĠAtl": 3245,
      "ĠBook": 3246,
      "Ġ40": 3247,
      "ients": 3248,
      "Ġwife": 3249,
      "Ġ1997": 3250,
      "Ġdirectly": 3251,
      "Ġhistorical": 3252,
      "ked": 3253,
      "Ġeas": 3254,
      "ĠRevolution": 3255,
      "Ġrat": 3256,
      "Ġcorrespond": 3257,
      "ait": 3258,
      "Ġleader": 3259,
      "ĠEs": 3260,
      "min": 3261,
      "24": 3262,
      "cont": 3263,
      "ĠDan": 3264,
      "Ġmedia": 3265,
      "Ġtechnology": 3266,
      "ĠCivil": 3267,
      "Ġrap": 3268,
      "axim": 3269,
      "ĠRel": 3270,
      "195": 3271,
      "nic": 3272,
      "Ġera": 3273,
      "Ġblood": 3274,
      "Ġbasis": 3275,
      "ola": 3276,
      "ĠWash": 3277,
      "anned": 3278,
      "Ġ1996": 3279,
      "ĠWil": 3280,
      "Ġunit": 3281,
      "Ġcolor": 3282,
      "Ġconcent": 3283,
      "Ġseven": 3284,
      "Ġgas": 3285,
      "Ġrecent": 3286,
      "ĠMiss": 3287,
      "Ġcarbon": 3288,
      "194": 3289,
      "Ġsupported": 3290,
      "Ġterritory": 3291,
      "ĠParliament": 3292,
      "Ġproducts": 3293,
      "Ġspok": 3294,
      "orial": 3295,
      "Ġsil": 3296,
      "Ġbene": 3297,
      "Ġ2021": 3298,
      "Ġcultural": 3299,
      "Ġconflict": 3300,
      "Ġseparate": 3301,
      "ĠRad": 3302,
      "Ġlargely": 3303,
      "Ġadopted": 3304,
      "Ġgold": 3305,
      "het": 3306,
      "ĠGr": 3307,
      "ĠRec": 3308,
      "Ġcreate": 3309,
      "rich": 3310,
      "Ġcenturies": 3311,
      "ĠLiber": 3312,
      "Ġceleb": 3313,
      "stein": 3314,
      "Ġreform": 3315,
      "Ġalready": 3316,
      "inent": 3317,
      "Ġstudies": 3318,
      "Ġvariety": 3319,
      "ĠIran": 3320,
      "ĠJes": 3321,
      "Ġidea": 3322,
      "ĠEmperor": 3323,
      "Ġbr": 3324,
      "Ġ22": 3325,
      "ĠConf": 3326,
      "standing": 3327,
      "Ġreached": 3328,
      "ĠInstitute": 3329,
      "Ġoriginally": 3330,
      "ologist": 3331,
      "oor": 3332,
      "ĠIts": 3333,
      "Ġ1994": 3334,
      "ects": 3335,
      "Ġfinancial": 3336,
      "tar": 3337,
      "ĠJoseph": 3338,
      "Ġcut": 3339,
      "Ġwhom": 3340,
      "ĠBen": 3341,
      "Ġsmaller": 3342,
      "Ġnar": 3343,
      "Ġtarg": 3344,
      "80": 3345,
      "Ġ1991": 3346,
      "ĠWashington": 3347,
      "Ġprevent": 3348,
      "ĠJews": 3349,
      "olf": 3350,
      "ĠPolish": 3351,
      "onst": 3352,
      "ĠMount": 3353,
      "ĠPri": 3354,
      "Ġperformed": 3355,
      "Ġmultiple": 3356,
      "Ġchemical": 3357,
      "ĠMary": 3358,
      "Ġfunctions": 3359,
      "Ġoffic": 3360,
      "Ġislands": 3361,
      "ĠMem": 3362,
      "Ġremain": 3363,
      "ĠForce": 3364,
      "Ġi": 3365,
      "hi": 3366,
      "Ġ1992": 3367,
      "ĠÎ": 3368,
      "Ġtowards": 3369,
      "pan": 3370,
      "omer": 3371,
      "ĠMichael": 3372,
      "Ġcitiz": 3373,
      "aring": 3374,
      "ĠTer": 3375,
      "ishop": 3376,
      "Ġens": 3377,
      "ector": 3378,
      "ĠClass": 3379,
      "Ġcomplete": 3380,
      "Ġresponse": 3381,
      "can": 3382,
      "Ġliterature": 3383,
      "ĠSystem": 3384,
      "Ġcast": 3385,
      "Ġestimated": 3386,
      "Ġsea": 3387,
      "edy": 3388,
      "ointed": 3389,
      "izations": 3390,
      "Ġregions": 3391,
      "ras": 3392,
      "odox": 3393,
      "time": 3394,
      "Ġanalysis": 3395,
      "met": 3396,
      "onents": 3397,
      "olk": 3398,
      "Ġ27": 3399,
      "DP": 3400,
      "Ġrules": 3401,
      "Ġmeasure": 3402,
      "Ġlevels": 3403,
      "Ġsettle": 3404,
      "Ġlink": 3405,
      "Ġapproximately": 3406,
      "bra": 3407,
      "ĠMore": 3408,
      "Ġever": 3409,
      "Ġdiss": 3410,
      "hood": 3411,
      "ĠRome": 3412,
      "opp": 3413,
      "Ġobt": 3414,
      "uff": 3415,
      "ĠInternet": 3416,
      "ĠColumb": 3417,
      "60": 3418,
      "rative": 3419,
      "Ġnation": 3420,
      "ĠMark": 3421,
      "ĠVir": 3422,
      "Ġstatus": 3423,
      "den": 3424,
      "Ġnumerous": 3425,
      "Ġcells": 3426,
      "Ġgreater": 3427,
      "riage": 3428,
      "ĠGovernment": 3429,
      "Ġcontains": 3430,
      "oz": 3431,
      "Ġmethods": 3432,
      "asons": 3433,
      "Ġget": 3434,
      "ĠAut": 3435,
      "Ġcannot": 3436,
      "Ġcenter": 3437,
      "In": 3438,
      "Ġheav": 3439,
      "Ġplant": 3440,
      "Ġclaimed": 3441,
      "Ġdistinct": 3442,
      "ĠDel": 3443,
      "Ġalle": 3444,
      "Ġcred": 3445,
      "imal": 3446,
      "âĢĻ": 3447,
      "Ġoperations": 3448,
      "amer": 3449,
      "ĠBay": 3450,
      "ender": 3451,
      "Ġtheore": 3452,
      "Ġconsum": 3453,
      "nel": 3454,
      "Ġbetter": 3455,
      "Ġhyp": 3456,
      "zil": 3457,
      "Ġepis": 3458,
      "Ġworked": 3459,
      "Ġ183": 3460,
      "Ġthreat": 3461,
      "Ġ1995": 3462,
      "Ġdiscovered": 3463,
      "Ġindependence": 3464,
      "Ġfocus": 3465,
      "igr": 3466,
      "Ġgive": 3467,
      "opher": 3468,
      "Ġactive": 3469,
      "Ġfell": 3470,
      "ĠIII": 3471,
      "Ġfront": 3472,
      "Ġplaced": 3473,
      "Ġtrue": 3474,
      "change": 3475,
      "ĠKar": 3476,
      "Ġmarried": 3477,
      "inet": 3478,
      "Ġtherefore": 3479,
      "ĠScot": 3480,
      "Ġbelief": 3481,
      "lected": 3482,
      "atch": 3483,
      "ĠCompany": 3484,
      "omy": 3485,
      "Ġ1993": 3486,
      "23": 3487,
      "illa": 3488,
      "ĠUnder": 3489,
      "mark": 3490,
      "Ġhighly": 3491,
      "Ġpressure": 3492,
      "ĠAcademy": 3493,
      "ĠSte": 3494,
      "Ġshows": 3495,
      "Ġ1989": 3496,
      "Ġ28": 3497,
      "ĠScience": 3498,
      "Ġconstitution": 3499,
      "Ġneigh": 3500,
      "Ġtemperature": 3501,
      "win": 3502,
      "193": 3503,
      "Ġknowledge": 3504,
      "Ġpie": 3505,
      "itation": 3506,
      "thodox": 3507,
      "Ġtroops": 3508,
      "Ġtransfer": 3509,
      "ĠEconom": 3510,
      "Ġwestern": 3511,
      "Ġweap": 3512,
      "Ġcoin": 3513,
      "Ġadditional": 3514,
      "ien": 3515,
      "ĠTra": 3516,
      "Ġacid": 3517,
      "Ġdivided": 3518,
      "yer": 3519,
      "ĠSpe": 3520,
      "akers": 3521,
      "cean": 3522,
      "ech": 3523,
      "Ġcateg": 3524,
      "ĠMad": 3525,
      "ĠAssociation": 3526,
      "Ġstage": 3527,
      "ĠDen": 3528,
      "Ġlatter": 3529,
      "uter": 3530,
      "vin": 3531,
      "ĠTwo": 3532,
      "Ġdetail": 3533,
      "ĠModern": 3534,
      "cks": 3535,
      "Ch": 3536,
      "ĠTele": 3537,
      "vey": 3538,
      "Ġreview": 3539,
      "Ġbreak": 3540,
      "Ġissues": 3541,
      "ĠServ": 3542,
      "Ġcollection": 3543,
      "Ġlegisl": 3544,
      "olved": 3545,
      "Ġsoon": 3546,
      "ĠAD": 3547,
      "ĠLife": 3548,
      "pped": 3549,
      "astic": 3550,
      "Ġprimarily": 3551,
      "Ġcontem": 3552,
      "wide": 3553,
      "ply": 3554,
      "ĠMartin": 3555,
      "Ġmission": 3556,
      "ĠMa": 3557,
      "ned": 3558,
      "cles": 3559,
      "Ġ/": 3560,
      "ĠSmith": 3561,
      "Ġice": 3562,
      "ulations": 3563,
      "osing": 3564,
      "ns": 3565,
      "Ġaddress": 3566,
      "Ġfemale": 3567,
      "Ġkeep": 3568,
      "ĠBrown": 3569,
      "Ġmention": 3570,
      "phas": 3571,
      "ĠEp": 3572,
      "Ġcommand": 3573,
      "well": 3574,
      "aled": 3575,
      "Ġcomposer": 3576,
      "ĠPrime": 3577,
      "enes": 3578,
      "Ġcry": 3579,
      "Ġshown": 3580,
      "Ġwhole": 3581,
      "Ġdisp": 3582,
      "iber": 3583,
      "embly": 3584,
      "ĠNations": 3585,
      "arc": 3586,
      "Ġlook": 3587,
      "Ġthous": 3588,
      "Ġquick": 3589,
      "Ġ1930": 3590,
      "Ġastron": 3591,
      "Ġmainly": 3592,
      "Ġ()": 3593,
      "Ġliber": 3594,
      "Ġbank": 3595,
      "Ġcontrast": 3596,
      "Ġimmedi": 3597,
      "Ġdemonst": 3598,
      "ctr": 3599,
      "now": 3600,
      "ĠJust": 3601,
      "Ġrelatively": 3602,
      "Ġdeal": 3603,
      "azine": 3604,
      "Ġwriter": 3605,
      "Ġnearly": 3606,
      "Ġcalcul": 3607,
      "Ġincor": 3608,
      "Ġscientific": 3609,
      "ĠDr": 3610,
      "Ġ1986": 3611,
      "stitution": 3612,
      "ĠNavy": 3613,
      "cel": 3614,
      "iant": 3615,
      "gin": 3616,
      "ĠKe": 3617,
      "ĠMexico": 3618,
      "Ġprior": 3619,
      "Ġmemory": 3620,
      "Ġdate": 3621,
      "Ġchanged": 3622,
      "rovers": 3623,
      "tters": 3624,
      "ena": 3625,
      "Ġdraw": 3626,
      "Ġhol": 3627,
      "Ġelectric": 3628,
      "ensus": 3629,
      "ips": 3630,
      "ĠMusic": 3631,
      "Ġreligion": 3632,
      "Ġmusical": 3633,
      "Ġcounter": 3634,
      "Ġfamous": 3635,
      "acter": 3636,
      "aches": 3637,
      "Ġsense": 3638,
      "ĠCenter": 3639,
      "earch": 3640,
      "ĠCounty": 3641,
      "Ġheavy": 3642,
      "bed": 3643,
      "Ġstep": 3644,
      "part": 3645,
      "head": 3646,
      "unt": 3647,
      "ĠJul": 3648,
      "ĠNorthern": 3649,
      "ises": 3650,
      "Ġagricult": 3651,
      "Ġ80": 3652,
      "ĠFollow": 3653,
      "ĠSuper": 3654,
      "Ġphilosophy": 3655,
      "Ġ|-": 3656,
      "Ġresulting": 3657,
      "orph": 3658,
      "Ġmakes": 3659,
      "ĠCur": 3660,
      "Ġproperty": 3661,
      "Ġjoined": 3662,
      "Ġveh": 3663,
      "Ġparties": 3664,
      "ĠMil": 3665,
      "aught": 3666,
      "Ġfr": 3667,
      "Ġdisplay": 3668,
      "ĠSun": 3669,
      "Ġalgor": 3670,
      "liest": 3671,
      "Ġriver": 3672,
      "Ġcard": 3673,
      "Ġpeace": 3674,
      "ging": 3675,
      "ĠOrgan": 3676,
      "ĠRom": 3677,
      "Ġproperties": 3678,
      "ĠBrazil": 3679,
      "Ġhous": 3680,
      "annel": 3681,
      "Ġcontain": 3682,
      "rupt": 3683,
      "hold": 3684,
      "Ġdaughter": 3685,
      "Ġdistrict": 3686,
      "iated": 3687,
      "ĠOx": 3688,
      "overy": 3689,
      "Ġaccom": 3690,
      "back": 3691,
      "Ġ179": 3692,
      "otic": 3693,
      "ounds": 3694,
      "Ġsigned": 3695,
      "ĠWhite": 3696,
      "Ġissue": 3697,
      "iance": 3698,
      "Ġenough": 3699,
      "ona": 3700,
      "estival": 3701,
      "Ġ1940": 3702,
      "ĠSaint": 3703,
      "rison": 3704,
      "Ġ1985": 3705,
      "ask": 3706,
      "Ġinfluenced": 3707,
      "wor": 3708,
      "Ġpath": 3709,
      "Ġmoney": 3710,
      "Ġquestion": 3711,
      "ville": 3712,
      "Ġletters": 3713,
      "ocal": 3714,
      "bl": 3715,
      "Ġour": 3716,
      "Ġspread": 3717,
      "Ġopened": 3718,
      "iplom": 3719,
      "Ġdone": 3720,
      "Ġdegree": 3721,
      "Ġprovides": 3722,
      "Ġbenef": 3723,
      "Ġ1920": 3724,
      "ĠCa": 3725,
      "hips": 3726,
      "Ġclassical": 3727,
      "Ġrapid": 3728,
      "bre": 3729,
      "Ġbomb": 3730,
      "Ġkind": 3731,
      "reng": 3732,
      "west": 3733,
      "Ġbur": 3734,
      "ĠNA": 3735,
      "ĠFollowing": 3736,
      "Ġactivity": 3737,
      "Ġwide": 3738,
      "Ġwind": 3739,
      "lym": 3740,
      "igation": 3741,
      "Ġcompared": 3742,
      "Ġexperience": 3743,
      "Ġult": 3744,
      "27": 3745,
      "itors": 3746,
      "ĠBal": 3747,
      "rying": 3748,
      "ĠScottish": 3749,
      "Ġrare": 3750,
      "Ġappears": 3751,
      "Ġ1984": 3752,
      "Ġappointed": 3753,
      "Ġmatter": 3754,
      "rier": 3755,
      "Ġsuggested": 3756,
      "Ġgraph": 3757,
      "war": 3758,
      "ĠBi": 3759,
      "onent": 3760,
      "Ġapproach": 3761,
      "Ġsus": 3762,
      "Ġcomplet": 3763,
      "Ġtreatment": 3764,
      "raction": 3765,
      "ĠOp": 3766,
      "Ġtransm": 3767,
      "CA": 3768,
      "ĠSub": 3769,
      "onia": 3770,
      "Ġpoor": 3771,
      "ansion": 3772,
      "Ġartists": 3773,
      "ibly": 3774,
      "Ġsens": 3775,
      "ĠCommon": 3776,
      "Ġdefinition": 3777,
      "Ġir": 3778,
      "Ġdrug": 3779,
      "za": 3780,
      "Ġtaking": 3781,
      "ato": 3782,
      "Ġstories": 3783,
      "ada": 3784,
      "Ġcompleted": 3785,
      "aud": 3786,
      "ĠDespite": 3787,
      "Ġanimals": 3788,
      "otes": 3789,
      "Ġfle": 3790,
      "Ġdim": 3791,
      "unk": 3792,
      "Ġedition": 3793,
      "Ġsurround": 3794,
      "rus": 3795,
      "Ġ1979": 3796,
      "ghan": 3797,
      "Ġ1945": 3798,
      "ĠHaw": 3799,
      "ograp": 3800,
      "ĠUN": 3801,
      "ĠSen": 3802,
      "Ġmove": 3803,
      "board": 3804,
      "ĠBest": 3805,
      "ĠChic": 3806,
      "ador": 3807,
      "Ġindustrial": 3808,
      "Ġpattern": 3809,
      "ĠGra": 3810,
      "Ġvill": 3811,
      "Ġ1982": 3812,
      "Ġflu": 3813,
      "light": 3814,
      "ĠMass": 3815,
      "ĠMin": 3816,
      "ĠJean": 3817,
      "Ġsec": 3818,
      "Ġvalues": 3819,
      "Ġinj": 3820,
      "Ġtable": 3821,
      "igen": 3822,
      "ua": 3823,
      "Ġsal": 3824,
      "ĠPet": 3825,
      "Ġweek": 3826,
      "elligence": 3827,
      "oura": 3828,
      "raq": 3829,
      "Ġderived": 3830,
      "Ġsaf": 3831,
      "istry": 3832,
      "gl": 3833,
      "edom": 3834,
      "Ġforced": 3835,
      "Ã¨": 3836,
      "ĠVict": 3837,
      "Ġscript": 3838,
      "ĠDou": 3839,
      "Ġsimple": 3840,
      "Ġobjects": 3841,
      "ĠBoth": 3842,
      "Ġcompar": 3843,
      "alle": 3844,
      "Ġconserv": 3845,
      "iques": 3846,
      "Ġauthority": 3847,
      "Ġhit": 3848,
      "undred": 3849,
      "ĠDiv": 3850,
      "itan": 3851,
      "Ġnoted": 3852,
      "ĠAngel": 3853,
      "Ġ29": 3854,
      "Ġaccepted": 3855,
      "ĠLord": 3856,
      "elt": 3857,
      "Ġ180": 3858,
      "Ġlands": 3859,
      "rd": 3860,
      "arter": 3861,
      "Ġconqu": 3862,
      "estic": 3863,
      "Ġended": 3864,
      "irm": 3865,
      "Ġonline": 3866,
      "Ġaspect": 3867,
      "Ġborder": 3868,
      "use": 3869,
      "ĠBul": 3870,
      "Ġreference": 3871,
      "Ġbond": 3872,
      "Ġ1987": 3873,
      "icted": 3874,
      "Ġcreation": 3875,
      "ĠPublic": 3876,
      "Ġrepresented": 3877,
      "Ġassum": 3878,
      "ĠLand": 3879,
      "ĠPac": 3880,
      "ĠLibrary": 3881,
      "Ġforest": 3882,
      "Ġclimate": 3883,
      "Ġships": 3884,
      "Ġmedical": 3885,
      "Ġargued": 3886,
      "ĠCap": 3887,
      "ĠElect": 3888,
      "ĠPoland": 3889,
      "with": 3890,
      "Ġpassed": 3891,
      "ĠYear": 3892,
      "Ġequal": 3893,
      "Ġu": 3894,
      "Ġsecret": 3895,
      "Ġimpact": 3896,
      "Ġlocation": 3897,
      "see": 3898,
      "Ġdecided": 3899,
      "Ġ1988": 3900,
      "Ġneeded": 3901,
      "Ġcitizens": 3902,
      "Ġcentre": 3903,
      "ĠBec": 3904,
      "Ġinitial": 3905,
      "Ġglobal": 3906,
      "Ġpron": 3907,
      "pr": 3908,
      "ĠMag": 3909,
      "ĠDis": 3910,
      "Ġpossess": 3911,
      "ĠWind": 3912,
      "Ġequival": 3913,
      "ĠRob": 3914,
      "Ġdouble": 3915,
      "ĠSocial": 3916,
      "Ġ1983": 3917,
      "abb": 3918,
      "ias": 3919,
      "Ġintended": 3920,
      "Ġprograms": 3921,
      "rents": 3922,
      "ĠThat": 3923,
      "Ġmess": 3924,
      "Ġdisease": 3925,
      "Ġprin": 3926,
      "ala": 3927,
      "Ġec": 3928,
      "ĠSecret": 3929,
      "Ġnuclear": 3930,
      "Ġdram": 3931,
      "Ġapplied": 3932,
      "ĠOrthodox": 3933,
      "Ġcarried": 3934,
      "Ġtraining": 3935,
      "Ġpaper": 3936,
      "ĠSol": 3937,
      "Ġimage": 3938,
      "song": 3939,
      "Ġcontrovers": 3940,
      "rical": 3941,
      "iled": 3942,
      "Ġesc": 3943,
      "edic": 3944,
      "Ġfarm": 3945,
      "ĠBank": 3946,
      "Ġcomposed": 3947,
      "Ġelections": 3948,
      "Ġability": 3949,
      "ĠApoll": 3950,
      "Ġdeaths": 3951,
      "ĠGroup": 3952,
      "Ġnight": 3953,
      "thes": 3954,
      "ĠBill": 3955,
      "ĠCamp": 3956,
      "Ġ1975": 3957,
      "Ġorganization": 3958,
      "ois": 3959,
      "Ã¤": 3960,
      "ĠDNA": 3961,
      "Ġmonth": 3962,
      "Ġmanager": 3963,
      "Ġreject": 3964,
      "ĠTor": 3965,
      "Ġfiction": 3966,
      "asty": 3967,
      "Ġlabor": 3968,
      "Ġdirected": 3969,
      "Ġsecurity": 3970,
      "Ġdecre": 3971,
      "Ġ1981": 3972,
      "Ġboard": 3973,
      "ider": 3974,
      "rief": 3975,
      "Ġrace": 3976,
      "Ġpresence": 3977,
      "Ġprobably": 3978,
      "ĠJac": 3979,
      "Ġreduced": 3980,
      "ĪĴ": 3981,
      "inem": 3982,
      "Ġrise": 3983,
      "Ġcontract": 3984,
      "Ġax": 3985,
      "enth": 3986,
      "ĠLater": 3987,
      "Ġarran": 3988,
      "ĠChicago": 3989,
      "arent": 3990,
      "rey": 3991,
      "Ġconstant": 3992,
      "ĠPolit": 3993,
      "Ġdeclared": 3994,
      "Â°": 3995,
      "Ġstreng": 3996,
      "Ġsuggest": 3997,
      "uge": 3998,
      "ĠBet": 3999,
      "Ġsimply": 4000,
      "Ġprofessional": 4001,
      "illed": 4002,
      "Ġyet": 4003,
      "Ġmaterials": 4004,
      "Ġbroadcast": 4005,
      "Ġbehind": 4006,
      "Ġmur": 4007,
      "ĠBecause": 4008,
      "Ġ1969": 4009,
      "ographic": 4010,
      "Ġbasic": 4011,
      "Ġearliest": 4012,
      "Ġwall": 4013,
      "Ġideas": 4014,
      "odies": 4015,
      "ĠSouthern": 4016,
      "Ġlived": 4017,
      "Ġinvent": 4018,
      "ĠTechn": 4019,
      "Ġpil": 4020,
      "Ġpowers": 4021,
      "Ġsongs": 4022,
      "Ġpreviously": 4023,
      "ĠAnn": 4024,
      "which": 4025,
      "OS": 4026,
      "ĠMu": 4027,
      "ĠLake": 4028,
      "ĠOver": 4029,
      "Ġformal": 4030,
      "Ġ1974": 4031,
      "ĠJesus": 4032,
      "Ġrepe": 4033,
      "Ġfif": 4034,
      "Ġhapp": 4035,
      "amm": 4036,
      "Ġ1972": 4037,
      "gency": 4038,
      "ĠIraq": 4039,
      "usion": 4040,
      "cher": 4041,
      "chest": 4042,
      "Ġdecision": 4043,
      "Ġindividuals": 4044,
      "ĠGreece": 4045,
      "ilies": 4046,
      "ordin": 4047,
      "Ġearth": 4048,
      "comm": 4049,
      "Ġeastern": 4050,
      "ĠNotes": 4051,
      "ĠArg": 4052,
      "actions": 4053,
      "Ġbillion": 4054,
      "Ġhy": 4055,
      "Ġround": 4056,
      "Ġbecoming": 4057,
      "ĠConstant": 4058,
      "ils": 4059,
      "Ġhistorian": 4060,
      "ĠAv": 4061,
      "ĠOtt": 4062,
      "throp": 4063,
      "cluding": 4064,
      "Ġautom": 4065,
      "Ġcand": 4066,
      "Ġ1968": 4067,
      "Ġconsists": 4068,
      "Ġ60": 4069,
      "Ġtarget": 4070,
      "ieval": 4071,
      "ares": 4072,
      "igration": 4073,
      "Ġcoach": 4074,
      "Ġmarriage": 4075,
      "Ġdeep": 4076,
      "Ġethnic": 4077,
      "Ġplants": 4078,
      "Ġfailed": 4079,
      "edia": 4080,
      "ĠAfghan": 4081,
      "Ġ1971": 4082,
      "ensity": 4083,
      "28": 4084,
      "Ġsexual": 4085,
      "rown": 4086,
      "Ġ1973": 4087,
      "lection": 4088,
      "Ġlif": 4089,
      "Ġplaying": 4090,
      "ĠOper": 4091,
      "ike": 4092,
      "ĠEth": 4093,
      "70": 4094,
      "da": 4095,
      "duc": 4096,
      "Ġjournalist": 4097,
      "||": 4098,
      "Ġfriend": 4099,
      "26": 4100,
      "ams": 4101,
      "Ġemphas": 4102,
      "Ġresponsible": 4103,
      "ĠGo": 4104,
      "ĠNaz": 4105,
      "ĠThus": 4106,
      "Ġextended": 4107,
      "fect": 4108,
      "ĠDist": 4109,
      "akh": 4110,
      "Ġthink": 4111,
      "lymp": 4112,
      "onn": 4113,
      "Ġ1976": 4114,
      "ĠEdward": 4115,
      "osis": 4116,
      "Ġchief": 4117,
      "ĠTV": 4118,
      "ĠNob": 4119,
      "Ġsymbol": 4120,
      "Ġcollect": 4121,
      "Ġreve": 4122,
      "aper": 4123,
      "Ġconne": 4124,
      "ĠStreet": 4125,
      "Ġdiplom": 4126,
      "Ġspirit": 4127,
      "ĠMos": 4128,
      "Ġactivities": 4129,
      "Ġincorpor": 4130,
      "add": 4131,
      "Ġexhib": 4132,
      "29": 4133,
      "ĠPop": 4134,
      "Ġfeatured": 4135,
      "Ġwood": 4136,
      "Ġevolution": 4137,
      "Ġx": 4138,
      "Ġmachine": 4139,
      "Ġshare": 4140,
      "ĠCub": 4141,
      "Ġannual": 4142,
      "Ġinitially": 4143,
      "Ġdivision": 4144,
      "Ġbring": 4145,
      "Ġdirection": 4146,
      "Ġinstrument": 4147,
      "arsh": 4148,
      "sw": 4149,
      "\"),": 4150,
      "Ġ:": 4151,
      "Ġvon": 4152,
      "ublican": 4153,
      "atre": 4154,
      "Ġlaunched": 4155,
      "ĠSever": 4156,
      "ĠOlymp": 4157,
      "Ġsection": 4158,
      "tical": 4159,
      "ĠCast": 4160,
      "ĠPrize": 4161,
      "Ġpositive": 4162,
      "anda": 4163,
      "Ġhours": 4164,
      "ĠCommission": 4165,
      "Ġnecessary": 4166,
      "ying": 4167,
      "ĠSo": 4168,
      "Ġ1978": 4169,
      "Ġarticle": 4170,
      "Ġprison": 4171,
      "ita": 4172,
      "Ġharm": 4173,
      "racy": 4174,
      "ĠScotland": 4175,
      "bour": 4176,
      "yond": 4177,
      "ĠCup": 4178,
      "Ġpreserv": 4179,
      "Ġmiddle": 4180,
      "comp": 4181,
      "ĠDepartment": 4182,
      "Ġinn": 4183,
      "Ġfederal": 4184,
      "ls": 4185,
      "rect": 4186,
      "iform": 4187,
      "Ġfigure": 4188,
      "Ġimpl": 4189,
      "Ġbaseball": 4190,
      "ds": 4191,
      "ĠTom": 4192,
      "Ġmonarch": 4193,
      "Ġinterpret": 4194,
      "ĠTurk": 4195,
      "gram": 4196,
      "Ġfrequently": 4197,
      "uan": 4198,
      "Ġtakes": 4199,
      "ĠCle": 4200,
      "ĠAdd": 4201,
      "ĠBerlin": 4202,
      "ĠAnt": 4203,
      "Ġmodels": 4204,
      "Ġhar": 4205,
      "col": 4206,
      "Ġnative": 4207,
      "ully": 4208,
      "Ġmix": 4209,
      "urches": 4210,
      "Ġshot": 4211,
      "Ġrecords": 4212,
      "ĠBuddh": 4213,
      "ĠIslamic": 4214,
      "inger": 4215,
      "ĠResearch": 4216,
      "yth": 4217,
      "Ġrisk": 4218,
      "Ġdistribution": 4219,
      "band": 4220,
      "Ġdespite": 4221,
      "Ġinhab": 4222,
      "Ġoperating": 4223,
      "Ġhumans": 4224,
      "Ġallows": 4225,
      "Ġstru": 4226,
      "Ġrespectively": 4227,
      "ĠOxford": 4228,
      "Ġrot": 4229,
      "Ġregional": 4230,
      "ĠCambridge": 4231,
      "Ġpurch": 4232,
      "Ġremaining": 4233,
      "Ġidentified": 4234,
      "Ġresulted": 4235,
      "ĠHuman": 4236,
      "ih": 4237,
      "ĠPacific": 4238,
      "Ġinternal": 4239,
      "Ġsubs": 4240,
      "Ġopposition": 4241,
      "Ġmut": 4242,
      "indu": 4243,
      "ici": 4244,
      "Ġcharg": 4245,
      "Ġatom": 4246,
      "Ġmedic": 4247,
      "fl": 4248,
      "km": 4249,
      "ĠLuc": 4250,
      "uls": 4251,
      "SC": 4252,
      "ructed": 4253,
      "icit": 4254,
      "Ġplaces": 4255,
      "ressive": 4256,
      "izes": 4257,
      "Ġmaxim": 4258,
      "ĠAlbert": 4259,
      "Ġexistence": 4260,
      "Ġcomment": 4261,
      "ani": 4262,
      "Ġquickly": 4263,
      "Ġexpansion": 4264,
      "aland": 4265,
      "Ġreaction": 4266,
      "Ġolder": 4267,
      "Ġagreed": 4268,
      "igg": 4269,
      "Ġlawyer": 4270,
      "ĠAge": 4271,
      "obile": 4272,
      "Ġnormal": 4273,
      "ket": 4274,
      "Ġcombined": 4275,
      "Ġut": 4276,
      "ĠOrder": 4277,
      "oration": 4278,
      "vement": 4279,
      "ĠVer": 4280,
      "ĠDire": 4281,
      "Ġrestrict": 4282,
      "86": 4283,
      "tra": 4284,
      "aters": 4285,
      "Ġblue": 4286,
      "Ġdistingu": 4287,
      "Ġreign": 4288,
      "Ġstars": 4289,
      "Ġillust": 4290,
      "ca": 4291,
      "ĠBern": 4292,
      "heast": 4293,
      "Ġagreement": 4294,
      "Ġcoal": 4295,
      "Ġexamples": 4296,
      "songwriter": 4297,
      "ella": 4298,
      "Ġspl": 4299,
      "Ġopposed": 4300,
      "Ġadministration": 4301,
      "Ġslow": 4302,
      "sec": 4303,
      "Ġaim": 4304,
      "Ġoffered": 4305,
      "rm": 4306,
      "Ġpun": 4307,
      "Ġcourse": 4308,
      "ĠApollo": 4309,
      "ye": 4310,
      "aine": 4311,
      "ĠCult": 4312,
      "gebra": 4313,
      "ĠHeb": 4314,
      "Ġcru": 4315,
      "Ġcontribut": 4316,
      "Ġurban": 4317,
      "get": 4318,
      "Ġcontent": 4319,
      "hat": 4320,
      "Ġtend": 4321,
      "ĠBBC": 4322,
      "Ġcontact": 4323,
      "ception": 4324,
      "uese": 4325,
      "anguage": 4326,
      "Ġphen": 4327,
      "Ġsoldiers": 4328,
      "Ġ1977": 4329,
      "erman": 4330,
      "anning": 4331,
      "ĠPhilos": 4332,
      "Ġreserv": 4333,
      "gal": 4334,
      "atur": 4335,
      "Ġflow": 4336,
      "Ġdistance": 4337,
      "Ġcrew": 4338,
      "ĠPrince": 4339,
      "Ġalph": 4340,
      "iana": 4341,
      "Ġbuildings": 4342,
      "Ġstructures": 4343,
      "Ġdon": 4344,
      "mas": 4345,
      "Ġclaims": 4346,
      "Ġiron": 4347,
      "ĠCy": 4348,
      "Ġbecomes": 4349,
      "Ġhundred": 4350,
      "azz": 4351,
      "ĠHow": 4352,
      "ĠVictor": 4353,
      "aded": 4354,
      "Ġconv": 4355,
      "Ġteams": 4356,
      "lav": 4357,
      "Ġamb": 4358,
      "Ġtechniques": 4359,
      "Ġ1967": 4360,
      "zech": 4361,
      "Ġexpected": 4362,
      "uted": 4363,
      "Ġfourth": 4364,
      "ĠTex": 4365,
      "usal": 4366,
      "Ġexc": 4367,
      "Ġmis": 4368,
      "Ġdead": 4369,
      "Ġspeech": 4370,
      "Ġlic": 4371,
      "aling": 4372,
      "Ġsets": 4373,
      "Ġoperation": 4374,
      "unicip": 4375,
      "Ġentered": 4376,
      "Ġfriends": 4377,
      "Ġexpressed": 4378,
      "ĠRail": 4379,
      "Ġcer": 4380,
      "ĠTheir": 4381,
      "Ġbelieve": 4382,
      "ĠFer": 4383,
      "ĠUs": 4384,
      "Ġversions": 4385,
      "Ġpresented": 4386,
      "isted": 4387,
      "Ġcharge": 4388,
      "wise": 4389,
      "Ġcontemporary": 4390,
      "Ġapplications": 4391,
      "Ġrecon": 4392,
      "Ġattacks": 4393,
      "Ġresources": 4394,
      "Ġblock": 4395,
      "Ġwoman": 4396,
      "Ġdefeated": 4397,
      "\").": 4398,
      "ĠBu": 4399,
      "ening": 4400,
      "Ġflight": 4401,
      "ĠHoly": 4402,
      "Ġchall": 4403,
      "Ġhot": 4404,
      "ĠSir": 4405,
      "ortun": 4406,
      "ĠUp": 4407,
      "ĠDi": 4408,
      "Ġessential": 4409,
      "Ġnomin": 4410,
      "ĠRock": 4411,
      "Ġetc": 4412,
      "Ġ1944": 4413,
      "ĠLith": 4414,
      "anta": 4415,
      "urt": 4416,
      "Ġroad": 4417,
      "Ġ1966": 4418,
      "ĠAlso": 4419,
      "Ġtex": 4420,
      "iment": 4421,
      "Ġdepend": 4422,
      "Ġmind": 4423,
      "eds": 4424,
      "Ġbehavior": 4425,
      "ĠStand": 4426,
      "Ġpolice": 4427,
      "Ġmyth": 4428,
      "ĠAz": 4429,
      "ĠCommittee": 4430,
      "ĠSum": 4431,
      "Ġkingdom": 4432,
      "Ġmicro": 4433,
      "Ġcontinue": 4434,
      "Ġefforts": 4435,
      "Ġallowing": 4436,
      "Ġcouncil": 4437,
      "asy": 4438,
      "ĠGh": 4439,
      "Ġvary": 4440,
      "Ġcurrently": 4441,
      "Ġprotect": 4442,
      "Ġpp": 4443,
      "ĠHel": 4444,
      "Ġoccurs": 4445,
      "ĠPortuguese": 4446,
      "Ġasked": 4447,
      "Ġcritical": 4448,
      "35": 4449,
      "Ġengineering": 4450,
      "ault": 4451,
      "ogue": 4452,
      "ĠSur": 4453,
      "Ġalternative": 4454,
      "ĠMont": 4455,
      "ĠMajor": 4456,
      "Ġund": 4457,
      "Ġrefers": 4458,
      "Ġissued": 4459,
      "verse": 4460,
      "Ġappearance": 4461,
      "ĠVirgin": 4462,
      "Ġavoid": 4463,
      "Ġquality": 4464,
      "Ġoccurred": 4465,
      "Ġflag": 4466,
      "vert": 4467,
      "Ġcart": 4468,
      "Ġsector": 4469,
      "where": 4470,
      "cluded": 4471,
      "EC": 4472,
      "Ġ31": 4473,
      "Ġregarded": 4474,
      "Ġbass": 4475,
      "Ġcommunities": 4476,
      "TA": 4477,
      "akistan": 4478,
      "Ġleague": 4479,
      "Ġserious": 4480,
      "Ġminister": 4481,
      "Ġsummer": 4482,
      "Ġthings": 4483,
      "iang": 4484,
      "ĠConstitution": 4485,
      "Ġprominent": 4486,
      "Ġunc": 4487,
      "Ġwin": 4488,
      "Ġbox": 4489,
      "ĠChristianity": 4490,
      "ĠâĢĶ": 4491,
      "Ġbrief": 4492,
      "Ġinstance": 4493,
      "ĠÂ": 4494,
      "Ġsac": 4495,
      "ĠPost": 4496,
      "ipment": 4497,
      "Ġ1965": 4498,
      "Ġcapac": 4499,
      "oo": 4500,
      "pired": 4501,
      "ng": 4502,
      "ĠMel": 4503,
      "rie": 4504,
      "itable": 4505,
      "ĠEle": 4506,
      "Ġlove": 4507,
      "Ġbor": 4508,
      "Ġclosed": 4509,
      "Ġnewsp": 4510,
      "Ġturned": 4511,
      "ĠBib": 4512,
      "aging": 4513,
      "more": 4514,
      "ĠCzech": 4515,
      "Ġfavor": 4516,
      "Ġcandid": 4517,
      "Ġadj": 4518,
      "Ġfaith": 4519,
      "ĠBor": 4520,
      "Ġmatch": 4521,
      "ceeded": 4522,
      "Ġvote": 4523,
      "Ġmom": 4524,
      "ĠDuke": 4525,
      "thur": 4526,
      "ocracy": 4527,
      "risis": 4528,
      "Ġsport": 4529,
      "Ġartist": 4530,
      "ĠCarl": 4531,
      "ĠZealand": 4532,
      "Ġawarded": 4533,
      "Ġfamilies": 4534,
      "ĠTest": 4535,
      "ĠChe": 4536,
      "ube": 4537,
      "Ġ1942": 4538,
      "Ġdescript": 4539,
      "amin": 4540,
      "ĠCorn": 4541,
      "Ġexpress": 4542,
      "agan": 4543,
      "Ġpaint": 4544,
      "Ġnotable": 4545,
      "enh": 4546,
      "ĠLos": 4547,
      "Ġprime": 4548,
      "ifically": 4549,
      "Ġobserved": 4550,
      "ĠTim": 4551,
      "Ġfully": 4552,
      "Ġfields": 4553,
      "Ġsubst": 4554,
      "amental": 4555,
      "acing": 4556,
      "irds": 4557,
      "ss": 4558,
      "Ġconsequ": 4559,
      "Ġsearch": 4560,
      "Ġbatt": 4561,
      "Ġheart": 4562,
      "Ġcontext": 4563,
      "Ġjur": 4564,
      "Ġsuc": 4565,
      "apers": 4566,
      "Ġmarked": 4567,
      "Ġrecognized": 4568,
      "Ġmagazine": 4569,
      "Ġvirt": 4570,
      "Ġuniversity": 4571,
      "Ġ1948": 4572,
      "ĠAlf": 4573,
      "Ġdrum": 4574,
      "Ġuns": 4575,
      "uis": 4576,
      "Ġcontaining": 4577,
      "rong": 4578,
      "Ġbranch": 4579,
      "Ġserve": 4580,
      "Ġways": 4581,
      "Ġeffective": 4582,
      "zz": 4583,
      "Ġprem": 4584,
      "ĠDevelop": 4585,
      "etherlands": 4586,
      "ĠForeign": 4587,
      "Ġscale": 4588,
      "va": 4589,
      "formed": 4590,
      "Ġdomestic": 4591,
      "encies": 4592,
      "Ġparliament": 4593,
      "Ġ1964": 4594,
      "ali": 4595,
      "Ġinstitutions": 4596,
      "Ġlingu": 4597,
      "ĠMill": 4598,
      "ĠAlban": 4599,
      "Ġgrowing": 4600,
      "Ġidentity": 4601,
      "ĠDar": 4602,
      "Ġextra": 4603,
      "ĠGen": 4604,
      "ners": 4605,
      "Ġgoal": 4606,
      "Ġancest": 4607,
      "ĠBab": 4608,
      "ĠAthe": 4609,
      "ĠFour": 4610,
      "Ġspent": 4611,
      "Ġinterview": 4612,
      "Ġnotes": 4613,
      "Ġ...": 4614,
      "ĠFound": 4615,
      "Ġrevolution": 4616,
      "Ġhelped": 4617,
      "Ġvictory": 4618,
      "eral": 4619,
      "Ġactually": 4620,
      "Ġnegative": 4621,
      "Ġremoved": 4622,
      "Ġconnected": 4623,
      "ĠDeath": 4624,
      "ĠAdm": 4625,
      "Ġneut": 4626,
      "Ġ1962": 4627,
      "Ġweight": 4628,
      "64": 4629,
      "Ġroy": 4630,
      "Ġcondition": 4631,
      "ygen": 4632,
      "ĠLab": 4633,
      "onym": 4634,
      "oven": 4635,
      "Ġordered": 4636,
      "ancy": 4637,
      "ĠInf": 4638,
      "oren": 4639,
      "Ġlimit": 4640,
      "ĠOut": 4641,
      "190": 4642,
      "oting": 4643,
      "claim": 4644,
      "ĠSeveral": 4645,
      "Ġ1941": 4646,
      "oles": 4647,
      "Ġgives": 4648,
      "Ġexact": 4649,
      "ogen": 4650,
      "Ġfollows": 4651,
      "ny": 4652,
      "ĠIS": 4653,
      "aph": 4654,
      "Ġreplace": 4655,
      "Ġmanagement": 4656,
      "ĠChampions": 4657,
      "ĠQueen": 4658,
      "ifying": 4659,
      "90": 4660,
      "Ġgreen": 4661,
      "ĠFree": 4662,
      "Ġworkers": 4663,
      "IC": 4664,
      "rates": 4665,
      "Ġofficially": 4666,
      "75": 4667,
      "iring": 4668,
      "ĠEduc": 4669,
      "Ġ1963": 4670,
      "Ġgiving": 4671,
      "Ġmotion": 4672,
      "Ġfigures": 4673,
      "Ġalc": 4674,
      "Ġ1939": 4675,
      "Ġwanted": 4676,
      "ulate": 4677,
      "ĠLie": 4678,
      "ĠHebrew": 4679,
      "ĠAnc": 4680,
      "Ġjob": 4681,
      "ida": 4682,
      "ructure": 4683,
      "ĠPan": 4684,
      "ĠFort": 4685,
      "ĠAmericans": 4686,
      "Ġtrack": 4687,
      "Ġadvant": 4688,
      "icon": 4689,
      "Ġnob": 4690,
      "thing": 4691,
      "Ġvolume": 4692,
      "Ġpowerful": 4693,
      "ĠTime": 4694,
      "Ġspoken": 4695,
      "ĠNap": 4696,
      "Ġauth": 4697,
      "rations": 4698,
      "umin": 4699,
      "Ġbelong": 4700,
      "ieties": 4701,
      "ensions": 4702,
      "ĠProtest": 4703,
      "Ġincome": 4704,
      "ĠPakistan": 4705,
      "la": 4706,
      "mann": 4707,
      "Ġhydrogen": 4708,
      "wa": 4709,
      "Ġfuel": 4710,
      "Ġpack": 4711,
      "ĠTem": 4712,
      "cop": 4713,
      "Ġwrite": 4714,
      "vis": 4715,
      "agon": 4716,
      "Ġwithd": 4717,
      "Ġpurpose": 4718,
      "oke": 4719,
      "Ġunique": 4720,
      "Ġformation": 4721,
      "ĠNic": 4722,
      "Ġfactors": 4723,
      "Ġtold": 4724,
      "ocks": 4725,
      "such": 4726,
      "Ġprinciple": 4727,
      "Ġmurder": 4728,
      "ighter": 4729,
      "Ġmeeting": 4730,
      "equ": 4731,
      "orders": 4732,
      "Ġgeomet": 4733,
      "ĠColumbia": 4734,
      "Ġpoll": 4735,
      "ĠSpace": 4736,
      "ĠKenn": 4737,
      "ĠDemocratic": 4738,
      "Ġ)": 4739,
      "ĠMinist": 4740,
      "RA": 4741,
      "Ġslight": 4742,
      "Ġdra": 4743,
      "erse": 4744,
      "ocol": 4745,
      "Ġbal": 4746,
      "haps": 4747,
      "Ġcommission": 4748,
      "Ġleaving": 4749,
      "Ġfinally": 4750,
      "Ġsequence": 4751,
      "',": 4752,
      "ĠOb": 4753,
      "ĠSup": 4754,
      "Ġgained": 4755,
      "bur": 4756,
      "ĠAst": 4757,
      "Ġgrew": 4758,
      "ĠNobel": 4759,
      "Ġstra": 4760,
      "anner": 4761,
      "ken": 4762,
      "ĠNetherlands": 4763,
      "ĠTreaty": 4764,
      "ĠMilitary": 4765,
      "ĠGall": 4766,
      "ĠGeorg": 4767,
      "ĠSing": 4768,
      "rone": 4769,
      "ansas": 4770,
      "Ġexchange": 4771,
      "osen": 4772,
      "ĠBible": 4773,
      "Ġcompletely": 4774,
      "ĠPo": 4775,
      "eks": 4776,
      "Ġqual": 4777,
      "Ġnucle": 4778,
      "ado": 4779,
      "Ġmentioned": 4780,
      "Ġface": 4781,
      "ibb": 4782,
      "Ġ1947": 4783,
      "Ġepisode": 4784,
      "Ġfolk": 4785,
      "ĠPope": 4786,
      "ells": 4787,
      "cycl": 4788,
      "47": 4789,
      "ĠJo": 4790,
      "ockey": 4791,
      "Ġgreatest": 4792,
      "iger": 4793,
      "Ġapplication": 4794,
      "Ġsolution": 4795,
      "Ġprep": 4796,
      "Ġphase": 4797,
      "Ġweapons": 4798,
      "isf": 4799,
      "PA": 4800,
      "ĠStar": 4801,
      "Ġrecomm": 4802,
      "Ġcustom": 4803,
      "ID": 4804,
      "ĠAirport": 4805,
      "ione": 4806,
      "Ġrelative": 4807,
      "ĠBat": 4808,
      "rence": 4809,
      "Ġequipment": 4810,
      "Ġfast": 4811,
      "Ġrefused": 4812,
      "Ġattempted": 4813,
      "leg": 4814,
      "Ġcho": 4815,
      "Ġ1946": 4816,
      "Ġstudent": 4817,
      "ĠBre": 4818,
      "Ġenem": 4819,
      "Ġcompetition": 4820,
      "ĠStan": 4821,
      "ĠEach": 4822,
      "Ġanimal": 4823,
      "Ġstarting": 4824,
      "cules": 4825,
      "Ġupper": 4826,
      "inity": 4827,
      "acher": 4828,
      "Ġshowed": 4829,
      "king": 4830,
      "ĠFoot": 4831,
      "ĠJim": 4832,
      "Ġbeyond": 4833,
      "vant": 4834,
      "iced": 4835,
      "oln": 4836,
      "aily": 4837,
      "Ġburn": 4838,
      "unction": 4839,
      "Ġdecades": 4840,
      "Ġcomes": 4841,
      "ĠOrig": 4842,
      "Ġmill": 4843,
      "ĠWood": 4844,
      "Ġheat": 4845,
      "Ġpolitics": 4846,
      "85": 4847,
      "Ġdifference": 4848,
      "ospital": 4849,
      "Ġgram": 4850,
      "active": 4851,
      "Ġsports": 4852,
      "inian": 4853,
      "Ġseem": 4854,
      "Ġalgorithm": 4855,
      "nam": 4856,
      "ĠMur": 4857,
      "arters": 4858,
      "ĠStep": 4859,
      "Ġ1961": 4860,
      "force": 4861,
      "Ġwinn": 4862,
      "Ġstandards": 4863,
      "ĠMah": 4864,
      "abeth": 4865,
      "Ġminim": 4866,
      "ĠPlay": 4867,
      "Ġactions": 4868,
      "road": 4869,
      "ĠRadio": 4870,
      "ĠWall": 4871,
      "Ġorganizations": 4872,
      "Ġequivalent": 4873,
      "stan": 4874,
      "Ġwealth": 4875,
      "Ġwebs": 4876,
      "Ġtexts": 4877,
      "ĠIndones": 4878,
      "onian": 4879,
      "Ġarrest": 4880,
      "Ġrunning": 4881,
      "Ġdigital": 4882,
      "Ġrecently": 4883,
      "Ġgrand": 4884,
      "Ġprogramming": 4885,
      "ees": 4886,
      "erc": 4887,
      "ctors": 4888,
      "ading": 4889,
      "osm": 4890,
      "Ġcauses": 4891,
      "ĠService": 4892,
      "Ġrang": 4893,
      "Ġexpanded": 4894,
      "99": 4895,
      "Ġple": 4896,
      "FA": 4897,
      "ĠAmong": 4898,
      "Ġstations": 4899,
      "ĠLew": 4900,
      "oned": 4901,
      "ĠFederal": 4902,
      "ĠLut": 4903,
      "Ġperman": 4904,
      "uated": 4905,
      "class": 4906,
      "Ġenter": 4907,
      "Ġcycle": 4908,
      "Ġnine": 4909,
      "Ġdifferences": 4910,
      "Ġmolec": 4911,
      "ĠBob": 4912,
      "ĠEc": 4913,
      "xual": 4914,
      "ĠLeban": 4915,
      "Ġinside": 4916,
      "ĠLong": 4917,
      "Ġmeant": 4918,
      "Ġaccur": 4919,
      "Ġprovince": 4920,
      "Ġdestroyed": 4921,
      "Ġroyal": 4922,
      "Ġdark": 4923,
      "ĠMot": 4924,
      "ropol": 4925,
      "othes": 4926,
      "Ġalgebra": 4927,
      "Ġ1943": 4928,
      "Ġextrem": 4929,
      "ĠAtlantic": 4930,
      "ĠMo": 4931,
      "âĢĿ": 4932,
      "Ġ35": 4933,
      "Ġrough": 4934,
      "ĠArthur": 4935,
      "Ġsought": 4936,
      "Ġcat": 4937,
      "Ġdynasty": 4938,
      "Ġfactor": 4939,
      "Ġsituation": 4940,
      "ĠRepublican": 4941,
      "Ġdedic": 4942,
      "Ġimportance": 4943,
      "Ġpian": 4944,
      "ographer": 4945,
      "Ġsen": 4946,
      "Ġdro": 4947,
      "alism": 4948,
      "Ġ70": 4949,
      "ĠArabic": 4950,
      "Ġwave": 4951,
      "Ġinspired": 4952,
      "ĠSk": 4953,
      "Ġapparent": 4954,
      "Ġprocesses": 4955,
      "mad": 4956,
      "ĠMoon": 4957,
      "ĠWal": 4958,
      "Ġterritories": 4959,
      "Ġdu": 4960,
      "Ġsaying": 4961,
      "Ġimmediately": 4962,
      "usalem": 4963,
      "Ġdiam": 4964,
      "Ġplays": 4965,
      "Ġoldest": 4966,
      "Ġdevices": 4967,
      "eed": 4968,
      "Ġdescribes": 4969,
      "Ġdoub": 4970,
      "ĠTod": 4971,
      "Ġpoly": 4972,
      "Ġemperor": 4973,
      "ĠFinn": 4974,
      "ĠKen": 4975,
      "water": 4976,
      "Ġdetermined": 4977,
      "Ġsubsequent": 4978,
      "ety": 4979,
      "rix": 4980,
      "Ġextensive": 4981,
      "Ġprotection": 4982,
      "Ġ1956": 4983,
      "ĠGDP": 4984,
      "ĠInst": 4985,
      "Ġprefer": 4986,
      "abet": 4987,
      "Ġrates": 4988,
      "ĠHill": 4989,
      "Ġpainter": 4990,
      "Ġ1958": 4991,
      "kins": 4992,
      "oud": 4993,
      "Ġsubsequently": 4994,
      "ĠCE": 4995,
      "Ġphenomen": 4996,
      "ĠOttoman": 4997,
      "ĠKong": 4998,
      "mosp": 4999,
      "Ġchurches": 5000,
      "incoln": 5001,
      "Ġraised": 5002,
      "Ġsays": 5003,
      "Ġcircum": 5004,
      "ĠEliz": 5005,
      "Ġincreasingly": 5006,
      "ĠAlexand": 5007,
      "Ġarrived": 5008,
      "Ġsomething": 5009,
      "Ġ1949": 5010,
      "ĠJacks": 5011,
      "Ġsites": 5012,
      "aped": 5013,
      "Ġfixed": 5014,
      "ĠForm": 5015,
      "ĠSwedish": 5016,
      "ĠHon": 5017,
      "Ġreduce": 5018,
      "Ġnations": 5019,
      "Ġreflect": 5020,
      "ĠImperial": 5021,
      "Ġexperiment": 5022,
      "igenous": 5023,
      "Ġtun": 5024,
      "ĠTimes": 5025,
      "ersey": 5026,
      "Ġoutput": 5027,
      "Ġworldwide": 5028,
      "works": 5029,
      "ĠArgent": 5030,
      "BM": 5031,
      "Ġfort": 5032,
      "ĠAngeles": 5033,
      "Ġproport": 5034,
      "ĠGre": 5035,
      "Ġattention": 5036,
      "Ġadult": 5037,
      "Ġtried": 5038,
      "orter": 5039,
      "Ġvow": 5040,
      "Ġnegot": 5041,
      "book": 5042,
      "Ġliqu": 5043,
      "Ġpasseng": 5044,
      "ederation": 5045,
      "Ġgun": 5046,
      "Ġtree": 5047,
      "ĠOf": 5048,
      "ĠBCE": 5049,
      "65": 5050,
      "ship": 5051,
      "endar": 5052,
      "Ġlinear": 5053,
      "Ġtranslation": 5054,
      "Ġ1959": 5055,
      "Ġauthors": 5056,
      "Ġhero": 5057,
      "Ġhab": 5058,
      "ĠFinland": 5059,
      "Ġexclus": 5060,
      "ĠBell": 5061,
      "Ġseek": 5062,
      "ĠIll": 5063,
      "imb": 5064,
      "Ġ160": 5065,
      "Ġviews": 5066,
      "lies": 5067,
      "osh": 5068,
      "45": 5069,
      "ĠCarol": 5070,
      "Ġdemand": 5071,
      "ĠGovernor": 5072,
      "Ġcolonial": 5073,
      "ĠHay": 5074,
      "Ġsynthes": 5075,
      "ĠDevelopment": 5076,
      "Ġweeks": 5077,
      "Ġproved": 5078,
      "Ġoxygen": 5079,
      "Ġcreating": 5080,
      "88": 5081,
      "ĠJackson": 5082,
      "ĠJack": 5083,
      "ĠOl": 5084,
      "mond": 5085,
      "Ġarchitecture": 5086,
      "Ġhop": 5087,
      "ĠLincoln": 5088,
      "Ġcapacity": 5089,
      "St": 5090,
      "ĠSqu": 5091,
      "sen": 5092,
      "Ġreach": 5093,
      "Ġstay": 5094,
      "Ġdescribe": 5095,
      "lers": 5096,
      "Ġmoving": 5097,
      "irmed": 5098,
      "Ġconvers": 5099,
      "Ġempire": 5100,
      "ĠEU": 5101,
      "ĠSecretary": 5102,
      "ĠCard": 5103,
      "Ġnor": 5104,
      "TO": 5105,
      "ĠWrit": 5106,
      "Ġunion": 5107,
      "no": 5108,
      "ĠAssembly": 5109,
      "igan": 5110,
      "isher": 5111,
      "ĠCre": 5112,
      "ĠCross": 5113,
      "ĠViet": 5114,
      "CC": 5115,
      "ati": 5116,
      "oring": 5117,
      "ĠLee": 5118,
      "ĠJerusalem": 5119,
      "IA": 5120,
      "Ġmixed": 5121,
      "etro": 5122,
      "uty": 5123,
      "Ġparalle": 5124,
      "Ġcollabor": 5125,
      "ĠConserv": 5126,
      "ĠChristians": 5127,
      "uate": 5128,
      "Ġproced": 5129,
      "ologists": 5130,
      "Ġunderstanding": 5131,
      "%,": 5132,
      "ĠDomin": 5133,
      "ĠThree": 5134,
      "ishes": 5135,
      "itting": 5136,
      "ĠInc": 5137,
      "ĠWars": 5138,
      "Ġmic": 5139,
      "Ġbrain": 5140,
      "ĠYoung": 5141,
      "Ġsignificantly": 5142,
      "Ġchrom": 5143,
      "ĠChap": 5144,
      "Ġruns": 5145,
      "Ġliterary": 5146,
      "ĠJones": 5147,
      "aria": 5148,
      "Ġvac": 5149,
      "Ġprovin": 5150,
      "FL": 5151,
      "Ġoverall": 5152,
      "Ġscholar": 5153,
      "Ġpropos": 5154,
      "Ġcle": 5155,
      "urb": 5156,
      "ava": 5157,
      "poration": 5158,
      "ĠFam": 5159,
      "isco": 5160,
      "Ġinstruments": 5161,
      "ĠBooks": 5162,
      "Ġaband": 5163,
      "bury": 5164,
      "Ġtheories": 5165,
      "ano": 5166,
      "Ġ1918": 5167,
      "Ġrain": 5168,
      "Ġmoment": 5169,
      "ĠSil": 5170,
      "ĠKu": 5171,
      "Ġsupply": 5172,
      "ĠMicro": 5173,
      "Ġratio": 5174,
      "IS": 5175,
      "Ġplanned": 5176,
      "Ġinvasion": 5177,
      "Ġattempts": 5178,
      "Ġmathematics": 5179,
      "zant": 5180,
      "house": 5181,
      "Ġdevice": 5182,
      "Ġpal": 5183,
      "ĠAsh": 5184,
      "Ġleadership": 5185,
      "ĠDivision": 5186,
      "ĠTexas": 5187,
      "isp": 5188,
      "igrants": 5189,
      "Ġstudied": 5190,
      "mat": 5191,
      "Ġkept": 5192,
      "ĠUnivers": 5193,
      "Ġmel": 5194,
      "Ġusers": 5195,
      "ĠExp": 5196,
      "ĠKent": 5197,
      "Ġadvoc": 5198,
      "ĠAncient": 5199,
      "Ã§": 5200,
      "ĠProf": 5201,
      "Ġruled": 5202,
      "Ġgranted": 5203,
      "oples": 5204,
      "ĠFe": 5205,
      "Ġsubstant": 5206,
      "Ġcaptured": 5207,
      "lines": 5208,
      "Ġcombination": 5209,
      "Ġdefeat": 5210,
      "Ġplat": 5211,
      "Ġmathematic": 5212,
      "Ġarts": 5213,
      "Ġ90": 5214,
      "Ġpolicies": 5215,
      "Ġfrequency": 5216,
      "Ġtwent": 5217,
      "AS": 5218,
      "TV": 5219,
      "Ġfeel": 5220,
      "Ġintroduction": 5221,
      "ĠPen": 5222,
      "ĠHindu": 5223,
      "Ġformula": 5224,
      "Ġcerem": 5225,
      "ĠCop": 5226,
      "Ġcomponents": 5227,
      "Ġanaly": 5228,
      "ĠAfghanistan": 5229,
      "89": 5230,
      "ĠGame": 5231,
      "ĠOcean": 5232,
      "Ġexisting": 5233,
      "ĠApple": 5234,
      "car": 5235,
      "Ġcompounds": 5236,
      "Ġphysic": 5237,
      "een": 5238,
      "ĠNorm": 5239,
      "Ġrequires": 5240,
      "Ġclasses": 5241,
      "erb": 5242,
      "ittle": 5243,
      "cons": 5244,
      "ĠArm": 5245,
      "ĠNews": 5246,
      "Ġexpression": 5247,
      "ĠIndu": 5248,
      "including": 5249,
      "Ġpositions": 5250,
      "Ġcontrolled": 5251,
      "Ġfair": 5252,
      "Ġrejected": 5253,
      "ĠClub": 5254,
      "ura": 5255,
      "ulpt": 5256,
      "ĠGar": 5257,
      "Ġstatement": 5258,
      "ketball": 5259,
      "Ġsignal": 5260,
      "Ġshared": 5261,
      "Ġbodies": 5262,
      "ophers": 5263,
      "Ġplans": 5264,
      "Ġ;": 5265,
      "ĠBase": 5266,
      "ĠForces": 5267,
      "Ġpossibly": 5268,
      "crete": 5269,
      "Ġsettlement": 5270,
      "wing": 5271,
      "Ġachieved": 5272,
      "Ġones": 5273,
      "Ġ1952": 5274,
      "Ġopening": 5275,
      "ellow": 5276,
      "PS": 5277,
      "iro": 5278,
      "ĠAnton": 5279,
      "ĠCroat": 5280,
      "ĠWay": 5281,
      "Ġresistance": 5282,
      "ropri": 5283,
      "cyclop": 5284,
      "Ġbirths": 5285,
      "ĠSupreme": 5286,
      "ĠPalest": 5287,
      "500": 5288,
      "Ġaid": 5289,
      "Ġhands": 5290,
      "Ġprice": 5291,
      "Ġcombat": 5292,
      "ellect": 5293,
      "iral": 5294,
      "Ġrespond": 5295,
      "ota": 5296,
      "Ġarmed": 5297,
      "teen": 5298,
      "Ġfish": 5299,
      "ĠHealth": 5300,
      "ĠFar": 5301,
      "overs": 5302,
      "Ġminutes": 5303,
      "ĠSeries": 5304,
      "Ġlearning": 5305,
      "present": 5306,
      "Ġtoward": 5307,
      "uration": 5308,
      "rec": 5309,
      "ĠâĢľ": 5310,
      "Ġencoura": 5311,
      "ĠDig": 5312,
      "ologies": 5313,
      "Ġ1957": 5314,
      "gr": 5315,
      "Ġelse": 5316,
      "33": 5317,
      "ĠCO": 5318,
      "Ġchlor": 5319,
      "Ġarms": 5320,
      "ĠNon": 5321,
      "ĠMic": 5322,
      "ĠFestival": 5323,
      "ĠArts": 5324,
      "Ġfreedom": 5325,
      "Ġvoice": 5326,
      "Ġwear": 5327,
      "Ġdance": 5328,
      "osa": 5329,
      "Ġalcoh": 5330,
      "ĠBir": 5331,
      "ĠMov": 5332,
      "Ġexternal": 5333,
      "Ġwhereas": 5334,
      "Ġinfluential": 5335,
      "gn": 5336,
      "ounder": 5337,
      "ogy": 5338,
      "Ġclosely": 5339,
      "imin": 5340,
      "ĠMong": 5341,
      "ĠAsian": 5342,
      "itness": 5343,
      "Ġreasons": 5344,
      "Ġweak": 5345,
      "ĠEducation": 5346,
      "Ġ1953": 5347,
      "ĠFreder": 5348,
      "Ġconducted": 5349,
      "Ġpurs": 5350,
      "Ġnotably": 5351,
      "ĠPhilip": 5352,
      "ceived": 5353,
      "Ġphilosopher": 5354,
      "also": 5355,
      "Ġlisted": 5356,
      "era": 5357,
      "adium": 5358,
      "Ġsquare": 5359,
      "ĠWindows": 5360,
      "ĠElizabeth": 5361,
      "uscript": 5362,
      "ĠChristmas": 5363,
      "olt": 5364,
      "etary": 5365,
      "Ġsimpl": 5366,
      "yan": 5367,
      "Ġcryst": 5368,
      "Ġgeneration": 5369,
      "Ġhere": 5370,
      "Ġcorrect": 5371,
      "ĠSecurity": 5372,
      "Ġelectronic": 5373,
      "Ġuniform": 5374,
      "Ġmaximum": 5375,
      "ĠJournal": 5376,
      "Ġshape": 5377,
      "Ġassist": 5378,
      "Ġparticles": 5379,
      "iat": 5380,
      "Ġbacter": 5381,
      "Ġatmosp": 5382,
      "Ġopportun": 5383,
      "Ġfundamental": 5384,
      "greg": 5385,
      "Ġconnect": 5386,
      "Ġunknown": 5387,
      "Ġgovernor": 5388,
      "Ġproviding": 5389,
      "cription": 5390,
      "Ġhonor": 5391,
      "ĠPersian": 5392,
      "iling": 5393,
      "amic": 5394,
      "Ġsolid": 5395,
      "Ġprojects": 5396,
      "Ġfailure": 5397,
      "kin": 5398,
      "heim": 5399,
      "ĠByzant": 5400,
      "Ġcore": 5401,
      "Ġscene": 5402,
      "pread": 5403,
      "range": 5404,
      "Ġphr": 5405,
      "Ġlat": 5406,
      "ĠCoast": 5407,
      "Ġtheorem": 5408,
      "ĠJohnson": 5409,
      "Ġsuggests": 5410,
      "Ġspect": 5411,
      "Ġowned": 5412,
      "life": 5413,
      "Ġ1938": 5414,
      "Ġuseful": 5415,
      "ĠCrit": 5416,
      "ranean": 5417,
      "Ġopin": 5418,
      "Ġdog": 5419,
      "ĠAustria": 5420,
      "Ġgenetic": 5421,
      "Ġsuffered": 5422,
      "%.": 5423,
      "Ġdivers": 5424,
      "oured": 5425,
      "ĠPubl": 5426,
      "Ġparents": 5427,
      "Ġwides": 5428,
      "ette": 5429,
      "term": 5430,
      "ĠVen": 5431,
      "omorph": 5432,
      "Ġspecifically": 5433,
      "Ġuniverse": 5434,
      "Ġheavily": 5435,
      "ĠLeon": 5436,
      "rea": 5437,
      "Ġnews": 5438,
      "Ġacts": 5439,
      "ĠIndepend": 5440,
      "Ġsecondary": 5441,
      "Ġderiv": 5442,
      "uing": 5443,
      "Ġcrisis": 5444,
      "Ġenj": 5445,
      "Ġbul": 5446,
      "ĠBig": 5447,
      "ĠDisc": 5448,
      "ĠBefore": 5449,
      "uten": 5450,
      "Ġadvanced": 5451,
      "ĠLib": 5452,
      "Ġvan": 5453,
      "Ġpair": 5454,
      "ĠTw": 5455,
      "uses": 5456,
      "Ġkilling": 5457,
      "ĠOffice": 5458,
      "ĠLes": 5459,
      "ounded": 5460,
      "Ġstrugg": 5461,
      "Ġdepart": 5462,
      "Ġmedieval": 5463,
      "Ġfighting": 5464,
      "Ġtranslated": 5465,
      "eign": 5466,
      "Ġimperial": 5467,
      "Ġoccasion": 5468,
      "Ġobtained": 5469,
      "icy": 5470,
      "related": 5471,
      "Ġequation": 5472,
      "Ġinvestig": 5473,
      "itzer": 5474,
      "ĠLewis": 5475,
      "lem": 5476,
      "Ġorbit": 5477,
      "Ġlaunch": 5478,
      "Ġeasily": 5479,
      "ĠStat": 5480,
      "ipped": 5481,
      "bell": 5482,
      "osph": 5483,
      "Ġoperated": 5484,
      "ĠAwards": 5485,
      "67": 5486,
      "Ġwinning": 5487,
      "Ġmunicip": 5488,
      "Ġpure": 5489,
      "Ġreports": 5490,
      "95": 5491,
      "Ġleave": 5492,
      "Ġcomputers": 5493,
      "Ġ1954": 5494,
      "ashion": 5495,
      "wan": 5496,
      "ĠBron": 5497,
      "opol": 5498,
      "Ġuser": 5499,
      "Ġconstructed": 5500,
      "Ġshoot": 5501,
      "Ġauthorities": 5502,
      "Ġcarry": 5503,
      "ĠAbb": 5504,
      "Ġreceive": 5505,
      "iate": 5506,
      "Ġdensity": 5507,
      "Ġenvironmental": 5508,
      "ĠKorean": 5509,
      "Ġdeveloping": 5510,
      "Ġwinter": 5511,
      "Ġquarter": 5512,
      "Ġconvent": 5513,
      "Ġlogic": 5514,
      "âĪĴ": 5515,
      "Ġbit": 5516,
      "ĠAustrian": 5517,
      "Ġtowns": 5518,
      "Ġdamage": 5519,
      "Ġmaintain": 5520,
      "Ġgoing": 5521,
      "ĠMexican": 5522,
      "Ġconduct": 5523,
      "Ġcritics": 5524,
      "Ġglass": 5525,
      "ĠMcC": 5526,
      "Ġentirely": 5527,
      "ĠStephen": 5528,
      "Ġreact": 5529,
      "eler": 5530,
      "ĠProject": 5531,
      "Ġneighbor": 5532,
      "dis": 5533,
      "Ġpublication": 5534,
      "ĠOpen": 5535,
      "Ġfelt": 5536,
      "Ġactual": 5537,
      "ĠYou": 5538,
      "Ġguitarist": 5539,
      "Ġorganized": 5540,
      "Ġ1955": 5541,
      "ĠJeff": 5542,
      "=\"": 5543,
      "Ġ177": 5544,
      "Ġmotor": 5545,
      "ĠTro": 5546,
      "Ġresidents": 5547,
      "Ġisol": 5548,
      "Ġcontained": 5549,
      "ĠDanish": 5550,
      "awa": 5551,
      "Ġmaintained": 5552,
      "lywood": 5553,
      "Ġscientists": 5554,
      "state": 5555,
      "ĠEven": 5556,
      "Ġpeak": 5557,
      "Ġexecutive": 5558,
      "Ġ#": 5559,
      "omew": 5560,
      "37": 5561,
      "Ġpra": 5562,
      "Ġwidespread": 5563,
      "Ġ1937": 5564,
      "32": 5565,
      "ora": 5566,
      "Ġ1951": 5567,
      "Ġaspects": 5568,
      "ĠThrough": 5569,
      "ĠBarb": 5570,
      "Th": 5571,
      "vard": 5572,
      "ady": 5573,
      "Ġadvantage": 5574,
      "Ġpict": 5575,
      "Ġchoice": 5576,
      "Ġgoods": 5577,
      "Ġcommunication": 5578,
      "AF": 5579,
      "ĠCP": 5580,
      "overeign": 5581,
      "ĠNet": 5582,
      "Ġportray": 5583,
      "Ġcontinuous": 5584,
      "Ġranked": 5585,
      "Ġslightly": 5586,
      "itage": 5587,
      "Ġalone": 5588,
      "Ġexam": 5589,
      "place": 5590,
      "Ġregarding": 5591,
      "Ġinhabit": 5592,
      "iah": 5593,
      "Ġacquired": 5594,
      "ĠTurkish": 5595,
      "Ã¡n": 5596,
      "ĠHor": 5597,
      "ĠGreg": 5598,
      "ĠChief": 5599,
      "Ġsail": 5600,
      "ĠRog": 5601,
      "Ġtechnique": 5602,
      "Ġstaff": 5603,
      "Ġmuseum": 5604,
      "under": 5605,
      "ĠHan": 5606,
      "issance": 5607,
      "Ġcoordin": 5608,
      "ĠAndrew": 5609,
      "Ġ1933": 5610,
      "Ġowners": 5611,
      "ĠTour": 5612,
      "ĠChild": 5613,
      "Ġregist": 5614,
      "Ġscreenwriter": 5615,
      "ĠKorea": 5616,
      "ĠSweden": 5617,
      "Ġseats": 5618,
      "Ġstring": 5619,
      "Ġtraditions": 5620,
      "iser": 5621,
      "ilding": 5622,
      "Ġdoctr": 5623,
      "Ġengineer": 5624,
      "Ġcod": 5625,
      "Ġinput": 5626,
      "Ġpaid": 5627,
      "Ġjoint": 5628,
      "opl": 5629,
      "Ġsculpt": 5630,
      "ĠDev": 5631,
      "Ġdepending": 5632,
      "Ġsusp": 5633,
      "enz": 5634,
      "iterranean": 5635,
      "iable": 5636,
      "ĠUr": 5637,
      "rin": 5638,
      "oston": 5639,
      "Ġpeoples": 5640,
      "Ġofficers": 5641,
      "Ġjuris": 5642,
      "Ġsides": 5643,
      "ession": 5644,
      "ĠFrancis": 5645,
      "Ġwebsite": 5646,
      "Ġdedicated": 5647,
      "Ġcolumn": 5648,
      "ito": 5649,
      "ĠHit": 5650,
      "Ġforward": 5651,
      "orage": 5652,
      "Ġfram": 5653,
      "Ġstop": 5654,
      "Ġemployed": 5655,
      "ĠHungarian": 5656,
      "ÅĤ": 5657,
      "antasy": 5658,
      "sk": 5659,
      "Ġroute": 5660,
      "Ġpopularity": 5661,
      "Ġcausing": 5662,
      "ĠDistrict": 5663,
      "lation": 5664,
      "ĠSuch": 5665,
      "ĠBus": 5666,
      "ounger": 5667,
      "Ġsetting": 5668,
      "umber": 5669,
      "Ġgrav": 5670,
      "ĠWomen": 5671,
      "Ġcomposition": 5672,
      "ĠCel": 5673,
      "edd": 5674,
      "MA": 5675,
      "called": 5676,
      "ĠBah": 5677,
      "Ġdism": 5678,
      "Ġattended": 5679,
      "ĠBow": 5680,
      "ĠUl": 5681,
      "Ġpurposes": 5682,
      "Ġtraff": 5683,
      "Ġaffected": 5684,
      "yes": 5685,
      "Ġcatal": 5686,
      "Ġdescent": 5687,
      "Ġ500": 5688,
      "Ġspeak": 5689,
      "Ġpoem": 5690,
      "Ġofficials": 5691,
      "ĠCD": 5692,
      "Ġvisited": 5693,
      "Ġmap": 5694,
      "Ġexists": 5695,
      "rapy": 5696,
      "ĠHo": 5697,
      "ĠKir": 5698,
      "Ġinfin": 5699,
      "Ġthousands": 5700,
      "Ġsurrounding": 5701,
      "Ġsales": 5702,
      "Ġsplit": 5703,
      "rog": 5704,
      "ĠGolden": 5705,
      "Ġsettled": 5706,
      "Ġ1936": 5707,
      "Ġabsor": 5708,
      "83": 5709,
      "down": 5710,
      "ĠFried": 5711,
      "Ġfear": 5712,
      "Ġpan": 5713,
      "sey": 5714,
      "ĠKaz": 5715,
      "ĠIndust": 5716,
      "crib": 5717,
      "ĠJersey": 5718,
      "Ġimages": 5719,
      "ĠVirginia": 5720,
      "ĠBroad": 5721,
      "Ġprinciples": 5722,
      "imens": 5723,
      "ĠGer": 5724,
      "ophical": 5725,
      "55": 5726,
      "87": 5727,
      "ĠTown": 5728,
      "ĠCat": 5729,
      "ĠWales": 5730,
      "ennis": 5731,
      "Ġmountain": 5732,
      "An": 5733,
      "wer": 5734,
      "otion": 5735,
      "ruit": 5736,
      "ĠSenate": 5737,
      "Ġ1919": 5738,
      "Ġstrateg": 5739,
      "Ġcollege": 5740,
      "Ġstrength": 5741,
      "utation": 5742,
      "ĠMediterranean": 5743,
      "Ġign": 5744,
      "Ġatoms": 5745,
      "Ġhistorians": 5746,
      "oir": 5747,
      "ĠRecords": 5748,
      "ĠJon": 5749,
      "Ġintelligence": 5750,
      "andom": 5751,
      "phone": 5752,
      "Ġce": 5753,
      "rency": 5754,
      "Ġ32": 5755,
      "Ġsufficient": 5756,
      "Ar": 5757,
      "rising": 5758,
      "ĠEgyptian": 5759,
      "Ġ1929": 5760,
      "ĠBang": 5761,
      "Ġ150": 5762,
      "Ġvector": 5763,
      "Ġrelation": 5764,
      "ĠEngine": 5765,
      "ĠNazi": 5766,
      "Ġmedicine": 5767,
      "unar": 5768,
      "ĠGard": 5769,
      "Ġtrial": 5770,
      "stone": 5771,
      "antry": 5772,
      "ĠEconomic": 5773,
      "ĠJacob": 5774,
      "Ġcancer": 5775,
      "Ġextin": 5776,
      "Un": 5777,
      "struction": 5778,
      "ĠBos": 5779,
      "iph": 5780,
      "Ġorders": 5781,
      "Ġcensus": 5782,
      "ĠLove": 5783,
      "insula": 5784,
      "Ġstudio": 5785,
      "Ġeditor": 5786,
      "Ġviolence": 5787,
      "Ġtermin": 5788,
      "Ġliquid": 5789,
      "ĠTre": 5790,
      "ĠProtestant": 5791,
      "kh": 5792,
      "inson": 5793,
      "Ġelectro": 5794,
      "Ġholds": 5795,
      "fall": 5796,
      "ĠLine": 5797,
      "Ġreven": 5798,
      "ĠLike": 5799,
      "Ġschem": 5800,
      "Ġdang": 5801,
      "aya": 5802,
      "Ġimproved": 5803,
      "Ġrepeated": 5804,
      "Ġperhaps": 5805,
      "ictions": 5806,
      "ĠPlan": 5807,
      "Ġusage": 5808,
      "ĠThough": 5809,
      "ĠValley": 5810,
      "Ġultimately": 5811,
      "ĠBetween": 5812,
      "Al": 5813,
      "angel": 5814,
      "ĠHungary": 5815,
      "point": 5816,
      "Ġmaster": 5817,
      "atically": 5818,
      "ĠBoston": 5819,
      "Ġtherm": 5820,
      "ĠSpecial": 5821,
      "Ġbackground": 5822,
      "ser": 5823,
      "Ġbra": 5824,
      "ragon": 5825,
      "ellectual": 5826,
      "racted": 5827,
      "Ġrailway": 5828,
      "ource": 5829,
      "amber": 5830,
      "Ġran": 5831,
      "ĠColl": 5832,
      "ĠSat": 5833,
      "ĠMaced": 5834,
      "ĠLim": 5835,
      "ĠBall": 5836,
      "Ġ1917": 5837,
      "ugby": 5838,
      "Is": 5839,
      "Ġsup": 5840,
      "ronic": 5841,
      "Ġpainting": 5842,
      "ii": 5843,
      "Ġfile": 5844,
      "Ġpractices": 5845,
      "34": 5846,
      "ĠLu": 5847,
      "Ġpresidential": 5848,
      "Ġconsc": 5849,
      "ĠRh": 5850,
      "Ġconcluded": 5851,
      "Ġsemi": 5852,
      "Ġagricultural": 5853,
      "ĠAC": 5854,
      "Ġstable": 5855,
      "ĠArmen": 5856,
      "Ġban": 5857,
      "Ġabol": 5858,
      "Ġroom": 5859,
      "ĠProgram": 5860,
      "ĠToday": 5861,
      "Ġnit": 5862,
      "Ġactors": 5863,
      "Ġsister": 5864,
      "Ġ1914": 5865,
      "from": 5866,
      "Ġinher": 5867,
      "ira": 5868,
      "quarters": 5869,
      "Ġmedium": 5870,
      "ĠJustice": 5871,
      "uous": 5872,
      "Ġmovie": 5873,
      "ĠRelig": 5874,
      "ĠDenmark": 5875,
      "Ġcovered": 5876,
      "Ġproducing": 5877,
      "Ġzero": 5878,
      "ĠMoroc": 5879,
      "ĠIV": 5880,
      "ographical": 5881,
      "Ġtemperatures": 5882,
      "ĠRay": 5883,
      "ĠRod": 5884,
      "Ġrh": 5885,
      "Ġhockey": 5886,
      "ĠWork": 5887,
      "udget": 5888,
      "kes": 5889,
      "oes": 5890,
      "Ġarticles": 5891,
      "aming": 5892,
      "etime": 5893,
      "Ġcontributed": 5894,
      "Ġpopulations": 5895,
      "ĠGuard": 5896,
      "ĠFrancisco": 5897,
      "ĠMaur": 5898,
      "Ġconnection": 5899,
      "Ġquite": 5900,
      "Ġvehicles": 5901,
      "umes": 5902,
      "ĠPhys": 5903,
      "Ġparallel": 5904,
      "Ġsort": 5905,
      "ĠConvention": 5906,
      "Ġtypical": 5907,
      "Ġemerged": 5908,
      "ĠMarx": 5909,
      "Ġprogress": 5910,
      "Ġargument": 5911,
      "organ": 5912,
      "ĠSym": 5913,
      "Ġdecline": 5914,
      "Ġaudience": 5915,
      "ĠFootball": 5916,
      "Ġvoc": 5917,
      "Ġexpect": 5918,
      "Ġphysics": 5919,
      "BS": 5920,
      "Ġgain": 5921,
      "enna": 5922,
      "ĠAh": 5923,
      "Ġlives": 5924,
      "Ġnewly": 5925,
      "Ġwritings": 5926,
      "stream": 5927,
      "Ġcycl": 5928,
      "Ã³n": 5929,
      "bro": 5930,
      "ĠRoad": 5931,
      "Ġwars": 5932,
      "Ġflat": 5933,
      "Ġinvestment": 5934,
      "Ġabsol": 5935,
      "power": 5936,
      "Ġhus": 5937,
      "ugos": 5938,
      "Ġfeed": 5939,
      "Ġoccupied": 5940,
      "jan": 5941,
      "rane": 5942,
      "Ġago": 5943,
      "Ġprincipal": 5944,
      "Ġmolecules": 5945,
      "ecution": 5946,
      "burgh": 5947,
      "Ġchosen": 5948,
      "48": 5949,
      "Ġtrain": 5950,
      "Ġwild": 5951,
      "itionally": 5952,
      "Ġrevealed": 5953,
      "ĠHug": 5954,
      "Ġbasketball": 5955,
      "Ġhouses": 5956,
      "resh": 5957,
      "Ġmanuscript": 5958,
      "ienced": 5959,
      "rator": 5960,
      "Ġtribes": 5961,
      "ĠTri": 5962,
      "ĠMen": 5963,
      "ĠBlue": 5964,
      "Ġhypothes": 5965,
      "itled": 5966,
      "100": 5967,
      "ĠHell": 5968,
      "Ġvisit": 5969,
      "Ġbegins": 5970,
      "Ġmoral": 5971,
      "Ġofficer": 5972,
      "Ġpiece": 5973,
      "IV": 5974,
      "Ġrepresentation": 5975,
      "icism": 5976,
      "ĠIv": 5977,
      "ĠUk": 5978,
      "Ġfeat": 5979,
      "Ġradiation": 5980,
      "Ġcrime": 5981,
      "Ġdebate": 5982,
      "ĠLiter": 5983,
      "Ġenjoy": 5984,
      "49": 5985,
      "ĠArtic": 5986,
      "'.": 5987,
      "ĠProv": 5988,
      "Ġconfirmed": 5989,
      "Ġcalendar": 5990,
      "edition": 5991,
      "ĠHong": 5992,
      "ĠLabor": 5993,
      "eget": 5994,
      "ĠOrganization": 5995,
      "Ġassass": 5996,
      "Ġfinished": 5997,
      "Ġnovels": 5998,
      "Ġtransform": 5999,
      "Ġapproved": 6000,
      "Ġaccounts": 6001,
      "Ġfer": 6002,
      "ultan": 6003,
      "clusion": 6004,
      "ĠDaniel": 6005,
      "Ġfifth": 6006,
      "66": 6007,
      "Ġdetermine": 6008,
      "iciency": 6009,
      "gu": 6010,
      "hum": 6011,
      "ĠGuine": 6012,
      "icks": 6013,
      "Ġfrag": 6014,
      "adel": 6015,
      "ĠDue": 6016,
      "resents": 6017,
      "Ġmovements": 6018,
      "Ġ1901": 6019,
      "ĠField": 6020,
      "abul": 6021,
      "Ġrival": 6022,
      "Ġdisput": 6023,
      "Ġion": 6024,
      "ĠAud": 6025,
      "Ġotherwise": 6026,
      "achus": 6027,
      "Ġexception": 6028,
      "Ġchalleng": 6029,
      "Ġanarch": 6030,
      "Ġformat": 6031,
      "rav": 6032,
      "39": 6033,
      "Ġengines": 6034,
      "ĨĴ": 6035,
      "Ġsn": 6036,
      "Ġsty": 6037,
      "Ġ45": 6038,
      "Ġdefense": 6039,
      "etts": 6040,
      "liography": 6041,
      "vest": 6042,
      "Ġchart": 6043,
      "Ġdrive": 6044,
      "gment": 6045,
      "Ġ1924": 6046,
      "unc": 6047,
      "ĠWeb": 6048,
      "Ġroughly": 6049,
      "Ġ1922": 6050,
      "Ġconcepts": 6051,
      "Ġsteel": 6052,
      "ĠTreaties": 6053,
      "stood": 6054,
      "cts": 6055,
      "Ġexerc": 6056,
      "ĠSimilar": 6057,
      "Ġcinem": 6058,
      "ĠTurkey": 6059,
      "Ġmanufactur": 6060,
      "IT": 6061,
      "itic": 6062,
      "Ġattend": 6063,
      "ĠMax": 6064,
      "Ġmathematical": 6065,
      "ĠÂ£": 6066,
      "pa": 6067,
      "Ġ1900": 6068,
      "Ġtechnical": 6069,
      "ĠTal": 6070,
      "ĠConc": 6071,
      "Ġgreatly": 6072,
      "Ġbott": 6073,
      "Ġbusinessman": 6074,
      "Ġdominant": 6075,
      "Ġstone": 6076,
      "ĠLet": 6077,
      "ĠSerb": 6078,
      "Ġextent": 6079,
      "ĠColor": 6080,
      "iny": 6081,
      "ĠSar": 6082,
      "Ġpreced": 6083,
      "Ġ1928": 6084,
      "Ġinterpre": 6085,
      "operation": 6086,
      "Ġpieces": 6087,
      "ĠPenn": 6088,
      "Ġprotein": 6089,
      "Ġsucceeded": 6090,
      "soft": 6091,
      "outheast": 6092,
      "iop": 6093,
      "Ġrepresents": 6094,
      "Ġ1934": 6095,
      "rastructure": 6096,
      "Ġconverted": 6097,
      "roduction": 6098,
      "urance": 6099,
      "ĠGib": 6100,
      "Ġspiritual": 6101,
      "Ġsomew": 6102,
      "ĠBoy": 6103,
      "Ġ1935": 6104,
      "ylv": 6105,
      "hol": 6106,
      "ublin": 6107,
      "Ġcontinues": 6108,
      "Ġlinked": 6109,
      "Ġinhabitants": 6110,
      "Ġstock": 6111,
      "Ġunable": 6112,
      "hess": 6113,
      "Ġresearc": 6114,
      "ĠPier": 6115,
      "Ġdiscovery": 6116,
      "Ġ1921": 6117,
      "Ġvillage": 6118,
      "hire": 6119,
      "Ġgir": 6120,
      "ova": 6121,
      "Ġextremely": 6122,
      "Ġchannel": 6123,
      "Ġgovernments": 6124,
      "ĠAtt": 6125,
      "ĠAngl": 6126,
      "Ġmeasures": 6127,
      "fully": 6128,
      "III": 6129,
      "bu": 6130,
      "rees": 6131,
      "Ġvast": 6132,
      "Ġteaching": 6133,
      "set": 6134,
      "ĠJr": 6135,
      "Ġheight": 6136,
      "Ġring": 6137,
      "Ġchain": 6138,
      "Ġneeds": 6139,
      "Ġtitled": 6140,
      "Ġprohib": 6141,
      "Ġ1932": 6142,
      "ĠIsraeli": 6143,
      "Ġdrink": 6144,
      "Ġquantum": 6145,
      "Ġbad": 6146,
      "ĠCas": 6147,
      "Ġmanaged": 6148,
      "cell": 6149,
      "itarian": 6150,
      "Ġportion": 6151,
      "Ġbig": 6152,
      "ĠEst": 6153,
      "ĠStandard": 6154,
      "Ġtim": 6155,
      "Ġjurisd": 6156,
      "ĠCost": 6157,
      "ĠHond": 6158,
      "Ġindicate": 6159,
      "ĠMichigan": 6160,
      "Ġvess": 6161,
      "olar": 6162,
      "ĠMarg": 6163,
      "ĠFoundation": 6164,
      "lig": 6165,
      "ĠBru": 6166,
      "Ġgenre": 6167,
      "Ġinvolving": 6168,
      "Ġinterpretation": 6169,
      "Ġswe": 6170,
      "Ġminist": 6171,
      "ĠOd": 6172,
      "ĠEnd": 6173,
      "Ġconsisting": 6174,
      "tes": 6175,
      "aven": 6176,
      "Ġelectrons": 6177,
      "eld": 6178,
      "Ġ(),": 6179,
      "Ġattributed": 6180,
      "rat": 6181,
      "ĠÅ": 6182,
      "Ġscore": 6183,
      "Ġpray": 6184,
      "Ġrein": 6185,
      "aka": 6186,
      "Ġrapidly": 6187,
      "Ġfashion": 6188,
      "ĠSong": 6189,
      "ĠId": 6190,
      "Ġsatell": 6191,
      "Ġfought": 6192,
      "ima": 6193,
      "ifications": 6194,
      "Ġending": 6195,
      "ĠJohann": 6196,
      "Ġsurvey": 6197,
      "communic": 6198,
      "36": 6199,
      "ba": 6200,
      "ancing": 6201,
      "Ġmulti": 6202,
      "ĠPhilipp": 6203,
      "ĠMinistry": 6204,
      "ader": 6205,
      "Ġpros": 6206,
      "wealth": 6207,
      "Ġsatisf": 6208,
      "Ġclassified": 6209,
      "Ġcorn": 6210,
      "ĠFrederick": 6211,
      "ĠSund": 6212,
      "ĠArist": 6213,
      "Ġarchae": 6214,
      "Ġliberal": 6215,
      "Ġsun": 6216,
      "Ġtransition": 6217,
      "ĠStudies": 6218,
      "Ġcoming": 6219,
      "Ġconcentration": 6220,
      "ĠSand": 6221,
      "Ġadministrative": 6222,
      "Ġsovereign": 6223,
      "ĠAk": 6224,
      "Ġtraditionally": 6225,
      "Ġspeakers": 6226,
      "Ġbroke": 6227,
      "Ġille": 6228,
      "Ġ300": 6229,
      "Ġvalid": 6230,
      "Ġsumm": 6231,
      "Ġchap": 6232,
      "ĠFinnish": 6233,
      "iations": 6234,
      "ĠSon": 6235,
      "Ġstorage": 6236,
      "Ġ1923": 6237,
      "Ġnearby": 6238,
      "Ġstrongly": 6239,
      "Ġproteins": 6240,
      "RC": 6241,
      "grad": 6242,
      "Ġalt": 6243,
      "Ġrecording": 6244,
      "Ġoppos": 6245,
      "Ġcourts": 6246,
      "Ġdates": 6247,
      "ĠLittle": 6248,
      "Ġspring": 6249,
      "31": 6250,
      "ĠAges": 6251,
      "ĠLyn": 6252,
      "ivals": 6253,
      "Ġroles": 6254,
      "ropolitan": 6255,
      "Ġimag": 6256,
      "ĠProdu": 6257,
      "ĠPruss": 6258,
      "Ġalongside": 6259,
      "ĠMalays": 6260,
      "Ġlabel": 6261,
      "Ġvisual": 6262,
      "Ġpermanent": 6263,
      "ĠChile": 6264,
      "Ġfleet": 6265,
      "ĠHitler": 6266,
      "97": 6267,
      "ĠDer": 6268,
      "Ġnewspaper": 6269,
      "54": 6270,
      "Ġbind": 6271,
      "ials": 6272,
      "ja": 6273,
      "ela": 6274,
      "Ġroll": 6275,
      "Ġhun": 6276,
      "Ġunp": 6277,
      "ĠAbd": 6278,
      "ĠPC": 6279,
      "ĠKansas": 6280,
      "Ġfirm": 6281,
      "aints": 6282,
      "Ġtitles": 6283,
      "Ġpersonnel": 6284,
      "Ġadvert": 6285,
      "elve": 6286,
      "ĠLy": 6287,
      "Ġmand": 6288,
      "ĠDam": 6289,
      "ictional": 6290,
      "ules": 6291,
      "84": 6292,
      "Ġtaught": 6293,
      "ĠWater": 6294,
      "hard": 6295,
      "Ġcab": 6296,
      "iants": 6297,
      "agen": 6298,
      "ĠVar": 6299,
      "Ġdeclined": 6300,
      "Ġimprove": 6301,
      "Ġ1926": 6302,
      "Ġcrim": 6303,
      "Ä«": 6304,
      "Ġcars": 6305,
      "aly": 6306,
      "Ġgene": 6307,
      "Ġ1931": 6308,
      "ĠDougl": 6309,
      "enses": 6310,
      "Ġincreases": 6311,
      "Ġaffect": 6312,
      "AM": 6313,
      "Ġelev": 6314,
      "Ġzone": 6315,
      "Ġtraffic": 6316,
      "asm": 6317,
      "Ġassociation": 6318,
      "Ġsubm": 6319,
      "ĠFather": 6320,
      "ĠMand": 6321,
      "Ġslaves": 6322,
      "Ġparam": 6323,
      "Ġdocuments": 6324,
      "Ġnarrow": 6325,
      "ĠAff": 6326,
      "Ġdefend": 6327,
      "Ġdeliver": 6328,
      "Ġpilot": 6329,
      "Ġindigenous": 6330,
      "Ġabst": 6331,
      "ĠHistorical": 6332,
      "Ġcrick": 6333,
      "Ġhal": 6334,
      "bal": 6335,
      "ĠRet": 6336,
      "Ġlibrary": 6337,
      "pective": 6338,
      "theless": 6339,
      "hedral": 6340,
      "Ġ1925": 6341,
      "Ġexperienced": 6342,
      "Ġalleged": 6343,
      "come": 6344,
      "RT": 6345,
      "ĠCharl": 6346,
      "Ġbegin": 6347,
      "Ġinnov": 6348,
      "Ġalter": 6349,
      "Ġrequest": 6350,
      "Ġmagnetic": 6351,
      "Ġcorresponding": 6352,
      "Ġthousand": 6353,
      "Ġcards": 6354,
      "Ġkil": 6355,
      "erals": 6356,
      "Ġmilit": 6357,
      "illing": 6358,
      "Ġcriticism": 6359,
      "ji": 6360,
      "Ġcold": 6361,
      "ĠGoth": 6362,
      "ĠGermanic": 6363,
      "ĠKhan": 6364,
      "Ġsymbols": 6365,
      "Ġbishop": 6366,
      "Ġmental": 6367,
      "ĠCr": 6368,
      "emic": 6369,
      "ĠKa": 6370,
      "Ġcultures": 6371,
      "ĠByzantine": 6372,
      "Ġgal": 6373,
      "ĠDun": 6374,
      "eller": 6375,
      "Ġperiods": 6376,
      "ĠTransport": 6377,
      "ĠCommunity": 6378,
      "achusetts": 6379,
      "ture": 6380,
      "Ġbow": 6381,
      "Ġprocessing": 6382,
      "Ġvariable": 6383,
      "ouri": 6384,
      "Ġviewed": 6385,
      "udes": 6386,
      "ĠEncyclop": 6387,
      "Ġevolved": 6388,
      "Ġfocused": 6389,
      "Ġlabour": 6390,
      "speaking": 6391,
      "Ġplane": 6392,
      "Ġalcohol": 6393,
      "\";": 6394,
      "alse": 6395,
      "Ġbrand": 6396,
      "Ġselected": 6397,
      "ĠVan": 6398,
      "Ġmerch": 6399,
      "Ġinstitution": 6400,
      "atters": 6401,
      "ĠProfess": 6402,
      "Ġwalk": 6403,
      "ĠCapt": 6404,
      "ĠEston": 6405,
      "Ġvel": 6406,
      "Ġrural": 6407,
      "Ġshall": 6408,
      "Ġsole": 6409,
      "ĠBelg": 6410,
      "Ġdaily": 6411,
      "Ġexport": 6412,
      "Ġpartners": 6413,
      "Ġplatform": 6414,
      "ĠCatal": 6415,
      "aved": 6416,
      "know": 6417,
      "ĠTechnology": 6418,
      "ĠHy": 6419,
      "ployment": 6420,
      "icians": 6421,
      "ĠCyp": 6422,
      "Ġsafety": 6423,
      "ĠAlfred": 6424,
      "Ġproof": 6425,
      "ache": 6426,
      "ighth": 6427,
      "Ġprepar": 6428,
      "Ġregime": 6429,
      "Ġappropri": 6430,
      "Ġsevere": 6431,
      "ĠCorporation": 6432,
      "Ġdescription": 6433,
      "Ġconsiderable": 6434,
      "Ġcas": 6435,
      "Ġsan": 6436,
      "abil": 6437,
      "Ġformally": 6438,
      "Ġestablishment": 6439,
      "Ġacting": 6440,
      "Ġ1927": 6441,
      "ĠAnglo": 6442,
      "EA": 6443,
      "ĠConfeder": 6444,
      "ĠMassachusetts": 6445,
      "aism": 6446,
      "atab": 6447,
      "Ġyield": 6448,
      "Ġmodified": 6449,
      "Ġfranch": 6450,
      "Ġtrees": 6451,
      "cow": 6452,
      "ĠShort": 6453,
      "Ġhusband": 6454,
      "Ġcomic": 6455,
      "Ã©e": 6456,
      "ĠCommunist": 6457,
      "ĠPolitical": 6458,
      "Ġnothing": 6459,
      "Ġadvance": 6460,
      "Ġmessage": 6461,
      "ooth": 6462,
      "ager": 6463,
      "ĠOh": 6464,
      "Ġserving": 6465,
      "Ġcorpor": 6466,
      "Ġhorse": 6467,
      "ĠIP": 6468,
      "ribute": 6469,
      "Ġpractical": 6470,
      "Ġtreaty": 6471,
      "Ġcolonies": 6472,
      "Ġinform": 6473,
      "ĠFord": 6474,
      "81": 6475,
      "ĠTrad": 6476,
      "Ġtruth": 6477,
      "Ġmanner": 6478,
      "issions": 6479,
      "Ġdomain": 6480,
      "ĠGuinea": 6481,
      "Ġbinary": 6482,
      "Ġseat": 6483,
      "ĠLanguage": 6484,
      "sch": 6485,
      "oto": 6486,
      "ĠOnly": 6487,
      "ĠSwiss": 6488,
      "def": 6489,
      "ĠNapole": 6490,
      "antly": 6491,
      "ĠColon": 6492,
      "Ġhousehold": 6493,
      "ificial": 6494,
      "dess": 6495,
      "Ġrecognition": 6496,
      "ĠTop": 6497,
      "ĠMir": 6498,
      "Ġseems": 6499,
      "Ġyounger": 6500,
      "Ġjazz": 6501,
      "Ġdriver": 6502,
      "46": 6503,
      "ĠMarsh": 6504,
      "Ġchampions": 6505,
      "Ġcharacteristics": 6506,
      "Ġagriculture": 6507,
      "ĠComputer": 6508,
      "Ġpoetry": 6509,
      "Ġdialect": 6510,
      "ĠAnti": 6511,
      "iga": 6512,
      "Ġstream": 6513,
      "hens": 6514,
      "ĠLuther": 6515,
      "Ã¼r": 6516,
      "ĠMuslims": 6517,
      "Ġvehicle": 6518,
      "SM": 6519,
      "Ġanthrop": 6520,
      "ĠGames": 6521,
      "seud": 6522,
      "Ġbridge": 6523,
      "Ġchemistry": 6524,
      "bi": 6525,
      "Ġspaces": 6526,
      "Ġunderstood": 6527,
      "Ġdecade": 6528,
      "Ġconcerns": 6529,
      "ibbean": 6530,
      "ĠTheatre": 6531,
      "claimed": 6532,
      "Ġalphabet": 6533,
      "inth": 6534,
      "onald": 6535,
      "Ġyour": 6536,
      "Ġattract": 6537,
      "going": 6538,
      "Ġsle": 6539,
      "ĠVis": 6540,
      "Ġextreme": 6541,
      "ĠGood": 6542,
      "Ġcool": 6543,
      "Ġcriminal": 6544,
      "law": 6545,
      "org": 6546,
      "Ġinterests": 6547,
      "ĠScient": 6548,
      "Ġcapable": 6549,
      "Ġmeasured": 6550,
      "Ġmathematician": 6551,
      "Ġnaval": 6552,
      "ĠCommonwealth": 6553,
      "TP": 6554,
      "ĠBoard": 6555,
      "ĠVietnam": 6556,
      "ĠFox": 6557,
      "Ġchair": 6558,
      "Ġminimum": 6559,
      "inations": 6560,
      "ĠIC": 6561,
      "Ġcomponent": 6562,
      "Ġconcert": 6563,
      "Ġansw": 6564,
      "Ġpione": 6565,
      "ĠVi": 6566,
      "Ġdesigns": 6567,
      "Ġmagnitude": 6568,
      "gence": 6569,
      "Ġsupporting": 6570,
      "ĠMes": 6571,
      "ĠGulf": 6572,
      "ructions": 6573,
      "ĠIndonesia": 6574,
      "ĠChem": 6575,
      "Ġnav": 6576,
      "Ġcategory": 6577,
      "Ġatomic": 6578,
      "Ġelectrical": 6579,
      "Ġactivist": 6580,
      "Ġenemy": 6581,
      "Ġexpand": 6582,
      "ĠHawai": 6583,
      "ĠMongol": 6584,
      "alin": 6585,
      "38": 6586,
      "osure": 6587,
      "agement": 6588,
      "Ġseparated": 6589,
      "Ġaccompan": 6590,
      "Ġincorporated": 6591,
      "uras": 6592,
      "Ġfeaturing": 6593,
      "Ġperfect": 6594,
      "ĠCountry": 6595,
      "ga": 6596,
      "iy": 6597,
      "ĠPower": 6598,
      "ĠGeorgia": 6599,
      "ĠCentre": 6600,
      "Ġelimin": 6601,
      "Ġuniversal": 6602,
      "Ġcounty": 6603,
      "Ġassumed": 6604,
      "Ġargues": 6605,
      "Ġnetworks": 6606,
      "Ġtal": 6607,
      "ĠMid": 6608,
      "ĠBa": 6609,
      "ishops": 6610,
      "ampion": 6611,
      "ĠHollywood": 6612,
      "Ġcoastal": 6613,
      "DA": 6614,
      "lan": 6615,
      "Ġtren": 6616,
      "Ġmort": 6617,
      "ĠBush": 6618,
      "Ġrivers": 6619,
      "ambig": 6620,
      "ĠDavis": 6621,
      "Ġsuccessfully": 6622,
      "Ġthr": 6623,
      "Ġadapted": 6624,
      "ko": 6625,
      "icide": 6626,
      "amics": 6627,
      "erted": 6628,
      "Ġgar": 6629,
      "ĠDublin": 6630,
      "Ġstrict": 6631,
      "ĠHa": 6632,
      "Ġhyper": 6633,
      "rance": 6634,
      "ĠColomb": 6635,
      "ĠLatv": 6636,
      "Ġstress": 6637,
      "ĠDie": 6638,
      "Ġintellectual": 6639,
      "Ġassigned": 6640,
      "Ġeffectively": 6641,
      "ĠGi": 6642,
      "Ġmusicians": 6643,
      "Ġrational": 6644,
      "Ġfacilities": 6645,
      "ĠSem": 6646,
      "Ġtwice": 6647,
      "Ġmanufacturing": 6648,
      "ĠAdminist": 6649,
      "Ã±": 6650,
      "Ġdescend": 6651,
      "ĠMun": 6652,
      "ims": 6653,
      "Ġcalls": 6654,
      "44": 6655,
      "inus": 6656,
      "Ġnoun": 6657,
      "Ġcomedy": 6658,
      "Ġexplicit": 6659,
      "ĠHarry": 6660,
      "Ġdominated": 6661,
      "ĠMembers": 6662,
      "Ġbeliefs": 6663,
      "Euro": 6664,
      "rig": 6665,
      "alo": 6666,
      "Ġcosm": 6667,
      "Ġtools": 6668,
      "ĠGram": 6669,
      "Ġveget": 6670,
      "ĠOs": 6671,
      "ĠExamples": 6672,
      "ĠFlor": 6673,
      "ifies": 6674,
      "ĠNewton": 6675,
      "Ġexplos": 6676,
      "Ġnick": 6677,
      "ĠIBM": 6678,
      "nce": 6679,
      "rary": 6680,
      "Ġfounder": 6681,
      "othe": 6682,
      "ĠLog": 6683,
      "Ġcommander": 6684,
      "Ġprint": 6685,
      "Ġ65": 6686,
      "Ġexperiments": 6687,
      "96": 6688,
      "ropical": 6689,
      "Ġconscious": 6690,
      "EE": 6691,
      "roup": 6692,
      "Ġyouth": 6693,
      "Ġconvention": 6694,
      "Ġnote": 6695,
      "ĠConference": 6696,
      "Ġteach": 6697,
      "Ġstyles": 6698,
      "osexual": 6699,
      "ĠLebanon": 6700,
      "ĠAM": 6701,
      "ĠHot": 6702,
      "dam": 6703,
      "zym": 6704,
      "Ġ*": 6705,
      "Ġweb": 6706,
      "Ġinvolves": 6707,
      "billion": 6708,
      "Ġexplan": 6709,
      "FC": 6710,
      "nes": 6711,
      "onom": 6712,
      "Ġclassification": 6713,
      "ĠKarl": 6714,
      "Ġrecip": 6715,
      "Ġabandoned": 6716,
      "Ġtwenty": 6717,
      "Ġopposite": 6718,
      "Ġbiological": 6719,
      "Ġcuis": 6720,
      "Ġcosts": 6721,
      "ĠâĨĴ": 6722,
      "ĠWorks": 6723,
      "Ġnormally": 6724,
      "ET": 6725,
      "Ġbudget": 6726,
      "ibn": 6727,
      "Ġholding": 6728,
      "98": 6729,
      "ĠHans": 6730,
      "Ġclubs": 6731,
      "ĠDoctor": 6732,
      "77": 6733,
      "ordan": 6734,
      "Ġsuccessor": 6735,
      "Ġhardware": 6736,
      "jection": 6737,
      "ĠDom": 6738,
      "Ġrich": 6739,
      "ĠCaribbean": 6740,
      "ĠMoscow": 6741,
      "mm": 6742,
      "xic": 6743,
      "Ġsust": 6744,
      "Ġentry": 6745,
      "Ġvo": 6746,
      "ĠHarvard": 6747,
      "Ġcogn": 6748,
      "Ġ1912": 6749,
      "ĠMuham": 6750,
      "upp": 6751,
      "ĠEqu": 6752,
      "Ġdry": 6753,
      "ĠHome": 6754,
      "rons": 6755,
      "ĠIsa": 6756,
      "Ġpersons": 6757,
      "Ġlie": 6758,
      "Ġonto": 6759,
      "IM": 6760,
      "Ġrob": 6761,
      "roscop": 6762,
      "Ġdocumentary": 6763,
      "Ġsilver": 6764,
      "BA": 6765,
      "Ġwant": 6766,
      "Ġgradually": 6767,
      "Ġexisted": 6768,
      "ĠCorps": 6769,
      "Ġuniversities": 6770,
      "Ġideal": 6771,
      "ĠTrade": 6772,
      "asure": 6773,
      "Ġ1910": 6774,
      "Ġtransferred": 6775,
      "ĠDigital": 6776,
      "Ġthrone": 6777,
      "Ġunf": 6778,
      "mod": 6779,
      "Ġdesignated": 6780,
      "Ġmouth": 6781,
      "Ġ1916": 6782,
      "Ġexplained": 6783,
      "fare": 6784,
      "oa": 6785,
      "town": 6786,
      "ĠLight": 6787,
      "Ġefficient": 6788,
      "Ġunderstand": 6789,
      "Ġaccused": 6790,
      "Ġoperate": 6791,
      "Ġarrang": 6792,
      "after": 6793,
      "lets": 6794,
      "uster": 6795,
      "Ġpromoted": 6796,
      "ĠMicrosoft": 6797,
      "Ġcharacterized": 6798,
      "Ġdialects": 6799,
      "Ġmist": 6800,
      "Ġdiplomatic": 6801,
      "venth": 6802,
      "Eng": 6803,
      "Ġstraight": 6804,
      "68": 6805,
      "level": 6806,
      "ĠFle": 6807,
      "tym": 6808,
      "Ġdiscip": 6809,
      "ictionary": 6810,
      "Ġattacked": 6811,
      "ĠGene": 6812,
      "Ġproceed": 6813,
      "acc": 6814,
      "Ġselection": 6815,
      "inois": 6816,
      "Ġachieve": 6817,
      "ĠTa": 6818,
      "Ġalk": 6819,
      "avel": 6820,
      "ĠKal": 6821,
      "Ġequations": 6822,
      "Ġfinite": 6823,
      "Ġsympt": 6824,
      "umni": 6825,
      "Ġpick": 6826,
      "Ġdub": 6827,
      "ĠAuthor": 6828,
      "2000": 6829,
      "Ġplayw": 6830,
      "ugoslav": 6831,
      "press": 6832,
      "Ġpredomin": 6833,
      "Ġdie": 6834,
      "Ġwhy": 6835,
      "anto": 6836,
      "ĠUnlike": 6837,
      "ĠJudaism": 6838,
      "bar": 6839,
      "nia": 6840,
      "rÃ©": 6841,
      "Ġfavour": 6842,
      "Ġcomparison": 6843,
      "Ġmobile": 6844,
      "eless": 6845,
      "athan": 6846,
      "long": 6847,
      "uania": 6848,
      "Ġeval": 6849,
      "ĠMuhammad": 6850,
      "Ġtiss": 6851,
      "Ġdrop": 6852,
      "ĠBibliography": 6853,
      "Ġcommitted": 6854,
      "Ġphon": 6855,
      "itual": 6856,
      "larg": 6857,
      "ĠBol": 6858,
      "agh": 6859,
      "Ġentertain": 6860,
      "Ġstrip": 6861,
      "42": 6862,
      "Ġbeaut": 6863,
      "Ġsubjects": 6864,
      "ĠMain": 6865,
      "Ġbands": 6866,
      "Ġreality": 6867,
      "Ġphilosophers": 6868,
      "ĠMissouri": 6869,
      "ML": 6870,
      "avery": 6871,
      "eline": 6872,
      "Ġgender": 6873,
      "ĠRights": 6874,
      "Ġtrading": 6875,
      "Ġdetect": 6876,
      "Ġmembership": 6877,
      "ĠDonald": 6878,
      "ĠPortugal": 6879,
      "Ġfil": 6880,
      "Ġdraft": 6881,
      "ĠNight": 6882,
      "Ġselect": 6883,
      "apse": 6884,
      "ĠSciences": 6885,
      "Ġopinion": 6886,
      "urd": 6887,
      "ĠRam": 6888,
      "Ġadvent": 6889,
      "Ġlegislation": 6890,
      "ĠSyn": 6891,
      "ĠEll": 6892,
      "ĠLind": 6893,
      "obe": 6894,
      "Ġinfrastructure": 6895,
      "Ġpatterns": 6896,
      "Ġhistoric": 6897,
      "Ġadopt": 6898,
      "ĠDor": 6899,
      "Ġcompl": 6900,
      "Ġexecuted": 6901,
      "Ġmetals": 6902,
      "non": 6903,
      "Ġcolony": 6904,
      "ĠMr": 6905,
      "Ġforming": 6906,
      "Ġacceler": 6907,
      "Ġdestruction": 6908,
      "Ġprovinces": 6909,
      "oen": 6910,
      "Ġsons": 6911,
      "Ġrugby": 6912,
      "Ġquestions": 6913,
      "LA": 6914,
      "Ġconj": 6915,
      "Ġneither": 6916,
      "Ġvisible": 6917,
      "asts": 6918,
      "ĠConn": 6919,
      "Ġreforms": 6920,
      "ĠCab": 6921,
      "ĠOt": 6922,
      "ĠAdam": 6923,
      "Ġsoldier": 6924,
      "Ġcrown": 6925,
      "Ġtom": 6926,
      "ĠGil": 6927,
      "ĠLuke": 6928,
      "ĠNatural": 6929,
      "ĠEnter": 6930,
      "Ġdepos": 6931,
      "Ġmassive": 6932,
      "Ġlayer": 6933,
      "Ġshar": 6934,
      "Ġmode": 6935,
      "ĠWilliams": 6936,
      "62": 6937,
      "92": 6938,
      "je": 6939,
      "Ġsoul": 6940,
      "ĠSax": 6941,
      "Ġleads": 6942,
      "ĠErn": 6943,
      "Ġwalls": 6944,
      "Ġadding": 6945,
      "Ġreferences": 6946,
      "Ġoxid": 6947,
      "Ġburied": 6948,
      "inder": 6949,
      "aration": 6950,
      "Ġgods": 6951,
      "Ġtreated": 6952,
      "Europe": 6953,
      "Ġdisorder": 6954,
      "Ġacids": 6955,
      "Ġextension": 6956,
      "cers": 6957,
      "Ġ1913": 6958,
      "Ġdegrees": 6959,
      "Ġcited": 6960,
      "Ġmac": 6961,
      "ĠEthiop": 6962,
      "IN": 6963,
      "olph": 6964,
      "Ġphysician": 6965,
      "Ġmamm": 6966,
      "istical": 6967,
      "ĠYugoslav": 6968,
      "Ġdistinction": 6969,
      "Ġrelationships": 6970,
      "ĠRomans": 6971,
      "Ġdrugs": 6972,
      "ĠBelgium": 6973,
      "ĠFA": 6974,
      "appe": 6975,
      "Ġdiagn": 6976,
      "ĠTerrit": 6977,
      "Ġresearchers": 6978,
      "ĠAlexandria": 6979,
      "xide": 6980,
      "ĠPass": 6981,
      "Ġenh": 6982,
      "ĠIllinois": 6983,
      "Ġdebt": 6984,
      "zen": 6985,
      "Ġtons": 6986,
      "ĠCirc": 6987,
      "ĠCape": 6988,
      "ĠAnglican": 6989,
      "Ġbran": 6990,
      "ĠMult": 6991,
      "Ġtourn": 6992,
      "ĠTay": 6993,
      "Ġconsumption": 6994,
      "ĠWalter": 6995,
      "uties": 6996,
      "%)": 6997,
      "western": 6998,
      "ĠHab": 6999,
      "Ġmemb": 7000,
      "Ġarbit": 7001,
      "ossible": 7002,
      "ylvania": 7003,
      "57": 7004,
      "Ġfans": 7005,
      "Ġmarkets": 7006,
      "Ġbattles": 7007,
      "atin": 7008,
      "Ġfoss": 7009,
      "Ġguns": 7010,
      "Ġends": 7011,
      "agnetic": 7012,
      "itzerland": 7013,
      "Ġrom": 7014,
      "Ġdoll": 7015,
      "Ġrandom": 7016,
      "Ġconstruct": 7017,
      "Ġsolar": 7018,
      "ĠFamily": 7019,
      "ĠNever": 7020,
      "Ġlect": 7021,
      "issipp": 7022,
      "Ġshowing": 7023,
      "omp": 7024,
      "Ġslave": 7025,
      "41": 7026,
      "Ġbirds": 7027,
      "ĠInformation": 7028,
      "Ġaer": 7029,
      "esh": 7030,
      "illy": 7031,
      "ĠBan": 7032,
      "ĠFire": 7033,
      "Ġitems": 7034,
      "Ġconcerned": 7035,
      "OM": 7036,
      "uits": 7037,
      "Ġedge": 7038,
      "Ġdoing": 7039,
      "Ġrenamed": 7040,
      "Ġdetails": 7041,
      "iary": 7042,
      "vements": 7043,
      "Ġpit": 7044,
      "oca": 7045,
      "Ġflood": 7046,
      "Ġsomewhat": 7047,
      "ĠChannel": 7048,
      "ĠCommand": 7049,
      "una": 7050,
      "Ġorient": 7051,
      "ovak": 7052,
      "Ġampl": 7053,
      "Ġexplo": 7054,
      "Ġbehavi": 7055,
      "ĠFame": 7056,
      "wegian": 7057,
      "ĠBon": 7058,
      "Ġtheme": 7059,
      "Ġlearned": 7060,
      "ĠTestament": 7061,
      "utenant": 7062,
      "box": 7063,
      "Ġtail": 7064,
      "ersed": 7065,
      "Ġroot": 7066,
      "Ġterror": 7067,
      "Ġcopies": 7068,
      "Ġconstitutional": 7069,
      "Ġframe": 7070,
      "82": 7071,
      "abilities": 7072,
      "Ġlowest": 7073,
      "Ġorigins": 7074,
      "Ġtesting": 7075,
      "lical": 7076,
      "ented": 7077,
      "ĠHait": 7078,
      "ĠThird": 7079,
      "Ġcriticized": 7080,
      "ĠMach": 7081,
      "ĠChron": 7082,
      "Ġagent": 7083,
      "Ġproduces": 7084,
      "Ġpage": 7085,
      "Ġimplemented": 7086,
      "imensional": 7087,
      "63": 7088,
      "ĠHand": 7089,
      "veland": 7090,
      "Ġrefuge": 7091,
      "NS": 7092,
      "Ġapart": 7093,
      "ĠAle": 7094,
      "Ġdistributed": 7095,
      "Ġmachines": 7096,
      "ĠTelevision": 7097,
      "cribed": 7098,
      "ES": 7099,
      "izon": 7100,
      "uchy": 7101,
      "ĠClin": 7102,
      "idden": 7103,
      "Ġdropped": 7104,
      "Ġtalk": 7105,
      "Ġinner": 7106,
      "Ġpark": 7107,
      "chang": 7108,
      "Ġtrav": 7109,
      "ĠMaria": 7110,
      "Ġcapture": 7111,
      "Ġsugar": 7112,
      "Ġcircle": 7113,
      "di": 7114,
      "enge": 7115,
      "ruption": 7116,
      "ĠEnvironment": 7117,
      "neg": 7118,
      "Ġerror": 7119,
      "Ġcalc": 7120,
      "ĠExt": 7121,
      "ĠCleveland": 7122,
      "Ġabsolute": 7123,
      "Ġmart": 7124,
      "Ġrepresenting": 7125,
      "61": 7126,
      "Ġwaves": 7127,
      "erve": 7128,
      "Ġoccas": 7129,
      "ĠAri": 7130,
      "oking": 7131,
      "Ġparticle": 7132,
      "Ġcheck": 7133,
      "ĠRena": 7134,
      "rises": 7135,
      "Ġanalog": 7136,
      "--": 7137,
      "Ġcommittee": 7138,
      "ĠMississipp": 7139,
      "52": 7140,
      "ĠEug": 7141,
      "ĠAlan": 7142,
      "Ġensure": 7143,
      "Ġcredited": 7144,
      "ĠCaes": 7145,
      "ĠPhilosophy": 7146,
      "ĠLithuania": 7147,
      "hist": 7148,
      "Ġisot": 7149,
      "ĠFa": 7150,
      "ĠMedal": 7151,
      "Ġatmosphere": 7152,
      "US": 7153,
      "ĠÐ": 7154,
      "Ġgot": 7155,
      "Ġ1915": 7156,
      "Ġstatistics": 7157,
      "94": 7158,
      "worth": 7159,
      "ĠPap": 7160,
      "ĠFair": 7161,
      "Ġplot": 7162,
      "Ġcompil": 7163,
      "ĠConstantin": 7164,
      "ĠJoe": 7165,
      "ĠKazakh": 7166,
      "ĠWat": 7167,
      "Ġdemocracy": 7168,
      "Ġlies": 7169,
      "Ġgenerated": 7170,
      "Ġwrites": 7171,
      "ĠDefense": 7172,
      "ker": 7173,
      "Ġbanks": 7174,
      "Ġhair": 7175,
      "Ġaffairs": 7176,
      "SR": 7177,
      "Å«": 7178,
      "Ġcrop": 7179,
      "ĠRoll": 7180,
      "Ġkings": 7181,
      "Ġ64": 7182,
      "Ġwithdraw": 7183,
      "ĠWilson": 7184,
      "ĠJama": 7185,
      "Ġamounts": 7186,
      "Ġpriest": 7187,
      "ĠEss": 7188,
      "Ġlocations": 7189,
      "Ġorganisms": 7190,
      "Ġlegend": 7191,
      "Ġdoctrine": 7192,
      "93": 7193,
      "Ġment": 7194,
      "ĠHop": 7195,
      "ategy": 7196,
      "Ġstrategy": 7197,
      "Ġboy": 7198,
      "ctic": 7199,
      "ĠLow": 7200,
      "ĠAnne": 7201,
      "ĠSwitzerland": 7202,
      "Ġmechanism": 7203,
      "Ġcategories": 7204,
      "Ġpaintings": 7205,
      "Ġwaters": 7206,
      "omes": 7207,
      "Ġheadquarters": 7208,
      "Ġrenew": 7209,
      "secut": 7210,
      "Ġmunicipal": 7211,
      "agu": 7212,
      "Ġshell": 7213,
      "ĠOlympic": 7214,
      "Ġphrase": 7215,
      "ĠRem": 7216,
      "yrian": 7217,
      "wick": 7218,
      "Ġtact": 7219,
      "ĠJordan": 7220,
      "ĠKer": 7221,
      "Ġoffers": 7222,
      "Ġserves": 7223,
      "ĠReview": 7224,
      "ĠSupp": 7225,
      "Ġstim": 7226,
      "Ġidentify": 7227,
      "bec": 7228,
      "Ġrow": 7229,
      "ĠPrincip": 7230,
      "while": 7231,
      "Ġdrawn": 7232,
      "ĠSix": 7233,
      "ctive": 7234,
      "ĠBapt": 7235,
      "Ġorchest": 7236,
      "Ġmoder": 7237,
      "Ġshortly": 7238,
      "scale": 7239,
      "ĠMedia": 7240,
      "Ġtests": 7241,
      "Ġbalance": 7242,
      "hetic": 7243,
      "andy": 7244,
      "Ġsurvived": 7245,
      "Ġconservative": 7246,
      "Ġcanon": 7247,
      "Ġholid": 7248,
      "Ġcontroversial": 7249,
      "ĠPrem": 7250,
      "rome": 7251,
      "Ġ37": 7252,
      "aux": 7253,
      "Ġmechanical": 7254,
      "ĠLabour": 7255,
      "Ġintern": 7256,
      "Ġdispl": 7257,
      "Ġexcess": 7258,
      "aza": 7259,
      "Ġentitled": 7260,
      "Ġskin": 7261,
      "Ġhosted": 7262,
      "ĠCaptain": 7263,
      "ski": 7264,
      "ĠSin": 7265,
      "Ġnut": 7266,
      "Ġprices": 7267,
      "Ġacknow": 7268,
      "Ġindex": 7269,
      "Ġpossibility": 7270,
      "omers": 7271,
      "ĠCamer": 7272,
      "ĠHal": 7273,
      "oys": 7274,
      "opes": 7275,
      "ĠKennedy": 7276,
      "Ġprepared": 7277,
      "ĠTherefore": 7278,
      "ymn": 7279,
      "Ġpromote": 7280,
      "Ġcandidate": 7281,
      "Ġstating": 7282,
      "ĠLux": 7283,
      "ĠKos": 7284,
      "Ġpolar": 7285,
      "ĠShow": 7286,
      "ctoral": 7287,
      "ĠControl": 7288,
      "Ġmissions": 7289,
      "ĠCam": 7290,
      "usted": 7291,
      "ĠBulgar": 7292,
      "Ġcontroversy": 7293,
      "Ġcharged": 7294,
      "ĠWell": 7295,
      "ĠAnth": 7296,
      "Ġmanif": 7297,
      "ĠBatt": 7298,
      "ĠNative": 7299,
      "Ġseasons": 7300,
      "ĠContin": 7301,
      "Ġcoup": 7302,
      "Ġinvented": 7303,
      "ĠBuddhist": 7304,
      "Ġthir": 7305,
      "Ġstre": 7306,
      "pha": 7307,
      "ikh": 7308,
      "ĠPeace": 7309,
      "Ġintegrated": 7310,
      "iÄ": 7311,
      "rating": 7312,
      "Ġoriginated": 7313,
      "Ġveloc": 7314,
      "Ġstopp": 7315,
      "ework": 7316,
      "Ġleaves": 7317,
      "text": 7318,
      "2007": 7319,
      "ĠIranian": 7320,
      "Ġocean": 7321,
      "Ġstreet": 7322,
      "Ġvision": 7323,
      "Ġroads": 7324,
      "iversary": 7325,
      "run": 7326,
      "anes": 7327,
      "Ġwing": 7328,
      "Ġplanning": 7329,
      "obi": 7330,
      "elsh": 7331,
      "Ġsubstantial": 7332,
      "aug": 7333,
      "ivered": 7334,
      "Ġ1911": 7335,
      "Ġ75": 7336,
      "rehens": 7337,
      "ĠThen": 7338,
      "that": 7339,
      "ĠClassical": 7340,
      "ucl": 7341,
      "ĠAber": 7342,
      "Ġreactions": 7343,
      "Ġangle": 7344,
      "anth": 7345,
      "Ġphosph": 7346,
      "Ġfounding": 7347,
      "Ġopera": 7348,
      "icas": 7349,
      "ithms": 7350,
      "Ġenzym": 7351,
      "Ġreputation": 7352,
      "Ġjudge": 7353,
      "sky": 7354,
      "ĠCare": 7355,
      "ushed": 7356,
      "ulating": 7357,
      "Ġstore": 7358,
      "odore": 7359,
      "ĠOnce": 7360,
      "died": 7361,
      "ĠCant": 7362,
      "apes": 7363,
      "Ġ1908": 7364,
      "ĠNorwegian": 7365,
      "Ġcoalition": 7366,
      "ĠMississippi": 7367,
      "trans": 7368,
      "ĠLin": 7369,
      "avalry": 7370,
      "ĠCuba": 7371,
      "Ġcurrency": 7372,
      "Ġeducational": 7373,
      "ĠMit": 7374,
      "ĠDown": 7375,
      "Ġcharacteristic": 7376,
      "ambiguation": 7377,
      "ĠAgency": 7378,
      "ĠAbout": 7379,
      "Ġcomplexity": 7380,
      "Ġdiseases": 7381,
      "Ġphysicist": 7382,
      "aron": 7383,
      "ĠSa": 7384,
      "idge": 7385,
      "apping": 7386,
      "ĠAdditionally": 7387,
      "Ġsenior": 7388,
      "Ġdating": 7389,
      "ĠMP": 7390,
      "Ġattached": 7391,
      "ĠMathem": 7392,
      "Ġcelebrated": 7393,
      "prise": 7394,
      "Ġneutral": 7395,
      "hus": 7396,
      "Ġbill": 7397,
      "ĠOnline": 7398,
      "Ġoccupation": 7399,
      "ovo": 7400,
      "Ġfloor": 7401,
      "Ġminority": 7402,
      "ĠBatman": 7403,
      "Ġoccasionally": 7404,
      "ĠGlobal": 7405,
      "ĠCurrent": 7406,
      "owned": 7407,
      "Ġagents": 7408,
      "Ġmeat": 7409,
      "Ġdiet": 7410,
      "ĠÃī": 7411,
      "ĠBeng": 7412,
      "ĠMarc": 7413,
      "Ġlanding": 7414,
      "ĠCrown": 7415,
      "CP": 7416,
      "overty": 7417,
      "43": 7418,
      "Ġfresh": 7419,
      "Ġmatters": 7420,
      "ĠHun": 7421,
      "ĠHerm": 7422,
      "ĠSamuel": 7423,
      "Ġcuisine": 7424,
      "fort": 7425,
      "oked": 7426,
      "Ġfoundation": 7427,
      "ĠÄ": 7428,
      "Ġfat": 7429,
      "Ġplate": 7430,
      "Ġpartly": 7431,
      "iders": 7432,
      "Ġassess": 7433,
      "Ġairport": 7434,
      "Ġexplain": 7435,
      "iege": 7436,
      "Ġpropag": 7437,
      "stances": 7438,
      "Ġgall": 7439,
      "aste": 7440,
      "Ġ170": 7441,
      "Ġretained": 7442,
      "ĠSteve": 7443,
      "eenth": 7444,
      "ĠDC": 7445,
      "ultane": 7446,
      "ĠTemple": 7447,
      "Ġwinners": 7448,
      "Ġhospital": 7449,
      "Ġlunar": 7450,
      "187": 7451,
      "Ġom": 7452,
      "Ġfalse": 7453,
      "emale": 7454,
      "Ġshift": 7455,
      "othing": 7456,
      "Ġessay": 7457,
      "Ġdict": 7458,
      "riers": 7459,
      "Ġunus": 7460,
      "Ġdefine": 7461,
      "Ġweather": 7462,
      "ĠGermans": 7463,
      "Ġincident": 7464,
      "Ġcontributions": 7465,
      "Ġbatter": 7466,
      "ĠPerson": 7467,
      "ethe": 7468,
      "ĠAdams": 7469,
      "Ġid": 7470,
      "Ġrecept": 7471,
      "Ġretired": 7472,
      "BI": 7473,
      "real": 7474,
      "ĠJos": 7475,
      "Ġcollected": 7476,
      "ĠChampionship": 7477,
      "Ġmir": 7478,
      "gers": 7479,
      "ĠSports": 7480,
      "ila": 7481,
      "raine": 7482,
      "Ġheard": 7483,
      "Ġod": 7484,
      "Ġnom": 7485,
      "rait": 7486,
      "Ġconson": 7487,
      "Ġdelivered": 7488,
      "Ġfunds": 7489,
      "roph": 7490,
      "pping": 7491,
      "Ġroots": 7492,
      "Ġreduction": 7493,
      "ĠInstead": 7494,
      "rors": 7495,
      "Ġnort": 7496,
      "Ġchanging": 7497,
      "ĠVictoria": 7498,
      "Ġgeometry": 7499,
      "erg": 7500,
      "ĠBrand": 7501,
      "ĠFront": 7502,
      "Ġorb": 7503,
      "ello": 7504,
      "Ġpassage": 7505,
      "Ġcouple": 7506,
      "European": 7507,
      "Ġmil": 7508,
      "Ġshif": 7509,
      "eneration": 7510,
      "Ġoverl": 7511,
      "Ġdepict": 7512,
      "Ġrebell": 7513,
      "annels": 7514,
      "iveness": 7515,
      "ĠFranklin": 7516,
      "Ġforests": 7517,
      "Ġthrow": 7518,
      "ĠShah": 7519,
      "Ġradical": 7520,
      "Ġintegral": 7521,
      "ĠIntel": 7522,
      "Ġhabit": 7523,
      "Ġaccompanied": 7524,
      "59": 7525,
      "ER": 7526,
      "Ġworship": 7527,
      "ĠEarl": 7528,
      "Ġdistricts": 7529,
      "Ġsymptoms": 7530,
      "illery": 7531,
      "ĠBridge": 7532,
      "Ġbear": 7533,
      "keley": 7534,
      "Ġdiscover": 7535,
      "Ġencounter": 7536,
      "Ġprinted": 7537,
      "ĠStalin": 7538,
      "Ġexpensive": 7539,
      "inner": 7540,
      "Ġindicates": 7541,
      "Ġbranches": 7542,
      "rip": 7543,
      "ulty": 7544,
      "ĠTai": 7545,
      "ĠFu": 7546,
      "Ġsoil": 7547,
      "Ġworth": 7548,
      "Ġresolution": 7549,
      "Ġsupposed": 7550,
      "Ġlaure": 7551,
      "aser": 7552,
      "ourney": 7553,
      "ĠBrazilian": 7554,
      "Ġfert": 7555,
      "idency": 7556,
      "Ġreducing": 7557,
      "Ġconstitu": 7558,
      "ĠSimon": 7559,
      "ĠConstantinople": 7560,
      "pol": 7561,
      "Ġ!": 7562,
      "ĠDyn": 7563,
      "ĠSalv": 7564,
      "yst": 7565,
      "ĠPict": 7566,
      "ĠFall": 7567,
      "acles": 7568,
      "uting": 7569,
      "ĠFund": 7570,
      "Ġ400": 7571,
      "ĠExpl": 7572,
      "2006": 7573,
      "idel": 7574,
      "Ġapply": 7575,
      "Ġgoddess": 7576,
      "Ġhundreds": 7577,
      "Ġbottom": 7578,
      "dered": 7579,
      "Ġtransmission": 7580,
      "faces": 7581,
      "agram": 7582,
      "Ġsigns": 7583,
      "Ġperforming": 7584,
      "Ġformerly": 7585,
      "Ġphilosophical": 7586,
      "Ġimmigrants": 7587,
      "Ġprofessor": 7588,
      "Ġdemonstrated": 7589,
      "Ġplaywright": 7590,
      "ez": 7591,
      "produ": 7592,
      "ĠSultan": 7593,
      "Ġneuro": 7594,
      "ĠWhat": 7595,
      "Ġprobability": 7596,
      "celand": 7597,
      "Ġcharges": 7598,
      "It": 7599,
      "dimensional": 7600,
      "pson": 7601,
      "wait": 7602,
      "Ġpet": 7603,
      "Ġalbums": 7604,
      "ĠCulture": 7605,
      "ED": 7606,
      "Ġsed": 7607,
      "orus": 7608,
      "ourg": 7609,
      "ĠAlc": 7610,
      "ĠAthens": 7611,
      "Ġwitness": 7612,
      "Ġgoes": 7613,
      "Ġgoals": 7614,
      "Ġtheor": 7615,
      "ĠMi": 7616,
      "ĠGand": 7617,
      "Ġantib": 7618,
      "contin": 7619,
      "ĠGhana": 7620,
      "sm": 7621,
      "eding": 7622,
      "Ġthemes": 7623,
      "Ġdepends": 7624,
      "Ġplanet": 7625,
      "ĠCold": 7626,
      "Ġlake": 7627,
      "Ġpages": 7628,
      "Ġstret": 7629,
      "Ġscenes": 7630,
      "2005": 7631,
      "Ġiniti": 7632,
      "ĠDirector": 7633,
      "69": 7634,
      "Ġaccident": 7635,
      "2008": 7636,
      "Ġcircuit": 7637,
      "Ġimplementation": 7638,
      "ĠPenns": 7639,
      "iot": 7640,
      "arant": 7641,
      "ĠBrian": 7642,
      "Ġrarely": 7643,
      "onomy": 7644,
      "Ġegg": 7645,
      "ĠDominican": 7646,
      "Ġcra": 7647,
      "ĠRoss": 7648,
      "Ġconfig": 7649,
      "Ġpunish": 7650,
      "ĠAch": 7651,
      "ĠCook": 7652,
      "roll": 7653,
      "Ġfunctional": 7654,
      "Ġsymmet": 7655,
      "Ġrequirements": 7656,
      "instein": 7657,
      "Ġloyal": 7658,
      "Ġbenefit": 7659,
      "Ġdiverse": 7660,
      "Ġfaced": 7661,
      "raham": 7662,
      "ĠSpirit": 7663,
      "disambiguation": 7664,
      "but": 7665,
      "Ġster": 7666,
      "ridges": 7667,
      "ĠSunday": 7668,
      "itudes": 7669,
      "ĠAth": 7670,
      "uda": 7671,
      "sis": 7672,
      "uv": 7673,
      "uations": 7674,
      "Î±": 7675,
      "Ġsnow": 7676,
      "Ġhier": 7677,
      "Ġeye": 7678,
      "Ġmolecular": 7679,
      "ĠHem": 7680,
      "ĠProp": 7681,
      "Ġpreferred": 7682,
      "ĠMoh": 7683,
      "unte": 7684,
      "ĠDal": 7685,
      "Ġ1890": 7686,
      "Ġdismiss": 7687,
      "graph": 7688,
      "Ġ1905": 7689,
      "Ġidentical": 7690,
      "Ġfellow": 7691,
      "Ġweapon": 7692,
      "ĠEli": 7693,
      "Ġconference": 7694,
      "asters": 7695,
      "Ġperformances": 7696,
      "Ġdirectors": 7697,
      "ĠDemocr": 7698,
      "Ġdual": 7699,
      "ĠDick": 7700,
      "Ġspeaking": 7701,
      "Ġexperimental": 7702,
      "Ġreaching": 7703,
      "ĠBrother": 7704,
      "pass": 7705,
      "ĠWelsh": 7706,
      "ĠYears": 7707,
      "etroit": 7708,
      "emble": 7709,
      "ĠKy": 7710,
      "arus": 7711,
      "Cl": 7712,
      "auc": 7713,
      "low": 7714,
      "Ġaccord": 7715,
      "ĠDead": 7716,
      "Ġepisodes": 7717,
      "Ġfestival": 7718,
      "Ġchannels": 7719,
      "Ġupd": 7720,
      "Ġsolo": 7721,
      "Ġeducator": 7722,
      "Ġdelay": 7723,
      "Ġpercentage": 7724,
      "ĠDarwin": 7725,
      "Ġwa": 7726,
      "Ġnotion": 7727,
      "eping": 7728,
      "ailed": 7729,
      "erbai": 7730,
      "ĠFlorida": 7731,
      "Ġsolutions": 7732,
      "Ġsuperior": 7733,
      "Ġarrested": 7734,
      "ĠFI": 7735,
      "ĠRoy": 7736,
      "reement": 7737,
      "ĠLate": 7738,
      "ĠFriedrich": 7739,
      "Ġthick": 7740,
      "Ġstages": 7741,
      "ardo": 7742,
      "Ã©s": 7743,
      "ĠBerkeley": 7744,
      "Ġaudio": 7745,
      "Ġclassic": 7746,
      "Ġpassing": 7747,
      "ĠRenaissance": 7748,
      "ĠPennsylvania": 7749,
      "Ġpul": 7750,
      "Ġorganic": 7751,
      "1990": 7752,
      "58": 7753,
      "Ġagg": 7754,
      "ĠMorocco": 7755,
      "bes": 7756,
      "emen": 7757,
      "Ġvent": 7758,
      "Ġteacher": 7759,
      "Ġcalling": 7760,
      "Ġhistorically": 7761,
      "ĠWithin": 7762,
      "ĠSus": 7763,
      "Ġdecisions": 7764,
      "Ġengaged": 7765,
      "Ġmyst": 7766,
      "who": 7767,
      "ĠForest": 7768,
      "ĠOhio": 7769,
      "olas": 7770,
      "ĠLo": 7771,
      "Ġarc": 7772,
      "Ġenab": 7773,
      "Ġprotected": 7774,
      "oust": 7775,
      "uled": 7776,
      "ĠAllen": 7777,
      "Ġbegun": 7778,
      "Ġregularly": 7779,
      "Ġdispute": 7780,
      "ĠMike": 7781,
      "Ġexpedition": 7782,
      "Ġsurviving": 7783,
      "Ġobtain": 7784,
      "ĠJava": 7785,
      "ĠAdv": 7786,
      "ĠNorway": 7787,
      "ĠDouglas": 7788,
      "ĠSign": 7789,
      "ĠAmaz": 7790,
      "Ġtwelve": 7791,
      "Ġarrival": 7792,
      "ĠBabyl": 7793,
      "ĠDa": 7794,
      "Ġremark": 7795,
      "Ġcrimes": 7796,
      "ĠLiberal": 7797,
      "%),": 7798,
      "GB": 7799,
      "pool": 7800,
      "ĠWild": 7801,
      "Ġvocal": 7802,
      "Ġresponsibility": 7803,
      "ĠLuxemb": 7804,
      "53": 7805,
      "Ġassembly": 7806,
      "Ġsections": 7807,
      "ĠStock": 7808,
      "Ġdebut": 7809,
      "Ġconsisted": 7810,
      "ĠMethod": 7811,
      "Ġbright": 7812,
      "Ġcommit": 7813,
      "Ġspons": 7814,
      "ĠRepresent": 7815,
      "ĠCroatia": 7816,
      "oric": 7817,
      "arat": 7818,
      "ĠSel": 7819,
      "ĠDetroit": 7820,
      "Ġruler": 7821,
      "Ġencouraged": 7822,
      "des": 7823,
      "Ġvotes": 7824,
      "archy": 7825,
      "Ġpoems": 7826,
      "former": 7827,
      "ĠIron": 7828,
      "ĠWolf": 7829,
      "Ġcomplic": 7830,
      "Ġvariant": 7831,
      "Ġdepicted": 7832,
      "orous": 7833,
      "Ġgrown": 7834,
      "Ġruling": 7835,
      "Ġbapt": 7836,
      "Ġritual": 7837,
      "elli": 7838,
      "ĠPrin": 7839,
      "ĠIntelligence": 7840,
      "ĠColorado": 7841,
      "ĠLov": 7842,
      "Ġdivisions": 7843,
      "Ġdenomin": 7844,
      "ĠOrigin": 7845,
      "Ġhem": 7846,
      "ĠChristopher": 7847,
      "ĠFurthermore": 7848,
      "Ġbonds": 7849,
      "Ġcamer": 7850,
      "ĠMars": 7851,
      "ĠDra": 7852,
      "Ġroutes": 7853,
      "ĠWhit": 7854,
      "Ġslavery": 7855,
      "CD": 7856,
      "path": 7857,
      "Ġemot": 7858,
      "Ġstanding": 7859,
      "Ġannoun": 7860,
      "atabase": 7861,
      "Ġtemple": 7862,
      "arth": 7863,
      "Ġmal": 7864,
      "Ġresemb": 7865,
      "ĠComple": 7866,
      "ĠMean": 7867,
      "adow": 7868,
      "ĠLen": 7869,
      "Ġconversion": 7870,
      "ĠEvery": 7871,
      "anga": 7872,
      "Ġdisk": 7873,
      "Ġfrequent": 7874,
      "Ġindicated": 7875,
      "Ġappropriate": 7876,
      "Ġhall": 7877,
      "Ġeat": 7878,
      "Ġedited": 7879,
      "ĠPrim": 7880,
      "Ġopportunity": 7881,
      "ĠBeg": 7882,
      "Ġdetailed": 7883,
      "ĠBruce": 7884,
      "Ġsimultane": 7885,
      "rum": 7886,
      "Ġing": 7887,
      "Ġ(,": 7888,
      "Ġpref": 7889,
      "Ġinfluences": 7890,
      "vi": 7891,
      "ication": 7892,
      "Ġpartially": 7893,
      "Ġexactly": 7894,
      "ĠTaylor": 7895,
      "Ġtrying": 7896,
      "Ġlosing": 7897,
      "Ġvoted": 7898,
      "ĠRussell": 7899,
      "Ġskills": 7900,
      "Ġmountains": 7901,
      "Ġdiscussed": 7902,
      "Ġproportion": 7903,
      "New": 7904,
      "Ġcert": 7905,
      "roc": 7906,
      "Ġvaries": 7907,
      "Ġconquest": 7908,
      "Ġpurchased": 7909,
      "free": 7910,
      "ĠMaster": 7911,
      "ucky": 7912,
      "Ġstrike": 7913,
      "ĠAristot": 7914,
      "Å¡": 7915,
      "Ġlists": 7916,
      "Ġgard": 7917,
      "emor": 7918,
      "odia": 7919,
      "ĠInit": 7920,
      "ĠBulgaria": 7921,
      "zer": 7922,
      "otal": 7923,
      "ometimes": 7924,
      "Ġlimits": 7925,
      "Ġvariations": 7926,
      "mes": 7927,
      "icular": 7928,
      "amine": 7929,
      "Ġchose": 7930,
      "ipher": 7931,
      "Ġclin": 7932,
      "OC": 7933,
      "Ġalliance": 7934,
      "Ġcarrier": 7935,
      "Ġaccompl": 7936,
      "Ġbacteria": 7937,
      "IP": 7938,
      "2001": 7939,
      "ipping": 7940,
      "ĠSlav": 7941,
      "ĠOperation": 7942,
      "Ġtheatre": 7943,
      "Ġmit": 7944,
      "Ġcolour": 7945,
      "Ġdepartment": 7946,
      "Ġguard": 7947,
      "ĠTyp": 7948,
      "Ġthing": 7949,
      "acent": 7950,
      "ĠArk": 7951,
      "ĠIndependence": 7952,
      "Ã«": 7953,
      "Ġdesire": 7954,
      "Ġgenes": 7955,
      "Ġimmediate": 7956,
      "Ġprisoners": 7957,
      "uran": 7958,
      "ĠHu": 7959,
      "Ġinteraction": 7960,
      "ĠCeltic": 7961,
      "ĠMagn": 7962,
      "ĠWalk": 7963,
      "atra": 7964,
      "Ġfaster": 7965,
      "Ġpitch": 7966,
      "aret": 7967,
      "ĠIl": 7968,
      "ante": 7969,
      "orship": 7970,
      "adelph": 7971,
      "ativity": 7972,
      "ĠHou": 7973,
      "ĠNASA": 7974,
      "otype": 7975,
      "ĠLoc": 7976,
      "estab": 7977,
      "Ġcomposers": 7978,
      "Ġtransportation": 7979,
      "ĠFood": 7980,
      "ĠGa": 7981,
      "ĠStation": 7982,
      "Ġvice": 7983,
      "Ġperceived": 7984,
      "orning": 7985,
      "Ġassistance": 7986,
      "Ġsynd": 7987,
      "ĠBuddhism": 7988,
      "Ġhypothesis": 7989,
      "alysis": 7990,
      "Ġchampion": 7991,
      "Ġsupporters": 7992,
      "Ġmatrix": 7993,
      "ĠNapoleon": 7994,
      "Ġtask": 7995,
      "Ġsell": 7996,
      "ĠBak": 7997,
      "Ġalumni": 7998,
      "Ġinstruction": 7999,
      "Ġcarrying": 8000,
      "yg": 8001,
      "ĠNaval": 8002,
      "Ġrig": 8003,
      "2011": 8004,
      "bishop": 8005,
      "oral": 8006,
      "rogen": 8007,
      "Ġeyes": 8008,
      "ĠIceland": 8009,
      "Ġ33": 8010,
      "ften": 8011,
      "2004": 8012,
      "ĠBelgian": 8013,
      "Ġabsence": 8014,
      "ĠVill": 8015,
      "Ġappoint": 8016,
      "ĠMiller": 8017,
      "Ð°": 8018,
      "ĠRen": 8019,
      "ĠAdvent": 8020,
      "Ġsuccession": 8021,
      "Ġreceiving": 8022,
      "ĠAzerbai": 8023,
      "ĠVienna": 8024,
      "Ãº": 8025,
      "ĠPu": 8026,
      "ĠRos": 8027,
      "Ġfeet": 8028,
      "Ġoperates": 8029,
      "Ġwarfare": 8030,
      "ythm": 8031,
      "ĠRoger": 8032,
      "bus": 8033,
      "Ġcoeff": 8034,
      "Ġsignals": 8035,
      "Ġappeal": 8036,
      "Ġsecure": 8037,
      "Ġillegal": 8038,
      "ĠCarolina": 8039,
      "Ġconventional": 8040,
      "don": 8041,
      "Ġmales": 8042,
      "ĠDefence": 8043,
      "ĠHoward": 8044,
      "ĠMovement": 8045,
      "Ġsatellite": 8046,
      "Ġnickn": 8047,
      "OL": 8048,
      "Ġlaid": 8049,
      "ĠPot": 8050,
      "Ġfled": 8051,
      "Ġimpossible": 8052,
      "Ġmotiv": 8053,
      "Ġsounds": 8054,
      "Ġsulf": 8055,
      "oma": 8056,
      "ĠBack": 8057,
      "ĠHard": 8058,
      "ĠNow": 8059,
      "ourse": 8060,
      "Ġpatients": 8061,
      "Ġmorph": 8062,
      "Ġsteps": 8063,
      "ĠCampbell": 8064,
      "Ġinterpreted": 8065,
      "ĠTar": 8066,
      "Ġinfantry": 8067,
      "Ġvariables": 8068,
      "tymology": 8069,
      "ĠGord": 8070,
      "ĠLast": 8071,
      "ĠLady": 8072,
      "Ġagree": 8073,
      "nex": 8074,
      "Ġelectricity": 8075,
      "ĠFederation": 8076,
      "Ġassault": 8077,
      "chen": 8078,
      "rection": 8079,
      "esian": 8080,
      "iful": 8081,
      "ĠOfficial": 8082,
      "Ġcredit": 8083,
      "ilton": 8084,
      "Ġcollapse": 8085,
      "Ġsubsid": 8086,
      "iggest": 8087,
      "Ġfine": 8088,
      "ĠAround": 8089,
      "ĠCart": 8090,
      "ĠHead": 8091,
      "Ġdiscussion": 8092,
      "ĠBaltic": 8093,
      "Ġhence": 8094,
      "aks": 8095,
      "Ġearned": 8096,
      "Ġlongest": 8097,
      "cape": 8098,
      "Ġhors": 8099,
      "ĠKra": 8100,
      "Ġsurren": 8101,
      "ĠAbraham": 8102,
      "Ġvelocity": 8103,
      "ika": 8104,
      "Ġdivine": 8105,
      "Ġsubstance": 8106,
      "English": 8107,
      "ĠTs": 8108,
      "Ġstored": 8109,
      "Ġexperiences": 8110,
      "Ġprompt": 8111,
      "ĠBrig": 8112,
      "ĠRailway": 8113,
      "omial": 8114,
      "ĠSanta": 8115,
      "Ġsyll": 8116,
      "argo": 8117,
      "Ġcolors": 8118,
      "Ġartificial": 8119,
      "ospel": 8120,
      "Ġmechanics": 8121,
      "2003": 8122,
      "atics": 8123,
      "uanian": 8124,
      "ĠSources": 8125,
      "Ġgalax": 8126,
      "Ġtherapy": 8127,
      "Ġcodes": 8128,
      "elly": 8129,
      "Ġvul": 8130,
      "illes": 8131,
      "arma": 8132,
      "atem": 8133,
      "rose": 8134,
      "Ġdemocratic": 8135,
      "helm": 8136,
      "Ġsettlements": 8137,
      "orer": 8138,
      "Ġoffices": 8139,
      "Ġlasted": 8140,
      "iliar": 8141,
      "ĠMemorial": 8142,
      "Ġsynthesis": 8143,
      "Ġcable": 8144,
      "Ġmas": 8145,
      "ĠBac": 8146,
      "rium": 8147,
      "Ġ36": 8148,
      "Ġsacr": 8149,
      "Ġvowel": 8150,
      "hu": 8151,
      "alus": 8152,
      "irect": 8153,
      "Ġvariation": 8154,
      "ni": 8155,
      "Ġdated": 8156,
      "Ġplus": 8157,
      "aeus": 8158,
      "ĠLaure": 8159,
      "CS": 8160,
      "Ġcovers": 8161,
      "ocene": 8162,
      "aga": 8163,
      "Ġcircumstances": 8164,
      "ĠMalaysia": 8165,
      "Ġexports": 8166,
      "Ġimprison": 8167,
      "Ġcopper": 8168,
      "ĠBulg": 8169,
      "Ġwine": 8170,
      "ĠSav": 8171,
      "Ġinterior": 8172,
      "Ġassemb": 8173,
      "Ġdecay": 8174,
      "Ġfacilit": 8175,
      "Ġboundary": 8176,
      "ĠPierre": 8177,
      "Ġdecor": 8178,
      "Ġarranged": 8179,
      "din": 8180,
      "using": 8181,
      "Ġvolcan": 8182,
      "ĠSyria": 8183,
      "ĠKuwait": 8184,
      "Hz": 8185,
      "Ġabund": 8186,
      "Ġrepresentative": 8187,
      "ĠBusiness": 8188,
      "Ind": 8189,
      "atible": 8190,
      "roe": 8191,
      "Ġlyr": 8192,
      "Ġrose": 8193,
      "Ġconsult": 8194,
      "ĠIndo": 8195,
      "Ġstrings": 8196,
      "Ġ1906": 8197,
      "Ġdistinguished": 8198,
      "VD": 8199,
      "ĠGab": 8200,
      "Ġven": 8201,
      "ĠUt": 8202,
      "Ġeconomics": 8203,
      "Ġjustice": 8204,
      "ĠMountains": 8205,
      "ĠSimilarly": 8206,
      "Ġacknowled": 8207,
      "nal": 8208,
      "itations": 8209,
      "Ġmarg": 8210,
      "ĠDark": 8211,
      "Ġcomed": 8212,
      "Ġanything": 8213,
      "Ġpsychology": 8214,
      "Ġarmies": 8215,
      "Ġbriefly": 8216,
      "Ġtall": 8217,
      "Ġfan": 8218,
      "Ġ120": 8219,
      "Ġpartial": 8220,
      "ĠArmed": 8221,
      "Ġverb": 8222,
      "Ġfranchise": 8223,
      "ĠStone": 8224,
      "kee": 8225,
      "Ġfinding": 8226,
      "ĠMess": 8227,
      "Ġasc": 8228,
      "Ġtry": 8229,
      "Ġoverse": 8230,
      "icate": 8231,
      "eton": 8232,
      "Ġaxi": 8233,
      "51": 8234,
      "father": 8235,
      "2012": 8236,
      "Ġspoke": 8237,
      "Ġbib": 8238,
      "ĠBuddha": 8239,
      "Ġadaptation": 8240,
      "Ġmixture": 8241,
      "ĠTun": 8242,
      "ĠPur": 8243,
      "Ġclock": 8244,
      "Ġswitch": 8245,
      "Ġordinary": 8246,
      "Ġfictional": 8247,
      "Ġpseud": 8248,
      "ĠFact": 8249,
      "ĠReport": 8250,
      "Ġdefence": 8251,
      "Ġbrothers": 8252,
      "Ġcommunications": 8253,
      "Ġtheoretical": 8254,
      "Ġinfinite": 8255,
      "Ġsalt": 8256,
      "olve": 8257,
      "ĠBav": 8258,
      "1980": 8259,
      "rys": 8260,
      "Ġemphasis": 8261,
      "bb": 8262,
      "Ġtheolog": 8263,
      "olics": 8264,
      "Ġcondem": 8265,
      "Ġpenal": 8266,
      "Ġpassenger": 8267,
      "inated": 8268,
      "Ġcavalry": 8269,
      "Ġborders": 8270,
      "Ġargue": 8271,
      "?\"": 8272,
      "oons": 8273,
      "Ġovers": 8274,
      "Ġped": 8275,
      "Ġbishops": 8276,
      "ĠTol": 8277,
      "Ġintent": 8278,
      "Ġencod": 8279,
      "ĠNevertheless": 8280,
      "zo": 8281,
      "eters": 8282,
      "ĠPsych": 8283,
      "ĠMarine": 8284,
      "Ġsixth": 8285,
      "Ġestimates": 8286,
      "ĠRobinson": 8287,
      "uccess": 8288,
      "Ġrif": 8289,
      "Ġpartner": 8290,
      "2009": 8291,
      "ĠPalace": 8292,
      "Ġtourism": 8293,
      "brid": 8294,
      "Ġcul": 8295,
      "uble": 8296,
      "Ġresident": 8297,
      "Ġnarrative": 8298,
      "ĠEncyclopedia": 8299,
      "etics": 8300,
      "ĠBad": 8301,
      "aders": 8302,
      "2010": 8303,
      "ĠCommunic": 8304,
      "Ġuncertain": 8305,
      "Ġrecommended": 8306,
      "hered": 8307,
      "Ġsubt": 8308,
      "ĠDec": 8309,
      "coming": 8310,
      "56": 8311,
      "Ġflo": 8312,
      "Ġdescribing": 8313,
      "making": 8314,
      "ĠTen": 8315,
      "Ġestablishing": 8316,
      "ĠConstantine": 8317,
      "Ġhuge": 8318,
      "ĠAS": 8319,
      "Ġinstalled": 8320,
      "Ġreturning": 8321,
      "Ġcivilian": 8322,
      "ĠBaseball": 8323,
      "As": 8324,
      "Ġtank": 8325,
      "onso": 8326,
      "ĠBrad": 8327,
      "ĠEdin": 8328,
      "Ġarguments": 8329,
      "Ġnone": 8330,
      "Ġsuit": 8331,
      "ahn": 8332,
      "ĠAmb": 8333,
      "Ġcomputing": 8334,
      "Ġcopy": 8335,
      "ĠFilms": 8336,
      "Ġconnections": 8337,
      "ĠPeninsula": 8338,
      "ersion": 8339,
      "ĠEric": 8340,
      "Ġevil": 8341,
      "Ġvolumes": 8342,
      "Ġemployees": 8343,
      "Ġdrawing": 8344,
      "ĠBuilding": 8345,
      "ĠNetwork": 8346,
      "300": 8347,
      "91": 8348,
      "wall": 8349,
      "Ġawards": 8350,
      "itime": 8351,
      "Ġbases": 8352,
      "Ġmining": 8353,
      "Ġlosses": 8354,
      "Ġpreserved": 8355,
      "Ġportrayed": 8356,
      "Ġindustries": 8357,
      "Ġceremony": 8358,
      "Ġsample": 8359,
      "ptic": 8360,
      "ĠAllied": 8361,
      "Ġtor": 8362,
      "Ġdeploy": 8363,
      "achers": 8364,
      "ubb": 8365,
      "Ġsomeone": 8366,
      "Ġfunding": 8367,
      "Ġprocedure": 8368,
      "MS": 8369,
      "iffer": 8370,
      "Ġsched": 8371,
      "onds": 8372,
      "2015": 8373,
      "Ġbroken": 8374,
      "Ġscientist": 8375,
      "ĠBenj": 8376,
      "ĠGir": 8377,
      "ĠIndiana": 8378,
      "ĠLuxembourg": 8379,
      "language": 8380,
      "ĠCall": 8381,
      "ĠNich": 8382,
      "group": 8383,
      "Ġyellow": 8384,
      "comple": 8385,
      "Ġphenomenon": 8386,
      "ĠArgentina": 8387,
      "Ġske": 8388,
      "Ġdio": 8389,
      "Ġsocieties": 8390,
      "Ġcampus": 8391,
      "hand": 8392,
      "Ġbenefits": 8393,
      "pat": 8394,
      "á¹": 8395,
      "Ġbeat": 8396,
      "Ġmob": 8397,
      "Ġham": 8398,
      "oster": 8399,
      "Ġspectr": 8400,
      "Ġracing": 8401,
      "Ġparad": 8402,
      "1999": 8403,
      "Ġ1880": 8404,
      "Ġcloser": 8405,
      "ĠPatri": 8406,
      "lock": 8407,
      "agues": 8408,
      "ipel": 8409,
      "Ġhousing": 8410,
      "Ġpoverty": 8411,
      "Ġdeleg": 8412,
      "olds": 8413,
      "Ġcinema": 8414,
      "ecess": 8415,
      "Ġunlike": 8416,
      "Ġ1909": 8417,
      "Ġrulers": 8418,
      "Ġclearly": 8419,
      "vol": 8420,
      "ogether": 8421,
      "Ġwarm": 8422,
      "Ġreflected": 8423,
      "ĠHonor": 8424,
      "Ġjurisdiction": 8425,
      "itus": 8426,
      "avian": 8427,
      "Ġrestaur": 8428,
      "ensed": 8429,
      "ĠEdinburgh": 8430,
      "Ã¸": 8431,
      "Ġbiggest": 8432,
      "Ġhyd": 8433,
      "Ġapproval": 8434,
      "Ġpig": 8435,
      "Ġrising": 8436,
      "Ġspectrum": 8437,
      "oids": 8438,
      "rot": 8439,
      "sole": 8440,
      "Ġpublicly": 8441,
      "Ġprogramme": 8442,
      "ĠSquare": 8443,
      "rep": 8444,
      "ĠLud": 8445,
      "2002": 8446,
      "Ġfluid": 8447,
      "Ġrestricted": 8448,
      "We": 8449,
      "Ġfantasy": 8450,
      "owder": 8451,
      "Ġstability": 8452,
      "Ġutil": 8453,
      "TE": 8454,
      "ĠBure": 8455,
      "Ġfilled": 8456,
      "osaur": 8457,
      "Ġinspir": 8458,
      "Ġcurve": 8459,
      "Ġconsistent": 8460,
      "Ġescape": 8461,
      "div": 8462,
      "tery": 8463,
      "sex": 8464,
      "iece": 8465,
      "ĠWho": 8466,
      "Ġmusician": 8467,
      "ĠNATO": 8468,
      "iner": 8469,
      "ĠCra": 8470,
      "idae": 8471,
      "Ġreferring": 8472,
      "ĠFloren": 8473,
      "ĠâĪĴ": 8474,
      "ĠAlbania": 8475,
      "Ġpassengers": 8476,
      "Ġisolated": 8477,
      "He": 8478,
      "Ġath": 8479,
      "velt": 8480,
      "Ġannually": 8481,
      "Ġsettlers": 8482,
      "Ġborrow": 8483,
      "ĠFil": 8484,
      "Ġcompound": 8485,
      "Ġremove": 8486,
      "Ġillness": 8487,
      "iÄĩ": 8488,
      "Ġdepth": 8489,
      "Ġclean": 8490,
      "mers": 8491,
      "Ġreally": 8492,
      "adian": 8493,
      "Ġdrew": 8494,
      "ĠTheory": 8495,
      "ĠKon": 8496,
      "Ġunless": 8497,
      "aked": 8498,
      "Ġinstall": 8499,
      "Ġestate": 8500,
      "Ġproposal": 8501,
      "ĠProvince": 8502,
      "ĠPremier": 8503,
      "ĠGandhi": 8504,
      "ĠFri": 8505,
      "Ġinstructions": 8506,
      "Ġemployment": 8507,
      "ĠCastle": 8508,
      "Ġdependent": 8509,
      "iqu": 8510,
      "star": 8511,
      "ĠLt": 8512,
      "merce": 8513,
      "Ġseparation": 8514,
      "Ġsentence": 8515,
      "Ġgrounds": 8516,
      "Ġnoble": 8517,
      "adi": 8518,
      "Ġstead": 8519,
      "Ġvs": 8520,
      "ĠPolice": 8521,
      "ĠGuide": 8522,
      "Ġ1903": 8523,
      "ĠMas": 8524,
      "ĠGÃ¶": 8525,
      "Ġinterface": 8526,
      "Ġlegit": 8527,
      "Ġpronounced": 8528,
      "Ġearthqu": 8529,
      "Ġparliamentary": 8530,
      "Ġca": 8531,
      "Ġfly": 8532,
      "Ġhour": 8533,
      "aki": 8534,
      "Ġclar": 8535,
      "Ġdrama": 8536,
      "ĠSoft": 8537,
      "Wh": 8538,
      "onal": 8539,
      "ĠIb": 8540,
      "ĠLouisiana": 8541,
      "AD": 8542,
      "ĠArea": 8543,
      "ami": 8544,
      "agg": 8545,
      "ĠGuatem": 8546,
      "Ġhosts": 8547,
      "Ġannex": 8548,
      "unct": 8549,
      "ĠMinn": 8550,
      "ĠRuth": 8551,
      "eing": 8552,
      "han": 8553,
      "ĠCry": 8554,
      "Ġmainland": 8555,
      "ĠISO": 8556,
      "ĠTu": 8557,
      "ĠIce": 8558,
      "ifican": 8559,
      "Ġdesigner": 8560,
      "Ġcultiv": 8561,
      "Ġwire": 8562,
      "Ġmembrane": 8563,
      "TC": 8564,
      "Ġouter": 8565,
      "1998": 8566,
      "Ġinvestigation": 8567,
      "ĠBulgarian": 8568,
      "ystem": 8569,
      "ĠSher": 8570,
      "Ġcompact": 8571,
      "ĠAlger": 8572,
      "ĠGreeks": 8573,
      "ĠDesign": 8574,
      "affe": 8575,
      "Ġexclusively": 8576,
      "Ġscheme": 8577,
      "ĠPhoen": 8578,
      "Ġ1904": 8579,
      "onymous": 8580,
      "uador": 8581,
      "herent": 8582,
      "Ġinse": 8583,
      "Ġ().": 8584,
      "Ġvarieties": 8585,
      "Ġmainstream": 8586,
      "Ġeasy": 8587,
      "ĠIsaac": 8588,
      "ificance": 8589,
      "German": 8590,
      "iac": 8591,
      "Ġfemin": 8592,
      "ĠRoose": 8593,
      "Ġboundaries": 8594,
      "jo": 8595,
      "ĠFive": 8596,
      "Ġexecution": 8597,
      "Ġnotation": 8598,
      "ĠBeck": 8599,
      "ĠBaron": 8600,
      "1997": 8601,
      "ĠNiger": 8602,
      "Ġkid": 8603,
      "Ġheads": 8604,
      "Ġconcerning": 8605,
      "Ġmissile": 8606,
      "Ġdistinguish": 8607,
      "Ġhunting": 8608,
      "adron": 8609,
      "ĠHere": 8610,
      "ĠCla": 8611,
      "Ġjobs": 8612,
      "ĠCaesar": 8613,
      "Ġfruit": 8614,
      "ĠTok": 8615,
      "ĠLis": 8616,
      "Ġapproaches": 8617,
      "ĠAgricult": 8618,
      "har": 8619,
      "tain": 8620,
      "omical": 8621,
      "olith": 8622,
      "auer": 8623,
      "Ġalgorithms": 8624,
      "Ġpiano": 8625,
      "180": 8626,
      "Ġowner": 8627,
      "Ġpicture": 8628,
      "rage": 8629,
      "Ġprotest": 8630,
      "Ġquantities": 8631,
      "ĠBernard": 8632,
      "Ġneighborhood": 8633,
      "ĠBenjamin": 8634,
      "isition": 8635,
      "ĠBand": 8636,
      "Ġ34": 8637,
      "Ġpolyn": 8638,
      "lium": 8639,
      "Ġspecified": 8640,
      "Ġreligions": 8641,
      "Ġhomosexual": 8642,
      "Ġentertainment": 8643,
      "ĠCode": 8644,
      "Ġsuicide": 8645,
      "ĠStory": 8646,
      "Ġmarine": 8647,
      "ibraries": 8648,
      "Se": 8649,
      "isers": 8650,
      "ĠTenn": 8651,
      "Ġknew": 8652,
      "2018": 8653,
      "Ġ1907": 8654,
      "ĠâĢ¢": 8655,
      "ĠAffairs": 8656,
      "ĠRoosevelt": 8657,
      "Ġsand": 8658,
      "olid": 8659,
      "ĠFred": 8660,
      "ipe": 8661,
      "ĠHein": 8662,
      "ĠColumbus": 8663,
      "Ġstructural": 8664,
      "ithmetic": 8665,
      "lades": 8666,
      "ĠKings": 8667,
      "Ġplural": 8668,
      "Ġdisag": 8669,
      "Ġoperator": 8670,
      "Ġanniversary": 8671,
      "world": 8672,
      "ĠPublishing": 8673,
      "PC": 8674,
      "cope": 8675,
      "eda": 8676,
      "ĠHom": 8677,
      "ĠHart": 8678,
      "Ġdisappe": 8679,
      "Ġstatements": 8680,
      "ĠUpon": 8681,
      "Ġessentially": 8682,
      "ĠGran": 8683,
      "Ġmanip": 8684,
      "Ġartistic": 8685,
      "sche": 8686,
      "Ġsurvive": 8687,
      "Ġmythology": 8688,
      "ĠSummer": 8689,
      "Ġframework": 8690,
      "itter": 8691,
      "ĠLiver": 8692,
      "Ġtracks": 8693,
      "Ġstrategic": 8694,
      "ĠFranco": 8695,
      "Ġpredecess": 8696,
      "Ġfemales": 8697,
      "ĠLawrence": 8698,
      "ĠCultural": 8699,
      "Ġchapter": 8700,
      "eman": 8701,
      "ĠJane": 8702,
      "Ġperp": 8703,
      "Ġcommemor": 8704,
      "ropy": 8705,
      "Ġexpert": 8706,
      "Ġmolecule": 8707,
      "ĠSud": 8708,
      "ĠEucl": 8709,
      "Ġunem": 8710,
      "ĠStadium": 8711,
      "Ġfollowers": 8712,
      "tario": 8713,
      "Ġpurchase": 8714,
      "Ġchoose": 8715,
      "Ġcricketer": 8716,
      "ĠGordon": 8717,
      "Ġpri": 8718,
      "Ġinterested": 8719,
      "Ġstruggle": 8720,
      "ista": 8721,
      "Ġ42": 8722,
      "ĠFlight": 8723,
      "Ġhorizon": 8724,
      "Ġwrong": 8725,
      "otton": 8726,
      "Ġintermedi": 8727,
      "ĠFormer": 8728,
      "Ġconquered": 8729,
      "ĠKazakhstan": 8730,
      "ĠAqu": 8731,
      "ifer": 8732,
      "Ġvot": 8733,
      "Ġtas": 8734,
      "Ġfest": 8735,
      "elle": 8736,
      "Ġspot": 8737,
      "ĠJulian": 8738,
      "ĠPhilippines": 8739,
      "Ġnatur": 8740,
      "ĠMuch": 8741,
      "ĠData": 8742,
      "ĠPriv": 8743,
      "sterdam": 8744,
      "Ġcovering": 8745,
      "ĠPa": 8746,
      "Ġrestored": 8747,
      "ĠClinton": 8748,
      "ĠAnthony": 8749,
      "72": 8750,
      "ĠHad": 8751,
      "Ġclim": 8752,
      "ĠArn": 8753,
      "ĠMedical": 8754,
      "Ġsale": 8755,
      "Ġbes": 8756,
      "roid": 8757,
      "Ġtool": 8758,
      "ĠRud": 8759,
      "Ġhomes": 8760,
      "AR": 8761,
      "gel": 8762,
      "Ġbanned": 8763,
      "Ġtriang": 8764,
      "Ġdiver": 8765,
      "ĠOri": 8766,
      "pton": 8767,
      "ateral": 8768,
      "Ġvariants": 8769,
      "Ġmerely": 8770,
      "asi": 8771,
      "Ġinvited": 8772,
      "Ġprofession": 8773,
      "Ġnecessarily": 8774,
      "Ġenforce": 8775,
      "Ġexposure": 8776,
      "Ġparent": 8777,
      "ĠElectric": 8778,
      "Ġlot": 8779,
      "ĠMoz": 8780,
      "lication": 8781,
      "Ġpredict": 8782,
      "71": 8783,
      "elect": 8784,
      "heastern": 8785,
      "acle": 8786,
      "Ġproducers": 8787,
      "Ġpeas": 8788,
      "Ġparticipated": 8789,
      "zig": 8790,
      "Ġdies": 8791,
      "Ġattracted": 8792,
      "odyn": 8793,
      "ĠThose": 8794,
      "itals": 8795,
      "Ġpapers": 8796,
      "Ġinflation": 8797,
      "Ġeditions": 8798,
      "Ġefficiency": 8799,
      "Ġrecognised": 8800,
      "ĠColombia": 8801,
      "uum": 8802,
      "Ġflying": 8803,
      "ĠAli": 8804,
      "Ġviolent": 8805,
      "uz": 8806,
      "opt": 8807,
      "rene": 8808,
      "ĠChildren": 8809,
      "wig": 8810,
      "Ġcoc": 8811,
      "Ġbought": 8812,
      "ĠWis": 8813,
      "ĠAmericas": 8814,
      "ĠHouston": 8815,
      "Ġtennis": 8816,
      "ĠHind": 8817,
      "arms": 8818,
      "ĠIndustrial": 8819,
      "Ġtournament": 8820,
      "Ġtone": 8821,
      "Ġduties": 8822,
      "ĠCarter": 8823,
      "Ġinhib": 8824,
      "Ġstorm": 8825,
      "ĠNum": 8826,
      "Ġdivor": 8827,
      "Ġinteger": 8828,
      "ĠCyprus": 8829,
      "Ġcrow": 8830,
      "Ġinitiated": 8831,
      "aro": 8832,
      "Ġda": 8833,
      "emeter": 8834,
      "Ġswim": 8835,
      "Ġneighbour": 8836,
      "ĠVideo": 8837,
      "ĠAltern": 8838,
      "Ġrepublic": 8839,
      "brev": 8840,
      "Ġpianist": 8841,
      "Ġere": 8842,
      "iments": 8843,
      "ĠNFL": 8844,
      "ateur": 8845,
      "ĠKey": 8846,
      "Ġresign": 8847,
      "atherine": 8848,
      "Ġdriven": 8849,
      "Ġappearances": 8850,
      "ĠWilhelm": 8851,
      "Ġpossession": 8852,
      "Ġgrammar": 8853,
      "Ġaccurate": 8854,
      "ĠBanglades": 8855,
      "ders": 8856,
      "ĠAld": 8857,
      "ĠDu": 8858,
      "ĠNear": 8859,
      "Ġports": 8860,
      "Ġunsuccess": 8861,
      "Ġapparently": 8862,
      "ĠTony": 8863,
      "ĠMold": 8864,
      "ĠBalk": 8865,
      "ĠThompson": 8866,
      "ĠRegion": 8867,
      "Ġparticipate": 8868,
      "Ġstrengthe": 8869,
      "Ġpairs": 8870,
      "Ġrear": 8871,
      "Ġ(;": 8872,
      "apore": 8873,
      "phony": 8874,
      "ĠOntario": 8875,
      "ĠExper": 8876,
      "ĠEcuador": 8877,
      "Ġspacecraft": 8878,
      "prof": 8879,
      "ĠSant": 8880,
      "thew": 8881,
      "Ġreplacement": 8882,
      "ĠWayne": 8883,
      "oil": 8884,
      "ĠPyth": 8885,
      "reek": 8886,
      "Ġeverything": 8887,
      "Ġrestrictions": 8888,
      "Ġions": 8889,
      "arks": 8890,
      "ĠSpring": 8891,
      "Ġinvolvement": 8892,
      "Ġindependently": 8893,
      "Ġlifetime": 8894,
      "Ġelsewhere": 8895,
      "Ġserver": 8896,
      "Ġelabor": 8897,
      "ancell": 8898,
      "Ġdangerous": 8899,
      "MT": 8900,
      "iast": 8901,
      "ĠNik": 8902,
      "Ġoperational": 8903,
      "Ġtechnologies": 8904,
      "enesis": 8905,
      "Ġvessels": 8906,
      "78": 8907,
      "gress": 8908,
      "iology": 8909,
      "Ġ{": 8910,
      "Ġgluc": 8911,
      "ĠKnight": 8912,
      "ĠTru": 8913,
      "Ġresc": 8914,
      "Ġmineral": 8915,
      "Ġintention": 8916,
      "Ġracial": 8917,
      "Ġcoff": 8918,
      "Ġdistribut": 8919,
      "Ġpermitted": 8920,
      "Ġexplanation": 8921,
      "Ġwrest": 8922,
      "ĠCPU": 8923,
      "Ġstopped": 8924,
      "ĠBuff": 8925,
      "ears": 8926,
      "Ġ38": 8927,
      "Ġdioxide": 8928,
      "ĠHT": 8929,
      "Ġ48": 8930,
      "Ġdiscrim": 8931,
      "Ġinsurance": 8932,
      "Ġperspective": 8933,
      "Ġfra": 8934,
      "style": 8935,
      "Ġpries": 8936,
      "atorial": 8937,
      "Ġdefinitions": 8938,
      "ĠBh": 8939,
      "Ġassign": 8940,
      "Ġcontinental": 8941,
      "Ġintegration": 8942,
      "ĠTaiwan": 8943,
      "uin": 8944,
      "Ġsuitable": 8945,
      "Ġdoctor": 8946,
      "Ġnegotiations": 8947,
      "lad": 8948,
      "Ġfit": 8949,
      "ĠBurg": 8950,
      "Ġshut": 8951,
      "ĠAnat": 8952,
      "ĠReal": 8953,
      "unciation": 8954,
      "Ġconcrete": 8955,
      "Ġprev": 8956,
      "Ġtrains": 8957,
      "Ġvarying": 8958,
      "AC": 8959,
      "amma": 8960,
      "Ġpatron": 8961,
      "Ġadjacent": 8962,
      "ĠSaf": 8963,
      "ĠLess": 8964,
      "ĠAlb": 8965,
      "Ġrout": 8966,
      "furt": 8967,
      "Ġgiant": 8968,
      "Ġalumin": 8969,
      "1900": 8970,
      "Ġaccum": 8971,
      "Ġtelephone": 8972,
      "ĠMedic": 8973,
      "Ġ1870": 8974,
      "ĠNotable": 8975,
      "ĠFreedom": 8976,
      "Ġcaptain": 8977,
      "Ġstarring": 8978,
      "Ġceremon": 8979,
      "Ġsight": 8980,
      "ĠAL": 8981,
      "ĠUpper": 8982,
      "teg": 8983,
      "Ġcenters": 8984,
      "erto": 8985,
      "Ġ1902": 8986,
      "Ġobservations": 8987,
      "enburg": 8988,
      "ĠAmsterdam": 8989,
      "ĠGalile": 8990,
      "ĠJun": 8991,
      "acts": 8992,
      "Ġscored": 8993,
      "Ġtrained": 8994,
      "Ġshel": 8995,
      "govern": 8996,
      "Ġempt": 8997,
      "ĠPhiladelph": 8998,
      "Ġtaxes": 8999,
      "Ġmissiles": 9000,
      "Ġwinner": 9001,
      "cut": 9002,
      "Ġstands": 9003,
      "Ġthereby": 9004,
      "Ġmatches": 9005,
      "ĠAgain": 9006,
      "Ġparticipation": 9007,
      "Ġhorror": 9008,
      "Ġlooking": 9009,
      "ĠLive": 9010,
      "PL": 9011,
      "log": 9012,
      "ĠTan": 9013,
      "ĠBishop": 9014,
      "romagnetic": 9015,
      "Ġjump": 9016,
      "Ġpregn": 9017,
      "fin": 9018,
      "Ġspin": 9019,
      "2017": 9020,
      "Ġdenied": 9021,
      "ĠTrib": 9022,
      "ĠSet": 9023,
      "ĠBed": 9024,
      "ĠHospital": 9025,
      "ĠDur": 9026,
      "Ġsubstit": 9027,
      "ĠMacedonia": 9028,
      "ĠAristotle": 9029,
      "ĠLiverpool": 9030,
      "ses": 9031,
      "top": 9032,
      "ĠÏ": 9033,
      "Ġdisorders": 9034,
      "Ġenjoyed": 9035,
      "Ġri": 9036,
      "Ġtheology": 9037,
      "Ġmigration": 9038,
      "Ġresist": 9039,
      "attan": 9040,
      "rolled": 9041,
      "Ġlegacy": 9042,
      "Ġguarant": 9043,
      "Ġbusinesses": 9044,
      "Ġconcentrated": 9045,
      "Ġaimed": 9046,
      "unch": 9047,
      "Ġwider": 9048,
      "Ġtropical": 9049,
      "ĠHas": 9050,
      "ĠIndex": 9051,
      "Ġresponded": 9052,
      "!\"": 9053,
      "body": 9054,
      "Ġtur": 9055,
      "anium": 9056,
      "Ġfiles": 9057,
      "imm": 9058,
      "Ġterritorial": 9059,
      "ĠSmall": 9060,
      "ĠOlympics": 9061,
      "Ġsend": 9062,
      "ĠLar": 9063,
      "Ġshr": 9064,
      "Ġconspir": 9065,
      "Ġ44": 9066,
      "Ġestablishments": 9067,
      "Ġmechanisms": 9068,
      "Ġmonarchy": 9069,
      "Ġcandidates": 9070,
      "Ġranging": 9071,
      "ĠSalvador": 9072,
      "General": 9073,
      "Ġbron": 9074,
      "ationally": 9075,
      "owa": 9076,
      "type": 9077,
      "Ġheaded": 9078,
      "Ġapproxim": 9079,
      "Ġdimension": 9080,
      "wich": 9081,
      "Ġpy": 9082,
      "strong": 9083,
      "lyn": 9084,
      "Ġmetab": 9085,
      "ĠCatholics": 9086,
      "Ġnominated": 9087,
      "Ġbits": 9088,
      "ĠConfederate": 9089,
      "Ġlyrics": 9090,
      "do": 9091,
      "venue": 9092,
      "Ġnucleus": 9093,
      "Ġrub": 9094,
      "ĠKant": 9095,
      "Ġgrant": 9096,
      "Ð¾": 9097,
      "Ġkeyboard": 9098,
      "Ġbringing": 9099,
      "Ġconsciousness": 9100,
      "Ġexceed": 9101,
      "Ġintellig": 9102,
      "aska": 9103,
      "Ġownership": 9104,
      "Ġabstract": 9105,
      "eria": 9106,
      "Ġfighter": 9107,
      "Ġtouch": 9108,
      "umed": 9109,
      "ĠWhe": 9110,
      "ĠWright": 9111,
      "Ġblues": 9112,
      "Ġunusual": 9113,
      "Ġles": 9114,
      "Ġrepresentatives": 9115,
      "ĠAnderson": 9116,
      "ĠMatthew": 9117,
      "Ġdisplayed": 9118,
      "Ġlinguistic": 9119,
      "ĠFinal": 9120,
      "ĠDictionary": 9121,
      "Ġranks": 9122,
      "Ġcomprehens": 9123,
      "Ġexposed": 9124,
      "Ġopponent": 9125,
      "Ġtempor": 9126,
      "onomous": 9127,
      "Ġbot": 9128,
      "oly": 9129,
      "Ġfewer": 9130,
      "Ġoptical": 9131,
      "ĠLibya": 9132,
      "ĠGregory": 9133,
      "ĠVik": 9134,
      "angelical": 9135,
      "Sp": 9136,
      "eor": 9137,
      "ĠTam": 9138,
      "ĠEnergy": 9139,
      "Ġ1898": 9140,
      "Ġfaculty": 9141,
      "Ġimmigration": 9142,
      "ĠSingapore": 9143,
      "Ġranges": 9144,
      "Ġdescendants": 9145,
      "ishers": 9146,
      "Ġgather": 9147,
      "orted": 9148,
      "ective": 9149,
      "ĠBeat": 9150,
      "ĠHamilton": 9151,
      "ĠMarshall": 9152,
      "zy": 9153,
      "Ġreviews": 9154,
      "aments": 9155,
      "ayer": 9156,
      "ĠDecl": 9157,
      "Ġcontinuing": 9158,
      "Ġcommissioned": 9159,
      "Ġministers": 9160,
      "zb": 9161,
      "Ġprove": 9162,
      "awn": 9163,
      "Ġdesert": 9164,
      "Ã©t": 9165,
      "Ġbuy": 9166,
      "Ġpatent": 9167,
      "1996": 9168,
      "Ġdamaged": 9169,
      "Ĥ¬": 9170,
      "encing": 9171,
      "Ġusual": 9172,
      "Ġchance": 9173,
      "Ġallies": 9174,
      "Ġreprodu": 9175,
      "Ġsupports": 9176,
      "Ġreplacing": 9177,
      "marine": 9178,
      "ecutive": 9179,
      "Ġconductor": 9180,
      "Ġthreatened": 9181,
      "ĠVI": 9182,
      "Ġsuffering": 9183,
      "Ġoffering": 9184,
      "Ġseeking": 9185,
      "ingly": 9186,
      "ĠAj": 9187,
      "ĠRout": 9188,
      "ĠKash": 9189,
      "eric": 9190,
      "itative": 9191,
      "ĠSic": 9192,
      "ĠStew": 9193,
      "Ġcoverage": 9194,
      "ĠPhiladelphia": 9195,
      "cular": 9196,
      "mund": 9197,
      "Ġsod": 9198,
      "oli": 9199,
      "agle": 9200,
      "Ġpublishing": 9201,
      "iki": 9202,
      "Ġdecrease": 9203,
      "ĠEis": 9204,
      "Ġsignificance": 9205,
      "Ġdifficulty": 9206,
      "Ġrotation": 9207,
      "Ġsupplies": 9208,
      "Ġrevenue": 9209,
      "room": 9210,
      "Ġ55": 9211,
      "Ġanyone": 9212,
      "ĠClark": 9213,
      "ĠApost": 9214,
      "Ġartillery": 9215,
      "Ġretire": 9216,
      "ĠClimate": 9217,
      "ennium": 9218,
      "Ġpainted": 9219,
      "spec": 9220,
      "Ġastronaut": 9221,
      "Ġthinking": 9222,
      "Ġrebellion": 9223,
      "omal": 9224,
      "otte": 9225,
      "Ġforb": 9226,
      "Ġcollections": 9227,
      "ĠEngineering": 9228,
      "Ġnaturally": 9229,
      "Ġfishing": 9230,
      "Ġmaps": 9231,
      "ĠFull": 9232,
      "Ġneck": 9233,
      "Ġspecialized": 9234,
      "Ġcontrad": 9235,
      "thetic": 9236,
      "Ġopponents": 9237,
      "Ġmeetings": 9238,
      "ulin": 9239,
      "iano": 9240,
      "essions": 9241,
      "Ġmounted": 9242,
      "Ġcoins": 9243,
      "ĠComics": 9244,
      "Ġregistered": 9245,
[...]
