{
  "version": "1.0",
  "truncation": null,
  "padding": null,
  "added_tokens": [
    {
      "id": 0,
      "content": "<unk>",
      "single_word": false,
      "lstrip": false,
      "rstrip": false,
      "normalized": false,
      "special": true
    },
    {
      "id": 1,
      "content": "<pad>",
      "single_word": false,
      "lstrip": false,
      "rstrip": false,
      "normalized": false,
      "special": true
    },
    {
      "id": 2,
      "content": "<bos>",
      "single_word": false,
      "lstrip": false,
      "rstrip": false,
      "normalized": false,
      "special": true
    },
    {
      "id": 3,
      "content": "<eos>",
      "single_word": false,
      "lstrip": false,
      "rstrip": false,
      "normalized": false,
      "special": true
    }
  ],
  "normalizer": null,
  "pre_tokenizer": {
    "type": "ByteLevel",
    "add_prefix_space": true,
    "trim_offsets": true,
    "use_regex": true
  },
  "post_processor": null,
  "decoder": {
    "type": "ByteLevel",
    "add_prefix_space": true,
    "trim_offsets": true,
    "use_regex": true
  },
  "model": {
    "type": "BPE",
    "dropout": null,
    "unk_token": "<unk>",
    "continuing_subword_prefix": null,
    "end_of_word_suffix": null,
    "fuse_unk": false,
    "byte_fallback": false,
    "ignore_merges": false,
    "vocab": {
      "<unk>": 0,
      "<pad>": 1,
      "<bos>": 2,
      "<eos>": 3,
      "!": 4,
      "\"": 5,
      "#": 6,
      "$": 7,
      "%": 8,
      "&": 9,
      "'": 10,
      "(": 11,
      ")": 12,
      "*": 13,
      "+": 14,
      ",": 15,
      "-": 16,
      ".": 17,
      "/": 18,
      "0": 19,
      "1": 20,
      "2": 21,
      "3": 22,
      "4": 23,
      "5": 24,
      "6": 25,
      "7": 26,
      "8": 27,
      "9": 28,
      ":": 29,
      ";": 30,
      "<": 31,
      "=": 32,
      ">": 33,
      "?": 34,
      "@": 35,
      "A": 36,
      "B": 37,
      "C": 38,
      "D": 39,
      "E": 40,
      "F": 41,
      "G": 42,
      "H": 43,
      "I": 44,
      "J": 45,
      "K": 46,
      "L": 47,
      "M": 48,
      "N": 49,
      "O": 50,
      "P": 51,
      "Q": 52,
      "R": 53,
      "S": 54,
      "T": 55,
      "U": 56,
      "V": 57,
      "W": 58,
      "X": 59,
      "Y": 60,
      "Z": 61,
      "[": 62,
      "\\": 63,
      "]": 64,
      "^": 65,
      "_": 66,
      "`": 67,
      "a": 68,
      "b": 69,
      "c": 70,
      "d": 71,
      "e": 72,
      "f": 73,
      "g": 74,
      "h": 75,
      "i": 76,
      "j": 77,
      "k": 78,
      "l": 79,
      "m": 80,
      "n": 81,
      "o": 82,
      "p": 83,
      "q": 84,
      "r": 85,
      "s": 86,
      "t": 87,
      "u": 88,
      "v": 89,
      "w": 90,
      "x": 91,
      "y": 92,
      "z": 93,
      "{": 94,
      "|": 95,
      "}": 96,
      "~": 97,
      "¡": 98,
      "¢": 99,
      "¦": 100,
      "©": 101,
      "«": 102,
      "¬": 103,
      "±": 104,
      "³": 105,
      "»": 106,
      "Â": 107,
      "Ã": 108,
      "Å": 109,
      "Ë": 110,
      "â": 111,
      "Ċ": 112,
      "Ġ": 113,
      "Ģ": 114,
      "Ĥ": 115,
      "ĥ": 116,
      "Ħ": 117,
      "ĵ": 118,
      "ľ": 119,
      "Ŀ": 120,
      "ł": 121,
      "he": 122,
      "Ġt": 123,
      "Ġa": 124,
      "Ġs": 125,
      "Ġw": 126,
      "nd": 127,
      "Ġthe": 128,
      "ed": 129,
      "Ġand": 130,
      "Ġto": 131,
      "Ġb": 132,
      "in": 133,
      "Ġh": 134,
      "Ġwa": 135,
      "re": 136,
      "Ġf": 137,
      "ou": 138,
      "it": 139,
      "Ġl": 140,
      "Ġc": 141,
      "Ġd": 142,
      "er": 143,
      "Ġhe": 144,
      "\"\"": 145,
      "Ġm": 146,
      "Ġp": 147,
      "Ġwas": 148,
      "ĠT": 149,
      "om": 150,
      "Ġo": 151,
      "ay": 152,
      "is": 153,
      "ar": 154,
      "il": 155,
      "ing": 156,
      "Ġg": 157,
      "id": 158,
      "at": 159,
      "en": 160,
      "Ġn": 161,
      "Ġsa": 162,
      "Ġha": 163,
      "ĠS": 164,
      "ĠThe": 165,
      "an": 166,
      "im": 167,
      "or": 168,
      "on": 169,
      "Ġit": 170,
      "Ġth": 171,
      "ll": 172,
      "le": 173,
      "ĠH": 174,
      "Ġher": 175,
      "et": 176,
      "ot": 177,
      "ir": 178,
      "ĠShe": 179,
      "ĠHe": 180,
      "es": 181,
      "Ġin": 182,
      "ver": 183,
      "ow": 184,
      "ut": 185,
      "ĠThey": 186,
      "ck": 187,
      "ily": 188,
      "Ġe": 189,
      "Ġy": 190,
      "Ġu": 191,
      "ld": 192,
      "oo": 193,
      "Ġsaid": 194,
      "ig": 195,
      "Ġ\"\"": 196,
      "am": 197,
      "Ġr": 198,
      "Ġbe": 199,
      "ĠI": 200,
      "Ġst": 201,
      "Lily": 202,
      "ith": 203,
      "ce": 204,
      "ke": 205,
      "pp": 206,
      "Ġwith": 207,
      "ve": 208,
      "Ġshe": 209,
      "On": 210,
      "Ġon": 211,
      "ri": 212,
      "Ġyou": 213,
      "ked": 214,
      "Ġpl": 215,
      "Ġof": 216,
      "Ġhis": 217,
      "nt": 218,
      "Ġso": 219,
      "ad": 220,
      "Ġday": 221,
      "very": 222,
      "Ġthat": 223,
      "ĠLily": 224,
      "Ġplay": 225,
      "Ġup": 226,
      "Ġhad": 227,
      "Ġthey": 228,
      "Ġwe": 229,
      "Ġmom": 230,
      "st": 231,
      "ĠB": 232,
      "el": 233,
      "Ġfor": 234,
      "un": 235,
      "my": 236,
      "'s": 237,
      "ould": 238,
      "Ġli": 239,
      "The": 240,
      "Ġhapp": 241,
      "ent": 242,
      "ch": 243,
      "Ġwant": 244,
      "itt": 245,
      "her": 246,
      "Ġsh": 247,
      "out": 248,
      "Ġdo": 249,
      "end": 250,
      "Ġnot": 251,
      "all": 252,
      "ome": 253,
      "Ġvery": 254,
      "se": 255,
      "ound": 256,
      "ly": 257,
      "ime": 258,
      "Ġk": 259,
      "ittle": 260,
      "Ġwh": 261,
      "Ġtime": 262,
      ".\"": 263,
      "Ġlittle": 264,
      "Ġthere": 265,
      "Ġbig": 266,
      "Ġne": 267,
      "Ġis": 268,
      "Ġhappy": 269,
      "ht": 270,
      "al": 271,
      "ĠM": 272,
      "Ġsm": 273,
      "Ġre": 274,
      "riend": 275,
      "Ġfriend": 276,
      "ĠIt": 277,
      "Ġsaw": 278,
      "Ġbut": 279,
      ".\"\"": 280,
      "ra": 281,
      "Ġan": 282,
      "Ġas": 283,
      "ry": 284,
      "ack": 285,
      "One": 286,
      "ide": 287,
      "ake": 288,
      "ved": 289,
      "!\"\"": 290,
      "ug": 291,
      "'t": 292,
      "ter": 293,
      "Ġlo": 294,
      "Ġloo": 295,
      "Once": 296,
      "Ġwere": 297,
      "ĠTim": 298,
      "Ġse": 299,
      "ore": 300,
      "Ġtoo": 301,
      "Ġbo": 302,
      "Ġhim": 303,
      "Ġgo": 304,
      "Ġare": 305,
      "ec": 306,
      "Ġwanted": 307,
      "ill": 308,
      "Ġupon": 309,
      "irl": 310,
      "Ġthem": 311,
      "ard": 312,
      "Ġj": 313,
      "Ġgirl": 314,
      "Ġout": 315,
      "Ġat": 316,
      "ind": 317,
      "Ġtheir": 318,
      "ur": 319,
      "way": 320,
      "fu": 321,
      "Ġdid": 322,
      "ĠA": 323,
      "Ġsp": 324,
      "hen": 325,
      "Ġsmil": 326,
      "Ġcould": 327,
      "Ġhave": 328,
      "ain": 329,
      "Ġwent": 330,
      "Ġnam": 331,
      "ĠBen": 332,
      "hed": 333,
      "art": 334,
      "Ġcan": 335,
      "lp": 336,
      "rom": 337,
      "ic": 338,
      "Ġex": 339,
      "Ġfriends": 340,
      "round": 341,
      "?\"\"": 342,
      "Ġhelp": 343,
      "ood": 344,
      "ful": 345,
      "Ġkn": 346,
      "ĠJ": 347,
      "Ġall": 348,
      "hing": 349,
      "ight": 350,
      "um": 351,
      "ark": 352,
      "Ġfun": 353,
      "Ġback": 354,
      "Ġsay": 355,
      "one": 356,
      "Ġnamed": 357,
      "You": 358,
      "Ġcl": 359,
      "are": 360,
      "ĠTom": 361,
      "Ġno": 362,
      "Ġle": 363,
      "Ġloved": 364,
      "op": 365,
      "elt": 366,
      "ĠOne": 367,
      "oug": 368,
      "Ġsc": 369,
      "Ġtoy": 370,
      "ĠTimmy": 371,
      "Ġfelt": 372,
      "Ġsmiled": 373,
      "Ġal": 374,
      "Ġasked": 375,
      "side": 376,
      "Ġlike": 377,
      "ick": 378,
      "Ġlooked": 379,
      "Ġfe": 380,
      "Ġsee": 381,
      "Ġman": 382,
      "ame": 383,
      "Ġro": 384,
      "Ġbir": 385,
      "get": 386,
      "Ġme": 387,
      "ĠW": 388,
      "Ġaround": 389,
      "Ġsome": 390,
      "ure": 391,
      "Ġbr": 392,
      "omet": 393,
      "Ġboy": 394,
      "Ġbird": 395,
      "ong": 396,
      "ice": 397,
      "Ġwould": 398,
      "as": 399,
      "Ġstart": 400,
      "Ġwor": 401,
      "Ġtre": 402,
      "gether": 403,
      ",\"\"": 404,
      "dd": 405,
      "Ġag": 406,
      "ings": 407,
      "ade": 408,
      "Ġsomet": 409,
      "Ġmake": 410,
      "ag": 411,
      "Ġfa": 412,
      "ĠBut": 413,
      "own": 414,
      "Ġwhat": 415,
      "ĠYou": 416,
      "king": 417,
      "Ġaway": 418,
      "Ġtogether": 419,
      "Ġsays": 420,
      "Ġran": 421,
      "oud": 422,
      "Ġstarted": 423,
      "Ġpark": 424,
      "ared": 425,
      "Ġmade": 426,
      "if": 427,
      "Ã¢": 428,
      "âĤ": 429,
      "âĤ¬": 430,
      "ie": 431,
      "Ġco": 432,
      "Ġsad": 433,
      "Ġput": 434,
      "Ġot": 435,
      "Ġsomething": 436,
      "Ġcar": 437,
      "Ġnew": 438,
      "ited": 439,
      "ell": 440,
      "Ġpr": 441,
      "Ġother": 442,
      "Ġfrom": 443,
      "Ġagain": 444,
      "ble": 445,
      "Ġgood": 446,
      "Ġhug": 447,
      "Ġhome": 448,
      "ook": 449,
      "Ġmu": 450,
      "Ġfl": 451,
      "Ġla": 452,
      "Ġexc": 453,
      "Ġwhen": 454,
      "ĠL": 455,
      "ried": 456,
      "Ġfound": 457,
      "est": 458,
      "ue": 459,
      "Ġwho": 460,
      "ss": 461,
      "ach": 462,
      "ep": 463,
      "ought": 464,
      "pped": 465,
      "hat": 466,
      "Ġplaying": 467,
      "Ġthen": 468,
      "Ġch": 469,
      "Ġsw": 470,
      "Ġdec": 471,
      "Ġwal": 472,
      "Ġget": 473,
      "ous": 474,
      "uck": 475,
      "Ġthings": 476,
      "nn": 477,
      "pl": 478,
      "Ġgot": 479,
      "Ġbl": 480,
      "ally": 481,
      "ro": 482,
      "Ġliked": 483,
      "Ġdog": 484,
      "ave": 485,
      "ax": 486,
      "ĠE": 487,
      "Ġexcited": 488,
      "Ġevery": 489,
      "Ġcame": 490,
      "Ġyour": 491,
      "Ġbec": 492,
      "Ġdecid": 493,
      "Ġdown": 494,
      "Ġdecided": 495,
      "Ġfind": 496,
      "ouse": 497,
      "Ġcare": 498,
      "Ġdad": 499,
      "ust": 500,
      "ny": 501,
      "ĠD": 502,
      "ist": 503,
      "Ġscared": 504,
      "Ġv": 505,
      "ara": 506,
      "Ġfeel": 507,
      "Ġone": 508,
      "They": 509,
      "Ġab": 510,
      "ĠMom": 511,
      "Ġthan": 512,
      "Ġtree": 513,
      "Ġta": 514,
      "Ġmy": 515,
      "nna": 516,
      "Ġwill": 517,
      "qu": 518,
      "our": 519,
      "udd": 520,
      "Ġtoys": 521,
      "arn": 522,
      "us": 523,
      "ways": 524,
      "Ġball": 525,
      "ĠF": 526,
      "Ġtook": 527,
      "Ġdidn": 528,
      "ers": 529,
      "Ġpo": 530,
      "Ġabout": 531,
      "Ġgra": 532,
      "Ġalways": 533,
      "ess": 534,
      "nder": 535,
      "Ġlook": 536,
      "Ġthought": 537,
      "ant": 538,
      "ite": 539,
      "Ġkne": 540,
      "Ġke": 541,
      "Ġlot": 542,
      "Ġmommy": 543,
      "fe": 544,
      "ise": 545,
      "Ġoutside": 546,
      "ap": 547,
      "ged": 548,
      "ret": 549,
      "Ġmore": 550,
      "Ġknow": 551,
      "Ġlearn": 552,
      "bb": 553,
      "ched": 554,
      "Ġho": 555,
      "Ġcat": 556,
      "ened": 557,
      "ĠMax": 558,
      "Ġint": 559,
      "Ġlaug": 560,
      "eci": 561,
      "ĠSam": 562,
      "Ġtake": 563,
      "Ġold": 564,
      "ia": 565,
      "Ġsor": 566,
      "fter": 567,
      "Ġany": 568,
      "Ġhow": 569,
      "Ġknew": 570,
      "ma": 571,
      "Ġpe": 572,
      "ive": 573,
      "Ġtr": 574,
      "ecial": 575,
      "Ġspecial": 576,
      "udden": 577,
      "au": 578,
      "Ġshow": 579,
      "Ġsl": 580,
      "Ġhouse": 581,
      "Ġsorry": 582,
      "uddenly": 583,
      "But": 584,
      "Ġmuch": 585,
      "Ġrun": 586,
      "and": 587,
      "ish": 588,
      "ank": 589,
      "ven": 590,
      "Ġsun": 591,
      "Ġtold": 592,
      "Ġor": 593,
      "Ġmo": 594,
      "Ġplayed": 595,
      "Ġop": 596,
      "Ġtw": 597,
      "ink": 598,
      "Ġhand": 599,
      "Ġsk": 600,
      "Ġinto": 601,
      "Ġwater": 602,
      "Ġtried": 603,
      "ty": 604,
      "Ġgave": 605,
      "Ġclo": 606,
      "Ġproud": 607,
      "Ġeat": 608,
      "Ġinside": 609,
      "ause": 610,
      "ĠWe": 611,
      "ate": 612,
      "other": 613,
      "Ġroom": 614,
      "Ġif": 615,
      "ump": 616,
      "Ġen": 617,
      "Ġover": 618,
      "Tom": 619,
      "Ġcouldn": 620,
      "ge": 621,
      "ob": 622,
      "Ġnever": 623,
      "Ġheard": 624,
      "etter": 625,
      "Ġpick": 626,
      "Ġgre": 627,
      "Ġhugged": 628,
      "ĠAnna": 629,
      "Ġstr": 630,
      "ace": 631,
      "dy": 632,
      "ak": 633,
      "Ġpret": 634,
      "ion": 635,
      "Ġwat": 636,
      "Ġbox": 637,
      "Ġexpl": 638,
      "Ġbecause": 639,
      "Ġeach": 640,
      "Ġsmall": 641,
      "Ġthis": 642,
      "Ġneed": 643,
      "Ġjust": 644,
      "ĠEvery": 645,
      "ĠSara": 646,
      "Mom": 647,
      "Ġbu": 648,
      "Ġmany": 649,
      "ile": 650,
      "Ġnice": 651,
      "here": 652,
      "oth": 653,
      "Ġfo": 654,
      "Ġcom": 655,
      "Ġlong": 656,
      "uc": 657,
      "Ġqu": 658,
      "'m": 659,
      "urt": 660,
      "sed": 661,
      "imal": 662,
      "iz": 663,
      "Ġanimal": 664,
      "by": 665,
      "gry": 666,
      "ving": 667,
      "Ġsn": 668,
      "Ġbear": 669,
      "Ġoff": 670,
      "ine": 671,
      "Ġtry": 672,
      "Ġlearned": 673,
      "Ġlove": 674,
      "ort": 675,
      "ild": 676,
      "ough": 677,
      "Ġbetter": 678,
      "ft": 679,
      "Ġunt": 680,
      "sel": 681,
      "ĠJack": 682,
      "Yes": 683,
      "Ġflow": 684,
      "ĠMia": 685,
      "Ġcall": 686,
      "Ġuntil": 687,
      "Ġbest": 688,
      "ĠC": 689,
      "em": 690,
      "Ġkind": 691,
      "ĠAnd": 692,
      "Ġcle": 693,
      "Th": 694,
      "Ġdre": 695,
      "Ġim": 696,
      "ars": 697,
      "Ġend": 698,
      "Ġpu": 699,
      "Ġdon": 700,
      "urn": 701,
      "aut": 702,
      "ady": 703,
      "ĠJo": 704,
      "He": 705,
      "Ġcareful": 706,
      "ves": 707,
      "ber": 708,
      "Ġfi": 709,
      "Ġgr": 710,
      "ĠHer": 711,
      "Ġad": 712,
      "lly": 713,
      "Ġche": 714,
      "ĠSo": 715,
      "Ġthanked": 716,
      "Ġeven": 717,
      "vent": 718,
      "Ġbra": 719,
      "Ġlaughed": 720,
      "Ġbeaut": 721,
      "Ġjump": 722,
      "Ġfast": 723,
      "Ġsky": 724,
      "lew": 725,
      "urp": 726,
      "Ġte": 727,
      "Ġgard": 728,
      "Ġgarden": 729,
      "iny": 730,
      "pt": 731,
      "oy": 732,
      "Ġhurt": 733,
      "Ġby": 734,
      "Ġlist": 735,
      "Ġloud": 736,
      "Ġgl": 737,
      "self": 738,
      "ase": 739,
      "Ġstill": 740,
      "Ġbeauti": 741,
      "Ġlots": 742,
      "It": 743,
      "Ġbeautiful": 744,
      "Ġanimals": 745,
      "Ġcome": 746,
      "wn": 747,
      "Ġhard": 748,
      "ĠFrom": 749,
      "Ġlived": 750,
      "Ġway": 751,
      "rm": 752,
      "Ġunder": 753,
      "ct": 754,
      "ies": 755,
      "hes": 756,
      "Ġfam": 757,
      "Tim": 758,
      "Ġlet": 759,
      "ĠHis": 760,
      "Ġwo": 761,
      "be": 762,
      "ool": 763,
      "Ġra": 764,
      "Ġcol": 765,
      "Ġcu": 766,
      "ock": 767,
      "ect": 768,
      "Åĵ": 769,
      "ucy": 770,
      "Ġboth": 771,
      "igh": 772,
      "ning": 773,
      "kay": 774,
      "ĠThen": 775,
      "Ġits": 776,
      "Ġsafe": 777,
      "Ġdan": 778,
      "Ġrem": 779,
      "Ġflew": 780,
      "Ġbad": 781,
      "Ġbrave": 782,
      "Ġbook": 783,
      "ane": 784,
      "Ġstay": 785,
      "Ġstor": 786,
      "ast": 787,
      "Ġdoll": 788,
      "Ġimp": 789,
      "Ġcalled": 790,
      "Ġred": 791,
      "ople": 792,
      "Ġshould": 793,
      "Ġfly": 794,
      "Ġtwo": 795,
      "ree": 796,
      "When": 797,
      "ĠÃ¢": 798,
      "Ġangry": 799,
      "Ġwalked": 800,
      "ished": 801,
      "Ġdra": 802,
      "Ġfin": 803,
      "Let": 804,
      "Ġpic": 805,
      "Ġclean": 806,
      "dded": 807,
      "age": 808,
      "Ġrock": 809,
      "Ġfamily": 810,
      "Ġshare": 811,
      "ip": 812,
      "Ġpeople": 813,
      "urpr": 814,
      "xt": 815,
      "led": 816,
      "Ġsurpr": 817,
      "illy": 818,
      "ĠP": 819,
      "hn": 820,
      "Ġsoon": 821,
      "No": 822,
      "ĠWhen": 823,
      "Ġpretty": 824,
      "Ġshiny": 825,
      "Ben": 826,
      "fore": 827,
      "Ġwind": 828,
      "Ġground": 829,
      "Ġfore": 830,
      "Ġkept": 831,
      "ummy": 832,
      "oon": 833,
      "Ġgoing": 834,
      "Ġnow": 835,
      "Ġdoor": 836,
      "Ġsto": 837,
      "Ġcon": 838,
      "Ġnoise": 839,
      "eet": 840,
      "ised": 841,
      "ary": 842,
      "Ġkeep": 843,
      "ied": 844,
      "Ġnodded": 845,
      "Ġadvent": 846,
      "ture": 847,
      "Ġey": 848,
      "Ġide": 849,
      "Ġopened": 850,
      "What": 851,
      "Ġfar": 852,
      "Ġtruck": 853,
      "Ġturn": 854,
      "Ġexplore": 855,
      "Ġcry": 856,
      "Ġcolor": 857,
      "âĤ¬â": 858,
      "Ġbefore": 859,
      "ff": 860,
      "ĠLucy": 861,
      "imb": 862,
      "!\"": 863,
      "Ġwhile": 864,
      "Ġclimb": 865,
      "Ġbed": 866,
      "Ġfr": 867,
      "aybe": 868,
      "That": 869,
      "Ġreal": 870,
      "Ġpicked": 871,
      "thing": 872,
      "Ġcre": 873,
      "Ġidea": 874,
      "so": 875,
      "Thank": 876,
      "Ġwr": 877,
      "Ġfeeling": 878,
      "Ġthr": 879,
      "Ġalso": 880,
      "les": 881,
      "Ġnext": 882,
      "Ġpicture": 883,
      "hy": 884,
      "ger": 885,
      "Ġhas": 886,
      "Ġun": 887,
      "kes": 888,
      "ĠG": 889,
      "uch": 890,
      "Ġwait": 891,
      "ĠSue": 892,
      "Ġtra": 893,
      "Ġsmile": 894,
      "Ħ¢": 895,
      "âĤ¬âĦ¢": 896,
      "iced": 897,
      "ting": 898,
      "Ġtow": 899,
      "ember": 900,
      "Ġwalking": 901,
      "Ġjo": 902,
      "Ġma": 903,
      "ious": 904,
      "joy": 905,
      "Ġlisten": 906,
      "Ġclos": 907,
      "Ġadventure": 908,
      "Ġstopped": 909,
      "ted": 910,
      "Ġblue": 911,
      "Ġafter": 912,
      "Ġwalk": 913,
      "Ġslide": 914,
      "Ġbeing": 915,
      "Ġeyes": 916,
      "Ġfood": 917,
      "ught": 918,
      "Ġhands": 919,
      "Ġwatch": 920,
      "Ġgreat": 921,
      "Ġstrong": 922,
      "ac": 923,
      "Ġremember": 924,
      "Ġrepl": 925,
      "Ġfish": 926,
      "Ġlooking": 927,
      "Ġdif": 928,
      "Ġthink": 929,
      "Ġdel": 930,
      "Ġask": 931,
      "She": 932,
      "Ġenjoy": 933,
      "Ġgive": 934,
      "Ġever": 935,
      "ĠSuddenly": 936,
      "maz": 937,
      "Ġflowers": 938,
      "Ġbro": 939,
      "able": 940,
      "Ġamaz": 941,
      "Ġbre": 942,
      "Ġtal": 943,
      "llow": 944,
      "Ġus": 945,
      "Ġdis": 946,
      "ĠSp": 947,
      "ĠBob": 948,
      "Ġsound": 949,
      "Ġnoticed": 950,
      "Ġvo": 951,
      "irst": 952,
      "Ġokay": 953,
      "Suddenly": 954,
      "Ġapp": 955,
      "Ġrain": 956,
      "Ġshout": 957,
      "Ġown": 958,
      "ĠDad": 959,
      "Ġshowed": 960,
      "Ġforest": 961,
      "Ġquick": 962,
      "ĠR": 963,
      "ized": 964,
      "Ġnear": 965,
      "Ġwonder": 966,
      "co": 967,
      "Ġright": 968,
      "bbit": 969,
      "Ġreplied": 970,
      "Ġboat": 971,
      "Ġbecame": 972,
      "Ġwork": 973,
      "Ġmean": 974,
      "We": 975,
      "bye": 976,
      "Ġstick": 977,
      "gan": 978,
      "Ġac": 979,
      "Ġfollow": 980,
      "Ġhead": 981,
      "lease": 982,
      "ĠN": 983,
      "Ġyell": 984,
      "Ġhigh": 985,
      "Ġimport": 986,
      "Ġeveryone": 987,
      "Ġuse": 988,
      "Ġour": 989,
      "Ġplace": 990,
      "Look": 991,
      "Ġam": 992,
      "Ġmor": 993,
      "Ġrabbit": 994,
      "Ġimportant": 995,
      "ath": 996,
      "ange": 997,
      "Ġde": 998,
      "day": 999,
      "Ġcuri": 1000,
      "bbed": 1001,
      "Ġwhere": 1002,
      "Ġblock": 1003,
      "Ġwatched": 1004,
      "ndma": 1005,
      "fere": 1006,
      "Ġhop": 1007,
      "Ġbright": 1008,
      "Ġdiffere": 1009,
      "Ġar": 1010,
      "So": 1011,
      "Ġcloser": 1012,
      "aught": 1013,
      "ila": 1014,
      "Ġgoodbye": 1015,
      "more": 1016,
      "ered": 1017,
      "Ġanymore": 1018,
      "Ġcurious": 1019,
      "Ġmag": 1020,
      "leep": 1021,
      "Ġface": 1022,
      "Ġdoes": 1023,
      "Ġopen": 1024,
      "Ġquickly": 1025,
      "Ġbeen": 1026,
      "Ġdress": 1027,
      "ĠSpot": 1028,
      "ng": 1029,
      "Ġpain": 1030,
      "itc": 1031,
      "Ġvoice": 1032,
      "Ġwarm": 1033,
      "Ġcake": 1034,
      "Sara": 1035,
      "Ġstore": 1036,
      "Anna": 1037,
      "Ġye": 1038,
      "Can": 1039,
      "Ġtell": 1040,
      "Ġsure": 1041,
      "Ġforg": 1042,
      "Her": 1043,
      "Ġbel": 1044,
      "Ġdifferent": 1045,
      "Ġcook": 1046,
      "Ġchild": 1047,
      "ĠMommy": 1048,
      "Ġstory": 1049,
      "ĠTh": 1050,
      "ired": 1051,
      "Ġcou": 1052,
      "Ġfire": 1053,
      "Ġhelped": 1054,
      "Ġfirst": 1055,
      "Ġsweet": 1056,
      "ached": 1057,
      "ull": 1058,
      "Ġsees": 1059,
      "Ġfell": 1060,
      "Ġz": 1061,
      "uff": 1062,
      "Ġfav": 1063,
      "imes": 1064,
      "Ġbutter": 1065,
      "Ġpull": 1066,
      "Ġper": 1067,
      "Ġnight": 1068,
      "Ġlea": 1069,
      "Ġru": 1070,
      "Ġbus": 1071,
      "Ġkitc": 1072,
      "Ġkitchen": 1073,
      "Ġcont": 1074,
      "Ġhere": 1075,
      "Ġdraw": 1076,
      "Jo": 1077,
      "Ġbit": 1078,
      "Ġthree": 1079,
      "isy": 1080,
      "ĠDo": 1081,
      "iss": 1082,
      "Ġhappened": 1083,
      "Ġkid": 1084,
      "After": 1085,
      "Ġjumped": 1086,
      "Ġbrother": 1087,
      "Ġsing": 1088,
      "Ġgame": 1089,
      "Ġdr": 1090,
      "ins": 1091,
      "Ġbeh": 1092,
      "Ġsoft": 1093,
      "Ġbirds": 1094,
      "Ġflo": 1095,
      "Ġprin": 1096,
      "ppy": 1097,
      "ner": 1098,
      "Ġsand": 1099,
      "Ġstop": 1100,
      "Ġonly": 1101,
      "unny": 1102,
      "ĠJane": 1103,
      "zy": 1104,
      "Ġglad": 1105,
      "ĠLet": 1106,
      "Ġcra": 1107,
      "akes": 1108,
      "Ġmess": 1109,
      "'re": 1110,
      "Ġmon": 1111,
      "Ġgrass": 1112,
      "Ġgrabbed": 1113,
      "Ġhat": 1114,
      "Ġworld": 1115,
      "Ġreached": 1116,
      "Ġhaving": 1117,
      "Ġrest": 1118,
      "Ġcut": 1119,
      "Ġlady": 1120,
      "Ġshouted": 1121,
      "Ġcr": 1122,
      "ĠAs": 1123,
      "Wow": 1124,
      "Ġate": 1125,
      "Ġyummy": 1126,
      "nts": 1127,
      "Ġname": 1128,
      "Ġthrough": 1129,
      "Ġsqu": 1130,
      "Ġready": 1131,
      "ater": 1132,
      "Ġworry": 1133,
      "Ġpap": 1134,
      "Ġfro": 1135,
      "Ġblocks": 1136,
      "ĠCan": 1137,
      "Ġdone": 1138,
      "Ġcried": 1139,
      "olly": 1140,
      "Ġpond": 1141,
      "Ġflower": 1142,
      "ĠEveryone": 1143,
      "ient": 1144,
      "Ġthing": 1145,
      "Ġrealized": 1146,
      "ass": 1147,
      "As": 1148,
      "Ġfunny": 1149,
      "Ġfavor": 1150,
      "Ġcatch": 1151,
      "Ġtired": 1152,
      "Ġmagic": 1153,
      "Ġfavorite": 1154,
      "Ġreally": 1155,
      "Ġless": 1156,
      "Ġtri": 1157,
      "ather": 1158,
      "air": 1159,
      "Ġtast": 1160,
      "Ġwaved": 1161,
      "Ġbegan": 1162,
      "where": 1163,
      "Ġmum": 1164,
      "Ġgreen": 1165,
      "Ġunderst": 1166,
      "Ġpare": 1167,
      "Ġpus": 1168,
      "Mommy": 1169,
      "ken": 1170,
      "Ġlooks": 1171,
      "Ġkids": 1172,
      "Ġdin": 1173,
      "fully": 1174,
      "Ġbutterf": 1175,
      "Ġseen": 1176,
      "th": 1177,
      "Ġpretend": 1178,
      "ĠJohn": 1179,
      "ards": 1180,
      "Ġfix": 1181,
      "Ġhair": 1182,
      "eddy": 1183,
      "Don": 1184,
      "Ġcoming": 1185,
      "Ġfill": 1186,
      "Ġbunny": 1187,
      "Ġanother": 1188,
      "Ġmaking": 1189,
      "Ġpart": 1190,
      "aisy": 1191,
      "sh": 1192,
      "mer": 1193,
      "Ġhimself": 1194,
      "ign": 1195,
      "Ġswing": 1196,
      "Ġhole": 1197,
      "Ġread": 1198,
      "Ġtouch": 1199,
      "ĠThat": 1200,
      "Ġyellow": 1201,
      "Ġcool": 1202,
      "Ġbag": 1203,
      "Ġused": 1204,
      "Timmy": 1205,
      "Ġfrog": 1206,
      "ĠSarah": 1207,
      "Ġba": 1208,
      "ster": 1209,
      "Ġcold": 1210,
      "Ġprom": 1211,
      "Ġbehind": 1212,
      "Ġsmell": 1213,
      "Ġsleep": 1214,
      "Ġswim": 1215,
      "Ġrunning": 1216,
      "Ġdro": 1217,
      "ely": 1218,
      "ĠJoe": 1219,
      "Ġpaper": 1220,
      "bo": 1221,
      "Ġtrees": 1222,
      "Ġsurprise": 1223,
      "Ġworked": 1224,
      "ike": 1225,
      "Ġste": 1226,
      "ued": 1227,
      "Ġlight": 1228,
      "Ġparents": 1229,
      "Ġwhy": 1230,
      "Ġdelic": 1231,
      "Ġgi": 1232,
      "Ġhopped": 1233,
      "Ġwished": 1234,
      "Ġset": 1235,
      "Ġwood": 1236,
      "Ġhappily": 1237,
      "Ġhold": 1238,
      "Ġdark": 1239,
      "oney": 1240,
      "Ġmouse": 1241,
      "Ġremembered": 1242,
      "ation": 1243,
      "Ġlaugh": 1244,
      "Hell": 1245,
      "Hello": 1246,
      "Ġlost": 1247,
      "Ġslow": 1248,
      "Ġdri": 1249,
      "Ġfull": 1250,
      "Ġsho": 1251,
      "Ġcars": 1252,
      "Ġlion": 1253,
      "Ġtop": 1254,
      "ens": 1255,
      "Ġlikes": 1256,
      "Ġperf": 1257,
      "Ġfloor": 1258,
      "Ġsat": 1259,
      "Ġdream": 1260,
      "Ġtall": 1261,
      "Ġbuy": 1262,
      "Ġduck": 1263,
      "Ġmove": 1264,
      "Ġlesson": 1265,
      "Sam": 1266,
      "ul": 1267,
      "Ġhill": 1268,
      "Ġbow": 1269,
      "Ġneeded": 1270,
      "Ġpre": 1271,
      "Ġenjoyed": 1272,
      "Ġsnow": 1273,
      "Ġwear": 1274,
      "Ġbutterfly": 1275,
      "iver": 1276,
      "Ġwindow": 1277,
      "Ġleft": 1278,
      "rel": 1279,
      "Ġcarefully": 1280,
      "Ġthank": 1281,
      "Ġbuild": 1282,
      "ĠBenny": 1283,
      "Ġhear": 1284,
      "Ġyears": 1285,
      "ĠAfter": 1286,
      "Ġbug": 1287,
      "Ġheld": 1288,
      "Ġspot": 1289,
      "Ġhid": 1290,
      "Ġdoing": 1291,
      "Ġhun": 1292,
      "cess": 1293,
      "Ġanything": 1294,
      "ren": 1295,
      "Ġair": 1296,
      "Ġfollowed": 1297,
      "uffy": 1298,
      "Ġherself": 1299,
      "andy": 1300,
      "\"\".": 1301,
      "Ġwrong": 1302,
      "asure": 1303,
      "Ġ-": 1304,
      "Ġice": 1305,
      "Ġcontin": 1306,
      "John": 1307,
      "Ġfair": 1308,
      "Ġtable": 1309,
      "Ġarri": 1310,
      "ĠIn": 1311,
      "Ġfriendly": 1312,
      "Ġfinished": 1313,
      "reed": 1314,
      "Ġplease": 1315,
      "ined": 1316,
      "Ġdir": 1317,
      "Ġsurprised": 1318,
      "inally": 1319,
      "orn": 1320,
      "Ġcast": 1321,
      "gon": 1322,
      "ĠDaisy": 1323,
      "ds": 1324,
      "Ġbooks": 1325,
      "ream": 1326,
      "ash": 1327,
      "Ġgent": 1328,
      "ĠK": 1329,
      "ĠSally": 1330,
      "uit": 1331,
      "Ġchildren": 1332,
      "Ġarrived": 1333,
      "Ġsong": 1334,
      "sp": 1335,
      "ĠLila": 1336,
      "av": 1337,
      "Ġtight": 1338,
      "ield": 1339,
      "Ġmus": 1340,
      "ross": 1341,
      "Ġdelicious": 1342,
      "Ġunderstand": 1343,
      "Ġarm": 1344,
      "OK": 1345,
      "Ġmight": 1346,
      "Ġclose": 1347,
      "Ġwonderful": 1348,
      "Ġcontinued": 1349,
      "room": 1350,
      "Ġwants": 1351,
      "Ġgrandma": 1352,
      "Ġmakes": 1353,
      "Ġcolors": 1354,
      "Ġforgot": 1355,
      "Ġleaves": 1356,
      "Ġdinner": 1357,
      "Ġhot": 1358,
      "ĠNow": 1359,
      "Ġmat": 1360,
      "From": 1361,
      "Then": 1362,
      "Ġtail": 1363,
      "Ġrel": 1364,
      "Ġel": 1365,
      "Ġgone": 1366,
      "Ġbroken": 1367,
      "Ġpoin": 1368,
      "Ġmet": 1369,
      "Ġfilled": 1370,
      "Jack": 1371,
      "Ġsomeone": 1372,
      "man": 1373,
      "Ġscary": 1374,
      "Ġvis": 1375,
      "Ġcreat": 1376,
      "Ġyes": 1377,
      "Ġpat": 1378,
      "ced": 1379,
      "Ġwall": 1380,
      "Ġmoment": 1381,
      "Ġballoon": 1382,
      "'ll": 1383,
      "icy": 1384,
      "Ġcount": 1385,
      "ey": 1386,
      "Ġable": 1387,
      "ich": 1388,
      "Ġagreed": 1389,
      "This": 1390,
      "ĠEm": 1391,
      "Ġpink": 1392,
      "Ġpictures": 1393,
      "ĠThere": 1394,
      "Ġothers": 1395,
      "Ġtalk": 1396,
      "Ġwet": 1397,
      "ĠBilly": 1398,
      "row": 1399,
      "Ġamazing": 1400,
      "ask": 1401,
      "Ġmother": 1402,
      "Ġelse": 1403,
      "Ġcastle": 1404,
      "Ġbreak": 1405,
      "Ġfall": 1406,
      "Ġsmiles": 1407,
      "Ġgetting": 1408,
      "Ġhungry": 1409,
      "red": 1410,
      "Ġcookies": 1411,
      "lf": 1412,
      "Ġclot": 1413,
      "Ġenough": 1414,
      "ctor": 1415,
      "ĠMaybe": 1416,
      "Ġtrying": 1417,
      "ĠThis": 1418,
      "Ġmar": 1419,
      "Ġmorning": 1420,
      "Ġwhite": 1421,
      "ons": 1422,
      "Ġclothes": 1423,
      "oup": 1424,
      "Ġmusic": 1425,
      "ĠWhat": 1426,
      "Ġsquir": 1427,
      "oom": 1428,
      "key": 1429,
      "Ġpi": 1430,
      "Ġbrought": 1431,
      "His": 1432,
      "Ġturned": 1433,
      "Ġclimbed": 1434,
      "At": 1435,
      "ĠFl": 1436,
      "rot": 1437,
      "Ġfew": 1438,
      "Ġpuppy": 1439,
      "Ġfinally": 1440,
      "lc": 1441,
      "Ġsail": 1442,
      "Ġsquirrel": 1443,
      "Ġdaddy": 1444,
      "Ġlistened": 1445,
      "Ġperfect": 1446,
      "amp": 1447,
      "Ġroll": 1448,
      "ries": 1449,
      "Ġju": 1450,
      "app": 1451,
      "Ġpet": 1452,
      "Ġsometimes": 1453,
      "Ġspl": 1454,
      "Ġasks": 1455,
      "Maybe": 1456,
      "oring": 1457,
      "Ġcomp": 1458,
      "wl": 1459,
      "ĠJen": 1460,
      "zz": 1461,
      "Ġeverything": 1462,
      "Ġstayed": 1463,
      "Ġwaited": 1464,
      "apped": 1465,
      "ance": 1466,
      "Ġbeach": 1467,
      "Oh": 1468,
      "que": 1469,
      "Ġsilly": 1470,
      "Ġpol": 1471,
      "ister": 1472,
      "ucky": 1473,
      "gg": 1474,
      "Ġteddy": 1475,
      "Ġgrow": 1476,
      "Ġalone": 1477,
      "Ġfight": 1478,
      "der": 1479,
      "ated": 1480,
      "ĠGra": 1481,
      "Ġve": 1482,
      "Ġdeep": 1483,
      "Ġdanger": 1484,
      "Ġhide": 1485,
      "Ġride": 1486,
      "Ġstrange": 1487,
      "Ġcloud": 1488,
      "ower": 1489,
      "Ġwoods": 1490,
      "Ġvisit": 1491,
      "os": 1492,
      "Ġwasn": 1493,
      "ama": 1494,
      "Ġamazed": 1495,
      "Ġsit": 1496,
      "Ġsear": 1497,
      "ence": 1498,
      "ope": 1499,
      "Ġspark": 1500,
      "Ġthre": 1501,
      "Ġfox": 1502,
      "Ġbaby": 1503,
      "Ġtowards": 1504,
      "Ġflying": 1505,
      "Ġpen": 1506,
      "ott": 1507,
      "Ġpulled": 1508,
      "Ġlake": 1509,
      "Ġpa": 1510,
      "Ġcream": 1511,
      "Max": 1512,
      "Ġmoral": 1513,
      "ever": 1514,
      "ze": 1515,
      "ix": 1516,
      "eter": 1517,
      "Ġjoy": 1518,
      "Ġdragon": 1519,
      "Ġbran": 1520,
      "ames": 1521,
      "ĠAmy": 1522,
      "me": 1523,
      "Ġgu": 1524,
      "ph": 1525,
      "Ġtrain": 1526,
      "Ġcup": 1527,
      "Okay": 1528,
      "Ġjob": 1529,
      "avy": 1530,
      "med": 1531,
      "Ġsister": 1532,
      "Ġbike": 1533,
      "up": 1534,
      "cket": 1535,
      "Ġshar": 1536,
      "Ġthinks": 1537,
      "ugg": 1538,
      "Ġdolls": 1539,
      "thy": 1540,
      "Ġside": 1541,
      "igg": 1542,
      "Ġleave": 1543,
      "ssed": 1544,
      "Ġbigger": 1545,
      "ises": 1546,
      "Ġliving": 1547,
      "Ġparty": 1548,
      "Ġshared": 1549,
      "Ġtreasure": 1550,
      "ang": 1551,
      "Ġprincess": 1552,
      "unch": 1553,
      "outh": 1554,
      "ĠTommy": 1555,
      "Ġgif": 1556,
      "Ġworried": 1557,
      "Ġpromised": 1558,
      "Ġdance": 1559,
      "Ġland": 1560,
      "Ġblank": 1561,
      "Ġruns": 1562,
      "Ġmouth": 1563,
      "Ġfur": 1564,
      "Ġgrate": 1565,
      "Ġpaint": 1566,
      "Ġwon": 1567,
      "ained": 1568,
      "Ġwelc": 1569,
      "eces": 1570,
      "Ġfield": 1571,
      "Ġdoctor": 1572,
      "Ġblanket": 1573,
      "Ġgrateful": 1574,
      "Ġbott": 1575,
      "Ġcandy": 1576,
      "Ġpieces": 1577,
      "Ġhelping": 1578,
      "Ġjoin": 1579,
      "Ġslowly": 1580,
      "Ġem": 1581,
      "Ġowner": 1582,
      "Ġblack": 1583,
      "orm": 1584,
      "Ġmoney": 1585,
      "Ġfarmer": 1586,
      "Ġpot": 1587,
      "Ġdangerous": 1588,
      "Ġtreat": 1589,
      "Ġfaster": 1590,
      "ire": 1591,
      "Ġeverywhere": 1592,
      "Ġmagical": 1593,
      "Ġbelie": 1594,
      "ĠFluffy": 1595,
      "Ġbowl": 1596,
      "Ġcrying": 1597,
      "cle": 1598,
      "set": 1599,
      "Ġsign": 1600,
      "Ġmost": 1601,
      "iet": 1602,
      "Hi": 1603,
      "Ġpie": 1604,
      "ually": 1605,
      "ĠAll": 1606,
      "sw": 1607,
      "Ġmonkey": 1608,
      "Ġheavy": 1609,
      "Ġplan": 1610,
      "Sure": 1611,
      "leph": 1612,
      "Ġreach": 1613,
      "Ġatt": 1614,
      "fort": 1615,
      "Ġansw": 1616,
      "Ġcarrot": 1617,
      "ipp": 1618,
      "Ġcolorful": 1619,
      "ĠMolly": 1620,
      "ol": 1621,
      "Ġplant": 1622,
      "ĠJill": 1623,
      "Why": 1624,
      "bble": 1625,
      "Ġsmart": 1626,
      "Ġtower": 1627,
      "ee": 1628,
      "ipped": 1629,
      "Ġdirty": 1630,
      "Ġtwins": 1631,
      "Ġsnack": 1632,
      "immy": 1633,
      "Ġcho": 1634,
      "Ġsec": 1635,
      "Ġquiet": 1636,
      "Ġscream": 1637,
      "cy": 1638,
      "Ġmix": 1639,
      "ĠTo": 1640,
      "ear": 1641,
      "ling": 1642,
      "Ġbar": 1643,
      "Ġbroke": 1644,
      "Ġstepped": 1645,
      "Ġwords": 1646,
      "Ġacc": 1647,
      "chool": 1648,
      "Ġbath": 1649,
      "less": 1650,
      "Ġsuch": 1651,
      "Ġclosed": 1652,
      "ming": 1653,
      ".\"\"\"": 1654,
      "Ġhig": 1655,
      "ident": 1656,
      "Ġpro": 1657,
      "umb": 1658,
      "ased": 1659,
      "Ġacross": 1660,
      "Ġthrew": 1661,
      "weet": 1662,
      "Ġwin": 1663,
      "Ġhoped": 1664,
      "Ġshap": 1665,
      "Ġbuck": 1666,
      "Ġschool": 1667,
      "cked": 1668,
      "Ġstuck": 1669,
      "Ġdisapp": 1670,
      "Ġtown": 1671,
      "Ġrace": 1672,
      "Ġeating": 1673,
      "Ġnap": 1674,
      "Ġheart": 1675,
      "Ġlon": 1676,
      "Ġheal": 1677,
      "Ġsame": 1678,
      "Ġyard": 1679,
      "Ġspr": 1680,
      "Ġteac": 1681,
      "Ġcray": 1682,
      "ored": 1683,
      "de": 1684,
      "Ġcour": 1685,
      "Ġneigh": 1686,
      "Ġriver": 1687,
      "Ġmust": 1688,
      "Ġsecret": 1689,
      "Ġlonely": 1690,
      "orrow": 1691,
      "Ġneighb": 1692,
      "Mia": 1693,
      "Ġbutt": 1694,
      "iting": 1695,
      "Ġfeels": 1696,
      "Ġbrown": 1697,
      "Ġcourse": 1698,
      "Ġwithout": 1699,
      "Ġje": 1700,
      "Ġthrow": 1701,
      "Ġbite": 1702,
      "Ġpushed": 1703,
      "Ġshoes": 1704,
      "Ġhigher": 1705,
      "Ġstand": 1706,
      "Ġwelcome": 1707,
      "Ġgentle": 1708,
      "br": 1709,
      "ract": 1710,
      "Ġmonster": 1711,
      "Ġclapped": 1712,
      "Ġswings": 1713,
      "Ġfruit": 1714,
      "ts": 1715,
      "Ġhit": 1716,
      "ney": 1717,
      "Ġnoises": 1718,
      "Ġtoday": 1719,
      "Ġcoll": 1720,
      "Ġbelieve": 1721,
      "eared": 1722,
      "Ġgames": 1723,
      "Ġsea": 1724,
      "ĠMr": 1725,
      "Ġteacher": 1726,
      "bow": 1727,
      "Ġbring": 1728,
      "ek": 1729,
      "ere": 1730,
      "Ġbee": 1731,
      "Ġleg": 1732,
      "Ġaccident": 1733,
      "Ġlunch": 1734,
      "Ġcheered": 1735,
      "Ġrocks": 1736,
      "ier": 1737,
      "Ġupset": 1738,
      "Ġband": 1739,
      "Ġpack": 1740,
      "Ġdrove": 1741,
      "Lila": 1742,
      "Ġowl": 1743,
      "Ġneck": 1744,
      "Ġwell": 1745,
      "Ġpocket": 1746,
      "Ġwings": 1747,
      "Ġfree": 1748,
      "Ġsang": 1749,
      "Ġjour": 1750,
      "ventually": 1751,
      "Finally": 1752,
      "Ġben": 1753,
      "Ġsmo": 1754,
      "Ġexplained": 1755,
      "ible": 1756,
      "Ġorange": 1757,
      "Ġlonger": 1758,
      "Ġdropped": 1759,
      "Ġfairy": 1760,
      "Ġcaught": 1761,
      "Ġapple": 1762,
      "Ġhugs": 1763,
      "Ġrainbow": 1764,
      "ĠEmma": 1765,
      "lephant": 1766,
      "Ġsoup": 1767,
      "Ġpig": 1768,
      "Ġwouldn": 1769,
      "issed": 1770,
      "ead": 1771,
      "Ġadventures": 1772,
      "asket": 1773,
      "ment": 1774,
      "oun": 1775,
      "Ġca": 1776,
      "Ġshop": 1777,
      "Ġpers": 1778,
      "Ġdry": 1779,
      "bby": 1780,
      "Ġinst": 1781,
      "Ġhappen": 1782,
      "Ġforget": 1783,
      "Ġtom": 1784,
      "Ġelephant": 1785,
      "Ġturns": 1786,
      "vel": 1787,
      "Ġmoved": 1788,
      "Ġspoon": 1789,
      "Ġswam": 1790,
      "Ġmin": 1791,
      "Ġnaught": 1792,
      "itty": 1793,
      "Ġchair": 1794,
      "Ġfence": 1795,
      "idge": 1796,
      "ors": 1797,
      "ches": 1798,
      "Ġbasket": 1799,
      "Ġalong": 1800,
      "Ġwhe": 1801,
      "Ġstre": 1802,
      "Ġplac": 1803,
      "Ġresp": 1804,
      "Ġnose": 1805,
      "cks": 1806,
      "ord": 1807,
      "Ġnaughty": 1808,
      "Ġbranch": 1809,
      "Do": 1810,
      "Ġmine": 1811,
      "itting": 1812,
      "ittens": 1813,
      "ĠDaddy": 1814,
      "ĠThank": 1815,
      "ho": 1816,
      "ĠTweet": 1817,
      "Ġsinging": 1818,
      "ount": 1819,
      "Ġseemed": 1820,
      "Ġexploring": 1821,
      "yard": 1822,
      "fused": 1823,
      "Ġsu": 1824,
      "Ġmiss": 1825,
      "Ġbackyard": 1826,
      "ush": 1827,
      "Ġkite": 1828,
      "Ġbucket": 1829,
      "Ġdes": 1830,
      "sy": 1831,
      "Ġsuddenly": 1832,
      "ung": 1833,
      "Ġwise": 1834,
      "Ġjuice": 1835,
      "Ġstar": 1836,
      "ces": 1837,
      "Ġlate": 1838,
      "Ġpast": 1839,
      "ocked": 1840,
      "Ġpres": 1841,
      "ĠGrandma": 1842,
      "Ġwish": 1843,
      "Ġbat": 1844,
      "Ġshook": 1845,
      "Ġbelong": 1846,
      "Ġcave": 1847,
      "Ġyoung": 1848,
      "Ġtakes": 1849,
      "cing": 1850,
      "Ġsick": 1851,
      "Ġstars": 1852,
      "Ġexp": 1853,
      "ĠCome": 1854,
      "cer": 1855,
      "Ġdist": 1856,
      "Ġkey": 1857,
      "ese": 1858,
      "Ġwoke": 1859,
      "Ġnearby": 1860,
      "Ġob": 1861,
      "llo": 1862,
      "hone": 1863,
      "Ġes": 1864,
      "Ġtaking": 1865,
      "Ġbusy": 1866,
      "Ġdrink": 1867,
      "Ġsounds": 1868,
      "Ġwhist": 1869,
      "Ġwar": 1870,
      "Ġtrou": 1871,
      "Ġgift": 1872,
      "Ġaf": 1873,
      "Ġthough": 1874,
      "let": 1875,
      "Ġcomes": 1876,
      "Ġwondered": 1877,
      "Ġbench": 1878,
      "Ġtiny": 1879,
      "Ġlaughing": 1880,
      "col": 1881,
      "ail": 1882,
      "Ġcarry": 1883,
      "Ġmail": 1884,
      "Ġpresent": 1885,
      "!\"\"\"": 1886,
      "Ġsunny": 1887,
      "Ġpurp": 1888,
      "Ġarms": 1889,
      "ped": 1890,
      "ions": 1891,
      "Ġmark": 1892,
      "Ġnest": 1893,
      "Ġinv": 1894,
      "vered": 1895,
      "Bob": 1896,
      "Ġstu": 1897,
      "Ġstories": 1898,
      "Ġdriver": 1899,
      "Ġpiece": 1900,
      "Later": 1901,
      "Ġ3": 1902,
      "Ġmil": 1903,
      "Ġmad": 1904,
      "Of": 1905,
      "ountain": 1906,
      "Ġcard": 1907,
      "raid": 1908,
      "ose": 1909,
      "Ġafraid": 1910,
      "Ġcute": 1911,
      "Ġrelie": 1912,
      "Ġmist": 1913,
      "Ġking": 1914,
      "ĠMary": 1915,
      "Ġpatient": 1916,
      "gged": 1917,
      "ward": 1918,
      "Ġjar": 1919,
      "Ġboun": 1920,
      "Ġpower": 1921,
      "Ġpurple": 1922,
      "Ġsitting": 1923,
      "Ġdanced": 1924,
      "aughter": 1925,
      "Ġcolour": 1926,
      "Ġyear": 1927,
      "Ġwra": 1928,
      "ining": 1929,
      "Ġcozy": 1930,
      "Ġgigg": 1931,
      "Ġsnowman": 1932,
      "Ġfan": 1933,
      "Ġhello": 1934,
      "Ġround": 1935,
      "Ġlift": 1936,
      "thday": 1937,
      "ĠInside": 1938,
      "pe": 1939,
      "Ġnothing": 1940,
      "ball": 1941,
      "Ġeas": 1942,
      "shine": 1943,
      "uched": 1944,
      "Ġtouched": 1945,
      "Ġdays": 1946,
      "Ġshapes": 1947,
      "sting": 1948,
      "itten": 1949,
      "Ġmilk": 1950,
      "unt": 1951,
      "Ġletter": 1952,
      "Ġexciting": 1953,
      "Ġsunshine": 1954,
      "pping": 1955,
      "ize": 1956,
      "Ġwatching": 1957,
      "Hey": 1958,
      "Ġcheese": 1959,
      "Ġgives": 1960,
      "aur": 1961,
      "Ġpudd": 1962,
      "eth": 1963,
      "Ġegg": 1964,
      "Ġlife": 1965,
      "Ġcreature": 1966,
      "Ġholding": 1967,
      "Ġfit": 1968,
      "Ġcir": 1969,
      "Ġdaughter": 1970,
      "Ġce": 1971,
      "ĠFinally": 1972,
      "Ġswimming": 1973,
      "Ġaccidentally": 1974,
      "Ġintere": 1975,
      "Ġbought": 1976,
      "Ġbirthday": 1977,
      "Ġcomfort": 1978,
      "Ġimag": 1979,
      "Ġdisco": 1980,
      "Ġpath": 1981,
      "Ġvill": 1982,
      "Ġhope": 1983,
      "Ġinstead": 1984,
      "And": 1985,
      "Lucy": 1986,
      "Ġbush": 1987,
      "Ġbottle": 1988,
      "Good": 1989,
      "Ġfing": 1990,
      "Ġpuzz": 1991,
      "oose": 1992,
      "board": 1993,
      "to": 1994,
      "Ġfarm": 1995,
      "Ġjourney": 1996,
      "Ġstreet": 1997,
      "alm": 1998,
      "Ġgrand": 1999,
      "Ġrelieved": 2000,
      "Ġsmelled": 2001,
      "Ġsharp": 2002,
      "og": 2003,
      "Ġrob": 2004,
      "Ġpeace": 2005,
      "pa": 2006,
      "Ġlucky": 2007,
      "Ġspo": 2008,
      "Ġroad": 2009,
      "irt": 2010,
      "Ġinc": 2011,
      "Ġwrite": 2012,
      "ness": 2013,
      "Ġgrab": 2014,
      "Ġsandw": 2015,
      "Ġtasty": 2016,
      "ĠO": 2017,
      "itch": 2018,
      "epend": 2019,
      "Ġanyone": 2020,
      "Ġforever": 2021,
      "Ġpill": 2022,
      "Ġear": 2023,
      "Ġsmiling": 2024,
      "Ġpointed": 2025,
      "ity": 2026,
      "Ġhuge": 2027,
      "Ġrespect": 2028,
      "Ġrobot": 2029,
      "Ġorgan": 2030,
      "ĠSoon": 2031,
      "fish": 2032,
      "Ġres": 2033,
      "Ġtalked": 2034,
      "Ġcrayons": 2035,
      "Ġfeather": 2036,
      "Ġpract": 2037,
      "ĠSomet": 2038,
      "adow": 2039,
      "Ġkick": 2040,
      "ĠMama": 2041,
      "Ġact": 2042,
      "ĠMittens": 2043,
      "Come": 2044,
      "Ġplane": 2045,
      "Ġret": 2046,
      "Ġknee": 2047,
      "Ġtun": 2048,
      "Ġkiss": 2049,
      "Ġloves": 2050,
      "Ġsearched": 2051,
      "Ġpromise": 2052,
      "amed": 2053,
      "els": 2054,
      "ĠSammy": 2055,
      "Ġfoot": 2056,
      "Ġzoom": 2057,
      "Ġrolled": 2058,
      "Ġsur": 2059,
      "ĠJimmy": 2060,
      "Ġputs": 2061,
      "ove": 2062,
      "Ġlater": 2063,
      "Ġcor": 2064,
      "Ġpar": 2065,
      "blem": 2066,
      "Ġreturn": 2067,
      "Ġrope": 2068,
      "Ġproblem": 2069,
      "Ġhealthy": 2070,
      "la": 2071,
      "Ġwild": 2072,
      "Ġclouds": 2073,
      "ont": 2074,
      "Ġstorm": 2075,
      "Ġonto": 2076,
      "Ġadm": 2077,
      "Ġcouch": 2078,
      "Ġhoney": 2079,
      "Ġwave": 2080,
      "Ġinteresting": 2081,
      "Ġzoo": 2082,
      "Ġtasted": 2083,
      "ale": 2084,
      "Ġcoin": 2085,
      "Ġteach": 2086,
      "ĠRe": 2087,
      "Ġbutton": 2088,
      "Ġwide": 2089,
      "Ġcoat": 2090,
      "ten": 2091,
      "Ġcow": 2092,
      "Ġrocket": 2093,
      "Ġfront": 2094,
      "Ġperson": 2095,
      "Ġsack": 2096,
      "ife": 2097,
      "Ġmyster": 2098,
      "Ġgently": 2099,
      "Ġcollect": 2100,
      "Ġap": 2101,
      "Ġgather": 2102,
      "Ġpass": 2103,
      "Ġhelpful": 2104,
      "Ġhor": 2105,
      "Ġeag": 2106,
      "cean": 2107,
      "Ġwhole": 2108,
      "Ġsuc": 2109,
      "Ġocean": 2110,
      "Ġash": 2111,
      "Ġpush": 2112,
      "Ġscreamed": 2113,
      "Ġmach": 2114,
      "Ġbread": 2115,
      "Ġplaces": 2116,
      "In": 2117,
      "Ġgoes": 2118,
      "Ġmeet": 2119,
      "Ġoven": 2120,
      "Ġapples": 2121,
      "ĠJenny": 2122,
      "Ġbark": 2123,
      "Ġshr": 2124,
      "Ġlovely": 2125,
      "Ġent": 2126,
      "Ġasleep": 2127,
      "Ġprot": 2128,
      "Ġbuilding": 2129,
      "Ġemb": 2130,
      "Ġdi": 2131,
      "Ġsaf": 2132,
      "Tommy": 2133,
      "Ġcheer": 2134,
      "Ġwaiting": 2135,
      "Ġbal": 2136,
      "ert": 2137,
      "Ġimpre": 2138,
      "Ġtalking": 2139,
      "ching": 2140,
      "Ġquest": 2141,
      "izz": 2142,
      "Ġducks": 2143,
      "Ġlad": 2144,
      "Ġwearing": 2145,
      "Ġsplas": 2146,
      "Ġshining": 2147,
      "Ġprotect": 2148,
      "Ġpour": 2149,
      "Ġpile": 2150,
      "Ġspicy": 2151,
      "Ġmud": 2152,
      "ĠGo": 2153,
      "ĠKitty": 2154,
      "Ġneighbor": 2155,
      "hile": 2156,
      "Ġscar": 2157,
      "Ġpretended": 2158,
      "Ġtrouble": 2159,
      "ub": 2160,
      "arra": 2161,
      "Ġfaces": 2162,
      "Ġslid": 2163,
      "Ġser": 2164,
      "Ġstir": 2165,
      "Ġspent": 2166,
      "Ġfinish": 2167,
      "Ġembarra": 2168,
      "Ġthin": 2169,
      "ird": 2170,
      "owed": 2171,
      "Ġconfused": 2172,
      "lex": 2173,
      "Ġspid": 2174,
      "Ġfeet": 2175,
      "umber": 2176,
      "Ġwhich": 2177,
      "Ġsnake": 2178,
      "Ġpool": 2179,
      "Ġstep": 2180,
      "Ġdelight": 2181,
      "Ġsupp": 2182,
      "Molly": 2183,
      "Ġnut": 2184,
      "Ġforgive": 2185,
      "Ġtrip": 2186,
      "Ġtomorrow": 2187,
      "Ġminut": 2188,
      "Just": 2189,
      "isa": 2190,
      "urse": 2191,
      "aser": 2192,
      "Ġgiant": 2193,
      "Ġvillage": 2194,
      "Ġladder": 2195,
      "St": 2196,
      "Ġblew": 2197,
      "arge": 2198,
      "Ġflut": 2199,
      "Ġtrust": 2200,
      "Ġspotted": 2201,
      "Ġmatter": 2202,
      "ĠSometimes": 2203,
      "Ġchick": 2204,
      "Ġclever": 2205,
      "Ġsongs": 2206,
      "Ġcart": 2207,
      "Ġpop": 2208,
      "Ġhon": 2209,
      "Ġshy": 2210,
      "Ġworm": 2211,
      "Ġpuddle": 2212,
      "Ġwom": 2213,
      "Ġgun": 2214,
      "getable": 2215,
      "bbles": 2216,
      "Ġseat": 2217,
      "nny": 2218,
      "ĠCh": 2219,
      "Ġvegetable": 2220,
      "Ġfurry": 2221,
      "Ġchocol": 2222,
      "Ġcorner": 2223,
      "Ġeventually": 2224,
      "ĠAl": 2225,
      "Ġteeth": 2226,
      "Ġdirt": 2227,
      "Ġwoman": 2228,
      "Every": 2229,
      "Ġlay": 2230,
      "Ġfixed": 2231,
      "ĠSome": 2232,
      "Ġhorse": 2233,
      "Ġcoo": 2234,
      "Ġwash": 2235,
      "lebr": 2236,
      "Ġtaste": 2237,
      "Ġdrive": 2238,
      "ular": 2239,
      "ato": 2240,
      "Ġwhenever": 2241,
      "Ġcelebr": 2242,
      "Now": 2243,
      "Ġsal": 2244,
      "Ġlem": 2245,
      "Ġant": 2246,
      "Ġrec": 2247,
      "Ġphone": 2248,
      "ĠHow": 2249,
      "Ġspin": 2250,
      "ĠWith": 2251,
      "Ġchocolate": 2252,
      "Ġlast": 2253,
      "Ġshirt": 2254,
      "als": 2255,
      "Ġtries": 2256,
      "Ġanswer": 2257,
      "not": 2258,
      "Ġlarge": 2259,
      "Ġcannot": 2260,
      "Ġcloth": 2261,
      "Ġembarrassed": 2262,
      "hnny": 2263,
      "Ġban": 2264,
      "Ġnet": 2265,
      "Ġhiding": 2266,
      "Ġneckl": 2267,
      "gly": 2268,
      "Ġwip": 2269,
      "erly": 2270,
      "lla": 2271,
      "Ġshell": 2272,
      "Ġign": 2273,
      "Ġcalm": 2274,
      "Ġmind": 2275,
      "Ġrude": 2276,
      "Soon": 2277,
      "Ġ'": 2278,
      "Ġtest": 2279,
      "Ġugly": 2280,
      "Ġbugs": 2281,
      "Ġsmooth": 2282,
      "My": 2283,
      "Ġremind": 2284,
      "nic": 2285,
      "old": 2286,
      "Ġstret": 2287,
      "Ġkitten": 2288,
      "Ġtea": 2289,
      "Ġappeared": 2290,
      "Mum": 2291,
      "ĠTheir": 2292,
      "Ġscre": 2293,
      "Ġseek": 2294,
      "Ġpicnic": 2295,
      "Ġcookie": 2296,
      "Ġspray": 2297,
      "Ġring": 2298,
      "Ġlive": 2299,
      "eb": 2300,
      "ighed": 2301,
      "Ġtool": 2302,
      "Ġsticks": 2303,
      "Ġwhistle": 2304,
      "Ġmaybe": 2305,
      "Ġpin": 2306,
      "Ġsol": 2307,
      "ground": 2308,
      "vous": 2309,
      "Ġhears": 2310,
      "Ġfold": 2311,
      "Ġspe": 2312,
      "Ġmot": 2313,
      "Ġpan": 2314,
      "ĠTV": 2315,
      "Ġstood": 2316,
      "ĠPlease": 2317,
      "Ġcarrots": 2318,
      "Ġpuzzle": 2319,
      "ĠJust": 2320,
      "Ġsplash": 2321,
      "Ġpaw": 2322,
      "Ġmed": 2323,
      "Ġshelf": 2324,
      "Ġbarked": 2325,
      "Ġnecklace": 2326,
      "mo": 2327,
      "Ġmoon": 2328,
      "Ġjumping": 2329,
      "ÅĵI": 2330,
      "Ġmachine": 2331,
      "Ġspider": 2332,
      "Ġval": 2333,
      "arm": 2334,
      "Ġgas": 2335,
      "Ġbell": 2336,
      "Ġforward": 2337,
      "den": 2338,
      "Ġfancy": 2339,
      "Ġmountain": 2340,
      "ult": 2341,
      "ned": 2342,
      "Ġcarried": 2343,
      "Ġflag": 2344,
      "Ġgrew": 2345,
      "Ġsparkly": 2346,
      "Ġwore": 2347,
      "Ġner": 2348,
      "Ġmeant": 2349,
      "Ġtightly": 2350,
      "Ġhel": 2351,
      "Ġsave": 2352,
      "Ġknocked": 2353,
      "Ġroar": 2354,
      "Ġtells": 2355,
      "Ġcreative": 2356,
      "airs": 2357,
      "Ġsleepy": 2358,
      "ĠEmily": 2359,
      "Ġnervous": 2360,
      "box": 2361,
      "Ġfighting": 2362,
      "Ġemp": 2363,
      "obby": 2364,
      "Ġsel": 2365,
      "Ġburn": 2366,
      "ungle": 2367,
      "read": 2368,
      "Ġship": 2369,
      "Ġblow": 2370,
      "ours": 2371,
      "Ġempty": 2372,
      "dge": 2373,
      "hin": 2374,
      "ym": 2375,
      "ying": 2376,
      "Ġsour": 2377,
      "pper": 2378,
      "Ġjungle": 2379,
      "Ġknight": 2380,
      "umpy": 2381,
      "Ġdrew": 2382,
      "Ġgroup": 2383,
      "Ġlanded": 2384,
      "Ġtreats": 2385,
      "Ġpillow": 2386,
      "Ġbanan": 2387,
      "Ġcross": 2388,
      "ĠBe": 2389,
      "Ġwhis": 2390,
      "Ġspread": 2391,
      "Ġhidden": 2392,
      "Ġpolite": 2393,
      "Ġsharing": 2394,
      "Ġtid": 2395,
      "Ġple": 2396,
      "Ġpizz": 2397,
      "ones": 2398,
      "Ġstring": 2399,
      "Ġdrum": 2400,
      "Ġscarf": 2401,
      "aking": 2402,
      "dle": 2403,
      "oin": 2404,
      "Ġcage": 2405,
      "izzy": 2406,
      "Ġyelled": 2407,
      "Ġmysterious": 2408,
      "ĠWhy": 2409,
      "Ġsnacks": 2410,
      "Ġpri": 2411,
      "Ġashamed": 2412,
      "cap": 2413,
      "Ġgar": 2414,
      "Ġcrab": 2415,
      "Ġque": 2416,
      "Ġhum": 2417,
      "Ġchased": 2418,
      "ian": 2419,
      "Ġmissed": 2420,
      "Ġchest": 2421,
      "Ġbreath": 2422,
      "Ġdisappoin": 2423,
      "Ġmotor": 2424,
      "ital": 2425,
      "Ġpir": 2426,
      "Ġgen": 2427,
      "Ġstra": 2428,
      "Ġnods": 2429,
      "Ġvase": 2430,
      "Ġselfish": 2431,
      "Ġstone": 2432,
      "Ġdecor": 2433,
      "Ġhosp": 2434,
      "ĠOn": 2435,
      "Ġcries": 2436,
      "Ġgray": 2437,
      "Ġpowerful": 2438,
      "era": 2439,
      "ella": 2440,
      "Ġclear": 2441,
      "Ġlemon": 2442,
      "Ġhospital": 2443,
      "Ġthese": 2444,
      "ery": 2445,
      "ĠTogether": 2446,
      "Ġstanding": 2447,
      "Ġwhisp": 2448,
      "usie": 2449,
      "Ġvegetables": 2450,
      "Ġleaf": 2451,
      "erry": 2452,
      "ony": 2453,
      "There": 2454,
      "Ġgold": 2455,
      "Ġreg": 2456,
      "fl": 2457,
      "Ġseed": 2458,
      "Ġscr": 2459,
      "Ġjew": 2460,
      "Stop": 2461,
      "Ġqueen": 2462,
      "ano": 2463,
      "Ġbridge": 2464,
      "ustr": 2465,
      "ĠEverywhere": 2466,
      "osaur": 2467,
      "Ġbathroom": 2468,
      "Ġpeaceful": 2469,
      "Ġcap": 2470,
      "Ġpray": 2471,
      "Ġknowing": 2472,
      "Ġchew": 2473,
      "ĠZ": 2474,
      "Ġbored": 2475,
      "Ġline": 2476,
      "Ġfeed": 2477,
      "ĠLe": 2478,
      "eterm": 2479,
      "Ġpizza": 2480,
      "Ġdisappointed": 2481,
      "Be": 2482,
      "Ġclown": 2483,
      "Ġplants": 2484,
      "Ġgiggled": 2485,
      "Ġav": 2486,
      "Ġcri": 2487,
      "Ġcand": 2488,
      "Ġdeterm": 2489,
      "orry": 2490,
      "Ġboard": 2491,
      "ĠJake": 2492,
      "Ġpolice": 2493,
      "Jane": 2494,
      "Where": 2495,
      "erp": 2496,
      "unk": 2497,
      "ĠDon": 2498,
      "Ġeasy": 2499,
      "Ġspoil": 2500,
      "Ġgarage": 2501,
      "ĠOK": 2502,
      "Ġhur": 2503,
      "itter": 2504,
      "Ġmeadow": 2505,
      "Ġdancing": 2506,
      "Ġsandwich": 2507,
      "Please": 2508,
      "Ġsaved": 2509,
      "Ġfrustr": 2510,
      "Ġfinger": 2511,
      "pack": 2512,
      "ets": 2513,
      "ĠLisa": 2514,
      "Ġsweetie": 2515,
      "Ġcirc": 2516,
      "Ġbecome": 2517,
      "most": 2518,
      "Ġsque": 2519,
      "Ġfil": 2520,
      "ĠAnn": 2521,
      "Ġlegs": 2522,
      "Sue": 2523,
      "Ġtick": 2524,
      "ĠSt": 2525,
      "cept": 2526,
      "Ġplayground": 2527,
      "Ġmessy": 2528,
      "ensive": 2529,
      "Ġgener": 2530,
      "Ġfig": 2531,
      "ete": 2532,
      "ĠMum": 2533,
      "Ġexam": 2534,
      "Ġunderstood": 2535,
      "Ġdinosaur": 2536,
      "Ġexpensive": 2537,
      "Ġminutes": 2538,
      "Are": 2539,
      "Ġalmost": 2540,
      "ĠPeter": 2541,
      "Ġruined": 2542,
      "Ġplate": 2543,
      "Ġfear": 2544,
      "Ġtaught": 2545,
      "Ġtears": 2546,
      "light": 2547,
      "Ġsailed": 2548,
      "Ġfrustrated": 2549,
      "Ġhours": 2550,
      "Ġwaves": 2551,
      "Ġwagged": 2552,
      "Ġlock": 2553,
      "ĠJohnny": 2554,
      "Ġmatch": 2555,
      "ti": 2556,
      "ĠEven": 2557,
      "Mama": 2558,
      "Dad": 2559,
      "ual": 2560,
      "Ġbone": 2561,
      "ator": 2562,
      "Ġshore": 2563,
      "Ġmeasure": 2564,
      "ecially": 2565,
      "issors": 2566,
      "Ġtidy": 2567,
      "To": 2568,
      "pecially": 2569,
      "Ġtag": 2570,
      "ates": 2571,
      "Ġhang": 2572,
      "Ġclap": 2573,
      "Ġespecially": 2574,
      "Ġcomfortable": 2575,
      "Ġsuccess": 2576,
      "Ġgate": 2577,
      "Ġscissors": 2578,
      "Ġanswered": 2579,
      "Ġfake": 2580,
      "ĠBr": 2581,
      "Ġasking": 2582,
      "Ġlead": 2583,
      "Ġexcite": 2584,
      "Ġtrue": 2585,
      "Ġpas": 2586,
      "Ġkissed": 2587,
      "Ġcaterp": 2588,
      "Ġmistake": 2589,
      "Ġhonest": 2590,
      "Ġgenerous": 2591,
      "Ġpassed": 2592,
      "Ġcaterpill": 2593,
      "Ġdest": 2594,
      "illed": 2595,
      "Ġdrawing": 2596,
      "Ġmic": 2597,
      "Ġgets": 2598,
      "Ġhopping": 2599,
      "Ġsug": 2600,
      "iddle": 2601,
      "Ġhurts": 2602,
      "Ġfruits": 2603,
      "Ġpay": 2604,
      "ĠTeddy": 2605,
      "iger": 2606,
      "Ġweak": 2607,
      "Ġfluffy": 2608,
      "Ġyourself": 2609,
      "Ġballs": 2610,
      "Ġglue": 2611,
      "Ġexcitement": 2612,
      "ond": 2613,
      "Ġboring": 2614,
      "Ġoften": 2615,
      "arth": 2616,
      "Ġpoor": 2617,
      "Ġgrumpy": 2618,
      "Ġfridge": 2619,
      "Ġflute": 2620,
      "Jill": 2621,
      "arl": 2622,
      "oof": 2623,
      "Ġsold": 2624,
      "Ġtunn": 2625,
      "Ġbalance": 2626,
      "Ġcaterpillar": 2627,
      "Ġadd": 2628,
      "Ġwis": 2629,
      "Ġlit": 2630,
      "ots": 2631,
      "elp": 2632,
      "ĠJim": 2633,
      "Ġsugar": 2634,
      "Ġstuff": 2635,
      "Ġlog": 2636,
      "Ġtaken": 2637,
      "selves": 2638,
      "Ġeye": 2639,
      "Ġnumber": 2640,
      "Ġsoap": 2641,
      "Ġknife": 2642,
      "elly": 2643,
      "Ġmole": 2644,
      "mb": 2645,
      "Ġtie": 2646,
      "Ġsighed": 2647,
      "ĠAt": 2648,
      "Ġspend": 2649,
      "iff": 2650,
      "Ġmoving": 2651,
      "Ġglass": 2652,
      "'d": 2653,
      "Ġcloset": 2654,
      "Sarah": 2655,
      "Ġreturned": 2656,
      "ĠRex": 2657,
      "Ġgathered": 2658,
      "Ġpleased": 2659,
      "Jimmy": 2660,
      "Who": 2661,
      "Ġtent": 2662,
      "Ġsil": 2663,
      "ĠIf": 2664,
      "illi": 2665,
      "Ġworking": 2666,
      "Ġchange": 2667,
      "Ġprince": 2668,
      "Sorry": 2669,
      "Ġmiddle": 2670,
      "Their": 2671,
      "Ġang": 2672,
      "Ġincred": 2673,
      "Ġsplashed": 2674,
      "Ġdetermined": 2675,
      "af": 2676,
      "Ġwander": 2677,
      "Ġcheck": 2678,
      "Ġjog": 2679,
      "Ġeggs": 2680,
      "land": 2681,
      "Ġed": 2682,
      "Ġwagon": 2683,
      "Ġcraw": 2684,
      "Ġdisappeared": 2685,
      "Ġescap": 2686,
      "port": 2687,
      "uce": 2688,
      "Ġrid": 2689,
      "Ġrad": 2690,
      "?\"\".": 2691,
      "Ġjoke": 2692,
      "Ġcrawled": 2693,
      "Help": 2694,
      "Me": 2695,
      "Ġhorn": 2696,
      "Ġclass": 2697,
      "Ġnod": 2698,
      "Ġpicks": 2699,
      "Ġwalks": 2700,
      "Ġer": 2701,
      "Ġham": 2702,
      "Ġbedroom": 2703,
      "Ġcontent": 2704,
      "Ġdrop": 2705,
      "Ġdrank": 2706,
      "Ġpacked": 2707,
      "Ġwheel": 2708,
      "Ġborrow": 2709,
      "Ġears": 2710,
      "aged": 2711,
      "Ġlazy": 2712,
      "Ġtwirl": 2713,
      "Ġtrucks": 2714,
      "Ġbake": 2715,
      "Ġdish": 2716,
      "Ġstones": 2717,
      "Ġmighty": 2718,
      "Ġind": 2719,
      "Ġcover": 2720,
      "Ġdecide": 2721,
      "Ġdogs": 2722,
      "Ġfamous": 2723,
      "Ġmarket": 2724,
      "Ġfeathers": 2725,
      "iness": 2726,
      "Ġlying": 2727,
      "ating": 2728,
      "Ġtowel": 2729,
      "Ġthankful": 2730,
      "ĠTweety": 2731,
      "ps": 2732,
      "ina": 2733,
      "Ġmummy": 2734,
      "Ġthick": 2735,
      "ote": 2736,
      "Ġbrush": 2737,
      "Ġcovered": 2738,
      "Ġchoose": 2739,
      "ĠEnd": 2740,
      "Ġglow": 2741,
      "Ġcleaned": 2742,
      "Ġincredible": 2743,
      "Ġfather": 2744,
      "Ġdepend": 2745,
      "anut": 2746,
      "ination": 2747,
      "Ġrough": 2748,
      "Ġboss": 2749,
      "Ġjam": 2750,
      "usual": 2751,
      "Ġcalling": 2752,
      "Ġunusual": 2753,
      "Ġorganized": 2754,
      "ĠLeo": 2755,
      "ilt": 2756,
      "ĠSusie": 2757,
      "Ġweek": 2758,
      "ĠBl": 2759,
      "Ġbody": 2760,
      "Ġshows": 2761,
      "Ġadventur": 2762,
      "Ġmir": 2763,
      "Ġvan": 2764,
      "ushed": 2765,
      "Ġskipped": 2766,
      "Ġdiscovered": 2767,
      "How": 2768,
      "ĠBu": 2769,
      "Ġgrandpa": 2770,
      "Ġpil": 2771,
      "Ġyarn": 2772,
      "Ġlose": 2773,
      "Ġneeds": 2774,
      "Ġpointing": 2775,
      "Ġhappening": 2776,
      "Ġadventurous": 2777,
      "aul": 2778,
      "Ġord": 2779,
      "Ġaccept": 2780,
      "Ġrelax": 2781,
      "Ġjewel": 2782,
      "gy": 2783,
      "Ġrare": 2784,
      "Ġbrilli": 2785,
      "Ġwrote": 2786,
      "Ġtunnel": 2787,
      "Mummy": 2788,
      "Ġfool": 2789,
      "Ġdizzy": 2790,
      "ork": 2791,
      "ĠBella": 2792,
      "Ġcoins": 2793,
      "Ġtwig": 2794,
      "Ġcrawl": 2795,
      "Ġsmelly": 2796,
      "Ġmedic": 2797,
      "Billy": 2798,
      "kin": 2799,
      "imed": 2800,
      "Ġmoms": 2801,
      "Ġwolf": 2802,
      "Ġbrilliant": 2803,
      "Ġmedicine": 2804,
      "ror": 2805,
      "edient": 2806,
      "ature": 2807,
      "Ġrat": 2808,
      "Ġweal": 2809,
      "Ġsmaller": 2810,
      "Ġcolourful": 2811,
      "Gra": 2812,
      "Ġhunt": 2813,
      "Ġlamp": 2814,
      "imp": 2815,
      "Ġweird": 2816,
      "asing": 2817,
      "Ġword": 2818,
      "Ġswan": 2819,
      "Ġmod": 2820,
      "Ġgrown": 2821,
      "Ġteam": 2822,
      "Ġmixed": 2823,
      "Ġwrapped": 2824,
      "Ġchicken": 2825,
      "ĠBrown": 2826,
      "Ġdig": 2827,
      "Ġmap": 2828,
      "Ġsheep": 2829,
      "Ġdistance": 2830,
      "Al": 2831,
      "Ġcop": 2832,
      "Ġow": 2833,
      "Ġdolp": 2834,
      "Ġfalls": 2835,
      "Ġguess": 2836,
      "Ġdependable": 2837,
      "aid": 2838,
      "hip": 2839,
      "Ġlicked": 2840,
      "Ġbranches": 2841,
      "work": 2842,
      "Ġfine": 2843,
      "Ġonce": 2844,
      "ĠMy": 2845,
      "Ġpeanut": 2846,
      "Ġoffered": 2847,
      "Ġfrown": 2848,
      "Ġstronger": 2849,
      "Ġsounded": 2850,
      "Ġsafely": 2851,
      "Ġfoolish": 2852,
      "fic": 2853,
      "Ġchase": 2854,
      "Ġcrack": 2855,
      "Ġcrown": 2856,
      "Ġwalls": 2857,
      "cient": 2858,
      "Ġbitter": 2859,
      "Ġfis": 2860,
      "Ġisland": 2861,
      "Ġsell": 2862,
      "Ġboys": 2863,
      "Ġflash": 2864,
      "Ġboxes": 2865,
      "uggled": 2866,
      "Ġbottom": 2867,
      "Ġobedient": 2868,
      "Ġquestions": 2869,
      "Ġedge": 2870,
      "aw": 2871,
      "appy": 2872,
      "Ġsight": 2873,
      "Ġcone": 2874,
      "Ġrich": 2875,
      "Ġones": 2876,
      "Ġnoisy": 2877,
      "Ġmanaged": 2878,
      "Ġgrace": 2879,
      "Ġpicking": 2880,
      "Ġdiffic": 2881,
      "Amy": 2882,
      "Ġancient": 2883,
      "ested": 2884,
      "ĠPete": 2885,
      "Ġmagn": 2886,
      "Ġbuttons": 2887,
      "Ġimpressed": 2888,
      "Ġmirror": 2889,
      "Sp": 2890,
      "Ġter": 2891,
      "ured": 2892,
      "Ġeager": 2893,
      "alous": 2894,
      "ĠDucky": 2895,
      "Ġbull": 2896,
      "Ġkindness": 2897,
      "body": 2898,
      "umbers": 2899,
      "Ġjealous": 2900,
      "Ġbanana": 2901,
      "Ġdifficult": 2902,
      "Sally": 2903,
      "gu": 2904,
      "Ġsugg": 2905,
      "anged": 2906,
      "ĠBobby": 2907,
      "Ġscare": 2908,
      "Ġskin": 2909,
      "umbled": 2910,
      "Ġstudy": 2911,
      "Ġfigure": 2912,
      "bin": 2913,
      "fa": 2914,
      "Ġcabin": 2915,
      "Ġwealthy": 2916,
      "cil": 2917,
      "und": 2918,
      "ĠNo": 2919,
      "ory": 2920,
      "Here": 2921,
      "ĠBobo": 2922,
      "Joe": 2923,
      "Ġpencil": 2924,
      "ext": 2925,
      "ique": 2926,
      "Ġwand": 2927,
      "Ġshake": 2928,
      "Ġmov": 2929,
      "Ġangel": 2930,
      "het": 2931,
      "Ġadded": 2932,
      "Ġharm": 2933,
      "Ġpant": 2934,
      "Ġjelly": 2935,
      "Ġsnee": 2936,
      "Ġunique": 2937,
      "Ġpainting": 2938,
      "Ġlights": 2939,
      "Ġgiving": 2940,
      "Ġterri": 2941,
      "fast": 2942,
      "Ġicy": 2943,
      "Ġok": 2944,
      "Ġnumbers": 2945,
      "Ġdove": 2946,
      "Ġyours": 2947,
      "Ġbubbles": 2948,
      "emo": 2949,
      "Ġdeer": 2950,
      "Ġpainted": 2951,
      "Ġsmoke": 2952,
      "yal": 2953,
      "Ġcorn": 2954,
      "Ġrode": 2955,
      "ages": 2956,
      "aghet": 2957,
      "Ġlouder": 2958,
      "Ġbreakfast": 2959,
      "olog": 2960,
      "Ġbelonged": 2961,
      "Ġrecord": 2962,
      "aghetti": 2963,
      "Re": 2964,
      "zed": 2965,
      "Ġtank": 2966,
      "Ġaunt": 2967,
      "Ġcher": 2968,
      "Ġspaghetti": 2969,
      "Ġsearch": 2970,
      "Ġapolog": 2971,
      "we": 2972,
      "Ġdull": 2973,
      "Ġearth": 2974,
      "rag": 2975,
      "Ġhelps": 2976,
      "Ġsunfl": 2977,
      "Ġprint": 2978,
      "Ġdreams": 2979,
      "Ġmarble": 2980,
      "Ġcrayon": 2981,
      "ĠMrs": 2982,
      "Jen": 2983,
      "ye": 2984,
      "Ġcro": 2985,
      "ention": 2986,
      "Ġpee": 2987,
      "Ġrealised": 2988,
      "Ġhats": 2989,
      "Ġsquare": 2990,
      "Ġshoot": 2991,
      "Ġballoons": 2992,
      "Ġmelt": 2993,
      "ĠSn": 2994,
      "Ġeld": 2995,
      "Ġroof": 2996,
      "keep": 2997,
      "Ġtwist": 2998,
      "Ġuseful": 2999,
      "Ġdreamed": 3000,
      "Ġhipp": 3001,
      "Ġrice": 3002,
      "Ġwhale": 3003,
      "ĠMummy": 3004,
      "umsy": 3005,
      "Ġagainst": 3006,
      "Ġtape": 3007,
      "ĠFred": 3008,
      "Ġbuilt": 3009,
      "laimed": 3010,
      "Well": 3011,
      "Ġfour": 3012,
      "Ġlow": 3013,
      "Ġfork": 3014,
      "Ġenvel": 3015,
      "Ġbushes": 3016,
      "Ġperform": 3017,
      "Ġpenny": 3018,
      "Ġcheerful": 3019,
      "Ġtools": 3020,
      "Ġtoug": 3021,
      "Ġfre": 3022,
      "Ġcudd": 3023,
      "oop": 3024,
      "Ġloyal": 3025,
      "Ġnosy": 3026,
      "Ġexclaimed": 3027,
      "uddy": 3028,
      "Ġkinds": 3029,
      "arsh": 3030,
      "Ġunl": 3031,
      "ĠRed": 3032,
      "ĠToday": 3033,
      "Ġdesk": 3034,
      "Ġpractice": 3035,
      "ject": 3036,
      "Ġturt": 3037,
      "Ġtummy": 3038,
      "Ġabove": 3039,
      "Ġbags": 3040,
      "Ġcounted": 3041,
      "Ġjuicy": 3042,
      "Ġsquee": 3043,
      "head": 3044,
      "Ġthose": 3045,
      "Ġscale": 3046,
      "Ġharder": 3047,
      "Ġlifted": 3048,
      "Ġtiger": 3049,
      "Ġstamp": 3050,
      "Ġlean": 3051,
      "ouses": 3052,
      "Ġfier": 3053,
      "Ġfavour": 3054,
      "Ġrub": 3055,
      "Ġscrat": 3056,
      "rop": 3057,
      "Ġnurse": 3058,
      "irp": 3059,
      "oph": 3060,
      "Ġcost": 3061,
      "Ġslipped": 3062,
      "berries": 3063,
      "oppy": 3064,
      "pes": 3065,
      "Ġsuit": 3066,
      "ress": 3067,
      "Ġgoose": 3068,
      "Ġstri": 3069,
      "ĠMar": 3070,
      "Ġlaw": 3071,
      "Ġthoughtful": 3072,
      "Ġloudly": 3073,
      "Ġdreaming": 3074,
      "Ġscreen": 3075,
      "Ġbossy": 3076,
      "ĠBlue": 3077,
      "Ġhippo": 3078,
      "Ġtough": 3079,
      "Ġtask": 3080,
      "Ġhouses": 3081,
      "omed": 3082,
      "Ġsofa": 3083,
      "Ġhappiness": 3084,
      "Ġseem": 3085,
      "Ġpale": 3086,
      "Ġserious": 3087,
      "Ġindepend": 3088,
      "Ġenvelope": 3089,
      "Ġfavourite": 3090,
      "orge": 3091,
      "Ġyog": 3092,
      "Ġnotice": 3093,
      "Ġclumsy": 3094,
      "Ġknows": 3095,
      "Ġenjoying": 3096,
      "Ġusing": 3097,
      "Ġlaughs": 3098,
      "upid": 3099,
      "Ġinvited": 3100,
      "Ġbounce": 3101,
      "Ġeraser": 3102,
      "Ġturtle": 3103,
      "Ġgem": 3104,
      "Ġstream": 3105,
      "rage": 3106,
      "Ġsaying": 3107,
      "Ġsword": 3108,
      "Ġstove": 3109,
      "Ġrubbed": 3110,
      "Ġmarch": 3111,
      "Ġspoiled": 3112,
      "Ow": 3113,
      "oe": 3114,
      "time": 3115,
      "ither": 3116,
      "amond": 3117,
      "Ġchar": 3118,
      "Ġshowing": 3119,
      "ĠRose": 3120,
      "Ġmeans": 3121,
      "Ġleaving": 3122,
      "Ġattic": 3123,
      "Ġtomato": 3124,
      "Ġstraw": 3125,
      "Ġpants": 3126,
      "Ġfierce": 3127,
      "na": 3128,
      "wards": 3129,
      "ready": 3130,
      "Ġsoar": 3131,
      "ola": 3132,
      "Ġdiamond": 3133,
      "Ġreminded": 3134,
      "Ġwhispered": 3135,
      "lies": 3136,
      "vice": 3137,
      "Ġtimes": 3138,
      "ines": 3139,
      "inal": 3140,
      "Ġwake": 3141,
      "Ġwashed": 3142,
      "ately": 3143,
      "Ġnorm": 3144,
      "Ġjack": 3145,
      "Ġalready": 3146,
      "iable": 3147,
      "Ġreliable": 3148,
      "Ġcooking": 3149,
      "Ġcircles": 3150,
      "Ġterrible": 3151,
      "inary": 3152,
      "Ġyet": 3153,
      "Ġplayful": 3154,
      "Ġlibr": 3155,
      "Ġmeal": 3156,
      "ĠYour": 3157,
      "Ġcleaning": 3158,
      "apping": 3159,
      "Ġgasped": 3160,
      "Ġpirate": 3161,
      "Ġflashlight": 3162,
      "Ġsuggested": 3163,
      "Ġelderly": 3164,
      "keeper": 3165,
      "Ġindependent": 3166,
      "Ġcam": 3167,
      "anger": 3168,
      "etit": 3169,
      "iginal": 3170,
      "Ġstupid": 3171,
      "Ġgoat": 3172,
      "Ġext": 3173,
      "ĠLittle": 3174,
      "Ġcheap": 3175,
      "ctus": 3176,
      "ĠNemo": 3177,
      "Ġdead": 3178,
      "Ġbrightly": 3179,
      "Ġcompass": 3180,
      "ĠTweetie": 3181,
      "Ġstubb": 3182,
      "Spot": 3183,
      "eorge": 3184,
      "illa": 3185,
      "Ġspun": 3186,
      "Ġknock": 3187,
      "Ġpost": 3188,
      "Ġarrow": 3189,
      "Ġbald": 3190,
      "Ġcompetit": 3191,
      "Ġbatter": 3192,
      "Ġresc": 3193,
      "Ġpoured": 3194,
      "Ġnuts": 3195,
      "Ġsunflower": 3196,
      "Ġfresh": 3197,
      "Ġnormal": 3198,
      "Ġcards": 3199,
      "Ġstairs": 3200,
      "Ġthemselves": 3201,
      "Ġpatch": 3202,
      "Ġcactus": 3203,
      "Ġdelighted": 3204,
      "Ġseeds": 3205,
      "Ġdestro": 3206,
      "Ġescape": 3207,
      "Em": 3208,
      "Ġber": 3209,
      "Ġbump": 3210,
      "Ġlocked": 3211,
      "Ġspace": 3212,
      "ĠWhile": 3213,
      "Ġoriginal": 3214,
      "Ġoffice": 3215,
      "Ġprep": 3216,
      "Ġstubborn": 3217,
      "Ġberries": 3218,
      "See": 3219,
      "isk": 3220,
      "Ġbeet": 3221,
      "Ġref": 3222,
      "Ġbloom": 3223,
      "Ġlearning": 3224,
      "oby": 3225,
      "Ġexplored": 3226,
      "Ġzip": 3227,
      "ĠAlice": 3228,
      "Ġsuccessful": 3229,
      "Ġthu": 3230,
      "Ġstat": 3231,
      "uring": 3232,
      "Ġspilled": 3233,
      "Ġsne": 3234,
      "ÅĵLet": 3235,
      "Ġjoined": 3236,
      "Ġzipp": 3237,
      "oomy": 3238,
      "Ġguard": 3239,
      "Ġkicked": 3240,
      "Ġwiped": 3241,
      "Ġhelm": 3242,
      "lev": 3243,
      "Ġbeak": 3244,
      "Ġstumbled": 3245,
      "Ġshone": 3246,
      "Ġexcitedly": 3247,
      "Ġskip": 3248,
      "Ġsniff": 3249,
      "ĠCl": 3250,
      "ipe": 3251,
      "Ġsalad": 3252,
      "Ġdolphin": 3253,
      "Ġcamera": 3254,
      "aby": 3255,
      "ndpa": 3256,
      "Ġsock": 3257,
      "Ġcarp": 3258,
      "Ġchanged": 3259,
      "Ġdelicate": 3260,
      "Ġmetal": 3261,
      "Ġsearching": 3262,
      "Ġcircle": 3263,
      "Ġsolve": 3264,
      "Ġvalu": 3265,
      "Ġextra": 3266,
      "com": 3267,
      "Ġing": 3268,
      "ief": 3269,
      "Ġways": 3270,
      "ĠPolly": 3271,
      "Ġfright": 3272,
      "Ġcollar": 3273,
      "Ġwarned": 3274,
      "Ġprize": 3275,
      "Ġregular": 3276,
      "dom": 3277,
      "Ġrep": 3278,
      "ĠWh": 3279,
      "ĠFin": 3280,
      "Ġenorm": 3281,
      "Ġdoesn": 3282,
      "Ġwindows": 3283,
      "redient": 3284,
      "Ġwrap": 3285,
      "Ġhammer": 3286,
      "Ġcompassion": 3287,
      "Ġingredient": 3288,
      "Ġenormous": 3289,
      "corn": 3290,
      "Ġcush": 3291,
      "Ġpow": 3292,
      "ilty": 3293,
      "Ġbees": 3294,
      "Ġcoco": 3295,
      "Ġswe": 3296,
      "Ġstranger": 3297,
      "berry": 3298,
      "ĠWhenever": 3299,
      "Ġpengu": 3300,
      "Ġguilty": 3301,
      "Ġpackage": 3302,
      "Ġimagined": 3303,
      "Ġparrot": 3304,
      "Ġadmired": 3305,
      "Ġcandle": 3306,
      "Ġcocoa": 3307,
      "While": 3308,
      "ray": 3309,
      "Ġfu": 3310,
      "Ġfrag": 3311,
      "aroo": 3312,
      "atter": 3313,
      "llie": 3314,
      "Ġforth": 3315,
      "Ġotter": 3316,
      "Ġtrop": 3317,
      "Ġhandle": 3318,
      "Ġadvice": 3319,
      "âĤ¬âĢ": 3320,
      "cod": 3321,
      "Ġopens": 3322,
      "Ġsteal": 3323,
      "gging": 3324,
      "angaroo": 3325,
      "Ġbarber": 3326,
      "Ġdesign": 3327,
      "Ġimpress": 3328,
      "Ġcelebrate": 3329,
      "Ġfountain": 3330,
      "Ġkangaroo": 3331,
      "Ġclay": 3332,
      "ĠLook": 3333,
      "Ġcareless": 3334,
      "Ġbrace": 3335,
      "Ġchose": 3336,
      "Ġparade": 3337,
      "Ġvaluable": 3338,
      "Ġingredients": 3339,
      "loo": 3340,
      "Ġnature": 3341,
      "Ġstage": 3342,
      "Ġliz": 3343,
      "Ġvi": 3344,
      "Ġsett": 3345,
      "Ġveil": 3346,
      "uper": 3347,
      "Ġcricket": 3348,
      "Ġcrocod": 3349,
      "Ġtrophy": 3350,
      "Ġbri": 3351,
      "Ġrushed": 3352,
      "Ġfinding": 3353,
      "Ġtrunk": 3354,
      "ĠPe": 3355,
      "ache": 3356,
      "Ġstops": 3357,
      "Ġpige": 3358,
      "Ġearly": 3359,
      "Ġthinking": 3360,
      "Ġpopcorn": 3361,
      "Ġmovie": 3362,
      "Ġson": 3363,
      "Ġcity": 3364,
      "Ġgum": 3365,
      "Ġthirst": 3366,
      "Ġhero": 3367,
      "ĠAlex": 3368,
      "Ġleop": 3369,
      "Ġenv": 3370,
      "Ġboats": 3371,
      "Ġcomplet": 3372,
      "Ġshape": 3373,
      "Ġgraceful": 3374,
      "Ġdestroy": 3375,
      "Ġstatue": 3376,
      "Ġflex": 3377,
      "ĠBuddy": 3378,
      "alk": 3379,
      "apa": 3380,
      "Ġtrump": 3381,
      "Ġimpat": 3382,
      "Ġtravel": 3383,
      "Ġstickers": 3384,
      "Ġrestaur": 3385,
      "ations": 3386,
      "Ġcounting": 3387,
      "Ġsparkled": 3388,
      "Ġhumble": 3389,
      "Ġbeetle": 3390,
      "Ġrestaurant": 3391,
      "Ġbarn": 3392,
      "igent": 3393,
      "ĠFr": 3394,
      "Ġintell": 3395,
      "Ġtowers": 3396,
      "Ġbelt": 3397,
      "Ġspring": 3398,
      "Ġmissing": 3399,
      "Ġfingers": 3400,
      "Ġpeeked": 3401,
      "Ġcharming": 3402,
      "Ġfrightened": 3403,
      "Ġthirsty": 3404,
      "Ġtied": 3405,
      "Ġlaser": 3406,
      "arian": 3407,
      "Ġnames": 3408,
      "Ġpepper": 3409,
      "Ġenc": 3410,
      "ement": 3411,
      "Ġarg": 3412,
      "Ġreading": 3413,
      "Ġobject": 3414,
      "Ġfragile": 3415,
      "Ġimpatient": 3416,
      "Ġtoast": 3417,
      "Ġbin": 3418,
      "Ġhive": 3419,
      "Ġwaff": 3420,
      "Ġled": 3421,
      "ĠSm": 3422,
      "Ġload": 3423,
      "Ġeng": 3424,
      "Ġmaze": 3425,
      "Ġperm": 3426,
      "Ġhairy": 3427,
      "Ġresist": 3428,
      "Ġquestion": 3429,
      "Ġhurry": 3430,
      "Ġmagnet": 3431,
      "Ġflexible": 3432,
      "Ġmis": 3433,
      "Ġshark": 3434,
      "Ġrece": 3435,
      "Ġraced": 3436,
      "Ġdeliver": 3437,
      "Ġsleeping": 3438,
      "Ġlizard": 3439,
      "Ġintelligent": 3440,
      "gust": 3441,
      "Ġhay": 3442,
      "Ġped": 3443,
      "Ġrug": 3444,
      "Ġrefused": 3445,
      "Ġolder": 3446,
      "Ġclock": 3447,
      "Ġcomb": 3448,
      "Ġpilot": 3449,
      "Ġcarpet": 3450,
      "Ġsym": 3451,
      "Ġtooth": 3452,
      "ince": 3453,
      "Ġph": 3454,
      "Ġgor": 3455,
      "Ġthief": 3456,
      "Ġur": 3457,
      "Ġalert": 3458,
      "Ġmem": 3459,
      "Ġmush": 3460,
      "robe": 3461,
      "Ġproudly": 3462,
      "Ġdisgust": 3463,
      "Ġtelling": 3464,
      "Ġcrocodile": 3465,
      "Ġtrumpet": 3466,
      "Ġmushroom": 3467,
      "eer": 3468,
      "Ġsudden": 3469,
      "Ġhedge": 3470,
      "ision": 3471,
      "anny": 3472,
      "orant": 3473,
      "llip": 3474,
      "Ġreind": 3475,
      "ict": 3476,
      "iches": 3477,
      "Ġfriendship": 3478,
      "Ġpebble": 3479,
      "Ġmoder": 3480,
      "Ġgrowing": 3481,
      "cycle": 3482,
      "Ġwheat": 3483,
      "Ġrespectful": 3484,
      "Ġbracelet": 3485,
      "Ġpigeon": 3486,
      "llipop": 3487,
      "awn": 3488,
      "cu": 3489,
      "Ġsend": 3490,
      "Ġmay": 3491,
      "Ġpurse": 3492,
      "Ġhalf": 3493,
      "Ġbean": 3494,
      "Ġlollipop": 3495,
      "Ġimpro": 3496,
      "Ġunk": 3497,
      "bol": 3498,
      "Ġhung": 3499,
      "Ġpotato": 3500,
      "Ġordinary": 3501,
      "Ġimpressive": 3502,
      "Ġreindeer": 3503,
      "gest": 3504,
      "iv": 3505,
      "Ġax": 3506,
      "Ġdug": 3507,
      "Ġpump": 3508,
      "Ġstation": 3509,
      "Ġbiggest": 3510,
      "Ġjug": 3511,
      "ĠElla": 3512,
      "Ġhose": 3513,
      "Ġsorts": 3514,
      "ÅĵYes": 3515,
      "Ġtrains": 3516,
      "Ġrules": 3517,
      "Ġmailbox": 3518,
      "Ġdiscover": 3519,
      "Ġcostum": 3520,
      "comfort": 3521,
      "Ġsymbol": 3522,
      "Ġgorilla": 3523,
      "Ġmodern": 3524,
      "Ġshiver": 3525,
      "Ġbirdie": 3526,
      "Ġflour": 3527,
      "Ġending": 3528,
      "Ġtrash": 3529,
      "Ġbreat": 3530,
      "Ġholds": 3531,
      "ĠKim": 3532,
      "Ġattract": 3533,
      "host": 3534,
      "Ġfootball": 3535,
      "ÅĵLetÃ¢": 3536,
      "nown": 3537,
      "Ġtur": 3538,
      "Ġwing": 3539,
      "Ġwitch": 3540,
      "Ġbase": 3541,
      "Ġumb": 3542,
      "Ġrepe": 3543,
      "!\"\".": 3544,
      "Ġallowed": 3545,
      "Ġleash": 3546,
      "Ġchain": 3547,
      "Ġcats": 3548,
      "Ġunpack": 3549,
      "Ġuncomfort": 3550,
      "Ġbrothers": 3551,
      "Ġsandwiches": 3552,
      "Ġignorant": 3553,
      "Ġharmless": 3554,
      "Ġthunder": 3555,
      "Ġumbre": 3556,
      "Ġuncomfortable": 3557,
      "cope": 3558,
      "Ġtem": 3559,
      "Ġmop": 3560,
      "Ġoat": 3561,
      "Ġshocked": 3562,
      "ugged": 3563,
      "iew": 3564,
      "used": 3565,
      "ÅĵIt": 3566,
      "Ġcrazy": 3567,
      "Ġsurf": 3568,
      "Go": 3569,
      "bled": 3570,
      "Ġcur": 3571,
      "Ġmask": 3572,
      "ĠMike": 3573,
      "Ġanx": 3574,
      "ĠDave": 3575,
      "Ġview": 3576,
      "Ġraven": 3577,
      "ÅĵWhat": 3578,
      "Ġbrighter": 3579,
      "Ġpersist": 3580,
      "Ġplaced": 3581,
      "Ġslides": 3582,
      "ĠSnow": 3583,
      "Ġjacket": 3584,
      "Ġenvious": 3585,
      "Ġencou": 3586,
      "ĠSmith": 3587,
      "Ġturkey": 3588,
      "io": 3589,
      "Ġsuper": 3590,
      "Ġghost": 3591,
      "Ġsauce": 3592,
      "imney": 3593,
      "Ġshield": 3594,
      "ĠAre": 3595,
      "opus": 3596,
      "Ġscatter": 3597,
      "Ġstarts": 3598,
      "Ġchimney": 3599,
      "ctopus": 3600,
      "ÅĵThat": 3601,
      "Ġshoe": 3602,
      "Ġpiano": 3603,
      "Ġcardboard": 3604,
      "Ġspoke": 3605,
      "Ġfilm": 3606,
      "Ġcompassionate": 3607,
      "Ġaxe": 3608,
      "ĠToby": 3609,
      "Ġoctopus": 3610,
      "Ġnail": 3611,
      "iron": 3612,
      "aled": 3613,
      "ecause": 3614,
      "Ġlab": 3615,
      "Ġtray": 3616,
      "Ġsnuggled": 3617,
      "ĠPapa": 3618,
      "Ġpainter": 3619,
      "Ġspeed": 3620,
      "Ġavo": 3621,
      "Ġhunter": 3622,
      "Ġharsh": 3623,
      "Ġcamp": 3624,
      "Ġguit": 3625,
      "Ġyawn": 3626,
      "Ġreco": 3627,
      "tern": 3628,
      "Ġlistening": 3629,
      "Ġbutterflies": 3630,
      "Ġshells": 3631,
      "iskers": 3632,
      "Ġleopard": 3633,
      "Ġphot": 3634,
      "Ġdisgusting": 3635,
      "Ġwire": 3636,
      "Ġbeep": 3637,
      "ado": 3638,
      "htub": 3639,
      "Ġchasing": 3640,
      "Ġvest": 3641,
      "Ġanywhere": 3642,
      "Ġcreate": 3643,
      "Ġsquash": 3644,
      "Ġmicrop": 3645,
      "Ġsilver": 3646,
      "ophie": 3647,
      "Ġhelmet": 3648,
      "Ġviol": 3649,
      "Ġengine": 3650,
      "Ġanxious": 3651,
      "Ġmicrophone": 3652,
      "gn": 3653,
      "ience": 3654,
      "rn": 3655,
      "render": 3656,
      "Ġcell": 3657,
      "Ġneat": 3658,
      "Ġgoal": 3659,
      "Ġvine": 3660,
      "Ġtrap": 3661,
      "Ġjolly": 3662,
      "Ġacorn": 3663,
      "Ġtricks": 3664,
      "Ġcooler": 3665,
      "osie": 3666,
      "Ġbathtub": 3667,
      "Ġcarrying": 3668,
      "Ġmill": 3669,
      "Ġnicely": 3670,
      "Ġwheels": 3671,
      "Ġcreatures": 3672,
      "Ġenth": 3673,
      "Ġstirred": 3674,
      "Ġdecorate": 3675,
      "Ġwishes": 3676,
      "Ġunknown": 3677,
      "Yay": 3678,
      "ud": 3679,
      "Ġtire": 3680,
      "Ġtoil": 3681,
      "Ġoy": 3682,
      "Ġdrawer": 3683,
      "Ġswinging": 3684,
      "Ġsurrender": 3685,
      "Ġstretched": 3686,
      "Alice": 3687,
      "Ġviolin": 3688,
      "Give": 3689,
      "ikes": 3690,
      "Ġahead": 3691,
      "Ġsink": 3692,
      "Ġbent": 3693,
      "Ġfat": 3694,
      "ĠTr": 3695,
      "imi": 3696,
      "ĠHere": 3697,
      "ric": 3698,
      "Ġshort": 3699,
      "Ġseco": 3700,
      "Ġpeach": 3701,
      "Ġgloomy": 3702,
      "Ġcrow": 3703,
      "ĠGrandpa": 3704,
      "Ġletters": 3705,
      "Ġorganize": 3706,
      "Ġpracticed": 3707,
      "Ġmotorcycle": 3708,
      "Ġattractive": 3709,
      "Ġpersistent": 3710,
      "Ġenthus": 3711,
      "Ġsecond": 3712,
      "noon": 3713,
      "ĠU": 3714,
      "Ġhook": 3715,
      "Ġgir": 3716,
      "Ġshine": 3717,
      "Ġshaking": 3718,
      "Ġsadly": 3719,
      "Ġputting": 3720,
      "ĠcouldnÃ¢": 3721,
      "Ġbadly": 3722,
      "Ġuncle": 3723,
      "Ġafternoon": 3724,
      "Ġforgave": 3725,
      "Ġpretending": 3726,
      "Ġdistant": 3727,
      "Ġtwirled": 3728,
      "Ġzipper": 3729,
      "Ġcushion": 3730,
      "Ġumbrella": 3731,
      "Mary": 3732,
      "gs": 3733,
      "Ġoak": 3734,
      "Ġgym": 3735,
      "icop": 3736,
      "Ġshouts": 3737,
      "Ġbehave": 3738,
      "Ġtrick": 3739,
      "Ġdriving": 3740,
      "Ġpattern": 3741,
      "Ġsailor": 3742,
      "Ġgifted": 3743,
      "Ġbandage": 3744,
      "Ġpasta": 3745,
      "Ġhelicop": 3746,
      "ĠWhiskers": 3747,
      "Ġrecogn": 3748,
      "Ġhelicopter": 3749,
      "ef": 3750,
      "ses": 3751,
      "Ġbicy": 3752,
      "Ġitself": 3753,
      "Ġshel": 3754,
      "ices": 3755,
      "Ġneedle": 3756,
      "Ġbeauty": 3757,
      "Ġjumps": 3758,
      "Ġmessage": 3759,
      "Ġcrane": 3760,
      "lcano": 3761,
      "ggy": 3762,
      "Ġneighbour": 3763,
      "Ġguitar": 3764,
      "Ġten": 3765,
      "uth": 3766,
      "urb": 3767,
      "Ġhelpless": 3768,
      "ĠJerry": 3769,
      "Ġlaund": 3770,
      "ĠLola": 3771,
      "Ġpole": 3772,
      "ips": 3773,
      "ĠGive": 3774,
      "Ġcourage": 3775,
      "Ġpulls": 3776,
      "Ġmonkeys": 3777,
      "Ġdisturb": 3778,
      "cream": 3779,
      "ocer": 3780,
      "ubby": 3781,
      "Ġwife": 3782,
      "erable": 3783,
      "arry": 3784,
      "ĠMark": 3785,
      "ĠWhere": 3786,
      "Ġchubby": 3787,
      "ĠEventually": 3788,
      "Ġquite": 3789,
      "Ġlions": 3790,
      "Ġscrew": 3791,
      "hinocer": 3792,
      "Ġtoilet": 3793,
      "hinoceros": 3794,
      "Bye": 3795,
      "ron": 3796,
      "Ġiron": 3797,
      "ites": 3798,
      "Ġshade": 3799,
      "Ġcane": 3800,
      "Ġpeek": 3801,
      "Ġpup": 3802,
      "Ġtrack": 3803,
      "Ġjokes": 3804,
      "aches": 3805,
      "Ġgiggle": 3806,
      "Ġbarks": 3807,
      "Ġmiserable": 3808,
      "ĠSnowy": 3809,
      "Ġlaundry": 3810,
      "cast": 3811,
      "hood": 3812,
      "zzy": 3813,
      "Ġsent": 3814,
      "Ġhoop": 3815,
      "Ġcere": 3816,
      "Ġpad": 3817,
      "Ġpine": 3818,
      "Ġins": 3819,
      "Ġshut": 3820,
      "Ġscold": 3821,
      "Ġrose": 3822,
      "ucked": 3823,
      "Ġfinds": 3824,
      "Ġholes": 3825,
      "Ġclimbing": 3826,
      "ĠGeorge": 3827,
      "Ġfireman": 3828,
      "Ġpapers": 3829,
      "ailable": 3830,
      "Ġfearful": 3831,
      "Little": 3832,
      "gen": 3833,
      "year": 3834,
      "Ġsize": 3835,
      "Ġdust": 3836,
      "Ġrhinoceros": 3837,
      "ceed": 3838,
      "Ġreef": 3839,
      "Ġroared": 3840,
      "Ġtap": 3841,
      "Ġtear": 3842,
      "Ġsoftly": 3843,
      "Ġsteps": 3844,
      "Ġsupport": 3845,
      "Ġavailable": 3846,
      "Ġcompetitive": 3847,
      "Ġbicycle": 3848,
      "..": 3849,
      "ci": 3850,
      "cut": 3851,
      "ffe": 3852,
      "shed": 3853,
      "te": 3854,
      "Ġaw": 3855,
      "Ġdess": 3856,
      "Ġeither": 3857,
      "seum": 3858,
      "ills": 3859,
      "ummer": 3860,
      "Ġchance": 3861,
      "Ġorder": 3862,
      "Ġdishes": 3863,
      "Ġsticker": 3864,
      "Ġsandcast": 3865,
      "ĠKate": 3866,
      "Ġpoint": 3867,
      "Ġadmire": 3868,
      "ĠMaria": 3869,
      "Ġlibrary": 3870,
      "Ġrepair": 3871,
      "ffee": 3872,
      "ccol": 3873,
      "Ġcurt": 3874,
      "Ġmild": 3875,
      "Ġink": 3876,
      "Ġrag": 3877,
      "Ġstack": 3878,
      "Ġstared": 3879,
      "Ġfort": 3880,
      "Ġanyway": 3881,
      "Ġtruth": 3882,
      "Ġener": 3883,
      "Ġglove": 3884,
      "ĠRosie": 3885,
      "Ġcountry": 3886,
      "Ġcups": 3887,
      "Ġjourn": 3888,
      "Ġbounced": 3889,
      "Ġradio": 3890,
      "Grandma": 3891,
      "ĠBrownie": 3892,
      "Ġfrowned": 3893,
      "ccoli": 3894,
      "Ġcurtain": 3895,
      "Ġbet": 3896,
      "erc": 3897,
      "stairs": 3898,
      "Ġnote": 3899,
      "illie": 3900,
      "ĠWould": 3901,
      "Ġprun": 3902,
      "Ġmuseum": 3903,
      "Ġgrapes": 3904,
      "Ġcompl": 3905,
      "Ġcheek": 3906,
      "Ġvolcano": 3907,
      "Ġpushes": 3908,
      "ĠJoey": 3909,
      "Ġvisited": 3910,
      "Ġcupboard": 3911,
      "Ġtreasures": 3912,
      "Ġtroubled": 3913,
      "Ġriding": 3914,
      "Jenny": 3915,
      "Ġdessert": 3916,
      "oot": 3917,
      "Ġdive": 3918,
      "irit": 3919,
      "ckey": 3920,
      "ooped": 3921,
      "Ġreve": 3922,
      "Ġboots": 3923,
      "Ġhockey": 3924,
      "sely": 3925,
      "Ġappl": 3926,
      "Ġappre": 3927,
      "Ġbreaks": 3928,
      "Ġshopkeeper": 3929,
      "Ġsucceed": 3930,
      "Ġpopular": 3931,
      "Ġspeak": 3932,
      "Ġjournal": 3933,
      "Because": 3934,
      "ibb": 3935,
      "Ġstrugg": 3936,
      "Ġstretch": 3937,
      "Ġpowder": 3938,
      "Ġappreci": 3939,
      "ĠSh": 3940,
      "Ġhappier": 3941,
      "Ġexerc": 3942,
      "Ġclapping": 3943,
      "Ġcoffee": 3944,
      "Ġhanded": 3945,
      "uct": 3946,
      "Ġnowhere": 3947,
      "Ġdisag": 3948,
      "Ġdeaf": 3949,
      "Ġart": 3950,
      "Ġzeb": 3951,
      "Ġrubb": 3952,
      "Ġmixer": 3953,
      "Ġcolours": 3954,
      "Ġgrabs": 3955,
      "Ġspinning": 3956,
      "Ġzebra": 3957,
      "eath": 3958,
      "lb": 3959,
      "night": 3960,
      "Ġhut": 3961,
      "Ġfurt": 3962,
      "Ġdough": 3963,
      "Ġpun": 3964,
      "Ġpage": 3965,
      "orable": 3966,
      "Ġkay": 3967,
      "ĠMimi": 3968,
      "Ġspirit": 3969,
      "Ġbackpack": 3970,
      "Ġswamp": 3971,
      "Ġclosely": 3972,
      "Ġbulb": 3973,
      "Ġchecked": 3974,
      "Ġbroccoli": 3975,
      "Ġhoping": 3976,
      "Ġsalt": 3977,
      "Ġlemonade": 3978,
      "Ġmodest": 3979,
      "Ġcomplete": 3980,
      "Ġants": 3981,
      "anic": 3982,
      "ĠHelp": 3983,
      "Ġseal": 3984,
      "Ġjet": 3985,
      "play": 3986,
      "Ġslipp": 3987,
      "ĠAndy": 3988,
      "Ġtripped": 3989,
      "Ġgiven": 3990,
      "Ġbalan": 3991,
      "Ġchickens": 3992,
      "Ġcartoon": 3993,
      "Ġstuffed": 3994,
      "Ġrescue": 3995,
      "Ġsneak": 3996,
      "Ġcereal": 3997,
      "Ġinsist": 3998,
      "Ġsummer": 3999,
      "inking": 4000,
      "Ġpony": 4001,
      "ĠTony": 4002,
      "chanic": 4003,
      "Ġmechanic": 4004,
      "Ġadorable": 4005,
      "Ġdisplay": 4006,
      "Ġlands": 4007,
      "Ġdiary": 4008,
      "Ġfurther": 4009,
      "par": 4010,
      "Ġtorn": 4011,
      "Ġmen": 4012,
      "kelet": 4013,
      "Ġweep": 4014,
      "Ġshadow": 4015,
      "Ġsepar": 4016,
      "Ġspell": 4017,
      "Ġmuff": 4018,
      "Benny": 4019,
      "Ġframe": 4020,
      "Ġairport": 4021,
      "Ġwallet": 4022,
      "ĠRemy": 4023,
      "Ġshrimp": 4024,
      "Ġpaws": 4025,
      "Ġfilthy": 4026,
      "Ġsweater": 4027,
      "Ġfive": 4028,
      "ison": 4029,
      "arnt": 4030,
      "Ġherb": 4031,
      "ament": 4032,
      "Ġhadn": 4033,
      "Ġweather": 4034,
      "stic": 4035,
      "elery": 4036,
      "Ġnoteb": 4037,
      "Ġreward": 4038,
      "Ġlearnt": 4039,
      "ĠEverything": 4040,
      "Ġhaircut": 4041,
      "Ġfrogs": 4042,
      "ĠGrace": 4043,
      "âĤ¬âĢľ": 4044,
      "Ġnotebook": 4045,
      "iest": 4046,
      "Ġtheater": 4047,
      "Ġlang": 4048,
      "Ġstarting": 4049,
      "iastic": 4050,
      "Ġbubble": 4051,
      "Ġdancer": 4052,
      "Ġhopes": 4053,
      "Ġdrops": 4054,
      "Ġenthusiastic": 4055,
      "Ġlangu": 4056,
      "ser": 4057,
      "ube": 4058,
      "Ġskelet": 4059,
      "Ġsomewhere": 4060,
      "Ġopera": 4061,
      "Ġraft": 4062,
      "Ġshouldn": 4063,
      "ĠRo": 4064,
      "Ġpushing": 4065,
      "Ġmarched": 4066,
      "Ġtemp": 4067,
      "Ġwool": 4068,
      "Ġbikes": 4069,
      "Ġsaus": 4070,
      "any": 4071,
      "Ġgolf": 4072,
      "Ġquar": 4073,
      "ĠdonÃ¢": 4074,
      "Ġteleph": 4075,
      "astic": 4076,
      "Ġcryst": 4077,
      "Ġdrawings": 4078,
      "Ġpressed": 4079,
      "Ġrolling": 4080,
      "Ġincl": 4081,
      "Ġzoomed": 4082,
      "Ġcooked": 4083,
      "Ġunlock": 4084,
      "Ġtelephone": 4085,
      "nament": 4086,
      "Ġlid": 4087,
      "ĠBear": 4088,
      "Ġallig": 4089,
      "Ġmeas": 4090,
      "Ġornament": 4091,
      "Ġended": 4092,
      "Ġraining": 4093,
      "Ġsplit": 4094,
      "Ġcomput": 4095,
      "Ġpolish": 4096,
      "Ġpaid": 4097,
      "Ġprov": 4098,
      "Ġmistakes": 4099,
      "Ġoyster": 4100,
      "yer": 4101,
      "heart": 4102,
      "Ġcomet": 4103,
      "Ġpair": 4104,
      "Ġol": 4105,
      "icer": 4106,
      "Ġnobody": 4107,
      "Ġswung": 4108,
      "Ġuniver": 4109,
      "Ġsmells": 4110,
      "Ġattach": 4111,
      "Ġpirates": 4112,
      "Ġcrib": 4113,
      "Ġskeleton": 4114,
      "aked": 4115,
      "loe": 4116,
      "Ġtube": 4117,
      "Ġhar": 4118,
      "Ġwags": 4119,
      "Ġluck": 4120,
      "Ġstom": 4121,
      "Ġsort": 4122,
      "ected": 4123,
      "Ġcounter": 4124,
      "Ġmarry": 4125,
      "Ġexper": 4126,
      "Ġpresents": 4127,
      "Ġbarking": 4128,
      "Ġvalue": 4129,
      "Ġaccepted": 4130,
      "Ġleaned": 4131,
      "ges": 4132,
      "ĠSandy": 4133,
      "una": 4134,
      "Ġmeat": 4135,
      "Ġcube": 4136,
      "Ġdiscu": 4137,
      "Ġrestless": 4138,
      "ctory": 4139,
      "Ġnapkin": 4140,
      "Ġthrowing": 4141,
      "Ġpassport": 4142,
      "Ġpinch": 4143,
      "Ġhuman": 4144,
      "Ġkayak": 4145,
      "Ġcelery": 4146,
      "Ġpor": 4147,
      "ĠitÃ¢": 4148,
      "Ġthumb": 4149,
      "Ġfactory": 4150,
      "Ġswitch": 4151,
      "inky": 4152,
      "Ġunh": 4153,
      "Ġthanks": 4154,
      "Ġthread": 4155,
      "Ġthrows": 4156,
      "Ġobser": 4157,
      "Ġsoldier": 4158,
      "If": 4159,
      "come": 4160,
      "Ġmama": 4161,
      "Ġrot": 4162,
      "Ġknob": 4163,
      "Ġfeelings": 4164,
      "ĠdidnÃ¢": 4165,
      "aud": 4166,
      "Ġsandbox": 4167,
      "Ġimagination": 4168,
      "Ġsupply": 4169,
      "affe": 4170,
      "Ġfishing": 4171,
      "Ġlawyer": 4172,
      "Ġalligator": 4173,
      "ler": 4174,
      "was": 4175,
      "inarian": 4176,
      "Ġlend": 4177,
      "Ġwaste": 4178,
      "ĠSee": 4179,
      "Ġyach": 4180,
      "Ġribb": 4181,
      "Ġknot": 4182,
      "Ġfauc": 4183,
      "Ġnews": 4184,
      "Ġfog": 4185,
      "Ġfalling": 4186,
      "eterinarian": 4187,
      "Ġbelongs": 4188,
      "Together": 4189,
      "arlie": 4190,
      "Ġdishwas": 4191,
      "Ġenergy": 4192,
      "Ġslippery": 4193,
      "Ġfaucet": 4194,
      "Ġdishwasher": 4195,
      "tress": 4196,
      "Ġsle": 4197,
      "Ġsir": 4198,
      "Ġfurn": 4199,
      "iture": 4200,
      "iling": 4201,
      "Ġonion": 4202,
      "hero": 4203,
      "Ġkitty": 4204,
      "Ġveterinarian": 4205,
      "Ġshoulder": 4206,
      "Ġmattress": 4207,
      "Ġfields": 4208,
      "Ġcelebrated": 4209,
      "Ġsuperhero": 4210,
      "Ġshelter": 4211,
      "Ġapplaud": 4212,
      "Ġyacht": 4213,
      "Ġfurniture": 4214,
      "azz": 4215,
      "drobe": 4216,
      "Ġlumber": 4217,
      "Ġhall": 4218,
      "stead": 4219,
      "ĠBet": 4220,
      "ĠBaby": 4221,
      "Ġalarm": 4222,
      "ĠWill": 4223,
      "Ġchirp": 4224,
      "Ġpoked": 4225,
      "Ġpoem": 4226,
      "Ġsigns": 4227,
      "Ġwinter": 4228,
      "Ġwardrobe": 4229,
      "Ġglowing": 4230,
      "Ġapologized": 4231,
      "Ġfuel": 4232,
      "Ġwaffle": 4233,
      "Ġimprove": 4234,
      "Ġavoc": 4235,
      "Ġgiraffe": 4236,
      "Ġquarrel": 4237,
      "bor": 4238,
      "ium": 4239,
      "lid": 4240,
      "Ġpand": 4241,
      "Ġvide": 4242,
      "Ġpoke": 4243,
      "bbie": 4244,
      "Ġsweetheart": 4245,
      "Ġattention": 4246,
      "Everyone": 4247,
      "Ġunhappy": 4248,
      "gie": 4249,
      "sit": 4250,
      "Ġsuff": 4251,
      "edy": 4252,
      "Ġbur": 4253,
      "Ġfle": 4254,
      "ising": 4255,
      "ĠSophie": 4256,
      "Ġflies": 4257,
      "Ġcham": 4258,
      "place": 4259,
      "ÅĵYou": 4260,
      "ĠPat": 4261,
      "Ġpress": 4262,
      "Ġvend": 4263,
      "ipping": 4264,
      "Ġjeep": 4265,
      "Ġchairs": 4266,
      "Ġwipe": 4267,
      "Ġregret": 4268,
      "ween": 4269,
      "Ġcostume": 4270,
      "Ġbaseball": 4271,
      "Ġbetween": 4272,
      "Ġtut": 4273,
      "Ġtherm": 4274,
      "Ġplayer": 4275,
      "Ġshakes": 4276,
      "Ġseas": 4277,
      "ometer": 4278,
      "Ġworth": 4279,
      "Ġvroom": 4280,
      "Ġholid": 4281,
      "Ġexplain": 4282,
      "Ġfollows": 4283,
      "ĠNext": 4284,
      "Ġlightning": 4285,
      "Ġpoints": 4286,
      "Ġperfectly": 4287,
      "Inside": 4288,
      "Ġblowing": 4289,
      "Ġgolden": 4290,
      "Ġexamine": 4291,
      "Ġpenguin": 4292,
      "Ġphoto": 4293,
      "Ġharbor": 4294,
      "Ġthermometer": 4295,
      "Ġholiday": 4296,
      "az": 4297,
      "bul": 4298,
      "scope": 4299,
      "Ġtub": 4300,
      "Ġble": 4301,
      "inked": 4302,
      "Ġgro": 4303,
      "Ġinf": 4304,
      "utty": 4305,
      "Ġsoil": 4306,
      "Ġrever": 4307,
      "Ġmakeup": 4308,
      "roscope": 4309,
      "mand": 4310,
      "Ġgrin": 4311,
      "reeze": 4312,
      "Ġblueberries": 4313,
      "Ġmarried": 4314,
      "Ġimagine": 4315,
      "Ġcows": 4316,
      "Ġflutter": 4317,
      "Ġlively": 4318,
      "Ġmicroscope": 4319,
      "Ann": 4320,
      "Ch": 4321,
      "Next": 4322,
      "aff": 4323,
      "Ġpipe": 4324,
      "chair": 4325,
      "ores": 4326,
      "Ġclub": 4327,
      "Ġdoggy": 4328,
      "Ġlotion": 4329,
      "Ġsunset": 4330,
      "Ġbuzz": 4331,
      "Ġwriting": 4332,
      "Ġpetals": 4333,
      "Ġprepare": 4334,
      "Ġscolded": 4335,
      "Ġcomputer": 4336,
      "Ġporch": 4337,
      "Fl": 4338,
      "ccer": 4339,
      "lass": 4340,
      "ues": 4341,
      "Ġpra": 4342,
      "Ġpur": 4343,
      "ories": 4344,
      "Ġinse": 4345,
      "Ġstro": 4346,
      "Ġsoccer": 4347,
      "Ġspear": 4348,
      "Ġknown": 4349,
      "ssible": 4350,
      "Ġpear": 4351,
      "ups": 4352,
      "Ġkingdom": 4353,
      "Ġsplashing": 4354,
      "Ġsprayed": 4355,
      "Ġburned": 4356,
      "Ġstraight": 4357,
      "Ġhanging": 4358,
      "Ġcabinet": 4359,
      "ĠClara": 4360,
      "Ġcrystal": 4361,
      "Ġvendor": 4362,
      "Daisy": 4363,
      "Ġcree": 4364,
      "ense": 4365,
      "Ġlives": 4366,
      "icle": 4367,
      "Ġevening": 4368,
      "Ġfiref": 4369,
      "Ġbathe": 4370,
      "Ġwhistling": 4371,
      "ĠBubbles": 4372,
      "Ġrelaxed": 4373,
      "Ġyoga": 4374,
      "Ġpumpkin": 4375,
      "Ġcreek": 4376,
      "Jim": 4377,
      "Ġweigh": 4378,
      "ĠBill": 4379,
      "Ġhappens": 4380,
      "Ġflame": 4381,
      "Ġsung": 4382,
      "Ġappro": 4383,
      "ngth": 4384,
      "Ġarmchair": 4385,
      "Ġjudge": 4386,
      "Ġelephants": 4387,
      "Ġstrength": 4388,
      "Ġapron": 4389,
      "Ġbananas": 4390,
      "Ġcrossed": 4391,
      "Ġsneeze": 4392,
      "Emma": 4393,
      "men": 4394,
      "tain": 4395,
      "Ġtucked": 4396,
      "Ġsigh": 4397,
      "ero": 4398,
      "Ġmug": 4399,
      "Ġmath": 4400,
      "Ġpalm": 4401,
      "atie": 4402,
      "Ġplays": 4403,
      "Ġlie": 4404,
      "Ġisn": 4405,
      "Ġhelper": 4406,
      "Ġmule": 4407,
      "Ġblinked": 4408,
      "Ġbury": 4409,
      "Ġtrail": 4410,
      "Ġfireplace": 4411,
      "ĠInstead": 4412,
      "Ġcreated": 4413,
      "Ġsquirrels": 4414,
      "Ġbarrel": 4415,
      "Ġbasketball": 4416,
      "Ġpuzzles": 4417,
      "Ġkisses": 4418,
      "Ġsurround": 4419,
      "Ġeagerly": 4420,
      "ĠGod": 4421,
      "Ġserve": 4422,
      "Ġcherry": 4423,
      "Ġtutor": 4424,
      "lier": 4425,
      "rs": 4426,
      "Ġcase": 4427,
      "ĠTed": 4428,
      "omes": 4429,
      "chie": 4430,
      "Ġflapped": 4431,
      "ĠEllie": 4432,
      "Ġgreedy": 4433,
      "izes": 4434,
      "Ġunif": 4435,
      "aces": 4436,
      "Ġbelow": 4437,
      "Ġtriang": 4438,
      "Ġforgotten": 4439,
      "anges": 4440,
      "Ġwelcomed": 4441,
      "Ġpuddles": 4442,
      "Ġtrusted": 4443,
      "Ġfolder": 4444,
      "Ġmemories": 4445,
      "Ġexercise": 4446,
      "ah": 4447,
      "Ġport": 4448,
      "Ġrake": 4449,
      "rich": 4450,
      "Ġplastic": 4451,
      "indy": 4452,
      "Ġclaw": 4453,
      "Ġscoot": 4454,
      "rod": 4455,
      "Ġintrod": 4456,
      "ionary": 4457,
      "ction": 4458,
      "ĠPaul": 4459,
      "Ġdelay": 4460,
      "Ġshouting": 4461,
      "Ġbaking": 4462,
      "Ġceiling": 4463,
      "Ġwandered": 4464,
      "ĠBuzz": 4465,
      "achel": 4466,
      "Ġrepeat": 4467,
      "lasses": 4468,
      "Ġsunglasses": 4469,
      "Ġuniform": 4470,
      "Is": 4471,
      "ait": 4472,
      "ring": 4473,
      "rise": 4474,
      "zor": 4475,
      "Ġfought": 4476,
      "Ġost": 4477,
      "Ġstad": 4478,
      "Ġsheet": 4479,
      "ĠBunny": 4480,
      "Ġrequ": 4481,
      "Ġreaches": 4482,
      "fume": 4483,
      "Ġspade": 4484,
      "Your": 4485,
      "Ġagre": 4486,
      "Ġshower": 4487,
      "Ġskills": 4488,
      "Ġbears": 4489,
      "Ġoffer": 4490,
      "Ġrazor": 4491,
      "Ġdear": 4492,
      "Ġperfume": 4493,
      "Ġparent": 4494,
      "Ġquietly": 4495,
      "Ġtuna": 4496,
      "ĠAnnie": 4497,
      "Today": 4498,
      "Ġrefre": 4499,
      "ictionary": 4500,
      "Ġlanguage": 4501,
      "Ġgrocer": 4502,
      "Ġstadium": 4503,
      "ives": 4504,
      "Ġig": 4505,
      "Ġsince": 4506,
      "Ġbreeze": 4507,
      "Ġdictionary": 4508,
      "Ġoil": 4509,
      "Ġyield": 4510,
      "Ġrise": 4511,
      "Ġlicks": 4512,
      "aggie": 4513,
      "Ġburied": 4514,
      "ĠRu": 4515,
      "Ġambul": 4516,
      "Ġdressed": 4517,
      "Ġfirework": 4518,
      "Ġshovel": 4519,
      "Ġsailing": 4520,
      "Ġgrowled": 4521,
      "Ġspoons": 4522,
      "Ġstud": 4523,
      "Ġshrink": 4524,
      "Ġminute": 4525,
      "Ġbricks": 4526,
      "Ġsandcastle": 4527,
      "Ġchamber": 4528,
      "Ġinsect": 4529,
      "Ġostrich": 4530,
      "Ġigloo": 4531,
      "Ġambulance": 4532,
      "Qu": 4533,
      "eve": 4534,
      "nger": 4535,
      "aring": 4536,
      "ĠIÃ¢": 4537,
      "unately": 4538,
      "Ġalive": 4539,
      "Ġpopped": 4540,
      "Ġgrill": 4541,
      "Ġhurting": 4542,
      "Ġraise": 4543,
      "Ġsub": 4544,
      "Ġmissile": 4545,
      "ĠOr": 4546,
      "Ġearlier": 4547,
      "Ġspending": 4548,
      "Ġsniffed": 4549,
      "ab": 4550,
      "Ġberry": 4551,
      "Ġcared": 4552,
      "Ġcaul": 4553,
      "Ġmention": 4554,
      "ĠSu": 4555,
      "Ġplates": 4556,
      "herman": 4557,
      "Ġleak": 4558,
      "ases": 4559,
      "ifl": 4560,
      "Ġmyself": 4561,
      "Ġsunrise": 4562,
      "Ġstruc": 4563,
      "Thanks": 4564,
      "Ġamazement": 4565,
      "Ġheads": 4566,
      "ĠNutty": 4567,
      "Ġfallen": 4568,
      "Ġbouncing": 4569,
      "Ġjewelry": 4570,
      "Ġfisherman": 4571,
      "Ġbreathe": 4572,
      "Ġseparate": 4573,
      "Ġcaulifl": 4574,
      "Ġstructure": 4575,
      "Ġpit": 4576,
      "enry": 4577,
      "Ġlick": 4578,
      "urch": 4579,
      "Ġseeing": 4580,
      "Ġrooms": 4581,
      "Ġquiz": 4582,
      "Ġdoors": 4583,
      "Ġwrites": 4584,
      "Ġjogging": 4585,
      "Ġmagaz": 4586,
      "Ġfloated": 4587,
      "Ġcrash": 4588,
      "Ġprevent": 4589,
      "Ġblankets": 4590,
      "Ġsprink": 4591,
      "Ġwhisper": 4592,
      "Ġshooting": 4593,
      "Ġbeans": 4594,
      "ĠTrue": 4595,
      "Ġslept": 4596,
      "'.": 4597,
      "Did": 4598,
      "Sh": 4599,
      "ging": 4600,
      "Ġwigg": 4601,
      "Ġlime": 4602,
      "Ġnation": 4603,
      "Ġsaving": 4604,
      "allow": 4605,
      "anta": 4606,
      "Ġquit": 4607,
      "Ġquack": 4608,
      "Ġfastest": 4609,
      "Ġtelev": 4610,
      "Ġgifts": 4611,
      "Ġdisappear": 4612,
      "Ġmailman": 4613,
      "Ġadmir": 4614,
      "Ġclassroom": 4615,
      "Ġpeanuts": 4616,
      "Ġsqueeze": 4617,
      "Ġsettled": 4618,
      "Ġargue": 4619,
      "ÅĵItÃ¢": 4620,
      "Ġyawned": 4621,
      "Ġpanda": 4622,
      "Ġflea": 4623,
      "Ġtelevision": 4624,
      "Will": 4625,
      "nies": 4626,
      "vet": 4627,
      "Ġaut": 4628,
      "Ġitch": 4629,
      "Ġsocks": 4630,
      "Ġnovel": 4631,
      "Ġlawn": 4632,
      "ĠLuna": 4633,
      "estig": 4634,
      "Ġvet": 4635,
      "Ġjogged": 4636,
      "Ġsticky": 4637,
      "Ġfloat": 4638,
      "Ġinvestig": 4639,
      "Ġshrugged": 4640,
      "Ġignored": 4641,
      "Ġmedal": 4642,
      "Ġmodel": 4643,
      "Ġscratch": 4644,
      "Ġyogurt": 4645,
      "Ġcauliflower": 4646,
      "Peter": 4647,
      "right": 4648,
      "Ġsizes": 4649,
      "Ġbother": 4650,
      "Ġcaring": 4651,
      "Ġkneel": 4652,
      "ĠCo": 4653,
      "Ġfollowing": 4654,
      "Ġhills": 4655,
      "Ġbuckle": 4656,
      "Ġeasier": 4657,
      "Ġcherries": 4658,
      "Ġdestroyed": 4659,
      "Ġurge": 4660,
      "Ġsubway": 4661,
      "cc": 4662,
      "Ġwaving": 4663,
      "Ġequ": 4664,
      "Ġelev": 4665,
      "elcome": 4666,
      "Ġtwink": 4667,
      "Ġskull": 4668,
      "Ġskipping": 4669,
      "Ġletting": 4670,
      "Ġwarmth": 4671,
      "Ġtaller": 4672,
      "Sammy": 4673,
      "Ġmatches": 4674,
      "Ġeasily": 4675,
      "Ġworms": 4676,
      "ĠChloe": 4677,
      "Ġstrawberries": 4678,
      "Ġappreciate": 4679,
      "Ġinfant": 4680,
      "Ġpraised": 4681,
      "Ġelevator": 4682,
      "Ġsings": 4683,
      "ito": 4684,
      "Ġcable": 4685,
      "omob": 4686,
      "Ġga": 4687,
      "Ġbeamed": 4688,
      "ĠIs": 4689,
      "ĠBun": 4690,
      "hter": 4691,
      "Ġjazz": 4692,
      "asc": 4693,
      "Ġagree": 4694,
      "Ġprop": 4695,
      "Ġchalk": 4696,
      "Ġchurch": 4697,
      "Ġlaughter": 4698,
      "Ġglo": 4699,
      "Ġunite": 4700,
      "Ġfloating": 4701,
      "Ġsetting": 4702,
      "Ġmusician": 4703,
      "Ġveh": 4704,
      "Ġcaptain": 4705,
      "Ġtriangle": 4706,
      "Ġclaws": 4707,
      "omobile": 4708,
      "Ġtoes": 4709,
      "Ġlect": 4710,
      "Ġpal": 4711,
      "Ġstitch": 4712,
      "ĠJul": 4713,
      "âĤ¬.": 4714,
      "ĠDanny": 4715,
      "Ġmoves": 4716,
      "Ġwatches": 4717,
      "Ġcalls": 4718,
      "Ġchess": 4719,
      "Ġrabbits": 4720,
      "Ġparts": 4721,
      "Ġhearts": 4722,
      "Ġinstr": 4723,
      "Ġpastel": 4724,
      "Ġapart": 4725,
      "Ġeagle": 4726,
      "Ġburning": 4727,
      "Ġcircus": 4728,
      "omeday": 4729,
      "Ġstrawberry": 4730,
      "Ġcomplain": 4731,
      "Ġsausage": 4732,
      "Ġbleed": 4733,
      "Ġautomobile": 4734,
      "Ġinvestigate": 4735,
      "Ġlecture": 4736,
      "Ġpalace": 4737,
      "ived": 4738,
      "Ġachie": 4739,
      "ora": 4740,
      "ĠHave": 4741,
      "Ġemer": 4742,
      "These": 4743,
      "ĠMandy": 4744,
      "ĠWho": 4745,
      "Ġcoal": 4746,
      "Ġtrade": 4747,
      "Ġslip": 4748,
      "Ġkeeping": 4749,
      "Ġtrave": 4750,
      "Ġairpl": 4751,
      "Ġcastles": 4752,
      "Ġmystery": 4753,
      "Ġcollected": 4754,
      "Ġticket": 4755,
      "Daddy": 4756,
      "Ġcrawling": 4757,
      "Ġcuddled": 4758,
      "Ġbumped": 4759,
      "Ġapproached": 4760,
      "Ġgloves": 4761,
      "'ve": 4762,
      "Ouch": 4763,
      "ĠV": 4764,
      "Ġtore": 4765,
      "Ġcord": 4766,
      "Ġdaisy": 4767,
      "Ġgust": 4768,
      "Ġsore": 4769,
      "Ġsport": 4770,
      "icing": 4771,
      "Ġscore": 4772,
      "Ġrod": 4773,
      "ĠLilly": 4774,
      "Ġskirt": 4775,
      "ĠJoy": 4776,
      "Ġblueberry": 4777,
      "Ġguy": 4778,
      "Ġblackboard": 4779,
      "Ġprayed": 4780,
      "Ġvideo": 4781,
      "Eventually": 4782,
      "iers": 4783,
      "Ġtide": 4784,
      "Ġwine": 4785,
      "Ġhomes": 4786,
      "Ġfasc": 4787,
      "Ġhesit": 4788,
      "Ġmel": 4789,
      "Ġpages": 4790,
      "ĠMilly": 4791,
      "raged": 4792,
      "Ġspit": 4793,
      "Ġscooped": 4794,
      "Ġcob": 4795,
      "Ġchir": 4796,
      "uckily": 4797,
      "Ġblouse": 4798,
      "Ġsurprises": 4799,
      "Ġdemand": 4800,
      "Ġdifferen": 4801,
      "Ġpaused": 4802,
      "Ġplanes": 4803,
      "Ġmint": 4804,
      "Ġtomatoes": 4805,
      "Ġrevealed": 4806,
      "Ġinclud": 4807,
      "Ġavocado": 4808,
      "Or": 4809,
      "Ġsi": 4810,
      "Ġsomeday": 4811,
      "Ġtong": 4812,
      "Ġdare": 4813,
      "Ġmall": 4814,
      "atch": 4815,
      "Ġlip": 4816,
      "ĠMillie": 4817,
      "Ġboot": 4818,
      "Ġideas": 4819,
      "Ġheaded": 4820,
      "Ġsparkling": 4821,
      "Ġringing": 4822,
      "Ġpillows": 4823,
      "Ġcandles": 4824,
      "ĠFreddy": 4825,
      "Ġreceive": 4826,
      "Ġchirping": 4827,
      "Ġmagazine": 4828,
      "sing": 4829,
      "Ġtug": 4830,
      "Ġsimp": 4831,
      "Ġwashing": 4832,
      "Ġgear": 4833,
      "Ġweap": 4834,
      "Ġpoison": 4835,
      "ipment": 4836,
      "ission": 4837,
      "Ġspots": 4838,
      "Ġunderstanding": 4839,
      "Ġfreez": 4840,
      "Ġinvite": 4841,
      "laire": 4842,
      "Ġsolved": 4843,
      "Ġdestination": 4844,
      "Ġweeks": 4845,
      "Ġgrinned": 4846,
      "Ġfirefight": 4847,
      "Lisa": 4848,
      "Tweet": 4849,
      "Wait": 4850,
      "bers": 4851,
      "cakes": 4852,
      "iately": 4853,
      "mm": 4854,
      "mother": 4855,
      "Ġhers": 4856,
      "htray": 4857,
      "Ġashtray": 4858,
      "Ġmeowed": 4859,
      "ĠFro": 4860,
      "Ġslice": 4861,
      "Ġoranges": 4862,
      "Ġeaten": 4863,
      "Ġclimbs": 4864,
      "Ġpulling": 4865,
      "Ġdeeper": 4866,
      "mediately": 4867,
      "fortunately": 4868,
      "Ġchoice": 4869,
      "Ġvillag": 4870,
      "Ġdecorations": 4871,
      "Ġsoldiers": 4872,
      "Ġradish": 4873,
      "Ġjellyfish": 4874,
      "ĠPeople": 4875,
      "Ġpermission": 4876,
      "Ġreverse": 4877,
      "Ġequipment": 4878,
      "osed": 4879,
      "web": 4880,
      "oming": 4881,
      "seek": 4882,
      "ĠIts": 4883,
      "Ġsnapped": 4884,
      "ĠCat": 4885,
      "Ġappear": 4886,
      "Ġdrinking": 4887,
      "Ġcrunch": 4888,
      "ulu": 4889,
      "Ġmoments": 4890,
      "Ġsparkle": 4891,
      "ĠCharlie": 4892,
      "Ġsqueezed": 4893,
      "Ġinsisted": 4894,
      "Ġprovide": 4895,
      "Ġdiscuss": 4896,
      "Fluffy": 4897,
      "Ġscooter": 4898,
      "Ġairplane": 4899,
      "Ġfascin": 4900,
      "Ġcobweb": 4901,
      "Yuck": 4902,
      "dam": 4903,
      "kins": 4904,
      "Ġfile": 4905,
      "ĠTina": 4906,
      "Ġweighed": 4907,
      "Ġjail": 4908,
      "ĠJames": 4909,
      "Ġcopper": 4910,
      "emember": 4911,
      "Ġreplace": 4912,
      "Ġsits": 4913,
      "Ġpatiently": 4914,
      "Ġchewed": 4915,
      "Ġmelted": 4916,
      "Ġstruggling": 4917,
      "Ġpunish": 4918,
      "mend": 4919,
      "xy": 4920,
      "reen": 4921,
      "Ġdried": 4922,
      "Ġdire": 4923,
      "Ġeff": 4924,
      "Ġtremb": 4925,
      "Ġranch": 4926,
      "Ġblood": 4927,
      "quito": 4928,
      "Ġstrang": 4929,
      "ĠKing": 4930,
      "Ġenter": 4931,
      "Ġignore": 4932,
      "Ġpanic": 4933,
      "Ġreceived": 4934,
      "ĠUn": 4935,
      "Ġsuffer": 4936,
      "house": 4937,
      "lvet": 4938,
      "Ġmitten": 4939,
      "ommend": 4940,
      "anna": 4941,
      "Ġyucky": 4942,
      "Ġbegged": 4943,
      "Ġstable": 4944,
      "Ġshamp": 4945,
      "umble": 4946,
      "Ġmanage": 4947,
      "asis": 4948,
      "ĠLiz": 4949,
      "Ġchores": 4950,
      "Ġvac": 4951,
      "Ġbravely": 4952,
      "ĠGood": 4953,
      "Johnny": 4954,
      "Ġbites": 4955,
      "Ġvelvet": 4956,
      "Ġbelieved": 4957,
      "Ġwarning": 4958,
      "Ġmeeting": 4959,
      "Ġrecommend": 4960,
      "looking": 4961,
      "Ġpedal": 4962,
      "Ġoats": 4963,
      "Ġacorns": 4964,
      "Ġmuffin": 4965,
      "Ġribbon": 4966,
      "Ġvehicle": 4967,
      "Ġchirped": 4968,
      "Ġvillagers": 4969,
      "Ġshampoo": 4970,
      "All": 4971,
      "Not": 4972,
      "Would": 4973,
      "case": 4974,
      "Ġaer": 4975,
      "\"\",": 4976,
      "Ġoasis": 4977,
      "Ġnone": 4978,
      "ĠAb": 4979,
      "opl": 4980,
      "Ġsnap": 4981,
      "Ġdrain": 4982,
      "ĠRob": 4983,
      "Ġdresses": 4984,
      "Ġhotel": 4985,
      "orses": 4986,
      "Ġrespons": 4987,
      "Ġpastry": 4988,
      "ĠOl": 4989,
      "Ġteaching": 4990,
      "Ġearthqu": 4991,
      "Ġtwisted": 4992,
      "Ġencouraged": 4993,
      "Ġscattered": 4994,
      "Ġrubber": 4995,
      "Ġweapon": 4996,
      "xygen": 4997,
      "Ġeffort": 4998,
      "Ġaeropl": 4999,
      "squito": 5000,
      "Ġsix": 5001,
      "Ġlugg": 5002,
      "ishing": 5003,
      "Ġitem": 5004,
      "ety": 5005,
      "Ġshed": 5006,
      "sters": 5007,
      "Ġspaces": 5008,
      "Ġalright": 5009,
      "âĤ¬\"": 5010,
      "Ġpride": 5011,
      "ĠLee": 5012,
      "Ġdownstairs": 5013,
      "ĠDan": 5014,
      "aper": 5015,
      "Ġmosquito": 5016,
      "Ġkindly": 5017,
      "ĠRachel": 5018,
      "ĠFloppy": 5019,
      "Ġcompany": 5020,
      "Ġanswers": 5021,
      "Ġplanted": 5022,
      "Ġinvit": 5023,
      "Ġcoats": 5024,
      "Ġsafety": 5025,
      "Ġsupposed": 5026,
      "ĠChirp": 5027,
      "Ġsneezed": 5028,
      "Ġrefreshed": 5029,
      "Ġdifference": 5030,
      "Ġluggage": 5031,
      "With": 5032,
      "Ġhorses": 5033,
      "Ġfut": 5034,
      "Ġlung": 5035,
      "Ġmass": 5036,
      "Ġripped": 5037,
      "Ġrush": 5038,
      "alley": 5039,
      "Ġsew": 5040,
      "essie": 5041,
      "Ġworks": 5042,
      "Ġours": 5043,
      "ĠKatie": 5044,
      "Ġpetted": 5045,
      "Ġcollecting": 5046,
      "Ġentered": 5047,
      "Ġsliding": 5048,
      "ĠBefore": 5049,
      "Ġtickets": 5050,
      "Ġsettle": 5051,
      "Ġrecognized": 5052,
      "Ġdisagreed": 5053,
      "Ġtemple": 5054,
      "Ġexperience": 5055,
      "Ġobserve": 5056,
      "Ġstrangers": 5057,
      "Ġaeroplane": 5058,
      "Ġfuture": 5059,
      "Mandy": 5060,
      "Ġsip": 5061,
      "Ġoxygen": 5062,
      "ĠSanta": 5063,
      "amb": 5064,
      "Ġshot": 5065,
      "ĠMay": 5066,
      "Ġanch": 5067,
      "Ġroot": 5068,
      "ĠEach": 5069,
      "antly": 5070,
      "embers": 5071,
      "Ġbrain": 5072,
      "Ġremembers": 5073,
      "Ġsteel": 5074,
      "avid": 5075,
      "Ġvisiting": 5076,
      "Ġmouths": 5077,
      "Ġplanet": 5078,
      "Ġhits": 5079,
      "Ġactually": 5080,
      "Ġhurric": 5081,
      "ÅĵThatÃ¢": 5082,
      "Ġadmiring": 5083,
      "Ġearthquake": 5084,
      "Ex": 5085,
      "cage": 5086,
      "cles": 5087,
      "Ġbun": 5088,
      "Ġwaist": 5089,
      "Ġchat": 5090,
      "Ġobe": 5091,
      "Ġrow": 5092,
      "Ġweight": 5093,
      "allen": 5094,
      "Ġbirdcage": 5095,
      "Ġnewsp": 5096,
      "ĠLulu": 5097,
      "Ġsunlight": 5098,
      "ÅĵLook": 5099,
      "Ġturning": 5100,
      "Ġwherever": 5101,
      "Ġperched": 5102,
      "Ġhated": 5103,
      "Ġcontinue": 5104,
      "Ġbringing": 5105,
      "Ġbeef": 5106,
      "Ġsuitc": 5107,
      "Ġwhistled": 5108,
      "Ġincre": 5109,
      "ĠSteve": 5110,
      "Ġselling": 5111,
      "Really": 5112,
      "Ġapologize": 5113,
      "Ġmarbles": 5114,
      "Emily": 5115,
      "Ġbrick": 5116,
      "Ġrequest": 5117,
      "ĠCoco": 5118,
      "Ġtongue": 5119,
      "Ġhate": 5120,
      "Ġwagging": 5121,
      "Ġdigg": 5122,
      "Ġhanger": 5123,
      "igail": 5124,
      "ĠFo": 5125,
      "Ġtease": 5126,
      "Ġremained": 5127,
      "Ġtracks": 5128,
      "Ġdraws": 5129,
      "Ġrested": 5130,
      "Ġrestore": 5131,
      "Ġcutting": 5132,
      "Ġmarching": 5133,
      "osity": 5134,
      "Ġattached": 5135,
      "Ġneighbors": 5136,
      "Ġfreeze": 5137,
      "Ġwarn": 5138,
      "Ġpinched": 5139,
      "Before": 5140,
      "Ġtwigs": 5141,
      "Ġcuddle": 5142,
      "Ġbattery": 5143,
      "Ġpenguins": 5144,
      "Ġanchor": 5145,
      "ha": 5146,
      "zag": 5147,
      "Ġlily": 5148,
      "enny": 5149,
      "Ġnavy": 5150,
      "ĠHarry": 5151,
      "Ġbeg": 5152,
      "Ġstaff": 5153,
      "Ġsoared": 5154,
      "enty": 5155,
      "Ġjunk": 5156,
      "Ġcliff": 5157,
      "Ġchallen": 5158,
      "Ġneedles": 5159,
      "Ġimmediately": 5160,
      "Ġlets": 5161,
      "xture": 5162,
      "Ġperfor": 5163,
      "Ġcomforted": 5164,
      "Ġzooming": 5165,
      "Ġmachines": 5166,
      "ĠSomeone": 5167,
      "Ġexamined": 5168,
      "Ġpermit": 5169,
      "Ġneighbourhood": 5170,
      "Ġprune": 5171,
      "Ġcartoons": 5172,
      "Ġsurrounded": 5173,
      "Ġvacation": 5174,
      "Ġhurricane": 5175,
      "Ġdigging": 5176,
      "Mor": 5177,
      "Welcome": 5178,
      "tory": 5179,
      "walk": 5180,
      "igzag": 5181,
      "amie": 5182,
      "Ġhistory": 5183,
      "aded": 5184,
      "ents": 5185,
      "!\"\",": 5186,
      "Ġworse": 5187,
      "Ġdecision": 5188,
      "ĠCindy": 5189,
      "Ġconf": 5190,
      "Ġzipped": 5191,
      "Ġladyb": 5192,
      "Ġcomple": 5193,
      "Ġsecrets": 5194,
      "Ġproblems": 5195,
      "Ġneighborhood": 5196,
      "Ġguessed": 5197,
      "Ġdisturbed": 5198,
      "Ġbalancing": 5199,
      "Ġtornado": 5200,
      "Ġsimple": 5201,
      "Ġcrunchy": 5202,
      "Ġobey": 5203,
      "Moral": 5204,
      "Kitty": 5205,
      "act": 5206,
      "nie": 5207,
      "neath": 5208,
      "oed": 5209,
      "zie": 5210,
      "Ġx": 5211,
      "Ġtoe": 5212,
      "Ġduring": 5213,
      "Ġvalley": 5214,
      "ĠEveryday": 5215,
      "izing": 5216,
      "ĠJosh": 5217,
      "Ġglowed": 5218,
      "Ġbookcase": 5219,
      "Ġbeds": 5220,
      "Ġprinted": 5221,
      "Ġgrowl": 5222,
      "Ġgrandmother": 5223,
      "Ġguns": 5224,
      "Ġprice": 5225,
      "Ġrides": 5226,
      "Ġprunes": 5227,
      "Ġolive": 5228,
      "ĠChirpy": 5229,
      "Ġbunnies": 5230,
      "Jake": 5231,
      "Ro": 5232,
      "Susie": 5233,
      "mare": 5234,
      "oved": 5235,
      "ari": 5236,
      "lee": 5237,
      "Ġevent": 5238,
      "ĠBir": 5239,
      "Ġlic": 5240,
      "Ġloop": 5241,
      "Ġscur": 5242,
      "Ġbrings": 5243,
      "Ġrang": 5244,
      "bbled": 5245,
      "Ġoper": 5246,
      "Ġwatered": 5247,
      "Ġstruggled": 5248,
      "Ġfamil": 5249,
      "Ġwond": 5250,
      "Ġraised": 5251,
      "ÅĵNo": 5252,
      "Ġthrilled": 5253,
      "ĠSpike": 5254,
      "Ġfiremen": 5255,
      "Ġbeneath": 5256,
      "Ġpastels": 5257,
      "ĠSomething": 5258,
      "Ġargued": 5259,
      "Ġstomach": 5260,
      "Ġagreement": 5261,
      "Ġspaceship": 5262,
      "Ġinvitation": 5263,
      "fy": 5264,
      "hell": 5265,
      "Ġbes": 5266,
      "ĠBird": 5267,
      "ddy": 5268,
      "Ġmuddy": 5269,
      "ĠLater": 5270,
      "isten": 5271,
      "Ġpoppy": 5272,
      "Ġgrape": 5273,
      "Ġoverjoy": 5274,
      "Ġbroom": 5275,
      "Ġcatching": 5276,
      "Ġsparkles": 5277,
      "Ġpaints": 5278,
      "Ġdiscovery": 5279,
      "Ġseats": 5280,
      "Ġjewels": 5281,
      "ĠFrank": 5282,
      "Ġpotatoes": 5283,
      "Ġmeasuring": 5284,
      "Ġbleeding": 5285,
      "Ġfascinated": 5286,
      "Ġnewspaper": 5287,
      "Ġoverjoyed": 5288,
      "Yum": 5289,
      "sity": 5290,
      "ude": 5291,
      "Ġfest": 5292,
      "Ġmittens": 5293,
      "ays": 5294,
      "ppers": 5295,
      "Ġlips": 5296,
      "ĠMe": 5297,
      "ĠMaggie": 5298,
      "Ġeveryday": 5299,
      "Ġpossible": 5300,
      "Ġcomfy": 5301,
      "Ġcub": 5302,
      "Ġcones": 5303,
      "Ġcrept": 5304,
      "Ġtrapped": 5305,
      "Ġrained": 5306,
      "Ġnightmare": 5307,
      "Ġsteak": 5308,
      "Ġbuildings": 5309,
      "Ġordered": 5310,
      "Ġmenu": 5311,
      "Ġintroduc": 5312,
      "Ġmelon": 5313,
      "Ġfreezer": 5314,
      "Ġmassage": 5315,
      "Ġlicense": 5316,
      "!'": 5317,
      "do": 5318,
      "low": 5319,
      "Ġcaut": 5320,
      "Ġpitch": 5321,
      "Ġgain": 5322,
      "lend": 5323,
      "igi": 5324,
      "Ġonwards": 5325,
      "Ġanytime": 5326,
      "Ġremain": 5327,
      "Ġtalent": 5328,
      "Ġcontain": 5329,
      "Ġfixing": 5330,
      "Ġsatis": 5331,
      "Ġprec": 5332,
      "Ġmuscles": 5333,
      "Ġsidewalk": 5334,
      "Ġmustache": 5335,
      "Ġpracticing": 5336,
      "ÅĵIÃ¢": 5337,
      "cape": 5338,
      "Ġclearing": 5339,
      "Ġfigured": 5340,
      "Ġurged": 5341,
      "Ġlandscape": 5342,
      "Ġgrocery": 5343,
      "Ġmentioned": 5344,
      "Ġbeside": 5345,
      "Ġfestiv": 5346,
      "fied": 5347,
      "len": 5348,
      "udy": 5349,
      "zing": 5350,
      "Ġfed": 5351,
      "Ġfash": 5352,
      "Ġsty": 5353,
      "Ġupstairs": 5354,
      "ĠBeth": 5355,
      "ĠAdam": 5356,
      "Ġbrid": 5357,
      "Ġbrus": 5358,
      "Ġpretti": 5359,
      "Ġunderneath": 5360,
      "ĠPip": 5361,
      "ĠLetÃ¢": 5362,
      "Ġcrumb": 5363,
      "Ġdrift": 5364,
      "Ġaccom": 5365,
      "Ġminer": 5366,
      "Ġvanished": 5367,
      "Ġprepared": 5368,
      "Ġuniverse": 5369,
      "Ġuniversity": 5370,
      "Ġbuzzing": 5371,
      "Ġemergen": 5372,
      "Ġwonders": 5373,
      "Ġprettiest": 5374,
      "Bella": 5375,
      "Mark": 5376,
      "ding": 5377,
      "mble": 5378,
      "riger": 5379,
      "ĠQu": 5380,
      "Ġtip": 5381,
      "Ġtonight": 5382,
      "ities": 5383,
      "Ġcal": 5384,
      "ĠThese": 5385,
      "Ġrust": 5386,
      "Ġweren": 5387,
      "Ġflap": 5388,
      "ĠLike": 5389,
      "ĠDavid": 5390,
      "ĠCarl": 5391,
      "hyth": 5392,
      "Ġvoices": 5393,
      "ĠNot": 5394,
      "Ġcrashed": 5395,
      "Ġpets": 5396,
      "Ġbottles": 5397,
      "Ġcalend": 5398,
      "Ġstirring": 5399,
      "Ġrefriger": 5400,
      "Ġcurtains": 5401,
      "Ġbalanced": 5402,
      "ĠBetsy": 5403,
      "ĠRuby": 5404,
      "Ġproperly": 5405,
      "hythm": 5406,
      "Ġcalendar": 5407,
      "Ġrefrigerator": 5408,
      "ĠOnce": 5409,
      "hest": 5410,
      "Ġawe": 5411,
      "Ġbank": 5412,
      "omas": 5413,
      "ĠSad": 5414,
      "riage": 5415,
      "ĠBig": 5416,
      "Ġhappiest": 5417,
      "Ġwanting": 5418,
      "Ġwhip": 5419,
      "Ġgirls": 5420,
      "Ġsadness": 5421,
      "Ġflav": 5422,
      "Ġlaid": 5423,
      "Ġzigzag": 5424,
      "Ġbookshe": 5425,
      "ĠJenna": 5426,
      "Ġaccidents": 5427,
      "Ġmission": 5428,
      "Ġbouncy": 5429,
      "Ġtune": 5430,
      "Ġparked": 5431,
      "Ready": 5432,
      "Ġscratched": 5433,
      "Ġrecognize": 5434,
      "Ġsucceeded": 5435,
      "Ġmeasured": 5436,
      "Ġstudied": 5437,
      "Ġinstruct": 5438,
      "Ġsuitcase": 5439,
      "Ġcompleted": 5440,
      "Ġprecious": 5441,
      "Ġfestival": 5442,
      "Ġaccompl": 5443,
      "Le": 5444,
      "Mmm": 5445,
      "Ok": 5446,
      "Ye": 5447,
      "eed": 5448,
      "Ġtugged": 5449,
      "Ġbill": 5450,
      "Ġda": 5451,
      "Ġheat": 5452,
      "ides": 5453,
      "ĠHenry": 5454,
      "Ġbeat": 5455,
      "Ġloose": 5456,
      "Ġtremble": 5457,
      "agull": 5458,
      "Ġflood": 5459,
      "ĠElly": 5460,
      "Ġbye": 5461,
      "Ġcreation": 5462,
      "Ġruler": 5463,
      "Ġswims": 5464,
      "Ġsteam": 5465,
      "Ġshopping": 5466,
      "Ġbowed": 5467,
      "Ġpouring": 5468,
      "ĠChr": 5469,
      "Ġroaring": 5470,
      "ĠZoom": 5471,
      "Ġescaped": 5472,
      "Ġcrackers": 5473,
      "Rex": 5474,
      "Ġstamps": 5475,
      "Ġstrip": 5476,
      "Ġsoaring": 5477,
      "Ġcurled": 5478,
      "Ġpatterns": 5479,
      "Ġornaments": 5480,
      "Ġsprinkles": 5481,
      "Ġincluded": 5482,
      "Ġtrembling": 5483,
      "annah": 5484,
      "ĠAbigail": 5485,
      "Ġbridges": 5486,
      "Remember": 5487,
      "Somet": 5488,
      "jam": 5489,
      "Ġwid": 5490,
      "Ġlines": 5491,
      "Ġdied": 5492,
      "Ġnicer": 5493,
      "terday": 5494,
      "Ġseagull": 5495,
      "Ġspill": 5496,
      "Ġchases": 5497,
      "Ġpeel": 5498,
      "Ġgrey": 5499,
      "Ġofficer": 5500,
      "Ġpupp": 5501,
      "Ġremove": 5502,
      "Ġrocked": 5503,
      "Ġstole": 5504,
      "Ġrealize": 5505,
      "Ġwaiter": 5506,
      "Ġowned": 5507,
      "Ġsweets": 5508,
      "thank": 5509,
      "Ġsnowball": 5510,
      "Ġrolls": 5511,
      "Ġdoctors": 5512,
      "Ġrockets": 5513,
      "Ġpassing": 5514,
      "Ġprotected": 5515,
      "Ġserved": 5516,
      "Ġlemons": 5517,
      "Ġpancakes": 5518,
      "Ġleader": 5519,
      "Ġunlocked": 5520,
      "Ġwaffles": 5521,
      "...": 5522,
      "Ġbegin": 5523,
      "Ġemergency": 5524,
      "Ġinstructions": 5525,
      "jamas": 5526,
      "Happy": 5527,
      "Luckily": 5528,
      "rin": 5529,
      "Ġbare": 5530,
      "Ġbang": 5531,
      "Ġfet": 5532,
      "ishes": 5533,
      "ĠSund": 5534,
      "imy": 5535,
      "ĠMiss": 5536,
      "Ġann": 5537,
      "Ġarea": 5538,
      "ĠLucky": 5539,
      "Ġbecoming": 5540,
      "ĠCar": 5541,
      "ffic": 5542,
      "ĠGigi": 5543,
      "Ġwaits": 5544,
      "Ġtraffic": 5545,
      "Ġseesaw": 5546,
      "Ġprinter": 5547,
      "Ġsteep": 5548,
      "ults": 5549,
      "Ġpajamas": 5550,
      "Ġclaps": 5551,
      "Ġtasks": 5552,
      "ĠSuzy": 5553,
      "Ġfirefighters": 5554,
      "Ġresponsible": 5555,
      "Ġitems": 5556,
      "Ġoperation": 5557,
      "Ġintroduced": 5558,
      "gers": 5559,
      "son": 5560,
      "Ġlamb": 5561,
      "Ġcakes": 5562,
      "Ġdared": 5563,
      "vers": 5564,
      "Ġsting": 5565,
      "alph": 5566,
      "ĠLizzy": 5567,
      "Ġpearl": 5568,
      "Ġchef": 5569,
      "ÅĵWe": 5570,
      "Ġtastes": 5571,
      "iggy": 5572,
      "Ġplanned": 5573,
      "Ġpigs": 5574,
      "Ġgathering": 5575,
      "Ġsolut": 5576,
      "Ġmountains": 5577,
      "Ġdecorated": 5578,
      "ĠZoe": 5579,
      "Ġwisdom": 5580,
      "Ġpencils": 5581,
      "Ġrubs": 5582,
      "Ġlibrarian": 5583,
      "Ġolives": 5584,
      "ĠBetty": 5585,
      "Ġregretted": 5586,
      "Ġpurred": 5587,
      "lowly": 5588,
      "Ġbookshelf": 5589,
      "First": 5590,
      "Mar": 5591,
      "Mike": 5592,
      "ales": 5593,
      "Ġmater": 5594,
      "ĠHop": 5595,
      "ĠHoppy": 5596,
      "Ġeight": 5597,
      "Ġripe": 5598,
      "addy": 5599,
      "Ġoutdo": 5600,
      "Ġexit": 5601,
      "icky": 5602,
      "Ġvent": 5603,
      "Ġpeppers": 5604,
      "ĠClaire": 5605,
      "Ġteasing": 5606,
      "Ġhardly": 5607,
      "Ġracing": 5608,
      "Ġsinger": 5609,
      "Ġscreams": 5610,
      "Ġbathrobe": 5611,
      "Bobo": 5612,
      "Ġroads": 5613,
      "Ġactiv": 5614,
      "Ġfolded": 5615,
      "Ġcape": 5616,
      "Ġhurried": 5617,
      "Ġloaded": 5618,
      "Ġsighs": 5619,
      "Ġachieve": 5620,
      "Ġfashion": 5621,
      "ĠSunday": 5622,
      "Ġmateri": 5623,
      "Mittens": 5624,
      "ex": 5625,
      "fit": 5626,
      "ĠYes": 5627,
      "Ġwink": 5628,
      "Ġbones": 5629,
      "Ġheel": 5630,
      "ĠTues": 5631,
      "Ġrhythm": 5632,
      "Ġmeow": 5633,
      "Ġhugging": 5634,
      "Ġpoking": 5635,
      "Ġhowever": 5636,
      "Ġpears": 5637,
      "Ġstruck": 5638,
      "Ġimage": 5639,
      "Ġbrand": 5640,
      "ÅĵThank": 5641,
      "ÅĵDon": 5642,
      "acob": 5643,
      "Ġbreaking": 5644,
      "ĠRobby": 5645,
      "Ġcuriosity": 5646,
      "Ġfrosting": 5647,
      "Ġmixing": 5648,
      "Ġwinning": 5649,
      "Goodbye": 5650,
      "Ġentire": 5651,
      "Ġsafer": 5652,
      "âĤ¬âĢĿ": 5653,
      "Ġstealing": 5654,
      "Ġcostumes": 5655,
      "Ġcurly": 5656,
      "Ġencourage": 5657,
      "Ġpadd": 5658,
      "ĠFroggy": 5659,
      "Sometimes": 5660,
      "ĠTuesday": 5661,
      "Bobby": 5662,
      "Ha": 5663,
      "ik": 5664,
      "mallow": 5665,
      "per": 5666,
      "uzz": 5667,
      "zen": 5668,
      "Ġti": 5669,
      "Ġmister": 5670,
      "ayla": 5671,
      "ana": 5672,
      "Ġthro": 5673,
      "Ġhomework": 5674,
      "Ġpeered": 5675,
      "ĠPenny": 5676,
      "ĠGreen": 5677,
      "Ġwondering": 5678,
      "Ġfrozen": 5679,
      "Ġwooden": 5680,
      "oline": 5681,
      "Ġkeys": 5682,
      "Ġcollection": 5683,
      "ĠStop": 5684,
      "Ġpiles": 5685,
      "Ġstudying": 5686,
      "arshmallow": 5687,
      "Ġmemory": 5688,
      "Ġpaddle": 5689,
      "Ġstruggle": 5690,
      "Ġdisagree": 5691,
      "Ġshadows": 5692,
      "Ġladybug": 5693,
      "Ġbillboard": 5694,
      "Ġbarely": 5695,
      "Ġthroat": 5696,
      "George": 5697,
      "Teddy": 5698,
      "iar": 5699,
      "mel": 5700,
      "Ġwiz": 5701,
      "edding": 5702,
      "Ġfara": 5703,
      "itely": 5704,
      "erature": 5705,
      "Ġge": 5706,
      "Ġbend": 5707,
      "Ġbeard": 5708,
      "Ġstare": 5709,
      "ĠMat": 5710,
      "ĠAn": 5711,
      "Ġexact": 5712,
      "Ġknelt": 5713,
      "Ġallow": 5714,
      "Ġclick": 5715,
      "Ġbrushed": 5716,
      "Ġago": 5717,
      "Ġgotten": 5718,
      "Ġdecides": 5719,
      "usted": 5720,
      "ĠDid": 5721,
      "Ġvict": 5722,
      "Ġsorting": 5723,
      "Ġslimy": 5724,
      "Ġunderground": 5725,
      "ĠletÃ¢": 5726,
      "Ġracc": 5727,
      "Ġforgi": 5728,
      "Joey": 5729,
      "ĠDolly": 5730,
      "ĠDoggy": 5731,
      "Ġbeha": 5732,
      "Ġprints": 5733,
      "Ġmatched": 5734,
      "Ġdrinks": 5735,
      "Ġkicking": 5736,
      "Ġspiders": 5737,
      "Ġscru": 5738,
      "Ġtickle": 5739,
      "Ġdinosaurs": 5740,
      "Ġsilence": 5741,
      "Ġrubbing": 5742,
      "Ġmuffins": 5743,
      "Ġtemperature": 5744,
      "Ġapplauded": 5745,
      "Ġseashell": 5746,
      "Ġoutdoors": 5747,
      "Ġfaraway": 5748,
      "Ġraccoon": 5749,
      "Ah": 5750,
      "Mr": 5751,
      "Pete": 5752,
      "pected": 5753,
      "rance": 5754,
      "uly": 5755,
      "Ġmast": 5756,
      "Ġpies": 5757,
      "une": 5758,
      "Ġoutfit": 5759,
      "Ġtheirs": 5760,
      "Ġflat": 5761,
      "Ġknees": 5762,
      "ÅĵCan": 5763,
      "Ġstaying": 5764,
      "Ġdragged": 5765,
      "Ġkeeps": 5766,
      "Ġbedtime": 5767,
      "Ġunex": 5768,
      "Afterwards": 5769,
      "Ġpartic": 5770,
      "Ġbaked": 5771,
      "Ġsitu": 5772,
      "Ġtrips": 5773,
      "Ġreminder": 5774,
      "Ġknights": 5775,
      "Ġsights": 5776,
      "Ġcompetition": 5777,
      "Ġshivered": 5778,
      "Ġsurface": 5779,
      "Ġpupil": 5780,
      "Ġdusty": 5781,
      "Ġreveal": 5782,
      "Annie": 5783,
      "Ġscurried": 5784,
      "Ġbrushes": 5785,
      "Ġsolution": 5786,
      "Ġunexpected": 5787,
      ".'": 5788,
      "hins": 5789,
      "ib": 5790,
      "ody": 5791,
      "Ġ1": 5792,
      "Ġsides": 5793,
      "Ġfir": 5794,
      "Ġheav": 5795,
      "Ġgained": 5796,
      "ided": 5797,
      "iding": 5798,
      "owers": 5799,
      "Ġrelease": 5800,
      "riends": 5801,
      "Ġspike": 5802,
      "Ġexha": 5803,
      "Ġscra": 5804,
      "Ġwhatever": 5805,
      "Ġopin": 5806,
      "ÅĵHello": 5807,
      "ĠRa": 5808,
      "Ġworkers": 5809,
      "Ġzero": 5810,
      "Ġdreamt": 5811,
      "Ġpotion": 5812,
      "Ġhealed": 5813,
      "Ġrainbows": 5814,
      "Andy": 5815,
      "Ġorganizing": 5816,
      "Ġresult": 5817,
      "Ġsafari": 5818,
      "ĠHowever": 5819,
      "Ġstretching": 5820,
      "Ġblows": 5821,
      "Ġdolphins": 5822,
      "Ġbloomed": 5823,
      "Ġpedals": 5824,
      "Ġdiscovering": 5825,
      "Ġlabel": 5826,
      "Ġweeping": 5827,
      "Ġgazed": 5828,
      "ĠJulie": 5829,
      "Ġtravell": 5830,
      "Ġguys": 5831,
      "Ġdemanded": 5832,
      "Ġdirection": 5833,
      "Ġchallenge": 5834,
      "Ġexactly": 5835,
      "James": 5836,
      "bies": 5837,
      "rr": 5838,
      "shing": 5839,
      "vin": 5840,
      "Ġwound": 5841,
      "Ġfart": 5842,
      "Ġpiggy": 5843,
      "Ġinch": 5844,
      "sted": 5845,
      "Ġrele": 5846,
      "Ġloving": 5847,
      "Ġroots": 5848,
      "asp": 5849,
      "Ġranger": 5850,
      "ĠFirst": 5851,
      "Ġtruly": 5852,
      "aura": 5853,
      "Ġgreet": 5854,
      "Ġsnat": 5855,
      "ĠThomas": 5856,
      "Ġcontro": 5857,
      "Ġmonsters": 5858,
      "though": 5859,
      "avi": 5860,
      "ĠwasnÃ¢": 5861,
      "Ġdragons": 5862,
      "Ġwinner": 5863,
      "Ġexpected": 5864,
      "ĠAlways": 5865,
      "Ġchewing": 5866,
      "Ġcovers": 5867,
      "ophia": 5868,
      "Ġstrike": 5869,
      "Ġpunished": 5870,
      "Ġitchy": 5871,
      "Ġkneeled": 5872,
      "Ġcautious": 5873,
      "Ġcrumbs": 5874,
      "Ġparticular": 5875,
      "Ġfirm": 5876,
      "Ġexhausted": 5877,
      "Polly": 5878,
      "lings": 5879,
      "mas": 5880,
      "uri": 5881,
      "Ġtim": 5882,
      "Ġtax": 5883,
      "Ġpist": 5884,
      "ences": 5885,
      "ĠSlowly": 5886,
      "Ġweb": 5887,
      "ĠBy": 5888,
      "Ġliqu": 5889,
      "Ġnoses": 5890,
      "opsy": 5891,
      "Ġflames": 5892,
      "Ġchoo": 5893,
      "Ġvowed": 5894,
      "bbing": 5895,
      "Ġeats": 5896,
      "Ġbudge": 5897,
      "ĠPoppy": 5898,
      "ĠPinky": 5899,
      "Ġcoloring": 5900,
      "Ġwrist": 5901,
      "Ġlistens": 5902,
      "Ġourselves": 5903,
      "Ġsweeties": 5904,
      "Ġrule": 5905,
      "Ġbabies": 5906,
      "Ġdarkness": 5907,
      "Ġpolishing": 5908,
      "Ġguest": 5909,
      "Ġsisters": 5910,
      "Ġhighest": 5911,
      "Ġrelief": 5912,
      "ĠZero": 5913,
      "Ġsilent": 5914,
      "Ġfuzzy": 5915,
      "Ġcountryside": 5916,
      "Ġconfident": 5917,
      "Ġwizard": 5918,
      "Ġtaxi": 5919,
      "Ġpistol": 5920,
      "Ġliquid": 5921,
      "nes": 5922,
      "ossible": 5923,
      "wo": 5924,
      "you": 5925,
      "Ġwedding": 5926,
      "ednes": 5927,
      "Ġtodd": 5928,
      "Ġboo": 5929,
      "Ġbumpy": 5930,
      "Ġcous": 5931,
      "Ġcough": 5932,
      "Ġmice": 5933,
      "Ġpout": 5934,
      "ĠTiny": 5935,
      "isies": 5936,
      "ĠHappy": 5937,
      "Ġbelly": 5938,
      "ĠJudy": 5939,
      "aren": 5940,
      "Ġscoop": 5941,
      "ĠWednes": 5942,
      "Ġgoodnight": 5943,
      "Ġflas": 5944,
      "istmas": 5945,
      "Ġsorted": 5946,
      "Ġslap": 5947,
      "Ġslapped": 5948,
      "aky": 5949,
      "Ġteasp": 5950,
      "Ġimpossible": 5951,
      "Ġconcer": 5952,
      "Ġopening": 5953,
      "Ġplanets": 5954,
      "Ġdeser": 5955,
      "Ġgiggling": 5956,
      "Ġacted": 5957,
      "Ġentrance": 5958,
      "Ġhonk": 5959,
      "Ġflags": 5960,
      "Ġtwirling": 5961,
      "However": 5962,
      "Ġcopy": 5963,
      "Ġmagnets": 5964,
      "Ġstripes": 5965,
      "Ġbumps": 5966,
      "Ġpowers": 5967,
      "cuse": 5968,
      "Ġrepeated": 5969,
      "uctantly": 5970,
      "Ġburrow": 5971,
      "ĠFollow": 5972,
      "Ġstyle": 5973,
      "Ġdaisies": 5974,
      "ĠChristmas": 5975,
      "ĠWednesday": 5976,
      "Ġteaspoon": 5977,
      "Days": 5978,
      "Fr": 5979,
      "Sophie": 5980,
      "bric": 5981,
      "ivery": 5982,
      "njoy": 5983,
      "hee": 5984,
      "Ġast": 5985,
      "Ġhi": 5986,
      "ouch": 5987,
      "Ġcent": 5988,
      "arter": 5989,
      "Ġsobbed": 5990,
      "ĠBoun": 5991,
      "ĠMa": 5992,
      "Ġsmarter": 5993,
      "ĠJamie": 5994,
      "opes": 5995,
      "Ġfever": 5996,
      "Ġmane": 5997,
      "ason": 5998,
      "Ġworries": 5999,
      "Ġfabric": 6000,
      "Ġswooped": 6001,
      "ĠEarth": 6002,
      "obble": 6003,
      "aker": 6004,
      "Ġcomm": 6005,
      "Ġsnugg": 6006,
      "ÅĵMommy": 6007,
      "Ġstolen": 6008,
      "Ġfoods": 6009,
      "Ġyelling": 6010,
      "itches": 6011,
      "Ġcontest": 6012,
      "Ġprinting": 6013,
      "Ġarrive": 6014,
      "Ġmatching": 6015,
      "Ġpointy": 6016,
      "Ġcreating": 6017,
      "angled": 6018,
      "Ġpockets": 6019,
      "Ġexpect": 6020,
      "Ġspraying": 6021,
      "Grace": 6022,
      "Ġmovies": 6023,
      "Ġrescued": 6024,
      "Ġsneaked": 6025,
      "Ġcompletely": 6026,
      "Ġobjects": 6027,
      "Ġmasks": 6028,
      "Ġphotos": 6029,
      "Ġcrowd": 6030,
      "ĠSharing": 6031,
      "ĠRover": 6032,
      "Ġfireworks": 6033,
      "Excuse": 6034,
      "ĠBirdy": 6035,
      "Ġsatisfied": 6036,
      "Ġmineral": 6037,
      "Yeah": 6038,
      "Ġventured": 6039,
      "Ġsnatched": 6040,
      "Alex": 6041,
      "Fred": 6042,
      "Lola": 6043,
      "Un": 6044,
      "cers": 6045,
      "eep": 6046,
      "jo": 6047,
      "sc": 6048,
      "Ëľ": 6049,
      "Ġaff": 6050,
      "Ġsway": 6051,
      "Ġdent": 6052,
      "ĠTess": 6053,
      "ĠTilly": 6054,
      "ĠSure": 6055,
      "ĠyouÃ¢": 6056,
      "Ġwept": 6057,
      "ĠBye": 6058,
      "Ġshined": 6059,
      "Ġboom": 6060,
      "âĤ¬Ëľ": 6061,
      "bbly": 6062,
      "Ġbravery": 6063,
      "ÅĵWhy": 6064,
      "Ġdelivery": 6065,
      "Ġusually": 6066,
      "Ġcracked": 6067,
      "Ġtouching": 6068,
      "Ġstaring": 6069,
      "Ġstarfish": 6070,
      "Ġinviting": 6071,
      "Ġnetwork": 6072,
      "Ġmelting": 6073,
      "Ġseems": 6074,
      "Ġdelivered": 6075,
      "Ġpumpkins": 6076,
      "Ġshivering": 6077,
      "Ġcamping": 6078,
      "Ġherbs": 6079,
      "Ġsiren": 6080,
      "ÅĵDonÃ¢": 6081,
      "Ġtipt": 6082,
      "Ġfarther": 6083,
      "Ġcontrol": 6084,
      "Cl": 6085,
      "Dave": 6086,
      "Ella": 6087,
      "band": 6088,
      "eke": 6089,
      "go": 6090,
      "pite": 6091,
      "ux": 6092,
      "ĠY": 6093,
      "Ġwre": 6094,
      "Ġfreed": 6095,
      "Ġlux": 6096,
      "ern": 6097,
      "cky": 6098,
      "Ġrumble": 6099,
      "Ġonions": 6100,
      "ĠItÃ¢": 6101,
      "Ġseven": 6102,
      "Ġcans": 6103,
      "Ġleather": 6104,
      "elle": 6105,
      "usband": 6106,
      "Ġcatches": 6107,
      "Ġpeaches": 6108,
      "ÅĵOh": 6109,
      "Ġexplorers": 6110,
      "Ġtractor": 6111,
      "aced": 6112,
      "Ġpaintings": 6113,
      "Ġscreaming": 6114,
      "Ġteaches": 6115,
      "Ġcaused": 6116,
      "Ġinterested": 6117,
      "Ġcheering": 6118,
      "Ġspeaking": 6119,
      "Ġclowns": 6120,
      "ĠAnne": 6121,
      "ĠPepper": 6122,
      "Ġunpacked": 6123,
      "Ġnails": 6124,
      "Ġscrews": 6125,
      "Ġsandcastles": 6126,
      "Ġfluttered": 6127,
      "abel": 6128,
      "ĠSuzie": 6129,
      "Ġquacked": 6130,
      "ĠSadly": 6131,
      "Ġvictory": 6132,
      "Ġsituation": 6133,
      "aa": 6134,
      "boo": 6135,
      "een": 6136,
      "uke": 6137,
      "Ġbars": 6138,
      "Ġbunch": 6139,
      "Ġmer": 6140,
      "igning": 6141,
      "Ġrising": 6142,
      "ĠMany": 6143,
      "Ġspong": 6144,
      "ĠJon": 6145,
      "Ġchuck": 6146,
      "Ġstrings": 6147,
      "ĠChe": 6148,
      "Ġforehead": 6149,
      "Ġkeeper": 6150,
      "Ġtowels": 6151,
      "Ġruin": 6152,
      "Ġreluctantly": 6153,
      "Ġpatience": 6154,
      "Ġgrowling": 6155,
      "Ġsupplies": 6156,
      "Ġcelebration": 6157,
      "Ġprayer": 6158,
      "Ġdetermination": 6159,
      "Ġhorns": 6160,
      "Ġreply": 6161,
      "Ġinclude": 6162,
      "Ġdiscussed": 6163,
      "Ġribbons": 6164,
      "Ġgaze": 6165,
      "Tweety": 6166,
      "ĠUnfortunately": 6167,
      "urious": 6168,
      "Ġtiptoed": 6169,
      "Even": 6170,
      "Fin": 6171,
      "Henry": 6172,
      "Kate": 6173,
      "Sad": 6174,
      "Ġcash": 6175,
      "Ġcott": 6176,
      "ords": 6177,
      "Ġstern": 6178,
      "Ġplenty": 6179,
      "Ġsoak": 6180,
      "Ġsoaked": 6181,
      "Ġlied": 6182,
      "Ġscient": 6183,
      "ĠFriends": 6184,
      "Ġknowled": 6185,
      "Ġsnuck": 6186,
      "Ġsnakes": 6187,
      "ĠJacky": 6188,
      "Ġgrant": 6189,
      "ÅĵThis": 6190,
      "Ġcolored": 6191,
      "Ġwritten": 6192,
      "ĠNick": 6193,
      "Ġyells": 6194,
      "Ġpretends": 6195,
      "Ġtails": 6196,
      "Ġpatted": 6197,
      "Ġmarked": 6198,
      "Ġmarriage": 6199,
      "Ġbowls": 6200,
      "Ġreaching": 6201,
      "Ġneighbours": 6202,
      "Ġforgetting": 6203,
      "Ġmarkers": 6204,
      "Ġcoloured": 6205,
      "ĠOut": 6206,
      "Ġpassen": 6207,
      "Ġdiving": 6208,
      "Ġprotecting": 6209,
      "Ġwipes": 6210,
      "Ġadding": 6211,
      "Ġindeed": 6212,
      "Ġrecorded": 6213,
      "Ġarrows": 6214,
      "Ġimproved": 6215,
      "Ġseconds": 6216,
      "Ġintroduce": 6217,
      "Ġgroceries": 6218,
      "Ġhesitated": 6219,
      "Ġannoy": 6220,
      "Ġactivities": 6221,
      "ĠRabbit": 6222,
      "Ġreleased": 6223,
      "Ġcautiously": 6224,
      "Ġtimer": 6225,
      "Ġscientist": 6226,
      "Ġknowledge": 6227,
      "ury": 6228,
      "Ġtour": 6229,
      "Ġhoo": 6230,
      "Ġhusband": 6231,
      "Ġwasted": 6232,
      "Ġglee": 6233,
      "ĠSunny": 6234,
      "llen": 6235,
      "Ġshock": 6236,
      "Ġnect": 6237,
      "ĠAbbie": 6238,
      "icorn": 6239,
      "?\"\",": 6240,
      "ĠJacob": 6241,
      "Ġscales": 6242,
      "ĠWatch": 6243,
      "Ġfault": 6244,
      "Ġswirl": 6245,
      "Ġblink": 6246,
      "Ġwilling": 6247,
      "iley": 6248,
      "Ġfoc": 6249,
      "oys": 6250,
      "Ġunicorn": 6251,
      "ĠGr": 6252,
      "Ġcloses": 6253,
      "Ġreplaced": 6254,
      "Ġrainco": 6255,
      "Ġarr": 6256,
      "Ġsingle": 6257,
      "Ġresting": 6258,
      "Ġrestored": 6259,
      "Ġhides": 6260,
      "Ġmuscle": 6261,
      "Ġpots": 6262,
      "hog": 6263,
      "Ġdesert": 6264,
      "Ġwraps": 6265,
      "ĠOllie": 6266,
      "Ġgracefully": 6267,
      "Ġscratches": 6268,
      "Ġhedgehog": 6269,
      "Ġavoid": 6270,
      "ĠRobbie": 6271,
      "Ġstomped": 6272,
      "Ġtwinkle": 6273,
      "ĠGoodbye": 6274,
      "Ġperforman": 6275,
      "Ġfamilies": 6276,
      "Ġfetch": 6277,
      "Ġscrubbed": 6278,
      "Ġsponge": 6279,
      "Ġnectar": 6280,
      "Ġraincoat": 6281,
      "Maggie": 6282,
      "Uh": 6283,
      "lay": 6284,
      "oh": 6285,
      "pare": 6286,
      "zes": 6287,
      "Ġty": 6288,
      "Ġwobble": 6289,
      "Ġdipped": 6290,
      "Ġpause": 6291,
      "aty": 6292,
      "Ġaren": 6293,
      "urry": 6294,
      "ica": 6295,
      "asm": 6296,
      "Ġlearns": 6297,
      "maid": 6298,
      "Ġtramp": 6299,
      "Ġtexture": 6300,
      "ĠPut": 6301,
      "Ġunf": 6302,
      "Ġunited": 6303,
      "ĠGary": 6304,
      "Ġsmiley": 6305,
      "Ġdef": 6306,
      "Ġdeal": 6307,
      "Ġbuying": 6308,
      "Ġthreat": 6309,
      "Ġprincesses": 6310,
      "Ġnapkins": 6311,
      "ĠwouldnÃ¢": 6312,
      "Ġactions": 6313,
      "izzie": 6314,
      "Ġpleasure": 6315,
      "Ġpoliceman": 6316,
      "Ġradishes": 6317,
      "ĠBuzzy": 6318,
      "Ġrecording": 6319,
      "rops": 6320,
      "Ġsneaky": 6321,
      "Ġsausages": 6322,
      "Charlie": 6323,
      "Ġstroll": 6324,
      "Ġstroked": 6325,
      "ĠJulia": 6326,
      "Ġdrifted": 6327,
      "Ġtoddler": 6328,
      "Ġdentist": 6329,
      "Ġmermaid": 6330,
      "Ġchuckled": 6331,
      "Ġtrampoline": 6332,
      "Mrs": 6333,
      "Rose": 6334,
      "die": 6335,
      "sure": 6336,
      "Ġtuck": 6337,
      "Ġtangled": 6338,
      "Ġwow": 6339,
      "Ġdam": 6340,
      "Ġmi": 6341,
      "Ġmarshmallow": 6342,
      "esome": 6343,
      "Ġweeke": 6344,
      "indrops": 6345,
      "ĠJessie": 6346,
      "Ġbacked": 6347,
      "Ġnodd": 6348,
      "ickey": 6349,
      "Ġsomebody": 6350,
      "Ġstartled": 6351,
      "Ġfaced": 6352,
      "iece": 6353,
      "ĠEnjoy": 6354,
      "ĠFor": 6355,
      "Ġsled": 6356,
      "Ġhandful": 6357,
      "Ġraindrops": 6358,
      "Ġshoulders": 6359,
      "ĠPo": 6360,
      "ĠPipp": 6361,
      "Ġuses": 6362,
      "Ġcuts": 6363,
      "Ġdarker": 6364,
      "Ġdrives": 6365,
      "Ġhider": 6366,
      "Ġcreamy": 6367,
      "Ġmisses": 6368,
      "Ġpaths": 6369,
      "ĠOt": 6370,
      "ĠOw": 6371,
      "Ġcelebrating": 6372,
      "Ġtested": 6373,
      "Ġvalued": 6374,
      "Ġcrabs": 6375,
      "Ġcandies": 6376,
      "Ġtickled": 6377,
      "Grandpa": 6378,
      "Ġsquares": 6379,
      "Ġforks": 6380,
      "Ġbatteries": 6381,
      "Ġtempt": 6382,
      "Ġtricky": 6383,
      "Ġawake": 6384,
      "Ġagrees": 6385,
      "Shh": 6386,
      "Ġwiggled": 6387,
      "Ġhesitant": 6388,
      "ĠOlive": 6389,
      "Ġlungs": 6390,
      "Ġcalmed": 6391,
      "Ġaccomplish": 6392,
      "Ġpaddled": 6393,
      "Ġafford": 6394,
      "Ġperformance": 6395,
      "Ġmarshmallows": 6396,
      "Ġweekend": 6397,
      "?'": 6398,
      "Bet": 6399,
      "Ducky": 6400,
      "blings": 6401,
      "cake": 6402,
      "pit": 6403,
      "sie": 6404,
      "tuce": 6405,
      "Ġsense": 6406,
      "Ġnine": 6407,
      "Ġthird": 6408,
      "Ġropes": 6409,
      "Ġplayers": 6410,
      "Ġwears": 6411,
      "ĠBo": 6412,
      "itted": 6413,
      "Ġkites": 6414,
      "ĠMel": 6415,
      "Ġseals": 6416,
      "Ġgoals": 6417,
      "inda": 6418,
      "ĠcanÃ¢": 6419,
      "umm": 6420,
      "Ġrobb": 6421,
      "ĠWater": 6422,
      "ĠLaura": 6423,
      "ĠEl": 6424,
      "Ġglitter": 6425,
      "Ġlettuce": 6426,
      "Ġrail": 6427,
      "Ġremoved": 6428,
      "Ġjoking": 6429,
      "Ġowners": 6430,
      "Ġblocking": 6431,
      "Ġruining": 6432,
      "Ġbehavi": 6433,
      "Ġsquish": 6434,
      "ĠJohnson": 6435,
      "Ġreads": 6436,
      "Ġtallest": 6437,
      "ĠKayla": 6438,
      "Ġyesterday": 6439,
      "Ġsigned": 6440,
      "Ġsecure": 6441,
      "brush": 6442,
      "Ġpacking": 6443,
      "ments": 6444,
      "Ġbuckets": 6445,
      "Ġgrandpare": 6446,
      "ĠOwl": 6447,
      "ĠBeing": 6448,
      "Ġborrowed": 6449,
      "Ġpeeking": 6450,
      "Ġblooming": 6451,
      "Ġbreathed": 6452,
      "Ġgiraff": 6453,
      "Ġawesome": 6454,
      "Ġartist": 6455,
      "Ġseason": 6456,
      "Ġsiblings": 6457,
      "ĠUncle": 6458,
      "Ġmaterials": 6459,
      "Ġforgiven": 6460,
      "Ġopinion": 6461,
      "Ġconcert": 6462,
      "Ġsnuggle": 6463,
      "Ġgiraffes": 6464,
      "Boo": 6465,
      "Jul": 6466,
      "Paul": 6467,
      "Wh": 6468,
      "bird": 6469,
      "dies": 6470,
      "iel": 6471,
      "tle": 6472,
      "Ġtig": 6473,
      "Ġlower": 6474,
      "Ġocc": 6475,
      "oni": 6476,
      "Ġech": 6477,
      "Ġeast": 6478,
      "Ġrisk": 6479,
      "Ġbead": 6480,
      "Ġyouth": 6481,
      "ĠBoth": 6482,
      "Ġnotes": 6483,
      "ĠMaddy": 6484,
      "Ġrepa": 6485,
      "idey": 6486,
      "Ġloops": 6487,
      "Ġleast": 6488,
      "ashed": 6489,
      "Ġlap": 6490,
      "Ġyourselves": 6491,
      "Ġdads": 6492,
      "ĠFar": 6493,
      "Ġskill": 6494,
      "Ġbully": 6495,
      "Ġsnail": 6496,
      "emma": 6497,
      "Ġdollars": 6498,
      "ĠPrin": 6499,
      "Ġunsure": 6500,
      "ĠGet": 6501,
      "Ġimportance": 6502,
      "Ġgrassy": 6503,
      "Ġmagician": 6504,
      "Ġtablet": 6505,
      "ĠFlopsy": 6506,
      "Ġmarks": 6507,
      "Ġmiles": 6508,
      "Ġzookeeper": 6509,
      "Ġsplashes": 6510,
      "Ġscaring": 6511,
      "Ġscarves": 6512,
      "Ġembarrass": 6513,
      "Ġhonked": 6514,
      "Ġseeker": 6515,
      "Ġsource": 6516,
      "Ġsquealed": 6517,
      "Ġlogs": 6518,
      "Ġswans": 6519,
      "Ġjackets": 6520,
      "Ġcushions": 6521,
      "Ġlollipops": 6522,
      "Ġhallway": 6523,
      "Ġfluttering": 6524,
      "Ġtwinkling": 6525,
      "Ġincrease": 6526,
      "Leo": 6527,
      "Ġbeginning": 6528,
      "Maria": 6529,
      "melia": 6530,
      "Ġcousin": 6531,
      "Ġluxury": 6532,
      "Ġcashier": 6533,
      "Ġmixture": 6534,
      "Ġtigers": 6535,
      "Ġrepaired": 6536,
      "Bl": 6537,
      "Gre": 6538,
      "Run": 6539,
      "Sandy": 6540,
      "Toby": 6541,
      "rig": 6542,
      "uzzy": 6543,
      "Ġcause": 6544,
      "Ġden": 6545,
      "iled": 6546,
      "ĠSmo": 6547,
      "ans": 6548,
      "ira": 6549,
      "ĠBinky": 6550,
      "Ġreass": 6551,
      "Ġlosing": 6552,
      "ĠJune": 6553,
      "aret": 6554,
      "Ġchop": 6555,
      "Ġchips": 6556,
      "Ġslam": 6557,
      "Those": 6558,
      "Ġteles": 6559,
      "ÅĵDo": 6560,
      "Ġdrawn": 6561,
      "Ġrocking": 6562,
      "Ġremembering": 6563,
      "Ġusual": 6564,
      "ĠRalph": 6565,
      "Ġworker": 6566,
      "Ġsticking": 6567,
      "ĠNora": 6568,
      "Ġamount": 6569,
      "Ġtricked": 6570,
      "Ġfilling": 6571,
      "Ġslower": 6572,
      "Ġfairies": 6573,
      "ĠKeep": 6574,
      "Ġhealth": 6575,
      "Ġhopeful": 6576,
      "Ġshrinking": 6577,
      "Ġfolding": 6578,
      "ĠBecky": 6579,
      "Ġdrums": 6580,
      "ĠZara": 6581,
      "Ġpaying": 6582,
      "Ġwandering": 6583,
      "Ġknocks": 6584,
      "Ġhelmets": 6585,
      "Ġsymbols": 6586,
      "Ġencourag": 6587,
      "Ġshelves": 6588,
      "Ġcheeks": 6589,
      "ÅĵYouÃ¢": 6590,
      "Ġwiggle": 6591,
      "Ġachieved": 6592,
      "Roar": 6593,
      "ĠQuick": 6594,
      "Ġpuppies": 6595,
      "iki": 6596,
      "Ġscraped": 6597,
      "Ġdeserve": 6598,
      "Ġtelescope": 6599,
      "An": 6600,
      "By": 6601,
      "Bad": 6602,
      "Claire": 6603,
      "During": 6604,
      "Katie": 6605,
      "Millie": 6606,
      "Tina": 6607,
      "cited": 6608,
      "nk": 6609,
      "hello": 6610,
      "Ġtiss": 6611,
      "Ġaud": 6612,
      "Ġwest": 6613,
      "Ġlimes": 6614,
      "Ġdie": 6615,
      "Ġdots": 6616,
      "Ġsank": 6617,
      "ĠSophia": 6618,
      "ĠHannah": 6619,
      "Ġstitches": 6620,
      "ades": 6621,
      "Ġplaytime": 6622,
      "allowed": 6623,
      "Ġneither": 6624,
      "Ġexcept": 6625,
      "ĠJan": 6626,
      "ops": 6627,
      "Ġfears": 6628,
      "Ġroars": 6629,
      "ĠLuckily": 6630,
      "ĠListen": 6631,
      "Ġswallowed": 6632,
      "Ġblast": 6633,
      "Ġtwenty": 6634,
      "Ġuntie": 6635,
      "Ġadult": 6636,
      "ĠPandy": 6637,
      "Ġconn": 6638,
      "Ġafterwards": 6639,
      "ths": 6640,
      "Ġparties": 6641,
      "ĠEmmy": 6642,
      "Ġtalks": 6643,
      "Ġpolished": 6644,
      "Ġproject": 6645,
      "Ġnaps": 6646,
      "Ġmarker": 6647,
      "Ġresults": 6648,
      "Ġcoral": 6649,
      "ĠZoomy": 6650,
      "Ġtunnels": 6651,
      "Ġwishing": 6652,
      "Ġcorners": 6653,
      "Ġzipping": 6654,
      "Ġresisted": 6655,
      "Ġdelivering": 6656,
      "ronaut": 6657,
      "Ġcomplained": 6658,
      "Ġrewarded": 6659,
      "Ġexperi": 6660,
      "Ġburst": 6661,
      "Ġtraveled": 6662,
      "Ġsports": 6663,
      "Ġgrowls": 6664,
      "Ġrusty": 6665,
      "Ġsnowballs": 6666,
      "Ġgeese": 6667,
      "ĠMatt": 6668,
      "Ġpouted": 6669,
      "Ġastronaut": 6670,
      "Unfortunately": 6671,
      "rigued": 6672,
      "Danny": 6673,
      "For": 6674,
      "Have": 6675,
      "Pe": 6676,
      "Some": 6677,
      "fire": 6678,
      "ippy": 6679,
      "lves": 6680,
      "Ġwins": 6681,
      "Ġhitting": 6682,
      "\"\"\"": 6683,
      "immer": 6684,
      "order": 6685,
      "Ġinsp": 6686,
      "Ġrings": 6687,
      "Ġstem": 6688,
      "river": 6689,
      "ados": 6690,
      "choo": 6691,
      "endy": 6692,
      "ĠJay": 6693,
      "Ġleap": 6694,
      "Ġcoach": 6695,
      "ĠLinda": 6696,
      "Ġtreehouse": 6697,
      "aula": 6698,
      "Ġslices": 6699,
      "Ġquilt": 6700,
      "Ġstays": 6701,
      "aste": 6702,
      "Ġwindy": 6703,
      "ĠSpidey": 6704,
      "Ġargu": 6705,
      "Ġbeloved": 6706,
      "Ġsteer": 6707,
      "ĠFlora": 6708,
      "Ġfoxes": 6709,
      "Ġplans": 6710,
      "Ġchoices": 6711,
      "Ġrespond": 6712,
      "ĠThanks": 6713,
      "Ġwrapping": 6714,
      "Ġmatters": 6715,
      "Ġsalty": 6716,
      "Ġpans": 6717,
      "ĠLeave": 6718,
      "Meow": 6719,
      "Ġsuggest": 6720,
      "Ġperforming": 6721,
      "Ġleaning": 6722,
      "Ġbasement": 6723,
      "Ġseparated": 6724,
      "Ġavocados": 6725,
      "Ġrepeats": 6726,
      "Ġinstrum": 6727,
      "Ġsewed": 6728,
      "Ġfamiliar": 6729,
      "ĠNothing": 6730,
      "Ġchefs": 6731,
      "Ġwreck": 6732,
      "Ġpassengers": 6733,
      "Ġarranged": 6734,
      "ĠPippin": 6735,
      "Ġaccomplishment": 6736,
      "Ġaudience": 6737,
      "Ġarguing": 6738,
      "Car": 6739,
      "Our": 6740,
      "Whee": 6741,
      "abby": 6742,
      "cl": 6743,
      "ded": 6744,
      "no": 6745,
      "wk": 6746,
      "yan": 6747,
      "Ġlined": 6748,
      "Ġcust": 6749,
      "Ġmes": 6750,
      "ĠTwo": 6751,
      "Ġoh": 6752,
      "Ġgest": 6753,
      "Ġhawk": 6754,
      "Ġrus": 6755,
      "Ġstool": 6756,
      "Ġyounger": 6757,
      "step": 6758,
      "ĠBaa": 6759,
      "ĠMickey": 6760,
      "Ġgobbled": 6761,
      "Ġworn": 6762,
      "Ġcond": 6763,
      "Ġflapping": 6764,
      "ĠLuke": 6765,
      "essica": 6766,
      "retty": 6767,
      "Ġintrigued": 6768,
      "Ġpebbles": 6769,
      "ÅĵMom": 6770,
      "ÅĵMy": 6771,
      "Ġdancers": 6772,
      "Ġbelts": 6773,
      "Ġcolder": 6774,
      "umbling": 6775,
      "Ġexpress": 6776,
      "Ġwarri": 6777,
      "Ġacting": 6778,
      "Ġhoriz": 6779,
      "Ġrecorder": 6780,
      "Ġbanged": 6781,
      "Ġcrossing": 6782,
      "ĠStar": 6783,
      "Ġexamining": 6784,
      "Ġglasses": 6785,
      "Ġedges": 6786,
      "Ġerase": 6787,
      "weed": 6788,
      "Ġoysters": 6789,
      "Ġsurrendered": 6790,
      "Ġprovided": 6791,
      "Ġsuffered": 6792,
      "Ġpresses": 6793,
      "Chloe": 6794,
      "Ġlicking": 6795,
      "Ġincluding": 6796,
      "Ġfirefighter": 6797,
      "Ġdirect": 6798,
      "Ġwarnings": 6799,
      "Ġflavor": 6800,
      "Ġswimsuit": 6801,
      "Ġheavier": 6802,
      "Ġsquishy": 6803,
      "Ġoccas": 6804,
      "Ġechoed": 6805,
      "Ġbeads": 6806,
      "Ġcustom": 6807,
      "Ġmesmer": 6808,
      "Bunny": 6809,
      "Ew": 6810,
      "Hannah": 6811,
      "Milly": 6812,
      "Rachel": 6813,
      "Tr": 6814,
      "Time": 6815,
      "aven": 6816,
      "bro": 6817,
      "eal": 6818,
      "ibbit": 6819,
      "ple": 6820,
      "tier": 6821,
      "vest": 6822,
      "yes": 6823,
      "Ġtil": 6824,
      "Ġhour": 6825,
      "Ġwadd": 6826,
      "\"\".\"": 6827,
      "Ġsale": 6828,
      "ĠSim": 6829,
      "ĠSleep": 6830,
      "onies": 6831,
      "irts": 6832,
      "Ġrip": 6833,
      "Ġhissed": 6834,
      "ntil": 6835,
      "sequ": 6836,
      "Ġrefu": 6837,
      "ĠAbby": 6838,
      "ĠAmelia": 6839,
      "Ġflight": 6840,
      "Ġflipped": 6841,
      "ĠLizzie": 6842,
      "Ġswords": 6843,
      "Ġeverybody": 6844,
      "using": 6845,
      "Ġpecked": 6846,
      "Ġtwice": 6847,
      "Ġprettier": 6848,
      "ĠEverybody": 6849,
      "Ġteased": 6850,
      "Ġconsequ": 6851,
      "Ġcrew": 6852,
      "Ġcreations": 6853,
      "Ġhandsome": 6854,
      "ĠSpark": 6855,
      "ĠNina": 6856,
      "Ġdresser": 6857,
      "Ġsteady": 6858,
      "Ġelf": 6859,
      "Ġsailors": 6860,
      "ĠwonÃ¢": 6861,
      "Ġplanning": 6862,
      "Ġwinked": 6863,
      "Ġseaweed": 6864,
      "Ġmints": 6865,
      "Ġpops": 6866,
      "ĠWithout": 6867,
      "Ġfeeding": 6868,
      "Ġvanish": 6869,
      "Ġsneezing": 6870,
      "ĠSnap": 6871,
      "Ġsniffs": 6872,
      "ÅĵWhatÃ¢": 6873,
      "Ġcampfire": 6874,
      "Ġwires": 6875,
      "Ġlanguages": 6876,
      "Ġobserved": 6877,
      "Ġsuperheroes": 6878,
      "Ġvideos": 6879,
      "ably": 6880,
      "ĠFox": 6881,
      "ĠQuack": 6882,
      "Ġwidened": 6883,
      "ĠPrincess": 6884,
      "Ġwarrior": 6885,
      "Ġhorizon": 6886,
      "Bun": 6887,
      "Harry": 6888,
      "Jamie": 6889,
      "Like": 6890,
      "cter": 6891,
      "driver": 6892,
      "now": 6893,
      "oss": 6894,
      "Ġaimed": 6895,
      "eds": 6896,
      "Ġtouc": 6897,
      "initely": 6898,
      "Ġmerry": 6899,
      "Ġponies": 6900,
      "Ġopp": 6901,
      "arling": 6902,
      "ids": 6903,
      "ĠSal": 6904,
      "ĠSque": 6905,
      "ann": 6906,
      "Ġthorn": 6907,
      "lect": 6908,
      "Ġplayroom": 6909,
      "ĠBee": 6910,
      "child": 6911,
      "Ġshoo": 6912,
      "Ġneare": 6913,
      "Ġfeast": 6914,
      "ept": 6915,
      "Ġchip": 6916,
      "Ġswept": 6917,
      "Ġgrabbing": 6918,
      "Ġpeck": 6919,
      "Ġslither": 6920,
      "obody": 6921,
      "ĠJojo": 6922,
      "Ġadults": 6923,
      "Ġbraver": 6924,
      "Ġwobbly": 6925,
      "ÅĵCome": 6926,
      "Ġfinal": 6927,
      "ipes": 6928,
      "ĠPudd": 6929,
      "Ġnearly": 6930,
      "Ġache": 6931,
      "ĠNana": 6932,
      "athan": 6933,
      "Ġfroze": 6934,
      "Ġcreativ": 6935,
      "Ġcupcakes": 6936,
      "Ġmailed": 6937,
      "Ġimagining": 6938,
      "Ġgrandchild": 6939,
      "Ġpeacefully": 6940,
      "ĠOur": 6941,
      "Ġpours": 6942,
      "Ġmotion": 6943,
      "Ġbells": 6944,
      "Ġgenie": 6945,
      "Ġpraying": 6946,
      "ĠZip": 6947,
      "Ġleads": 6948,
      "Ġvanilla": 6949,
      "Ġsuits": 6950,
      "ĠBluey": 6951,
      "Ġthud": 6952,
      "Ġpedaled": 6953,
      "Ġmushrooms": 6954,
      "ĠMikey": 6955,
      "Ġscrewdriver": 6956,
      "Ġbuzzed": 6957,
      "Ġsurroundings": 6958,
      "Ġrequested": 6959,
      "Ġcobwebs": 6960,
      "Ġrecommended": 6961,
      "ĠRobin": 6962,
      "Ġefforts": 6963,
      "Ġincreased": 6964,
      "Ġperformed": 6965,
      "Ġbehaved": 6966,
      "Ġseashells": 6967,
      "Ġfirmly": 6968,
      "Ġguests": 6969,
      "Ġcommun": 6970,
      "ĠGranny": 6971,
      "Ġdefinitely": 6972,
      "Ġnodding": 6973,
      "Ġencouraging": 6974,
      "Ġconsequences": 6975,
      "Ġcreativity": 6976,
      "--": 6977,
      "Dan": 6978,
      "Fine": 6979,
      "Nemo": 6980,
      "ae": 6981,
      "ew": 6982,
      "eel": 6983,
      "father": 6984,
      "gain": 6985,
      "ky": 6986,
      "vas": 6987,
      "int": 6988,
      "itude": 6989,
      "Ġdot": 6990,
      "Ġdarling": 6991,
      "Ġmunch": 6992,
      "ĠTe": 6993,
      "ĠTake": 6994,
      "ility": 6995,
      "Ġgross": 6996,
      "ĠSun": 6997,
      "ley": 6998,
      "Ġbeam": 6999,
      "Ġstair": 7000,
      "ĠMon": 7001,
      "ĠMila": 7002,
      "Ġreason": 7003,
      "Ġspy": 7004,
      "Ġspook": 7005,
      "Ġspikes": 7006,
      "Ġspills": 7007,
      "icia": 7008,
      "Ġhelpers": 7009,
      "Ġbackwards": 7010,
      "Ġnoon": 7011,
      "Ġscamp": 7012,
      "Ġscored": 7013,
      "Ġroses": 7014,
      "Ġmeals": 7015,
      "Ġcoc": 7016,
      "Ġflown": 7017,
      "Ġflips": 7018,
      "Ġchara": 7019,
      "ĠEx": 7020,
      "ĠFuzzy": 7021,
      "Ġpose": 7022,
      "Ġposit": 7023,
      "Ġexplo": 7024,
      "Ġglued": 7025,
      "ÅĵNow": 7026,
      "Ġbadge": 7027,
      "ĠGemma": 7028,
      "Ġstrongest": 7029,
      "acy": 7030,
      "Ġheading": 7031,
      "Ġstorekeeper": 7032,
      "Ġdrawers": 7033,
      "Ġfills": 7034,
      "ggies": 7035,
      "Ġveggies": 7036,
      "Ġvisitor": 7037,
      "Ġpennies": 7038,
      "anging": 7039,
      "Ġattack": 7040,
      "Ġrivers": 7041,
      "Ġlifts": 7042,
      "Ġlifting": 7043,
      "Ġgrandfather": 7044,
      "ĠAlthough": 7045,
      "Ġwiping": 7046,
      "Ġpanick": 7047,
      "Ġnervously": 7048,
      "Ġpizzas": 7049,
      "Ġclearly": 7050,
      "ĠStay": 7051,
      "Ġpostman": 7052,
      "Ġsurfboard": 7053,
      "rnie": 7054,
      "Ġappreciated": 7055,
      "Ġzebras": 7056,
      "ĠRoger": 7057,
      "Ġdelayed": 7058,
      "Ġrefreshing": 7059,
      "Ġcomplaining": 7060,
      "ĠVroom": 7061,
      "ĠDaniel": 7062,
      "Ġaccomplished": 7063,
      "Ġbehaving": 7064,
      "ibly": 7065,
      "Ġtravelled": 7066,
      "Betty": 7067,
      "Ġgrandparents": 7068,
      "ĠFarmer": 7069,
      "Ġtissue": 7070,
      "broken": 7071,
      "Ġtouches": 7072,
      "Ġspooky": 7073,
      "Ġscampered": 7074,
      "Ġcharacter": 7075,
      "Ab": 7076,
      "Buddy": 7077,
      "Ralph": 7078,
      "belle": 7079,
      "found": 7080,
      "oc": 7081,
      "the": 7082,
      "va": 7083,
      "wise": 7084,
      "Ġ2": 7085,
      "Ġting": 7086,
      "Ġtying": 7087,
      "Ġfaded": 7088,
      "ition": 7089,
      "Ġlent": 7090,
      "Ġdet": 7091,
      "atur": 7092,
      "atul": 7093,
      "veral": 7094,
      "Ġev": 7095,
      "rie": 7096,
      "Ġdod": 7097,
      "ĠMouse": 7098,
      "Ġseveral": 7099,
      "Ġcanvas": 7100,
      "romise": 7101,
      "Ġbru": 7102,
      "Ġfact": 7103,
      "Ġflick": 7104,
      "ĠLarry": 7105,
      "plash": 7106,
      "ĠFire": 7107,
      "Ġsunsc": 7108,
      "Ġhanding": 7109,
      "Ġends": 7110,
      "Ġcheers": 7111,
      "Ġwobbled": 7112,
      "ÅĵHi": 7113,
      "Ġdances": 7114,
      "Ġconvers": 7115,
      "Ġwrink": 7116,
      "Ġunw": 7117,
      "ĠRemember": 7118,
      "ĠRiley": 7119,
      "ĠRyan": 7120,
      "Ġdressing": 7121,
      "Ġwarmly": 7122,
      "Ġlighter": 7123,
      "Ġbows": 7124,
      "Ġsnowmen": 7125,
      "Ġtables": 7126,
      "asha": 7127,
      "ĠKaren": 7128,
      "Ġelbow": 7129,
      "Ġpolitely": 7130,
      "uggy": 7131,
      "Ġprove": 7132,
      "Ġspoonful": 7133,
      "Ġbaskets": 7134,
      "Ġfits": 7135,
      "Ġimages": 7136,
      "Ġkicks": 7137,
      "Ġcowb": 7138,
      "Ġdived": 7139,
      "Ġantic": 7140,
      "Ġrecipe": 7141,
      "Ġleading": 7142,
      "Ġdesigned": 7143,
      "Ġsurfing": 7144,
      "Ġenthusi": 7145,
      "Ġfirefly": 7146,
      "Ġsprinkled": 7147,
      "Ġemerged": 7148,
      "Ġpunishment": 7149,
      "Ġtalented": 7150,
      "Ġtravelling": 7151,
      "Ġgreeted": 7152,
      "ĠBouncy": 7153,
      "Clara": 7154,
      "Ġfreedom": 7155,
      "Ġgranted": 7156,
      "Ġinstruments": 7157,
      "Ġrushing": 7158,
      "Ġdirections": 7159,
      "Ġoccasion": 7160,
      "Ġsunscreen": 7161,
      "Any": 7162,
      "Back": 7163,
      "Dear": 7164,
      "Fo": 7165,
      "Jerry": 7166,
      "Lilly": 7167,
      "Nina": 7168,
      "Ru": 7169,
      "Su": 7170,
      "Santa": 7171,
      "Tony": 7172,
      "Yummy": 7173,
      "ael": 7174,
      "baby": 7175,
      "emy": 7176,
      "ollen": 7177,
      "Ġtar": 7178,
      "Ġties": 7179,
      "Ġfant": 7180,
      "inger": 7181,
      "idence": 7182,
      "ena": 7183,
      "ĠSorry": 7184,
      "ancy": 7185,
      "onnie": 7186,
      "lle": 7187,
      "ĠHolly": 7188,
      "ooking": 7189,
      "oosh": 7190,
      "ighing": 7191,
      "Ġrin": 7192,
      "rick": 7193,
      "Ġsofter": 7194,
      "ĠthatÃ¢": 7195,
      "Ġweeds": 7196,
      "storm": 7197,
      "ĠBessie": 7198,
      "elve": 7199,
      "unched": 7200,
      "Ġshall": 7201,
      "ugs": 7202,
      "Ġloc": 7203,
      "Ġbodies": 7204,
      "Ġjugg": 7205,
      "ĠAny": 7206,
      "Ġspices": 7207,
      "Ġmanag": 7208,
      "ĠWendy": 7209,
      "Ġtreated": 7210,
      "Ġage": 7211,
      "Ġswollen": 7212,
      "Ġdecl": 7213,
      "ĠDin": 7214,
      "Ġthoughts": 7215,
      "Ġtweet": 7216,
      "Ġwatering": 7217,
      "Ġenemy": 7218,
      "Ġovercome": 7219,
      "Ġsnort": 7220,
      "Ġbravest": 7221,
      "ÅĵHey": 7222,
      "aster": 7223,
      "Ġdollhouse": 7224,
      "ĠRicky": 7225,
      "Ġcouple": 7226,
      "ĠAsh": 7227,
      "Ġsmelling": 7228,
      "ichael": 7229,
      "Ġjud": 7230,
      "Ġjoyful": 7231,
      "Ġjobs": 7232,
      "Ġheartbroken": 7233,
      "Ġcaw": 7234,
      "Ġcausing": 7235,
      "Ġhonking": 7236,
      "ĠAli": 7237,
      "Ġaddress": 7238,
      "Ġsunflowers": 7239,
      "years": 7240,
      "Ġgems": 7241,
      "ĠFinny": 7242,
      "Ġbreathing": 7243,
      "Ġfilms": 7244,
      "ĠUntil": 7245,
      "Ġinsisting": 7246,
      "Ġpassports": 7247,
      "Ġpurr": 7248,
      "Ġadmiration": 7249,
      "Ġspits": 7250,
      "Tweetie": 7251,
      "ĠFrog": 7252,
      "Ġdiscussing": 7253,
      "Ġcubes": 7254,
      "Ġpuppet": 7255,
      "perate": 7256,
      "rrr": 7257,
      "Ġfocused": 7258,
      "Ġbehavior": 7259,
      "Ġresponded": 7260,
      "Ġgesture": 7261,
      "Ġrefuse": 7262,
      "eeling": 7263,
      "Ġenthusiasm": 7264,
      "Ġfantastic": 7265,
      "Baby": 7266,
      "Cindy": 7267,
      "Karen": 7268,
      "May": 7269,
      "Maddy": 7270,
      "Tilly": 7271,
      "belt": 7272,
      "bage": 7273,
      "fall": 7274,
      "garet": 7275,
      "jack": 7276,
      "ker": 7277,
      "mered": 7278,
      "pen": 7279,
      "paste": 7280,
      "rince": 7281,
      "ratul": 7282,
      "while": 7283,
      "yond": 7284,
      "Ġtipped": 7285,
      "Ġcoug": 7286,
      "erm": 7287,
      "Ġpound": 7288,
      "isdom": 7289,
      "Ġgerm": 7290,
      "ĠSw": 7291,
      "iment": 7292,
      "espite": 7293,
      "utter": 7294,
      "Ġearn": 7295,
      "Ġease": 7296,
      "Ġund": 7297,
      "Ġbeyond": 7298,
      "Ġstall": 7299,
      "Ġstain": 7300,
      "Ġstumble": 7301,
      "Ġwithin": 7302,
      "Ġonward": 7303,
      "ading": 7304,
      "Ġshady": 7305,
      "Ġshirts": 7306,
      "lyn": 7307,
      "Ġkings": 7308,
      "ĠMan": 7309,
      "Ġanger": 7310,
      "ĠJe": 7311,
      "Ġlevers": 7312,
      "ĠWell": 7313,
      "ĠWigg": 7314,
      "ongratul": 7315,
      "ĠYouÃ¢": 7316,
      "Ġnewfound": 7317,
      "Ġprank": 7318,
      "Ġchanges": 7319,
      "Ġchanging": 7320,
      "usan": 7321,
      "aps": 7322,
      "Ġslips": 7323,
      "iona": 7324,
      "Ġglitt": 7325,
      "Ġbeautifully": 7326,
      "bee": 7327,
      "Ġraces": 7328,
      "ÅĵOkay": 7329,
      "ÅĵOf": 7330,
      "Ġfinishing": 7331,
      "ĠPlay": 7332,
      "Ġexplorer": 7333,
      "Ġdefe": 7334,
      "Ġforgives": 7335,
      "Ġsandpit": 7336,
      "Ġcrashing": 7337,
      "Ġsnowfl": 7338,
      "Ġcloudy": 7339,
      "ugging": 7340,
      "Ġjoining": 7341,
      "Ġbaths": 7342,
      "ounced": 7343,
      "Ġforgets": 7344,
      "Ġdesigning": 7345,
      "Ġcomforting": 7346,
      "Ġgrandbaby": 7347,
      "Ġrobots": 7348,
      "Ġaction": 7349,
      "Ġseatbelt": 7350,
      "Ġ''": 7351,
      "Ġspreading": 7352,
      "Ġtidied": 7353,
      "Ġgarbage": 7354,
      "Ġwhispers": 7355,
      "Ġscram": 7356,
      "Ġprayers": 7357,
      "Ġchews": 7358,
      "ĠZee": 7359,
      "Ġangels": 7360,
      "Always": 7361,
      "ĠFreddie": 7362,
      "Ġsweep": 7363,
      "Ġtoothpaste": 7364,
      "Ġneatly": 7365,
      "...\"\"": 7366,
      "Ġawo": 7367,
      "Ġapplauding": 7368,
      "Ġlumberjack": 7369,
      "Ġyielded": 7370,
      "Quick": 7371,
      "Ġtrembled": 7372,
      "Ġsuffering": 7373,
      "ĠOliver": 7374,
      "Ġchatter": 7375,
      "Ġconfidence": 7376,
      "ĠBirdie": 7377,
      "Ġwider": 7378,
      "ĠCheese": 7379,
      "Ġcottage": 7380,
      "Ġannoyed": 7381,
      "Ġconnected": 7382,
      "immering": 7383,
      "Ġevil": 7384,
      "Ġwrinkled": 7385,
      "Follow": 7386,
      "Abby": 7387,
      "Buzz": 7388,
      "Hop": 7389,
      "Liz": 7390,
      "Listen": 7391,
      "Miss": 7392,
      "Rob": 7393,
      "hind": 7394,
      "lers": 7395,
      "mates": 7396,
      "uing": 7397,
      "upt": 7398,
      "uppy": 7399,
      "ĠX": 7400,
      "Ġaim": 7401,
      "Ġwag": 7402,
      "itched": 7403,
      "Ġdarl": 7404,
      "Ġdaring": 7405,
      "Ġheaven": 7406,
      "athy": 7407,
      "enced": 7408,
      "Ġni": 7409,
      "Ġnuzz": 7410,
      "ani": 7411,
      "anwhile": 7412,
      "Ġinter": 7413,
      "Ġstung": 7414,
      "Ġsteth": 7415,
      "rip": 7416,
      "Ġplucked": 7417,
      "ĠBri": 7418,
      "Ġshown": 7419,
      "Ġshallow": 7420,
      "ĠMad": 7421,
      "Ġknit": 7422,
      "ĠJessica": 7423,
      "ophone": 7424,
      "Ġscent": 7425,
      "Ġscores": 7426,
      "Ġmemb": 7427,
      "ĠWin": 7428,
      "ĠWil": 7429,
      "ĠWally": 7430,
      "Ġprob": 7431,
      "ĠLove": 7432,
      "Ġwhose": 7433,
      "Ġwhoever": 7434,
      "Ġcares": 7435,
      "Ġposs": 7436,
      "Ġposter": 7437,
      "Ġtwin": 7438,
      "Ġwaters": 7439,
      "ĠCle": 7440,
      "Ġcleared": 7441,
      "Ġpuff": 7442,
      "ÅĵWow": 7443,
      "ÅĵWell": 7444,
      "Ġfins": 7445,
      "ĠPam": 7446,
      "ĠPuppy": 7447,
      "Ġconqu": 7448,
      "Ġconvin": 7449,
      "Ġtraps": 7450,
      "Ġbluebird": 7451,
      "acles": 7452,
      "ĠRain": 7453,
      "Ġsweetest": 7454,
      "Ġbiting": 7455,
      "ĠDog": 7456,
      "Ġthroughout": 7457,
      "Ġworrying": 7458,
      "Ġpromises": 7459,
      "Ġdropping": 7460,
      "Ġfloors": 7461,
      "ulars": 7462,
      "ĠKelly": 7463,
      "spe": 7464,
      "Ġunderstands": 7465,
      "Ġvisitors": 7466,
      "oscope": 7467,
      "Ġplanting": 7468,
      "Ġbeeh": 7469,
      "Ġdespite": 7470,
      "Ġdrivers": 7471,
      "Ġrespected": 7472,
      "Ġfootstep": 7473,
      "Steve": 7474,
      "Ġtrusting": 7475,
      "ĠAlong": 7476,
      "Ġdriveway": 7477,
      "Ġreminding": 7478,
      "ĠBea": 7479,
      "ĠBeep": 7480,
      "ĠStart": 7481,
      "ĠBruce": 7482,
      "Ġadds": 7483,
      "Ġsoapy": 7484,
      "Ġcrawls": 7485,
      "Ġhunting": 7486,
      "faction": 7487,
      "Remy": 7488,
      "Ġtwisty": 7489,
      "Ġsqueezing": 7490,
      "Ġdiamonds": 7491,
      "Ġsniffing": 7492,
      "Ġleopards": 7493,
      "Ġbinoc": 7494,
      "Ġvests": 7495,
      "ĠUnder": 7496,
      "Ġdisplayed": 7497,
      "ĠPatty": 7498,
      "Ġuniforms": 7499,
      "ĠRuss": 7500,
      "Ġsnaps": 7501,
      "ĠRobert": 7502,
      "ĠBirthday": 7503,
      "Ġsatisfaction": 7504,
      "Ġflavors": 7505,
      "Ġmaterial": 7506,
      "Ġmeowing": 7507,
      "Ġgears": 7508,
      "Ġmaster": 7509,
      "Ġmasterp": 7510,
      "Frank": 7511,
      "Ġsternly": 7512,
      "ĠOther": 7513,
      "Ġrobber": 7514,
      "Ġrisks": 7515,
      "Blue": 7516,
      "Ġslammed": 7517,
      "Ġtilted": 7518,
      "Ġwaddled": 7519,
      "ĠSqueaky": 7520,
      "Ġanticip": 7521,
      "Ruby": 7522,
      "Ġscrambled": 7523,
      "Ġdarlings": 7524,
      "Ġstethoscope": 7525,
      "Ġmembers": 7526,
      "Ġprobably": 7527,
      "Ġfootsteps": 7528,
      "Ġbinoculars": 7529,
      "Adam": 7530,
      "Bu": 7531,
      "Beth": 7532,
      "Co": 7533,
      "but": 7534,
      "bel": 7535,
      "bec": 7536,
      "ca": 7537,
      "ners": 7538,
      "xophone": 7539,
      "Ġic": 7540,
      "Ġtumbled": 7541,
      "Ġsy": 7542,
      "Ġbou": 7543,
      "Ġbound": 7544,
      "Ġfif": 7545,
      "Ġdump": 7546,
      "Ġpipes": 7547,
      "Ġnibb": 7548,
      "Ġsav": 7549,
      "Ġsadd": 7550,
      "Ġsaxophone": 7551,
      "ĠSa": 7552,
      "ori": 7553,
      "onse": 7554,
      "oto": 7555,
      "Ġyumm": 7556,
      "Ġrout": 7557,
      "Ġrather": 7558,
      "Ġramp": 7559,
      "Ġrott": 7560,
      "Ġplain": 7561,
      "stick": 7562,
      "ĠBuggy": 7563,
      "ĠMuff": 7564,
      "ĠMichael": 7565,
      "Ġaside": 7566,
      "Ġloses": 7567,
      "Ġscen": 7568,
      "ĠWisdom": 7569,
      "Ġcosy": 7570,
      "Ġcarriage": 7571,
      "Ġblond": 7572,
      "ĠDot": 7573,
      "ĠDina": 7574,
      "Ġvines": 7575,
      "Ġtaped": 7576,
      "ĠFiona": 7577,
      "Ġexplor": 7578,
      "ĠCla": 7579,
      "ÅĵSure": 7580,
      "Ġbadger": 7581,
      "ĠPup": 7582,
      "ĠPaula": 7583,
      "ĠPrince": 7584,
      "Ġconfu": 7585,
      "Ġconfl": 7586,
      "Ġthrown": 7587,
      "Ġtoward": 7588,
      "ĠNell": 7589,
      "ĠNobody": 7590,
      "Ġamong": 7591,
      "Ġblocked": 7592,
      "Ġcuriously": 7593,
      "Ġwarmer": 7594,
      "ĠThose": 7595,
      "Ġcounts": 7596,
      "Ġbuses": 7597,
      "issa": 7598,
      "ĠJaney": 7599,
      "Ġmonths": 7600,
      "Ġslowed": 7601,
      "rench": 7602,
      "Ġcompared": 7603,
      "uggles": 7604,
      "Ġpaintbrush": 7605,
      "Ġwelcoming": 7606,
      "Ġbelieving": 7607,
      "Ġchopped": 7608,
      "Ġhealing": 7609,
      "Ġlunchbox": 7610,
      "Ġbandages": 7611,
      "Ġresponse": 7612,
      "Goodnight": 7613,
      "Ġshrunk": 7614,
      "Ġsolving": 7615,
      "Ġgasp": 7616,
      "Ġtidying": 7617,
      "Ġdigs": 7618,
      "Ġguessing": 7619,
      "Ġfrowning": 7620,
      "ĠSnuggles": 7621,
      "Ġcuddles": 7622,
      "Ġunlo": 7623,
      "ĠAlexa": 7624,
      "Ġtravels": 7625,
      "Ġsending": 7626,
      "ivia": 7627,
      "Ġbeeped": 7628,
      "ĠUp": 7629,
      "Ġtearing": 7630,
      "Ġexercises": 7631,
      "uctor": 7632,
      "Ġthumbs": 7633,
      "Ġrotting": 7634,
      "Ġlending": 7635,
      "Ġquarreling": 7636,
      "Ġpandas": 7637,
      "Ġstroke": 7638,
      "Ġburying": 7639,
      "Ġinsects": 7640,
      "Ġwhispering": 7641,
      "Ġtwinkled": 7642,
      "Excited": 7643,
      "Ġminerals": 7644,
      "Ġrustling": 7645,
      "Ġcenter": 7646,
      "Sadly": 7647,
      "Ġhoops": 7648,
      "Ġtype": 7649,
      "Ġtextures": 7650,
      "Ġforgiveness": 7651,
      "Ġreassured": 7652,
      "Ġexperienced": 7653,
      "Ġconductor": 7654,
      "Ġmesmerized": 7655,
      "ĠSimon": 7656,
      "Ġtarget": 7657,
      "Ġdeclared": 7658,
      "Ġsnowflakes": 7659,
      "Ġbeehive": 7660,
      "Ġanticipation": 7661,
      "Ġbouqu": 7662,
      "Ġrotten": 7663,
      "ĠClaus": 7664,
      "Br": 7665,
      "Bill": 7666,
      "Honey": 7667,
      "Kayla": 7668,
      "Mat": 7669,
      "Mimi": 7670,
      "Oops": 7671,
      "Papa": 7672,
      "Since": 7673,
      "Too": 7674,
      "Take": 7675,
      "Woof": 7676,
      "Watch": 7677,
      "cher": 7678,
      "gar": 7679,
      "rink": 7680,
      "whe": 7681,
      "well": 7682,
      "ĊĊ": 7683,
      "Ġsens": 7684,
      "Ġtheat": 7685,
      "inted": 7686,
      "Ġwakes": 7687,
      "Ġfain": 7688,
      "ouble": 7689,
      "ita": 7690,
      "its": 7691,
      "Ġmoo": 7692,
      "Ġpens": 7693,
      "Ġpouch": 7694,
      "ĠTry": 7695,
      "Ġgon": 7696,
      "ider": 7697,
      "ĠSuper": 7698,
      "ĠSusan": 7699,
      "Ġthir": 7700,
      "irrel": 7701,
      "Ġbeating": 7702,
      "ĠIm": 7703,
      "Ġsoot": 7704,
      "Ġweighing": 7705,
      "ĠBow": 7706,
      "ĠBecause": 7707,
      "Ġform": 7708,
      "Ġshave": 7709,
      "Ġdoves": 7710,
      "Ġboards": 7711,
      "Ġjay": 7712,
      "artin": 7713,
      "Ġcanes": 7714,
      "icles": 7715,
      "Ġali": 7716,
      "ĠWas": 7717,
      "ddie": 7718,
      "ĠButt": 7719,
      "Ġcarries": 7720,
      "Ġgoodies": 7721,
      "Ġcharge": 7722,
      "ĠErnie": 7723,
      "quirrel": 7724,
      "ĠFurry": 7725,
      "Ġposes": 7726,
      "bbling": 7727,
      "Ġtwelve": 7728,
      "Ġsmallest": 7729,
      "Ġfond": 7730,
      "Ġsnug": 7731,
      "Ġuntied": 7732,
      "ĠCurious": 7733,
      "Ġraising": 7734,
      "Ġdangers": 7735,
      "Ġcleaner": 7736,
      "ĠPen": 7737,
      "Ġstopping": 7738,
      "Ġunco": 7739,
      "ĠGre": 7740,
      "Ġjoked": 7741,
      "Ġfires": 7742,
      "Ġsquaw": 7743,
      "Ġpapa": 7744,
      "boat": 7745,
      "Ġstepping": 7746,
      "Ġhearing": 7747,
      "Ġgrows": 7748,
      "meal": 7749,
      "Ġcupcake": 7750,
      "Ġtownspe": 7751,
      "Ġstands": 7752,
      "brina": 7753,
      "Ġnecks": 7754,
      "Ġshops": 7755,
      "Ġalongside": 7756,
      "ails": 7757,
      "balls": 7758,
      "Ġgrandd": 7759,
      "Ġactive": 7760,
      "ĠAlison": 7761,
      "Ġlaying": 7762,
      "Ġnecklaces": 7763,
      "Ġcalmly": 7764,
      "Ġpinching": 7765,
      "Ġprick": 7766,
      "Ġchecking": 7767,
      "Ġhamster": 7768,
      "Ġcovering": 7769,
      "Ġcracker": 7770,
      "Ġcroaked": 7771,
      "Ġtwisting": 7772,
      "Ġcuddly": 7773,
      "Ġgoats": 7774,
      "Ġpreparing": 7775,
      "Ġdiscoveries": 7776,
      "Ġoatmeal": 7777,
      "Ġscattering": 7778,
      "ĠTrust": 7779,
      "Ġscolds": 7780,
      "Ġspeaker": 7781,
      "Ġartwork": 7782,
      "Ġcrystals": 7783,
      "manda": 7784,
      "Ġfreezing": 7785,
      "Ġsewing": 7786,
      "Ġladybird": 7787,
      "Ġobeyed": 7788,
      "Ġencouragement": 7789,
      "Freddy": 7790,
      "ĠBounce": 7791,
      "Ġswayed": 7792,
      "Ġcotton": 7793,
      "Ġannoying": 7794,
      "Great": 7795,
      "Ġthorns": 7796,
      "Ġcommunic": 7797,
      "Ġgerms": 7798,
      "Ġawoke": 7799,
      "Ġnuzzled": 7800,
      "ĠRussel": 7801,
      "Ġmasterpiece": 7802,
      "Ġbouquet": 7803,
      "Ġtheatre": 7804,
      "Ġgonna": 7805,
      "Ġtownspeople": 7806,
      "?!\"\"": 7807,
      "Feeling": 7808,
      "Kim": 7809,
      "Ma": 7810,
      "Sophia": 7811,
      "Very": 7812,
      "dress": 7813,
      "form": 7814,
      "line": 7815,
      "prin": 7816,
      "rily": 7817,
      "rup": 7818,
      "water": 7819,
      "ylves": 7820,
      "ĠOkay": 7821,
      "Ġouch": 7822,
      "Ġtor": 7823,
      "Ġtossed": 7824,
      "Ġbak": 7825,
      "Ġdep": 7826,
      "Ġheight": 7827,
      "ĠTaking": 7828,
      "ĠToto": 7829,
      "iles": 7830,
      "Ġgall": 7831,
      "Ġnood": 7832,
      "Ġnast": 7833,
      "ĠSay": 7834,
      "ĠSweet": 7835,
      "ĠSince": 7836,
      "ĠSplash": 7837,
      "ĠSasha": 7838,
      "ĠSquirrel": 7839,
      "anish": 7840,
      "lection": 7841,
      "ĠHoot": 7842,
      "ĠHallow": 7843,
      "Ġinj": 7844,
      "Ġbea": 7845,
      "Ġsoaking": 7846,
      "ĠmomÃ¢": 7847,
      "elvet": 7848,
      "Ġforce": 7849,
      "Ġforts": 7850,
      "Ġlies": 7851,
      "ently": 7852,
      "ĠMother": 7853,
      "ĠMine": 7854,
      "ĠMoon": 7855,
      "ĠMarshmallow": 7856,
      "ĠMira": 7857,
      "Ġreun": 7858,
      "rying": 7859,
      "ĠgirlÃ¢": 7860,
      "ĠAng": 7861,
      "ĠAgain": 7862,
      "Ġspat": 7863,
      "Ġspins": 7864,
      "ĠJazz": 7865,
      "asers": 7866,
      "Ġflip": 7867,
      "ĠLi": 7868,
      "Ġchilly": 7869,
      "Ġtapped": 7870,
      "Ġpeep": 7871,
      "Ġhandy": 7872,
      "Ġstrum": 7873,
      "Ġbubbly": 7874,
      "ortunately": 7875,
      "Ġgardens": 7876,
      "ÅĵWhere": 7877,
      "LetÃ¢": 7878,
      "Ġwrigg": 7879,
      "acle": 7880,
      "Ġfishy": 7881,
      "Ġdisob": 7882,
      "Ġrains": 7883,
      "Ġrainy": 7884,
      "ĠRani": 7885,
      "Ġworksh": 7886,
      "Ġbusiness": 7887,
      "Ġsingers": 7888,
      "Ġtasting": 7889,
      "Ġhairdress": 7890,
      "Ġstew": 7891,
      "Ġdripping": 7892,
      "Ġlessons": 7893,
      "Jacky": 7894,
      "Ġmarve": 7895,
      "ĠFlo": 7896,
      "Ġsails": 7897,
      "Ġsailboat": 7898,
      "Ġpetal": 7899,
      "Ġpetting": 7900,
      "ĠJennie": 7901,
      "ĠGrand": 7902,
      "ixie": 7903,
      "earl": 7904,
      "Ġteachers": 7905,
      "ordinary": 7906,
      "Ġbats": 7907,
      "Ġexpert": 7908,
      "Ġafar": 7909,
      "Ġpresented": 7910,
      "Ġnests": 7911,
      "Ġstreets": 7912,
      "oga": 7913,
      "Ġfootprin": 7914,
      "Ġtroubles": 7915,
      "Ġstirs": 7916,
      "Everything": 7917,
      "Ġstretches": 7918,
      "Ġpicnics": 7919,
      "Ġpleaded": 7920,
      "Ġdisappoint": 7921,
      "Beep": 7922,
      "Ġsqueaked": 7923,
      "Alright": 7924,
      "Ġcrowns": 7925,
      "undred": 7926,
      "Ġstrips": 7927,
      "ĠMargaret": 7928,
      "Ġstreamers": 7929,
      "Ġknocking": 7930,
      "Ġextraordinary": 7931,
      "attered": 7932,
      "Ġkangaroos": 7933,
      "Ġcombed": 7934,
      "Ġmayor": 7935,
      "Ġrepeating": 7936,
      "Ġunpacking": 7937,
      "Ġdisturbing": 7938,
      "Ġstacked": 7939,
      "Ġstomp": 7940,
      "ĠPatrick": 7941,
      "Ġexplains": 7942,
      "Ġpurrs": 7943,
      "Ġstudent": 7944,
      "Ġstudents": 7945,
      "Ġbothered": 7946,
      "ĠIsn": 7947,
      "Ġproper": 7948,
      "Ġfascinating": 7949,
      "ĠAbi": 7950,
      "ĠOlivia": 7951,
      "ĠMeg": 7952,
      "ĠMegan": 7953,
      "ĠSadie": 7954,
      "Ġforgiving": 7955,
      "Ġparticularly": 7956,
      "Ġchoosing": 7957,
      "Ġflashing": 7958,
      "ĠMae": 7959,
      "Sadie": 7960,
      "Ġdamage": 7961,
      "Ġdamaged": 7962,
      "Ġastronauts": 7963,
      "Ġinspired": 7964,
      "Ġsuggestion": 7965,
      "ossom": 7966,
      "Ġnearest": 7967,
      "ĠPuddles": 7968,
      "Ġmunching": 7969,
      "Ġconversation": 7970,
      "Ġunwra": 7971,
      "Ġlocal": 7972,
      "Ġjudges": 7973,
      "ĠBrian": 7974,
      "Ġconvinced": 7975,
      "Ġicicle": 7976,
      "Ġsyrup": 7977,
      "ĠMuffin": 7978,
      "Ġexploration": 7979,
      "Ġthirty": 7980,
      "ĠButtons": 7981,
      "ylvester": 7982,
      "Ġnasty": 7983,
      "ĠHalloween": 7984,
      "Ġworkshop": 7985,
      "Ġhairdresser": 7986,
      ",'": 7987,
      "Boys": 7988,
      "Che": 7989,
      "Jessie": 7990,
      "Jacob": 7991,
      "Mira": 7992,
      "Out": 7993,
      "Put": 7994,
      "Play": 7995,
      "Rosie": 7996,
      "Surpr": 7997,
      "Zoom": 7998,
      "cent": 7999,
      "ears": 8000,
      "jest": 8001,
      "just": 8002,
      "lor": 8003,
      "sm": 8004,
      "vive": 8005,
      "vroom": 8006,
      "Ãĥ": 8007,
      "Ġsou": 8008,
      "Ġsill": 8009,
      "Ġborn": 8010,
      "Ġbitten": 8011,
      "Ġwaking": 8012,
      "erg": 8013,
      "Ġmitt": 8014,
      "Ġmate": 8015,
      "ĠTia": 8016,
      "Ġodd": 8017,
      "isions": 8018,
      "ats": 8019,
      "aning": 8020,
      "orter": 8021,
      "ĠHar": 8022,
      "ĠHope": 8023,
      "otted": 8024,
      "Ġinches": 8025,
      "ckless": 8026,
      "rier": 8027,
      "ribble": 8028,
      "ĠBoo": 8029,
      "Ġshin": 8030,
      "Ġshorter": 8031,
      "ĠMo": 8032,
      "ĠMabel": 8033,
      "Ġreckless": 8034,
      "rand": 8035,
      "Ġbond": 8036,
      "Ġjars": 8037,
      "Ġexch": 8038,
      "ĠJilly": 8039,
      "ĠJason": 8040,
      "Ġfunn": 8041,
      "Ġclues": 8042,
      "ĠWings": 8043,
      "ĠWise": 8044,
      "Ġsometime": 8045,
      "agine": 8046,
      "Ġfailed": 8047,
      "Ġchin": 8048,
      "Ġchos": 8049,
      "Ġblown": 8050,
      "usty": 8051,
      "ĠDen": 8052,
      "ĠDory": 8053,
      "ĠDespite": 8054,
      "Ġthanking": 8055,
      "retch": 8056,
      "Ġpeak": 8057,
      "ĠAnnabelle": 8058,
      "ĠJackÃ¢": 8059,
      "ĠJoan": 8060,
      "Ġracer": 8061,
      "ÅĵThe": 8062,
      "ÅĵBut": 8063,
      "ÅĵSee": 8064,
      "Ġstored": 8065,
      "Ġsurprising": 8066,
      "Ġdoorway": 8067,
      "ĠGaby": 8068,
      "Ġjoins": 8069,
      "ĠSpanish": 8070,
      "Ġforests": 8071,
      "Ġhops": 8072,
      "Ġbrightest": 8073,
      "Ġnights": 8074,
      "Josh": 8075,
      "Ġbits": 8076,
      "ĠDoes": 8077,
      "ĠThatÃ¢": 8078,
      "Ġswimmer": 8079,
      "Ġmovements": 8080,
      "Ġbuilders": 8081,
      "Ġcompan": 8082,
      "Ġvisits": 8083,
      "Ġcreams": 8084,
      "Ġgulp": 8085,
      "Ġchopping": 8086,
      "ĠTodd": 8087,
      "Ġshaped": 8088,
      "Ġpastries": 8089,
      "Ġbattle": 8090,
      "Ġdistract": 8091,
      "Ġpurpose": 8092,
      "Ġpuzzled": 8093,
      "ĠOak": 8094,
      "Ġwildfl": 8095,
      "Ġshrank": 8096,
      "Ġcheerfully": 8097,
      "ĠChuck": 8098,
      "Ġignoring": 8099,
      "Ġsprays": 8100,
      "Ġtoolbox": 8101,
      "Ġself": 8102,
      "Ġdecorating": 8103,
      "Ġsqueaky": 8104,
      "artha": 8105,
      "Meanwhile": 8106,
      "Ġclassmates": 8107,
      "Ġwealth": 8108,
      "keepers": 8109,
      "Ġstamped": 8110,
      "Ġscratching": 8111,
      "Ġrescuing": 8112,
      "Ġdestroying": 8113,
      "Ġreflection": 8114,
      "Ġpepperoni": 8115,
      "Ġpermitted": 8116,
      "Ġmischie": 8117,
      "Ġtoothbrush": 8118,
      "Ġcurl": 8119,
      "iolet": 8120,
      "Ġlabels": 8121,
      "Ġcells": 8122,
      "Ġvinegar": 8123,
      "Ġtires": 8124,
      "Ġaware": 8125,
      "Ġappreciation": 8126,
      "ĠShar": 8127,
      "Ġcomputers": 8128,
      "Ġluckiest": 8129,
      "Ġmeatballs": 8130,
      "ĠPatch": 8131,
      "Ġpressing": 8132,
      "Ġreversed": 8133,
      "Anne": 8134,
      "Ġsincere": 8135,
      "Quack": 8136,
      "abra": 8137,
      "Ġfloats": 8138,
      "ĠViolet": 8139,
      "Ġsimply": 8140,
      "Ġappearance": 8141,
      "Ġmosquitoes": 8142,
      "ĠMaya": 8143,
      "Ġcaution": 8144,
      "Ġcalf": 8145,
      "Ġflaps": 8146,
      "Ġspilling": 8147,
      "Ġpeeled": 8148,
      "ĠAnother": 8149,
      "Ġpupils": 8150,
      "Ġsilently": 8151,
      "ĠMaia": 8152,
      "ĠTessa": 8153,
      "Ġtucks": 8154,
      "Julie": 8155,
      "Julia": 8156,
      "Which": 8157,
      "Ġsteering": 8158,
      "Ġexpression": 8159,
      "Ġslithered": 8160,
      "Ġexploded": 8161,
      "Ġpanicked": 8162,
      "Suzie": 8163,
      "Ġcawed": 8164,
      "Ġconquered": 8165,
      "Bubbles": 8166,
      "Ġnoodles": 8167,
      "Ġreunited": 8168,
      "Ġpeeped": 8169,
      "Ġchosen": 8170,
      "Ġwildflowers": 8171,
      "Ġmischievous": 8172,
      "'?\"\"": 8173,
      "Aunt": 8174,
      "Bang": 8175,
      "Curious": 8176,
      "Each": 8177,
      "Ellie": 8178,
      "Get": 8179,
      "Ol": 8180,
      "Riley": 8181,
      "bank": 8182,
      "care": 8183,
      "cie": 8184,
      "crow": 8185,
      "mie": 8186,
      "munk": 8187,
      "oard": 8188,
      "please": 8189,
      "rum": 8190,
      "rupt": 8191
    },
    "merges": [
      [
        "h",
        "e"
      ],
      [
        "Ġ",
        "t"
      ],
      [
        "Ġ",
        "a"
      ],
      [
        "Ġ",
        "s"
      ],
      [
        "Ġ",
        "w"
      ],
      [
        "n",
        "d"
      ],
      [
        "Ġt",
        "he"
      ],
      [
        "e",
        "d"
      ],
      [
        "Ġa",
        "nd"
      ],
      [
        "Ġt",
        "o"
      ],
      [
        "Ġ",
        "b"
      ],
      [
        "i",
        "n"
      ],
      [
        "Ġ",
        "h"
      ],
      [
        "Ġw",
        "a"
      ],
      [
        "r",
        "e"
      ],
      [
        "Ġ",
        "f"
      ],
      [
        "o",
        "u"
      ],
      [
        "i",
        "t"
      ],
      [
        "Ġ",
        "l"
      ],
      [
        "Ġ",
        "c"
      ],
      [
        "Ġ",
        "d"
      ],
      [
        "e",
        "r"
      ],
      [
        "Ġ",
        "he"
      ],
      [
        "\"",
        "\""
      ],
      [
        "Ġ",
        "m"
      ],
      [
        "Ġ",
        "p"
      ],
      [
        "Ġwa",
        "s"
      ],
      [
        "Ġ",
        "T"
      ],
      [
        "o",
        "m"
      ],
      [
        "Ġ",
        "o"
      ],
      [
        "a",
        "y"
      ],
      [
        "i",
        "s"
      ],
      [
        "a",
        "r"
      ],
      [
        "i",
        "l"
      ],
      [
        "in",
        "g"
      ],
      [
        "Ġ",
        "g"
      ],
      [
        "i",
        "d"
      ],
      [
        "a",
        "t"
      ],
      [
        "e",
        "n"
      ],
      [
        "Ġ",
        "n"
      ],
      [
        "Ġs",
        "a"
      ],
      [
        "Ġh",
        "a"
      ],
      [
        "Ġ",
        "S"
      ],
      [
        "ĠT",
        "he"
      ],
      [
        "a",
        "n"
      ],
      [
        "i",
        "m"
      ],
      [
        "o",
        "r"
      ],
      [
        "o",
        "n"
      ],
      [
        "Ġ",
        "it"
      ],
      [
        "Ġt",
        "h"
      ],
      [
        "l",
        "l"
      ],
      [
        "l",
        "e"
      ],
      [
        "Ġ",
        "H"
      ],
      [
        "Ġhe",
        "r"
      ],
      [
        "e",
        "t"
      ],
      [
        "o",
        "t"
      ],
      [
        "i",
        "r"
      ],
      [
        "ĠS",
        "he"
      ],
      [
        "ĠH",
        "e"
      ],
      [
        "e",
        "s"
      ],
      [
        "Ġ",
        "in"
      ],
      [
        "v",
        "er"
      ],
      [
        "o",
        "w"
      ],
      [
        "u",
        "t"
      ],
      [
        "ĠThe",
        "y"
      ],
      [
        "c",
        "k"
      ],
      [
        "il",
        "y"
      ],
      [
        "Ġ",
        "e"
      ],
      [
        "Ġ",
        "y"
      ],
      [
        "Ġ",
        "u"
      ],
      [
        "l",
        "d"
      ],
      [
        "o",
        "o"
      ],
      [
        "Ġsa",
        "id"
      ],
      [
        "i",
        "g"
      ],
      [
        "Ġ",
        "\"\""
      ],
      [
        "a",
        "m"
      ],
      [
        "Ġ",
        "r"
      ],
      [
        "Ġb",
        "e"
      ],
      [
        "Ġ",
        "I"
      ],
      [
        "Ġs",
        "t"
      ],
      [
        "L",
        "ily"
      ],
      [
        "it",
        "h"
      ],
      [
        "c",
        "e"
      ],
      [
        "k",
        "e"
      ],
      [
        "p",
        "p"
      ],
      [
        "Ġw",
        "ith"
      ],
      [
        "v",
        "e"
      ],
      [
        "Ġs",
        "he"
      ],
      [
        "O",
        "n"
      ],
      [
        "Ġo",
        "n"
      ],
      [
        "r",
        "i"
      ],
      [
        "Ġy",
        "ou"
      ],
      [
        "k",
        "ed"
      ],
      [
        "Ġp",
        "l"
      ],
      [
        "Ġo",
        "f"
      ],
      [
        "Ġh",
        "is"
      ],
      [
        "n",
        "t"
      ],
      [
        "Ġs",
        "o"
      ],
      [
        "a",
        "d"
      ],
      [
        "Ġd",
        "ay"
      ],
      [
        "ver",
        "y"
      ],
      [
        "Ġth",
        "at"
      ],
      [
        "Ġ",
        "Lily"
      ],
      [
        "Ġpl",
        "ay"
      ],
      [
        "Ġu",
        "p"
      ],
      [
        "Ġha",
        "d"
      ],
      [
        "Ġthe",
        "y"
      ],
      [
        "Ġw",
        "e"
      ],
      [
        "Ġm",
        "om"
      ],
      [
        "s",
        "t"
      ],
      [
        "Ġ",
        "B"
      ],
      [
        "e",
        "l"
      ],
      [
        "Ġf",
        "or"
      ],
      [
        "u",
        "n"
      ],
      [
        "m",
        "y"
      ],
      [
        "'",
        "s"
      ],
      [
        "ou",
        "ld"
      ],
      [
        "Ġl",
        "i"
      ],
      [
        "T",
        "he"
      ],
      [
        "Ġha",
        "pp"
      ],
      [
        "en",
        "t"
      ],
      [
        "c",
        "h"
      ],
      [
        "Ġwa",
        "nt"
      ],
      [
        "it",
        "t"
      ],
      [
        "he",
        "r"
      ],
      [
        "Ġs",
        "h"
      ],
      [
        "ou",
        "t"
      ],
      [
        "Ġd",
        "o"
      ],
      [
        "e",
        "nd"
      ],
      [
        "Ġn",
        "ot"
      ],
      [
        "a",
        "ll"
      ],
      [
        "om",
        "e"
      ],
      [
        "Ġ",
        "very"
      ],
      [
        "s",
        "e"
      ],
      [
        "ou",
        "nd"
      ],
      [
        "l",
        "y"
      ],
      [
        "im",
        "e"
      ],
      [
        "Ġ",
        "k"
      ],
      [
        "itt",
        "le"
      ],
      [
        "Ġw",
        "h"
      ],
      [
        "Ġt",
        "ime"
      ],
      [
        ".",
        "\""
      ],
      [
        "Ġl",
        "ittle"
      ],
      [
        "Ġthe",
        "re"
      ],
      [
        "Ġb",
        "ig"
      ],
      [
        "Ġn",
        "e"
      ],
      [
        "Ġ",
        "is"
      ],
      [
        "Ġhapp",
        "y"
      ],
      [
        "h",
        "t"
      ],
      [
        "a",
        "l"
      ],
      [
        "Ġ",
        "M"
      ],
      [
        "Ġs",
        "m"
      ],
      [
        "Ġ",
        "re"
      ],
      [
        "ri",
        "end"
      ],
      [
        "Ġf",
        "riend"
      ],
      [
        "ĠI",
        "t"
      ],
      [
        "Ġsa",
        "w"
      ],
      [
        "Ġb",
        "ut"
      ],
      [
        ".",
        "\"\""
      ],
      [
        "r",
        "a"
      ],
      [
        "Ġa",
        "n"
      ],
      [
        "Ġa",
        "s"
      ],
      [
        "r",
        "y"
      ],
      [
        "a",
        "ck"
      ],
      [
        "On",
        "e"
      ],
      [
        "id",
        "e"
      ],
      [
        "a",
        "ke"
      ],
      [
        "v",
        "ed"
      ],
      [
        "!",
        "\"\""
      ],
      [
        "u",
        "g"
      ],
      [
        "'",
        "t"
      ],
      [
        "t",
        "er"
      ],
      [
        "Ġl",
        "o"
      ],
      [
        "Ġl",
        "oo"
      ],
      [
        "On",
        "ce"
      ],
      [
        "Ġwe",
        "re"
      ],
      [
        "ĠT",
        "im"
      ],
      [
        "Ġs",
        "e"
      ],
      [
        "o",
        "re"
      ],
      [
        "Ġto",
        "o"
      ],
      [
        "Ġb",
        "o"
      ],
      [
        "Ġh",
        "im"
      ],
      [
        "Ġg",
        "o"
      ],
      [
        "Ġa",
        "re"
      ],
      [
        "e",
        "c"
      ],
      [
        "Ġwant",
        "ed"
      ],
      [
        "il",
        "l"
      ],
      [
        "Ġup",
        "on"
      ],
      [
        "ir",
        "l"
      ],
      [
        "Ġthe",
        "m"
      ],
      [
        "ar",
        "d"
      ],
      [
        "Ġ",
        "j"
      ],
      [
        "Ġg",
        "irl"
      ],
      [
        "Ġ",
        "out"
      ],
      [
        "Ġa",
        "t"
      ],
      [
        "i",
        "nd"
      ],
      [
        "Ġthe",
        "ir"
      ],
      [
        "u",
        "r"
      ],
      [
        "w",
        "ay"
      ],
      [
        "f",
        "u"
      ],
      [
        "Ġd",
        "id"
      ],
      [
        "Ġ",
        "A"
      ],
      [
        "Ġs",
        "p"
      ],
      [
        "he",
        "n"
      ],
      [
        "Ġsm",
        "il"
      ],
      [
        "Ġc",
        "ould"
      ],
      [
        "Ġha",
        "ve"
      ],
      [
        "a",
        "in"
      ],
      [
        "Ġw",
        "ent"
      ],
      [
        "Ġn",
        "am"
      ],
      [
        "ĠB",
        "en"
      ],
      [
        "he",
        "d"
      ],
      [
        "ar",
        "t"
      ],
      [
        "Ġc",
        "an"
      ],
      [
        "l",
        "p"
      ],
      [
        "r",
        "om"
      ],
      [
        "i",
        "c"
      ],
      [
        "Ġe",
        "x"
      ],
      [
        "Ġfriend",
        "s"
      ],
      [
        "r",
        "ound"
      ],
      [
        "?",
        "\"\""
      ],
      [
        "Ġhe",
        "lp"
      ],
      [
        "oo",
        "d"
      ],
      [
        "fu",
        "l"
      ],
      [
        "Ġk",
        "n"
      ],
      [
        "Ġ",
        "J"
      ],
      [
        "Ġa",
        "ll"
      ],
      [
        "h",
        "ing"
      ],
      [
        "ig",
        "ht"
      ],
      [
        "u",
        "m"
      ],
      [
        "ar",
        "k"
      ],
      [
        "Ġf",
        "un"
      ],
      [
        "Ġb",
        "ack"
      ],
      [
        "Ġs",
        "ay"
      ],
      [
        "on",
        "e"
      ],
      [
        "Ġnam",
        "ed"
      ],
      [
        "Y",
        "ou"
      ],
      [
        "Ġc",
        "l"
      ],
      [
        "a",
        "re"
      ],
      [
        "ĠT",
        "om"
      ],
      [
        "Ġn",
        "o"
      ],
      [
        "Ġl",
        "e"
      ],
      [
        "Ġlo",
        "ved"
      ],
      [
        "o",
        "p"
      ],
      [
        "el",
        "t"
      ],
      [
        "Ġ",
        "One"
      ],
      [
        "ou",
        "g"
      ],
      [
        "Ġs",
        "c"
      ],
      [
        "Ġto",
        "y"
      ],
      [
        "ĠTim",
        "my"
      ],
      [
        "Ġf",
        "elt"
      ],
      [
        "Ġsmil",
        "ed"
      ],
      [
        "Ġa",
        "l"
      ],
      [
        "Ġas",
        "ked"
      ],
      [
        "s",
        "ide"
      ],
      [
        "Ġli",
        "ke"
      ],
      [
        "i",
        "ck"
      ],
      [
        "Ġloo",
        "ked"
      ],
      [
        "Ġf",
        "e"
      ],
      [
        "Ġse",
        "e"
      ],
      [
        "Ġm",
        "an"
      ],
      [
        "am",
        "e"
      ],
      [
        "Ġr",
        "o"
      ],
      [
        "Ġb",
        "ir"
      ],
      [
        "g",
        "et"
      ],
      [
        "Ġm",
        "e"
      ],
      [
        "Ġ",
        "W"
      ],
      [
        "Ġa",
        "round"
      ],
      [
        "Ġs",
        "ome"
      ],
      [
        "u",
        "re"
      ],
      [
        "Ġb",
        "r"
      ],
      [
        "om",
        "et"
      ],
      [
        "Ġbo",
        "y"
      ],
      [
        "Ġbir",
        "d"
      ],
      [
        "on",
        "g"
      ],
      [
        "i",
        "ce"
      ],
      [
        "Ġw",
        "ould"
      ],
      [
        "a",
        "s"
      ],
      [
        "Ġst",
        "art"
      ],
      [
        "Ġw",
        "or"
      ],
      [
        "Ġt",
        "re"
      ],
      [
        "get",
        "her"
      ],
      [
        ",",
        "\"\""
      ],
      [
        "d",
        "d"
      ],
      [
        "Ġa",
        "g"
      ],
      [
        "ing",
        "s"
      ],
      [
        "ad",
        "e"
      ],
      [
        "Ġs",
        "omet"
      ],
      [
        "Ġm",
        "ake"
      ],
      [
        "a",
        "g"
      ],
      [
        "Ġf",
        "a"
      ],
      [
        "ĠB",
        "ut"
      ],
      [
        "ow",
        "n"
      ],
      [
        "Ġwh",
        "at"
      ],
      [
        "Ġ",
        "You"
      ],
      [
        "k",
        "ing"
      ],
      [
        "Ġa",
        "way"
      ],
      [
        "Ġto",
        "gether"
      ],
      [
        "Ġsay",
        "s"
      ],
      [
        "Ġr",
        "an"
      ],
      [
        "ou",
        "d"
      ],
      [
        "Ġstart",
        "ed"
      ],
      [
        "Ġp",
        "ark"
      ],
      [
        "ar",
        "ed"
      ],
      [
        "Ġm",
        "ade"
      ],
      [
        "i",
        "f"
      ],
      [
        "Ã",
        "¢"
      ],
      [
        "â",
        "Ĥ"
      ],
      [
        "âĤ",
        "¬"
      ],
      [
        "i",
        "e"
      ],
      [
        "Ġc",
        "o"
      ],
      [
        "Ġsa",
        "d"
      ],
      [
        "Ġp",
        "ut"
      ],
      [
        "Ġo",
        "t"
      ],
      [
        "Ġsomet",
        "hing"
      ],
      [
        "Ġc",
        "ar"
      ],
      [
        "Ġne",
        "w"
      ],
      [
        "it",
        "ed"
      ],
      [
        "e",
        "ll"
      ],
      [
        "Ġp",
        "r"
      ],
      [
        "Ġot",
        "her"
      ],
      [
        "Ġf",
        "rom"
      ],
      [
        "Ġag",
        "ain"
      ],
      [
        "b",
        "le"
      ],
      [
        "Ġg",
        "ood"
      ],
      [
        "Ġh",
        "ug"
      ],
      [
        "Ġh",
        "ome"
      ],
      [
        "oo",
        "k"
      ],
      [
        "Ġm",
        "u"
      ],
      [
        "Ġf",
        "l"
      ],
      [
        "Ġl",
        "a"
      ],
      [
        "Ġex",
        "c"
      ],
      [
        "Ġw",
        "hen"
      ],
      [
        "Ġ",
        "L"
      ],
      [
        "ri",
        "ed"
      ],
      [
        "Ġf",
        "ound"
      ],
      [
        "es",
        "t"
      ],
      [
        "u",
        "e"
      ],
      [
        "Ġwh",
        "o"
      ],
      [
        "s",
        "s"
      ],
      [
        "a",
        "ch"
      ],
      [
        "e",
        "p"
      ],
      [
        "oug",
        "ht"
      ],
      [
        "pp",
        "ed"
      ],
      [
        "h",
        "at"
      ],
      [
        "Ġplay",
        "ing"
      ],
      [
        "Ġthe",
        "n"
      ],
      [
        "Ġc",
        "h"
      ],
      [
        "Ġs",
        "w"
      ],
      [
        "Ġd",
        "ec"
      ],
      [
        "Ġwa",
        "l"
      ],
      [
        "Ġg",
        "et"
      ],
      [
        "ou",
        "s"
      ],
      [
        "u",
        "ck"
      ],
      [
        "Ġth",
        "ings"
      ],
      [
        "n",
        "n"
      ],
      [
        "p",
        "l"
      ],
      [
        "Ġg",
        "ot"
      ],
      [
        "Ġb",
        "l"
      ],
      [
        "all",
        "y"
      ],
      [
        "r",
        "o"
      ],
      [
        "Ġli",
        "ked"
      ],
      [
        "Ġdo",
        "g"
      ],
      [
        "a",
        "ve"
      ],
      [
        "a",
        "x"
      ],
      [
        "Ġ",
        "E"
      ],
      [
        "Ġexc",
        "ited"
      ],
      [
        "Ġe",
        "very"
      ],
      [
        "Ġc",
        "ame"
      ],
      [
        "Ġyou",
        "r"
      ],
      [
        "Ġbe",
        "c"
      ],
      [
        "Ġdec",
        "id"
      ],
      [
        "Ġd",
        "own"
      ],
      [
        "Ġdecid",
        "ed"
      ],
      [
        "Ġf",
        "ind"
      ],
      [
        "ou",
        "se"
      ],
      [
        "Ġc",
        "are"
      ],
      [
        "Ġd",
        "ad"
      ],
      [
        "u",
        "st"
      ],
      [
        "n",
        "y"
      ],
      [
        "Ġ",
        "D"
      ],
      [
        "is",
        "t"
      ],
      [
        "Ġsc",
        "ared"
      ],
      [
        "Ġ",
        "v"
      ],
      [
        "ar",
        "a"
      ],
      [
        "Ġfe",
        "el"
      ],
      [
        "Ġon",
        "e"
      ],
      [
        "The",
        "y"
      ],
      [
        "Ġa",
        "b"
      ],
      [
        "ĠM",
        "om"
      ],
      [
        "Ġth",
        "an"
      ],
      [
        "Ġtre",
        "e"
      ],
      [
        "Ġt",
        "a"
      ],
      [
        "Ġm",
        "y"
      ],
      [
        "nn",
        "a"
      ],
      [
        "Ġw",
        "ill"
      ],
      [
        "q",
        "u"
      ],
      [
        "ou",
        "r"
      ],
      [
        "u",
        "dd"
      ],
      [
        "Ġtoy",
        "s"
      ],
      [
        "ar",
        "n"
      ],
      [
        "u",
        "s"
      ],
      [
        "way",
        "s"
      ],
      [
        "Ġb",
        "all"
      ],
      [
        "Ġ",
        "F"
      ],
      [
        "Ġtoo",
        "k"
      ],
      [
        "Ġdid",
        "n"
      ],
      [
        "er",
        "s"
      ],
      [
        "Ġp",
        "o"
      ],
      [
        "Ġab",
        "out"
      ],
      [
        "Ġg",
        "ra"
      ],
      [
        "Ġal",
        "ways"
      ],
      [
        "es",
        "s"
      ],
      [
        "nd",
        "er"
      ],
      [
        "Ġloo",
        "k"
      ],
      [
        "Ġth",
        "ought"
      ],
      [
        "an",
        "t"
      ],
      [
        "it",
        "e"
      ],
      [
        "Ġkn",
        "e"
      ],
      [
        "Ġ",
        "ke"
      ],
      [
        "Ġl",
        "ot"
      ],
      [
        "Ġmom",
        "my"
      ],
      [
        "f",
        "e"
      ],
      [
        "is",
        "e"
      ],
      [
        "Ġout",
        "side"
      ],
      [
        "a",
        "p"
      ],
      [
        "g",
        "ed"
      ],
      [
        "re",
        "t"
      ],
      [
        "Ġm",
        "ore"
      ],
      [
        "Ġkn",
        "ow"
      ],
      [
        "Ġle",
        "arn"
      ],
      [
        "b",
        "b"
      ],
      [
        "c",
        "hed"
      ],
      [
        "Ġh",
        "o"
      ],
      [
        "Ġc",
        "at"
      ],
      [
        "en",
        "ed"
      ],
      [
        "ĠM",
        "ax"
      ],
      [
        "Ġin",
        "t"
      ],
      [
        "Ġla",
        "ug"
      ],
      [
        "ec",
        "i"
      ],
      [
        "ĠS",
        "am"
      ],
      [
        "Ġt",
        "ake"
      ],
      [
        "Ġo",
        "ld"
      ],
      [
        "i",
        "a"
      ],
      [
        "Ġs",
        "or"
      ],
      [
        "f",
        "ter"
      ],
      [
        "Ġan",
        "y"
      ],
      [
        "Ġh",
        "ow"
      ],
      [
        "Ġkne",
        "w"
      ],
      [
        "m",
        "a"
      ],
      [
        "Ġp",
        "e"
      ],
      [
        "i",
        "ve"
      ],
      [
        "Ġt",
        "r"
      ],
      [
        "eci",
        "al"
      ],
      [
        "Ġsp",
        "ecial"
      ],
      [
        "udd",
        "en"
      ],
      [
        "a",
        "u"
      ],
      [
        "Ġsh",
        "ow"
      ],
      [
        "Ġs",
        "l"
      ],
      [
        "Ġh",
        "ouse"
      ],
      [
        "Ġsor",
        "ry"
      ],
      [
        "udden",
        "ly"
      ],
      [
        "B",
        "ut"
      ],
      [
        "Ġmu",
        "ch"
      ],
      [
        "Ġr",
        "un"
      ],
      [
        "a",
        "nd"
      ],
      [
        "is",
        "h"
      ],
      [
        "an",
        "k"
      ],
      [
        "v",
        "en"
      ],
      [
        "Ġs",
        "un"
      ],
      [
        "Ġto",
        "ld"
      ],
      [
        "Ġo",
        "r"
      ],
      [
        "Ġm",
        "o"
      ],
      [
        "Ġplay",
        "ed"
      ],
      [
        "Ġo",
        "p"
      ],
      [
        "Ġt",
        "w"
      ],
      [
        "in",
        "k"
      ],
      [
        "Ġha",
        "nd"
      ],
      [
        "Ġs",
        "k"
      ],
      [
        "Ġint",
        "o"
      ],
      [
        "Ġwa",
        "ter"
      ],
      [
        "Ġt",
        "ried"
      ],
      [
        "t",
        "y"
      ],
      [
        "Ġg",
        "ave"
      ],
      [
        "Ġcl",
        "o"
      ],
      [
        "Ġpr",
        "oud"
      ],
      [
        "Ġe",
        "at"
      ],
      [
        "Ġin",
        "side"
      ],
      [
        "au",
        "se"
[...]
