{
  "version": "1.0",
  "truncation": null,
  "padding": null,
  "added_tokens": [
    {
      "id": 0,
      "content": "<unk>",
      "single_word": false,
      "lstrip": false,
      "rstrip": false,
      "normalized": false,
      "special": true
    },
    {
      "id": 1,
      "content": "<pad>",
      "single_word": false,
      "lstrip": false,
      "rstrip": false,
      "normalized": false,
      "special": true
    },
    {
      "id": 2,
      "content": "<bos>",
      "single_word": false,
      "lstrip": false,
      "rstrip": false,
      "normalized": false,
      "special": true
    },
    {
      "id": 3,
      "content": "<eos>",
      "single_word": false,
      "lstrip": false,
      "rstrip": false,
      "normalized": false,
      "special": true
    }
  ],
  "normalizer": null,
  "pre_tokenizer": {
    "type": "ByteLevel",
    "add_prefix_space": true,
    "trim_offsets": true,
    "use_regex": true
  },
  "post_processor": null,
  "decoder": {
    "type": "ByteLevel",
    "add_prefix_space": true,
    "trim_offsets": true,
    "use_regex": true
  },
  "model": {
    "type": "BPE",
    "dropout": null,
    "unk_token": "<unk>",
    "continuing_subword_prefix": null,
    "end_of_word_suffix": null,
    "fuse_unk": false,
    "byte_fallback": false,
    "ignore_merges": false,
    "vocab": {
      "<unk>": 0,
      "<pad>": 1,
      "<bos>": 2,
      "<eos>": 3,
      "!": 4,
      "\"": 5,
      "#": 6,
      "$": 7,
      "%": 8,
      "&": 9,
      "'": 10,
      "(": 11,
      ")": 12,
      "*": 13,
      "+": 14,
      ",": 15,
      "-": 16,
      ".": 17,
      "/": 18,
      "0": 19,
      "1": 20,
      "2": 21,
      "3": 22,
      "4": 23,
      "5": 24,
      "6": 25,
      "7": 26,
      "8": 27,
      "9": 28,
      ":": 29,
      ";": 30,
      "<": 31,
      "=": 32,
      ">": 33,
      "?": 34,
      "@": 35,
      "A": 36,
      "B": 37,
      "C": 38,
      "D": 39,
      "E": 40,
      "F": 41,
      "G": 42,
      "H": 43,
      "I": 44,
      "J": 45,
      "K": 46,
      "L": 47,
      "M": 48,
      "N": 49,
      "O": 50,
      "P": 51,
      "Q": 52,
      "R": 53,
      "S": 54,
      "T": 55,
      "U": 56,
      "V": 57,
      "W": 58,
      "X": 59,
      "Y": 60,
      "Z": 61,
      "[": 62,
      "\\": 63,
      "]": 64,
      "^": 65,
      "_": 66,
      "`": 67,
      "a": 68,
      "b": 69,
      "c": 70,
      "d": 71,
      "e": 72,
      "f": 73,
      "g": 74,
      "h": 75,
      "i": 76,
      "j": 77,
      "k": 78,
      "l": 79,
      "m": 80,
      "n": 81,
      "o": 82,
      "p": 83,
      "q": 84,
      "r": 85,
      "s": 86,
      "t": 87,
      "u": 88,
      "v": 89,
      "w": 90,
      "x": 91,
      "y": 92,
      "z": 93,
      "{": 94,
      "|": 95,
      "}": 96,
      "~": 97,
      "¢": 98,
      "¬": 99,
      "Ã": 100,
      "Å": 101,
      "â": 102,
      "Ċ": 103,
      "Ġ": 104,
      "Ģ": 105,
      "Ĥ": 106,
      "Ħ": 107,
      "ĵ": 108,
      "ľ": 109,
      "Ŀ": 110,
      "he": 111,
      "Ġt": 112,
      "Ġa": 113,
      "Ġs": 114,
      "Ġw": 115,
      "Ġthe": 116,
      "nd": 117,
      "ed": 118,
      "in": 119,
      "Ġwa": 120,
      "Ġand": 121,
      "Ġb": 122,
      "Ġto": 123,
      "Ġh": 124,
      "re": 125,
      "it": 126,
      "Ġf": 127,
      "ou": 128,
      "er": 129,
      "Ġwas": 130,
      "Ġhe": 131,
      "Ġl": 132,
      "Ġc": 133,
      "Ġd": 134,
      "ing": 135,
      "Ġo": 136,
      "Ġg": 137,
      "Ġp": 138,
      "Ġm": 139,
      "ar": 140,
      "om": 141,
      "ll": 142,
      "at": 143,
      "ay": 144,
      "is": 145,
      "en": 146,
      "\"\"": 147,
      "The": 148,
      "id": 149,
      "ne": 150,
      "le": 151,
      "Ġha": 152,
      "Ġsa": 153,
      "Ġth": 154,
      "an": 155,
      "Ġit": 156,
      "im": 157,
      "or": 158,
      "ĠS": 159,
      "et": 160,
      "ver": 161,
      "Ġe": 162,
      "ld": 163,
      "Ġin": 164,
      "on": 165,
      "ĠH": 166,
      "ir": 167,
      "Ġher": 168,
      "Ġso": 169,
      "Ġshe": 170,
      "ck": 171,
      "Ġbe": 172,
      "ow": 173,
      "ĠHe": 174,
      "Ġu": 175,
      "ce": 176,
      "ĠThe": 177,
      "Ġst": 178,
      "Ġn": 179,
      "ot": 180,
      "Ġr": 181,
      "Ġof": 182,
      "ĠShe": 183,
      "ut": 184,
      "ig": 185,
      "st": 186,
      "very": 187,
      "Ġsaid": 188,
      "pp": 189,
      "ly": 190,
      "ked": 191,
      "oo": 192,
      "ke": 193,
      "ve": 194,
      "ri": 195,
      "Ġ\"\"": 196,
      "Ġhis": 197,
      "am": 198,
      "Ġup": 199,
      "Ġy": 200,
      "Ġday": 201,
      "Ġthat": 202,
      "ad": 203,
      "ted": 204,
      "ent": 205,
      "ith": 206,
      "Ġhad": 207,
      "ĠI": 208,
      "itt": 209,
      "ould": 210,
      "Ġwith": 211,
      "el": 212,
      "ound": 213,
      "ittle": 214,
      "Ġpl": 215,
      "il": 216,
      "al": 217,
      "Ġlittle": 218,
      "ack": 219,
      "ime": 220,
      "Ġwe": 221,
      "Ġfor": 222,
      "un": 223,
      "Ġsm": 224,
      "Ġtime": 225,
      "out": 226,
      "Ġthere": 227,
      "ch": 228,
      "Ġon": 229,
      "Ġthey": 230,
      "Ġre": 231,
      "her": 232,
      "ĠJ": 233,
      "Ġyou": 234,
      "Ġwh": 235,
      "irl": 236,
      "Ġvery": 237,
      "ome": 238,
      "Ġhapp": 239,
      "ec": 240,
      "Ġgirl": 241,
      "Ġne": 242,
      "se": 243,
      "all": 244,
      "end": 245,
      "ht": 246,
      ".\"": 247,
      "Ġex": 248,
      "ug": 249,
      "Ġsh": 250,
      "On": 251,
      "Ġas": 252,
      "Ġplay": 253,
      "es": 254,
      "Once": 255,
      "Ã¢": 256,
      "âĤ": 257,
      "âĤ¬": 258,
      "Ġsp": 259,
      "'s": 260,
      "Ġbo": 261,
      "ter": 262,
      "Ġan": 263,
      "Ġwan": 264,
      "Ġfri": 265,
      "Ġfriend": 266,
      "ore": 267,
      "Ġk": 268,
      "Ġloo": 269,
      "Ġbig": 270,
      "Ġhappy": 271,
      "ved": 272,
      "Ġli": 273,
      "fu": 274,
      "ill": 275,
      "my": 276,
      "round": 277,
      "Ġwere": 278,
      "Ġbut": 279,
      "ide": 280,
      "hing": 281,
      "One": 282,
      "Ġout": 283,
      "um": 284,
      "Ġsaw": 285,
      "ard": 286,
      "way": 287,
      "ake": 288,
      "ra": 289,
      "Ġupon": 290,
      "ic": 291,
      "one": 292,
      "Ġcould": 293,
      "Ġhim": 294,
      "ĠIt": 295,
      "'t": 296,
      "Ġwanted": 297,
      "Ġj": 298,
      "hen": 299,
      "Ġmom": 300,
      "Ġall": 301,
      "iled": 302,
      "ĠM": 303,
      "Ġgo": 304,
      "ful": 305,
      "ĠT": 306,
      "ind": 307,
      "Ġsmiled": 308,
      "ĠA": 309,
      "ĠThey": 310,
      "ain": 311,
      "ur": 312,
      "Ġse": 313,
      "hed": 314,
      "Ġaround": 315,
      "Ġat": 316,
      "Ġwent": 317,
      "Ġtoo": 318,
      "ĠB": 319,
      "Ġdo": 320,
      "ry": 321,
      "!\"\"": 322,
      "omet": 323,
      "Ġexc": 324,
      ".\"\"": 325,
      "rom": 326,
      "Ġexcit": 327,
      "Ġsomet": 328,
      "Ġfriends": 329,
      "Ġboy": 330,
      "Ġhel": 331,
      "Ġback": 332,
      "are": 333,
      "Ġlooked": 334,
      "Ġsomething": 335,
      "Ġwould": 336,
      "ure": 337,
      "ĠE": 338,
      "ight": 339,
      "dd": 340,
      "Ġcl": 341,
      "Ġnot": 342,
      "ĠL": 343,
      "oug": 344,
      "Ġlo": 345,
      "Ġfe": 346,
      "Ġstar": 347,
      "Ġhelp": 348,
      "side": 349,
      "ame": 350,
      "king": 351,
      "ood": 352,
      "Ġexcited": 353,
      "Ġal": 354,
      "ag": 355,
      "Ġasked": 356,
      "ss": 357,
      "ear": 358,
      "nt": 359,
      "ab": 360,
      "ong": 361,
      "get": 362,
      "Ġstarted": 363,
      "ark": 364,
      "elt": 365,
      "ick": 366,
      "Ġfelt": 367,
      "Ġran": 368,
      "Ġwor": 369,
      "ree": 370,
      "Ġag": 371,
      "Ġthen": 372,
      "Ġfun": 373,
      "pl": 374,
      "Ġhome": 375,
      "Ġno": 376,
      "ie": 377,
      "ily": 378,
      "pped": 379,
      "Ġwhen": 380,
      "Ġch": 381,
      "eci": 382,
      "Ġfa": 383,
      "lly": 384,
      "gether": 385,
      "Ġthem": 386,
      "Ġmu": 387,
      "ade": 388,
      "aug": 389,
      "ro": 390,
      "ecial": 391,
      "Ġaway": 392,
      "Ġevery": 393,
      "Ġspecial": 394,
      "ep": 395,
      "qu": 396,
      "Ġcan": 397,
      "Ġwho": 398,
      "ice": 399,
      "Ġhave": 400,
      "ea": 401,
      "Ġwal": 402,
      "Ġold": 403,
      "Ġdec": 404,
      "Ġfound": 405,
      "Ġman": 406,
      "amed": 407,
      "?\"\"": 408,
      "Ġab": 409,
      "op": 410,
      "Ġsome": 411,
      "ous": 412,
      "Ġloved": 413,
      "Ġme": 414,
      "Ġagain": 415,
      "ided": 416,
      "udd": 417,
      "Ġget": 418,
      "ĠOne": 419,
      "Ġtogether": 420,
      "Ġfrom": 421,
      "own": 422,
      "Ġdecided": 423,
      "Ġbir": 424,
      "Ġnamed": 425,
      "Ġv": 426,
      "Ġco": 427,
      "ĠW": 428,
      "Ġmade": 429,
      "Ġthan": 430,
      "Ġtheir": 431,
      "udden": 432,
      "hat": 433,
      "Ġthing": 434,
      "ĠJack": 435,
      "Ġsee": 436,
      "Ġfeel": 437,
      "Ġro": 438,
      "Ġlike": 439,
      "if": 440,
      "ĠD": 441,
      "ally": 442,
      "Ġplaying": 443,
      "uddenly": 444,
      "Ġsc": 445,
      "Ġbird": 446,
      "Ġdid": 447,
      "ust": 448,
      "Ġgot": 449,
      "ways": 450,
      "low": 451,
      "ought": 452,
      "Åĵ": 453,
      "Ġwhat": 454,
      "ĠÃ¢": 455,
      "ĠEvery": 456,
      "Ġalways": 457,
      "Ġpark": 458,
      "Ġis": 459,
      "ouse": 460,
      "Ġexpl": 461,
      "ile": 462,
      "Ġbr": 463,
      "ĠTim": 464,
      "ther": 465,
      "nder": 466,
      "oud": 467,
      "Ġmake": 468,
      "ared": 469,
      "ant": 470,
      "ĠJo": 471,
      "Ġone": 472,
      "Ġother": 473,
      "Ġnew": 474,
      "Ġnever": 475,
      "âĤ¬â": 476,
      "Ġcare": 477,
      "Ġpr": 478,
      "as": 479,
      "cy": 480,
      "Ġke": 481,
      "Ġdown": 482,
      "Ġabout": 483,
      "pt": 484,
      "Ġlot": 485,
      "Ġput": 486,
      "Ġint": 487,
      "Ġstr": 488,
      "ched": 489,
      "us": 490,
      "Ġqu": 491,
      "Ġtake": 492,
      "hn": 493,
      "vent": 494,
      "Ġsk": 495,
      "Ġsun": 496,
      "Ġbl": 497,
      "Ġkne": 498,
      "ĠBut": 499,
      "Ġhug": 500,
      "ny": 501,
      "Ġen": 502,
      "reat": 503,
      "and": 504,
      "ge": 505,
      "os": 506,
      "Ġad": 507,
      "Ġgra": 508,
      "Ġthought": 509,
      "Ġoutside": 510,
      "Ħ¢": 511,
      "Ġfo": 512,
      "Ġsad": 513,
      "âĤ¬âĦ¢": 514,
      "ave": 515,
      "uck": 516,
      "Ġtw": 517,
      "Ġgood": 518,
      "Ġbec": 519,
      "fter": 520,
      "ven": 521,
      "Ġmo": 522,
      "Ġmuch": 523,
      "ĠF": 524,
      "ise": 525,
      "Ġthings": 526,
      "ma": 527,
      "Ġhow": 528,
      "ate": 529,
      "Ġlaug": 530,
      "ace": 531,
      "Ġcouldn": 532,
      "Ġwater": 533,
      "Ġfind": 534,
      "our": 535,
      "ried": 536,
      "Ġmore": 537,
      "ucy": 538,
      "ite": 539,
      "Ġbea": 540,
      "Ġpo": 541,
      "Ġscared": 542,
      "Ġinto": 543,
      "Ġknew": 544,
      "ret": 545,
      "Ġthis": 546,
      "Ġsmall": 547,
      "fe": 548,
      "ers": 549,
      "Ġtook": 550,
      "Ġthanked": 551,
      "dy": 552,
      "Ġtoy": 553,
      "Ġdad": 554,
      "Ġgard": 555,
      "Ġgarden": 556,
      "ue": 557,
      "ast": 558,
      "em": 559,
      "olly": 560,
      "Ġcame": 561,
      "ened": 562,
      "ummy": 563,
      "ell": 564,
      "ning": 565,
      "now": 566,
      "Ġcall": 567,
      "Ġoff": 568,
      "elf": 569,
      "ane": 570,
      "ged": 571,
      "oy": 572,
      "Ġway": 573,
      "ist": 574,
      "ive": 575,
      "Ġsw": 576,
      "ump": 577,
      "ion": 578,
      "Ġtree": 579,
      "Ġho": 580,
      "Ġsky": 581,
      "ving": 582,
      "Ġwat": 583,
      "Ġtwo": 584,
      "Ġheard": 585,
      "Ġcat": 586,
      "ank": 587,
      "Ġover": 588,
      "Ġstay": 589,
      "ough": 590,
      "Ġcalled": 591,
      "ach": 592,
      "bb": 593,
      "ommy": 594,
      "Ġsoon": 595,
      "Ġany": 596,
      "iced": 597,
      "able": 598,
      "!\"": 599,
      "self": 600,
      "ntil": 601,
      "Ġadvent": 602,
      "Ġbeaut": 603,
      "Ġtr": 604,
      "Ġlong": 605,
      "ĠSo": 606,
      "Ġeven": 607,
      "Ġproud": 608,
      "Ġif": 609,
      "Ġwo": 610,
      "Ġmy": 611,
      "Ġlook": 612,
      "Ġkept": 613,
      "Ġuntil": 614,
      "Ġadventure": 615,
      "ned": 616,
      "Ġgave": 617,
      "Ġinside": 618,
      "Ġrun": 619,
      "urp": 620,
      "Ġnoticed": 621,
      "You": 622,
      "ap": 623,
      "au": 624,
      "iful": 625,
      "ine": 626,
      "ady": 627,
      "Ġbeautiful": 628,
      "So": 629,
      "ber": 630,
      "Ġlear": 631,
      "ish": 632,
      "Ġlots": 633,
      "Ġlaughed": 634,
      "ort": 635,
      "Ġclos": 636,
      "Ġfeeling": 637,
      "ild": 638,
      "Ġhouse": 639,
      "Ġpe": 640,
      "Ġrem": 641,
      "Ġshow": 642,
      "Ġjust": 643,
      "Ġdidn": 644,
      "When": 645,
      "Ġliked": 646,
      "Ġexplore": 647,
      "here": 648,
      "Ġtold": 649,
      "Ġcar": 650,
      "Ġop": 651,
      "ĠThen": 652,
      "by": 653,
      "oth": 654,
      "Ġknow": 655,
      "Ġfast": 656,
      ",\"\"": 657,
      "Ġyour": 658,
      "Ġquick": 659,
      "ob": 660,
      "Ġbear": 661,
      "Ġplace": 662,
      "ah": 663,
      "fore": 664,
      "ĠG": 665,
      "Ġsurp": 666,
      "Ġpu": 667,
      "lew": 668,
      "Ġbest": 669,
      "Ġlived": 670,
      "Ġeveryone": 671,
      "Ġsurpr": 672,
      "ais": 673,
      "zed": 674,
      "Ġpick": 675,
      "arah": 676,
      "other": 677,
      "Ġtried": 678,
      "Ġwill": 679,
      "ink": 680,
      "Ġflow": 681,
      "Ġground": 682,
      "imal": 683,
      "Ġanimal": 684,
      "ĠLucy": 685,
      "Ġlea": 686,
      "Ġcu": 687,
      "Ġcom": 688,
      "etter": 689,
      "Ġneed": 690,
      "Ġboat": 691,
      "Ġwant": 692,
      "Ġwalking": 693,
      "Ġwonder": 694,
      "bit": 695,
      "led": 696,
      "Ġar": 697,
      "Ġama": 698,
      "Ġfam": 699,
      "Ġmag": 700,
      "Ġbefore": 701,
      "Ġnow": 702,
      "Ġyear": 703,
      "ĠAnd": 704,
      "aught": 705,
      "aisy": 706,
      "It": 707,
      "ct": 708,
      "Ġim": 709,
      "ess": 710,
      "Ġjump": 711,
      "abbit": 712,
      "Ġquickly": 713,
      "ty": 714,
      "Ġby": 715,
      "ople": 716,
      "ĠJohn": 717,
      "Ġhugged": 718,
      "Jo": 719,
      "ger": 720,
      "Ġcome": 721,
      "Ġsto": 722,
      "Ġpeople": 723,
      "Ġflew": 724,
      "Ġeach": 725,
      "ause": 726,
      "ious": 727,
      "Ġdre": 728,
      "Ġrabbit": 729,
      "Ġroom": 730,
      "Ġwatched": 731,
      "Ġtry": 732,
      "Ġwar": 733,
      "Ġbetter": 734,
      "Ġdel": 735,
      "Ġor": 736,
      "Ġthree": 737,
      "ĠSuddenly": 738,
      "Ġever": 739,
      "Ġsmile": 740,
      "Ġfamily": 741,
      "Ġmagic": 742,
      "'m": 743,
      "But": 744,
      "Let": 745,
      "Ġmum": 746,
      "ary": 747,
      "ised": 748,
      "Ġhand": 749,
      "Ġey": 750,
      "Ġend": 751,
      "Ġkind": 752,
      "Ġwalked": 753,
      "Ġbecause": 754,
      "gan": 755,
      "joy": 756,
      "ting": 757,
      "Ġbu": 758,
      "Ġcon": 759,
      "ĠHer": 760,
      "lie": 761,
      "thing": 762,
      "inally": 763,
      "Ġfore": 764,
      "ĠSarah": 765,
      "ĠHis": 766,
      "Ġus": 767,
      "bye": 768,
      "Suddenly": 769,
      "th": 770,
      "Ġtea": 771,
      "Ġbug": 772,
      "Ġfr": 773,
      "Ġgl": 774,
      "ĠMolly": 775,
      "age": 776,
      "That": 777,
      "Ġboth": 778,
      "Ġits": 779,
      "igh": 780,
      "Ġbox": 781,
      "Ġseen": 782,
      "Ġgoodbye": 783,
      "Ġcloser": 784,
      "Ġwait": 785,
      "immy": 786,
      "Ġstill": 787,
      "ves": 788,
      "Ġlooking": 789,
      "Ġmommy": 790,
      "ĠDaisy": 791,
      "ĠJoe": 792,
      "Ġenjoy": 793,
      "Ġstopped": 794,
      "What": 795,
      "ook": 796,
      "ĠLily": 797,
      "Ġworld": 798,
      "Ġchild": 799,
      "John": 800,
      "Ġeyes": 801,
      "Jack": 802,
      "row": 803,
      "xt": 804,
      "Ġare": 805,
      "Ġbra": 806,
      "Ġhard": 807,
      "Ġdon": 808,
      "Ġplayed": 809,
      "Ġcareful": 810,
      "Ġstran": 811,
      "ia": 812,
      "Ġdan": 813,
      "Ġgreat": 814,
      "ppy": 815,
      "He": 816,
      "ase": 817,
      "eep": 818,
      "Ġtow": 819,
      "Ġfl": 820,
      "Ġfill": 821,
      "Ġche": 822,
      "Ġpret": 823,
      "Ġgoing": 824,
      "ĠAs": 825,
      "Ġvo": 826,
      "ĠEveryone": 827,
      "Ġstrong": 828,
      "bbed": 829,
      "Ġremem": 830,
      "Ġopened": 831,
      "Ġanimals": 832,
      "ax": 833,
      "Ġ-": 834,
      "Ġsure": 835,
      "Ġfish": 836,
      "Ġmouse": 837,
      "ĠSam": 838,
      "Ġbegan": 839,
      "Ġnice": 840,
      "ool": 841,
      "ĠJane": 842,
      "Ġpuppy": 843,
      "ip": 844,
      "Ġeat": 845,
      "ĠTom": 846,
      "day": 847,
      "ied": 848,
      "sh": 849,
      "Ġafter": 850,
      "Ġdis": 851,
      "Ġwhile": 852,
      "fully": 853,
      "Ġyears": 854,
      "Ġbrave": 855,
      "Ġremember": 856,
      "ull": 857,
      "ĠP": 858,
      "Ġfly": 859,
      "Ġow": 860,
      "Ġstor": 861,
      "Ġcol": 862,
      "ĠDad": 863,
      "Ġcuri": 864,
      "Ġforest": 865,
      "ient": 866,
      "Ġsu": 867,
      "Ġsafe": 868,
      "ired": 869,
      "Ġbeen": 870,
      "Ġnext": 871,
      "idea": 872,
      "Yes": 873,
      "aking": 874,
      "ĠC": 875,
      "Ġbed": 876,
      "Ġfar": 877,
      "enny": 878,
      "Ġready": 879,
      "urt": 880,
      "dded": 881,
      "Ġvoice": 882,
      "ak": 883,
      "ng": 884,
      "port": 885,
      "Ġidea": 886,
      "Ġbit": 887,
      "Ġlist": 888,
      "Ġmor": 889,
      "ect": 890,
      "Ġrock": 891,
      "Ġwonderful": 892,
      "ose": 893,
      "Ġtast": 894,
      "Ġwind": 895,
      "Ġmany": 896,
      "ĠWhen": 897,
      "Ġcarefully": 898,
      "Ġjumped": 899,
      "Ġmagical": 900,
      "Ġfilled": 901,
      "ff": 902,
      "Ġslow": 903,
      "Ġwaved": 904,
      "Ġcle": 905,
      "Ġdif": 906,
      "Ġpat": 907,
      "llow": 908,
      "Ġhaving": 909,
      "Ġrepl": 910,
      "Ġshin": 911,
      "illy": 912,
      "Ġnodded": 913,
      "Ġwarm": 914,
      "ail": 915,
      "ĠYou": 916,
      "Ġac": 917,
      "Ġsec": 918,
      "Ġlet": 919,
      "Ġwhy": 920,
      "ĠBob": 921,
      "Ġface": 922,
      "Ġgrabbed": 923,
      "ĠFrom": 924,
      "Ġcurious": 925,
      "ire": 926,
      "rough": 927,
      "Ġtired": 928,
      "Ġthrough": 929,
      "Ġreal": 930,
      "ĠAfter": 931,
      "Ġrunning": 932,
      "No": 933,
      "Th": 934,
      "ered": 935,
      "Ġcry": 936,
      "Ġnight": 937,
      "Ġwork": 938,
      "ush": 939,
      "Ġdelic": 940,
      "Ġcont": 941,
      "Ġstrange": 942,
      "co": 943,
      "li": 944,
      "Ġz": 945,
      "Ġball": 946,
      "Ġfood": 947,
      "Ġhere": 948,
      "Ġper": 949,
      "Ġpar": 950,
      "ished": 951,
      "Ġun": 952,
      "Ġunder": 953,
      "Ġste": 954,
      "ster": 955,
      "Ġshould": 956,
      "Ġhimself": 957,
      "Ġjo": 958,
      "Ġdog": 959,
      "Ġfollow": 960,
      "Ġbecame": 961,
      "eet": 962,
      "Ġwr": 963,
      "Ġfull": 964,
      "Ġgame": 965,
      "Ġgive": 966,
      "They": 967,
      "les": 968,
      "nts": 969,
      "Ġwalk": 970,
      "Ġprin": 971,
      "Ġlearned": 972,
      "Ġflowers": 973,
      "Ġreplied": 974,
      "ner": 975,
      "Ġhead": 976,
      "Ġpare": 977,
      "irst": 978,
      "Ġbeh": 979,
      "Ġuse": 980,
      "ĠJill": 981,
      "terf": 982,
      "Ġbutterf": 983,
      "ĠMommy": 984,
      "Ġdoor": 985,
      "Ġsweet": 986,
      "Ġtruck": 987,
      "Ġparents": 988,
      "est": 989,
      "Ġcreat": 990,
      "Ġpre": 991,
      "ated": 992,
      "\"\".": 993,
      "ching": 994,
      "Ġnear": 995,
      "ĠEm": 996,
      "aby": 997,
      "Ġexplor": 998,
      "Ġgrass": 999,
      "fere": 1000,
      "Ġpicked": 1001,
      "Ġarri": 1002,
      "Ġamaz": 1003,
      "Ġdiffere": 1004,
      "Ġsecret": 1005,
      "ft": 1006,
      "Ġtre": 1007,
      "outed": 1008,
      "Ġcra": 1009,
      "Ġdin": 1010,
      "ather": 1011,
      "Ġru": 1012,
      "Ġright": 1013,
      "ĠIn": 1014,
      "ĠMom": 1015,
      "Ġnoise": 1016,
      "Ġbright": 1017,
      "Ġpond": 1018,
      "Ġsurprise": 1019,
      "Ġcoming": 1020,
      "ced": 1021,
      "ized": 1022,
      "Ġsn": 1023,
      "Ġwood": 1024,
      "Ġgr": 1025,
      "leep": 1026,
      "Ġbeing": 1027,
      "Ġshare": 1028,
      "Ġshouted": 1029,
      "Ġkitt": 1030,
      "Ġseem": 1031,
      "Ġenjoyed": 1032,
      "Ġperf": 1033,
      "Ġarrived": 1034,
      "Ġdifferent": 1035,
      "Lucy": 1036,
      "hes": 1037,
      "Ġtal": 1038,
      "Ġsound": 1039,
      "Ġsqu": 1040,
      "Ġbow": 1041,
      "ount": 1042,
      "Ġloud": 1043,
      "Ġpa": 1044,
      "Ġkeep": 1045,
      "Ġbutterfly": 1046,
      "Molly": 1047,
      "ix": 1048,
      "mer": 1049,
      "ock": 1050,
      "where": 1051,
      "ĠN": 1052,
      "ĠR": 1053,
      "Ġice": 1054,
      "Ġtur": 1055,
      "Ġapp": 1056,
      "Ġtou": 1057,
      "Ġdone": 1058,
      "Ġdro": 1059,
      "Ġdeep": 1060,
      "Ġpain": 1061,
      "irt": 1062,
      "Ġreally": 1063,
      "ĠMia": 1064,
      "Ġstayed": 1065,
      "Ġglad": 1066,
      "ĠDaddy": 1067,
      "Ġamazing": 1068,
      "ually": 1069,
      "Ġhigh": 1070,
      "Ġhear": 1071,
      "Ġless": 1072,
      "Then": 1073,
      "ĠSue": 1074,
      "Ġred": 1075,
      "pping": 1076,
      "adow": 1077,
      "Ġclose": 1078,
      "Ġblue": 1079,
      "Ġtoys": 1080,
      "Ġsurprised": 1081,
      "Ġslowly": 1082,
      "Ġkitty": 1083,
      "Mommy": 1084,
      "ached": 1085,
      "ble": 1086,
      "rank": 1087,
      "ued": 1088,
      "Ġfinally": 1089,
      "Ġfirst": 1090,
      "Ġgi": 1091,
      "Ġmother": 1092,
      "Ġname": 1093,
      "Ġri": 1094,
      "Ġyummy": 1095,
      "ĠJimmy": 1096,
      "Ġhappily": 1097,
      "ards": 1098,
      "ĠLet": 1099,
      "Ġfav": 1100,
      "Ġable": 1101,
      "Ġsomeone": 1102,
      "Ġcold": 1103,
      "Ġbirds": 1104,
      "Ġleaves": 1105,
      "Ġamazed": 1106,
      "Ġstepped": 1107,
      "She": 1108,
      "iz": 1109,
      "oon": 1110,
      "ph": 1111,
      "zy": 1112,
      "Ġwhere": 1113,
      "Ġtop": 1114,
      "ream": 1115,
      "Ġmat": 1116,
      "imb": 1117,
      "Ġherself": 1118,
      "Ġjoy": 1119,
      "ĠTo": 1120,
      "Ġcla": 1121,
      "Ġclimb": 1122,
      "Ġfew": 1123,
      "room": 1124,
      "ventually": 1125,
      "Ġblack": 1126,
      "Ġhopped": 1127,
      "Ġflower": 1128,
      "Ġdream": 1129,
      "Ġcolor": 1130,
      "Ġmorning": 1131,
      "Ġdelicious": 1132,
      "Ġcontin": 1133,
      "lu": 1134,
      "so": 1135,
      "Ġsleep": 1136,
      "ined": 1137,
      "Ġgone": 1138,
      "Ġmet": 1139,
      "Ġgetting": 1140,
      "ape": 1141,
      "Ġshowed": 1142,
      "Ġstory": 1143,
      "Ġshiny": 1144,
      "Ġcontinued": 1145,
      "Her": 1146,
      "Mummy": 1147,
      "eddy": 1148,
      "Ġfree": 1149,
      "Ġle": 1150,
      "Ġlady": 1151,
      "Ġgre": 1152,
      "lled": 1153,
      "Ġbel": 1154,
      "Ġspot": 1155,
      "Ġbigger": 1156,
      "Ġsear": 1157,
      "ssed": 1158,
      "Ġfox": 1159,
      "Ġmost": 1160,
      "Ġanything": 1161,
      "Ġfaster": 1162,
      "Ġimport": 1163,
      "Ġused": 1164,
      "Ġremembered": 1165,
      "Ġclean": 1166,
      "Ġimportant": 1167,
      "At": 1168,
      "ol": 1169,
      "sc": 1170,
      "Ġfin": 1171,
      "leph": 1172,
      "Ġsail": 1173,
      "ung": 1174,
      "Ġonly": 1175,
      "ĠAll": 1176,
      "Ġalso": 1177,
      "Ġbrother": 1178,
      "Ġhole": 1179,
      "Ġlearn": 1180,
      "Ġlisten": 1181,
      "Ġexploring": 1182,
      "Ġseemed": 1183,
      "Ġlesson": 1184,
      "Can": 1185,
      "be": 1186,
      "ho": 1187,
      "ies": 1188,
      "nn": 1189,
      "sed": 1190,
      "Ġair": 1191,
      "Ġhor": 1192,
      "reed": 1193,
      "Ġfig": 1194,
      "Ġfro": 1195,
      "Ġdark": 1196,
      "isit": 1197,
      "Ġel": 1198,
      "Ġear": 1199,
      "irc": 1200,
      "ames": 1201,
      "Ġeverything": 1202,
      "Ġvisit": 1203,
      "ĠTimmy": 1204,
      "Ġcatch": 1205,
      "Ġpretty": 1206,
      "ffy": 1207,
      "Thank": 1208,
      "Ġtrees": 1209,
      "Ġdinner": 1210,
      "Ġperfect": 1211,
      "From": 1212,
      "Mom": 1213,
      "cher": 1214,
      "me": 1215,
      "Ġbad": 1216,
      "Ġhurt": 1217,
      "Ġfur": 1218,
      "Ġland": 1219,
      "Ġgent": 1220,
      "Ġpow": 1221,
      "Ġmon": 1222,
      "Ġbelie": 1223,
      "Ġrest": 1224,
      "Ġreached": 1225,
      "icy": 1226,
      "Ġmoment": 1227,
      "ross": 1228,
      "Ġadventures": 1229,
      "Ġtrying": 1230,
      "Ġhands": 1231,
      "Ġteacher": 1232,
      "Ġbehind": 1233,
      "Ġbelong": 1234,
      "Jimmy": 1235,
      "Ġsor": 1236,
      "Ġset": 1237,
      "Ġsuddenly": 1238,
      "Ġdri": 1239,
      "Ġple": 1240,
      "Ġnaught": 1241,
      "Ġyoung": 1242,
      "Ġhappened": 1243,
      "Ġspl": 1244,
      "Ġkid": 1245,
      "Ġword": 1246,
      "ĠWe": 1247,
      "Ġmove": 1248,
      "ours": 1249,
      "Ġlonger": 1250,
      "ĠGra": 1251,
      "Ġflo": 1252,
      "Ġacross": 1253,
      "Ġrealized": 1254,
      "Ġunderst": 1255,
      "Ġfigure": 1256,
      "Ġsorry": 1257,
      "Tim": 1258,
      "hy": 1259,
      "iet": 1260,
      "ul": 1261,
      "Ġtall": 1262,
      "Ġbar": 1263,
      "Ġbun": 1264,
      "Ġhar": 1265,
      "ren": 1266,
      "Ġprom": 1267,
      "Ġpea": 1268,
      "aring": 1269,
      "Ġsame": 1270,
      "iry": 1271,
      "ĠThere": 1272,
      "Ġra": 1273,
      "ĠMary": 1274,
      "Ġate": 1275,
      "ĠLittle": 1276,
      "Ġlove": 1277,
      "eared": 1278,
      "Ġworked": 1279,
      "Ġmust": 1280,
      "Ġmeadow": 1281,
      "Ġquiet": 1282,
      "Ġblank": 1283,
      "Ġneeded": 1284,
      "ĠAndy": 1285,
      "Ġdress": 1286,
      "Ġchildren": 1287,
      "Ġdisco": 1288,
      "Ġown": 1289,
      "Ġfollowed": 1290,
      "Ġcreature": 1291,
      "Ġtouch": 1292,
      "Ġbelieve": 1293,
      "Ġblanket": 1294,
      "'ll": 1295,
      "Hell": 1296,
      "br": 1297,
      "kay": 1298,
      "ling": 1299,
      "Ġve": 1300,
      "Ġam": 1301,
      "Ġsay": 1302,
      "Ġbaby": 1303,
      "Ġwasn": 1304,
      "Ġlake": 1305,
      "Ġlight": 1306,
      "Ġcirc": 1307,
      "Ġmaking": 1308,
      "Ġeleph": 1309,
      "Ġsoft": 1310,
      "ries": 1311,
      "Ġrelie": 1312,
      "Ġwhite": 1313,
      "Ġshop": 1314,
      "Ġatt": 1315,
      "epend": 1316,
      "Ġthank": 1317,
      "Ġenough": 1318,
      "Ġtowards": 1319,
      "Ġwoods": 1320,
      "ĠNow": 1321,
      "Ġfinished": 1322,
      "Ġbunny": 1323,
      "Hello": 1324,
      "Ġelephant": 1325,
      "After": 1326,
      "His": 1327,
      "bor": 1328,
      "oom": 1329,
      "pot": 1330,
      "hene": 1331,
      "Ġtri": 1332,
      "Ġsat": 1333,
      "Ġside": 1334,
      "Ġfix": 1335,
      "Ġcaught": 1336,
      "inging": 1337,
      "Ġpic": 1338,
      "Ġmess": 1339,
      "orm": 1340,
      "vered": 1341,
      "Ġem": 1342,
      "Ġstore": 1343,
      "Ġrain": 1344,
      "Ġyell": 1345,
      "Ġhappen": 1346,
      "Ġang": 1347,
      "Ġfriendly": 1348,
      "umb": 1349,
      "ĠMax": 1350,
      "Ġagreed": 1351,
      "Ġexplain": 1352,
      "andy": 1353,
      "Ġopen": 1354,
      "Ġpretend": 1355,
      "Ġfavor": 1356,
      "Ġhorse": 1357,
      "Ġelse": 1358,
      "Ġnaughty": 1359,
      "Ġpeace": 1360,
      "Ġrelieved": 1361,
      "henever": 1362,
      "ike": 1363,
      "more": 1364,
      "ton": 1365,
      "tur": 1366,
      "Ġtell": 1367,
      "Ġsnow": 1368,
      "Ġwon": 1369,
      "Ġheld": 1370,
      "Ġcool": 1371,
      "Ġgather": 1372,
      "Ġpro": 1373,
      "Ġmight": 1374,
      "eter": 1375,
      "Ġstone": 1376,
      "Ġyes": 1377,
      "Ġplant": 1378,
      "Ġretur": 1379,
      "Ġkn": 1380,
      "ĠTh": 1381,
      "ĠThat": 1382,
      "Ġothers": 1383,
      "ash": 1384,
      "Ġsunsh": 1385,
      "Ġfold": 1386,
      "Ġswim": 1387,
      "Ġanymore": 1388,
      "Ġlooks": 1389,
      "Ġarm": 1390,
      "Ġowl": 1391,
      "Ġpatient": 1392,
      "Ġwrong": 1393,
      "Ġprince": 1394,
      "Ġpres": 1395,
      "ĠEmma": 1396,
      "Ġclapped": 1397,
      "Ġfavorite": 1398,
      "Ġsunshine": 1399,
      "'re": 1400,
      "Don": 1401,
      "Tom": 1402,
      "We": 1403,
      "bo": 1404,
      "ich": 1405,
      "sp": 1406,
      "Ġsl": 1407,
      "Ġbuck": 1408,
      "Ġhill": 1409,
      "Ġgrow": 1410,
      "Ġpink": 1411,
      "ath": 1412,
      "idd": 1413,
      "anny": 1414,
      "cept": 1415,
      "Ġplane": 1416,
      "unk": 1417,
      "ĠMummy": 1418,
      "ĠAnn": 1419,
      "Ġmean": 1420,
      "ÅĵI": 1421,
      "Ġgrand": 1422,
      "ement": 1423,
      "Ġclosed": 1424,
      "Ġtasted": 1425,
      "Ġballoon": 1426,
      "Ġfrog": 1427,
      "Ġgentle": 1428,
      "Ġmonster": 1429,
      "Ġkids": 1430,
      "Ġpromised": 1431,
      "Ġpresent": 1432,
      "Ġbucket": 1433,
      "And": 1434,
      "har": 1435,
      "per": 1436,
      "sy": 1437,
      "to": 1438,
      "Ġ3": 1439,
      "Ġwander": 1440,
      "Ġbre": 1441,
      "Ġbor": 1442,
      "Ġbus": 1443,
      "Ġdr": 1444,
      "Ġob": 1445,
      "Ġgum": 1446,
      "Ġgho": 1447,
      "Ġpie": 1448,
      "Ġpus": 1449,
      "Ġmark": 1450,
      "lla": 1451,
      "ĠSpot": 1452,
      "Ġbee": 1453,
      "Ġstre": 1454,
      "Ġstand": 1455,
      "Ġrace": 1456,
      "ute": 1457,
      "Ġshirt": 1458,
      "ĠAmy": 1459,
      "ased": 1460,
      "Ġsunny": 1461,
      "ĠFrank": 1462,
      "Ġmyster": 1463,
      "Ġimag": 1464,
      "Ġoran": 1465,
      "Ġflying": 1466,
      "Ġparty": 1467,
      "Ġsnack": 1468,
      "Ġdrove": 1469,
      "luffy": 1470,
      "Ġgreen": 1471,
      "scape": 1472,
      "Ġghost": 1473,
      "Why": 1474,
      "ac": 1475,
      "de": 1476,
      "der": 1477,
      "ead": 1478,
      "fort": 1479,
      "Ġsch": 1480,
      "Ġbro": 1481,
      "Ġbush": 1482,
      "Ġhide": 1483,
      "Ġhours": 1484,
      "Ġlone": 1485,
      "Ġluck": 1486,
      "Ġcave": 1487,
      "Ġgu": 1488,
      "Ġpir": 1489,
      "Ġpers": 1490,
      "Ġmill": 1491,
      "Ġmummy": 1492,
      "ation": 1493,
      "ott": 1494,
      "ign": 1495,
      "ama": 1496,
      "elc": 1497,
      "Ġonto": 1498,
      "Ġwhich": 1499,
      "Ġsho": 1500,
      "Ġshared": 1501,
      "fused": 1502,
      "ract": 1503,
      "ĠAl": 1504,
      "Ġfell": 1505,
      "Ġhelped": 1506,
      "Ġalone": 1507,
      "Ġworry": 1508,
      "Ġworried": 1509,
      "Ġmeet": 1510,
      "ask": 1511,
      "Ġadm": 1512,
      "Ġfoot": 1513,
      "Ġsuch": 1514,
      "Ġjoin": 1515,
      "Ġgiant": 1516,
      "Ġriver": 1517,
      "Ġpiece": 1518,
      "Ġschool": 1519,
      "Ġpirate": 1520,
      "Do": 1521,
      "Finally": 1522,
      "Lily": 1523,
      "Oh": 1524,
      "aw": 1525,
      "cing": 1526,
      "gled": 1527,
      "ken": 1528,
      "lax": 1529,
      "une": 1530,
      "ze": 1531,
      "Ġtight": 1532,
      "Ġtreat": 1533,
      "Ġwelc": 1534,
      "Ġbott": 1535,
      "rel": 1536,
      "oup": 1537,
      "Ġdes": 1538,
      "ings": 1539,
      "Ġmin": 1540,
      "Ġthin": 1541,
      "ord": 1542,
      "cket": 1543,
      "iling": 1544,
      "Ġforg": 1545,
      "Ġsmiling": 1546,
      "Ġrelax": 1547,
      "Ġspe": 1548,
      "Ġspent": 1549,
      "Ġlife": 1550,
      "Ġexciting": 1551,
      "Ġlost": 1552,
      "Ġwhole": 1553,
      "Ġvi": 1554,
      "ĠWith": 1555,
      "Ġbrought": 1556,
      "Ġblock": 1557,
      "Ġknee": 1558,
      "Ġpocket": 1559,
      "ĠGary": 1560,
      "Ġwondered": 1561,
      "Ġimp": 1562,
      "Ġbuild": 1563,
      "Ġwaited": 1564,
      "Ġdanger": 1565,
      "Ġtown": 1566,
      "Ġlistened": 1567,
      "Ġtalk": 1568,
      "ĠTogether": 1569,
      "Ġcolorful": 1570,
      "Ġbreak": 1571,
      "Bob": 1572,
      "air": 1573,
      "oc": 1574,
      "red": 1575,
      "sw": 1576,
      "Ġwall": 1577,
      "Ġbag": 1578,
      "Ġbath": 1579,
      "Ġhung": 1580,
      "Ġfall": 1581,
      "erful": 1582,
      "Ġcake": 1583,
      "Ġcast": 1584,
      "Ġcount": 1585,
      "Ġokay": 1586,
      "ater": 1587,
      "iss": 1588,
      "Ġthink": 1589,
      "Ġeventually": 1590,
      "Ġbell": 1591,
      "ĠJenny": 1592,
      "Ġspo": 1593,
      "Ġspark": 1594,
      "Ġansw": 1595,
      "ĠBilly": 1596,
      "Ġexcitement": 1597,
      "Ġmod": 1598,
      "Ġmoved": 1599,
      "ĠFluffy": 1600,
      "Ġlaughing": 1601,
      "Ġpoin": 1602,
      "Ġdaddy": 1603,
      "Ġremind": 1604,
      "Ġpulled": 1605,
      "Ġleave": 1606,
      "thy": 1607,
      "thday": 1608,
      "Ġmoral": 1609,
      "Ġpath": 1610,
      "ĠInside": 1611,
      "Ġheart": 1612,
      "Ġspotted": 1613,
      "Ġplease": 1614,
      "Ġunderstand": 1615,
      "Ġharbor": 1616,
      "Ġyellow": 1617,
      "Ġangry": 1618,
      "Ġexplained": 1619,
      "Ġgathered": 1620,
      "Ġreturned": 1621,
      "Ġarms": 1622,
      "Ġdrink": 1623,
      "Ġlonely": 1624,
      "Ġforgot": 1625,
      "As": 1626,
      "Every": 1627,
      "Wow": 1628,
      "av": 1629,
      "ek": 1630,
      "ele": 1631,
      "la": 1632,
      "ming": 1633,
      "sic": 1634,
      "Ġtaking": 1635,
      "Ġsit": 1636,
      "Ġwet": 1637,
      "Ġfight": 1638,
      "oun": 1639,
      "Ġheal": 1640,
      "Ġcher": 1641,
      "Ġcele": 1642,
      "Ġdry": 1643,
      "Ġpack": 1644,
      "less": 1645,
      "Ġthough": 1646,
      "ance": 1647,
      "etle": 1648,
      "Ġinst": 1649,
      "Ġbeetle": 1650,
      "Ġstu": 1651,
      "keep": 1652,
      "Ġyard": 1653,
      "Ġwell": 1654,
      "unch": 1655,
      "Ġreli": 1656,
      "Ġneigh": 1657,
      "Ġbutton": 1658,
      "icop": 1659,
      "Ġhelicop": 1660,
      "Ġnote": 1661,
      "Ġnothing": 1662,
      "icken": 1663,
      "ield": 1664,
      "Ġcho": 1665,
      "Ġchicken": 1666,
      "Ġbirthday": 1667,
      "Ġcoin": 1668,
      "ĠEverywhere": 1669,
      "Ġbran": 1670,
      "âĤ¬âĢ": 1671,
      "Ġwatch": 1672,
      "Ġcomp": 1673,
      "Ġbuy": 1674,
      "Ġstories": 1675,
      "Ġtaste": 1676,
      "Ġshining": 1677,
      "This": 1678,
      "Ġzi": 1679,
      "ountain": 1680,
      "Ġpass": 1681,
      "Ġappeared": 1682,
      "Ġpaint": 1683,
      "olin": 1684,
      "ĠGrace": 1685,
      "Ġshopkeep": 1686,
      "ĠThis": 1687,
      "Ġbroken": 1688,
      "Ġperson": 1689,
      "Ġspeed": 1690,
      "Ġviolin": 1691,
      "Ġcastle": 1692,
      "Ġcelebr": 1693,
      "Ġreliable": 1694,
      "Ġhelicopter": 1695,
      "Ġshopkeeper": 1696,
      "Look": 1697,
      "Mia": 1698,
      "app": 1699,
      "bar": 1700,
      "cream": 1701,
      "elly": 1702,
      "ove": 1703,
      "rated": 1704,
      "ual": 1705,
      "yard": 1706,
      "hel": 1707,
      "Ġav": 1708,
      "Ġwom": 1709,
      "Ġwide": 1710,
      "Ġwished": 1711,
      "Ġbite": 1712,
      "read": 1713,
      "Ġline": 1714,
      "Ġlunch": 1715,
      "Ġduck": 1716,
      "Ġdist": 1717,
      "Ġph": 1718,
      "Ġpig": 1719,
      "idge": 1720,
      "ĠSandy": 1721,
      "Ġescape": 1722,
      "Ġstop": 1723,
      "Ġride": 1724,
      "key": 1725,
      "Ġplan": 1726,
      "Ġsmelly": 1727,
      "ĠJim": 1728,
      "ĠJames": 1729,
      "Ġspread": 1730,
      "illage": 1731,
      "oney": 1732,
      "ĠBe": 1733,
      "Ġfairy": 1734,
      "Ġmusic": 1735,
      "?\"\".": 1736,
      "Ġvillage": 1737,
      "Ġcoll": 1738,
      "ĠWhat": 1739,
      "Ġhuge": 1740,
      "gest": 1741,
      "Ġbeach": 1742,
      "inky": 1743,
      "Ġdance": 1744,
      "Ġcheered": 1745,
      "Ġeating": 1746,
      "Ġdisapp": 1747,
      "Ġcolour": 1748,
      "Ġfarmer": 1749,
      "Ġmetal": 1750,
      "Ġfurry": 1751,
      "Ġbelonged": 1752,
      "Ġwords": 1753,
      "ependable": 1754,
      "Ġembar": 1755,
      "iddle": 1756,
      "Ġmarket": 1757,
      "achel": 1758,
      "Ġwoman": 1759,
      "Ġembarra": 1760,
      "'d": 1761,
      "Amy": 1762,
      "Jane": 1763,
      "ass": 1764,
      "een": 1765,
      "ground": 1766,
      "mor": 1767,
      "ror": 1768,
      "ture": 1769,
      "uss": 1770,
      "ward": 1771,
      "Ġent": 1772,
      "Ġtun": 1773,
      "Ġadd": 1774,
      "Ġhur": 1775,
      "itc": 1776,
      "ity": 1777,
      "Ġfit": 1778,
      "Ġfire": 1779,
      "Ġfield": 1780,
      "Ġlit": 1781,
      "Ġcurt": 1782,
      "Ġpract": 1783,
      "Ġmir": 1784,
      "Ġmiddle": 1785,
      "art": 1786,
      "Ġsailed": 1787,
      "Ġinc": 1788,
      "ont": 1789,
      "Ġshel": 1790,
      "Ġrid": 1791,
      "igher": 1792,
      "Ġwithout": 1793,
      "Ġwear": 1794,
      "Ġforget": 1795,
      "Ġread": 1796,
      "Ġplayground": 1797,
      "Ġjet": 1798,
      "Ġdoll": 1799,
      "Ġdoes": 1800,
      "ĠElly": 1801,
      "ĠElla": 1802,
      "Ġcloud": 1803,
      "ager": 1804,
      "Ġeverywhere": 1805,
      "Ġcovered": 1806,
      "ustrated": 1807,
      "Ġeng": 1808,
      "Ġwatching": 1809,
      "ĠSoon": 1810,
      "Ġteach": 1811,
      "Ġfront": 1812,
      "ĠdonÃ¢": 1813,
      "Ġdanced": 1814,
      "Ġchest": 1815,
      "Ġcrab": 1816,
      "Ġcraw": 1817,
      "Ġbrightly": 1818,
      "Ġturned": 1819,
      "ize": 1820,
      "Ġmatter": 1821,
      "ular": 1822,
      "Ġtrip": 1823,
      "Ġpicture": 1824,
      "Ġstreet": 1825,
      "Ġmysterious": 1826,
      "fortable": 1827,
      "Ġlucky": 1828,
      "Ġblocks": 1829,
      "Ġdangerous": 1830,
      "Ġcurtain": 1831,
      "Hi": 1832,
      "In": 1833,
      "Little": 1834,
      "Sarah": 1835,
      "bway": 1836,
      "eb": 1837,
      "ere": 1838,
      "fant": 1839,
      "ped": 1840,
      "rot": 1841,
      "set": 1842,
      "Ġ'": 1843,
      "Ġtin": 1844,
      "Ġtaught": 1845,
      "Ġtail": 1846,
      "Ġteddy": 1847,
      "edient": 1848,
      "Ġbook": 1849,
      "Ġtoday": 1850,
      "Ġhat": 1851,
      "Ġhid": 1852,
      "Ġhook": 1853,
      "Ġhigher": 1854,
      "erous": 1855,
      "Ġlate": 1856,
      "Ġcour": 1857,
      "Ġcream": 1858,
      "Ġoce": 1859,
      "Ġgen": 1860,
      "Ġglow": 1861,
      "Ġpast": 1862,
      "Ġpap": 1863,
      "Ġpenny": 1864,
      "ence": 1865,
      "enry": 1866,
      "anic": 1867,
      "ĠSally": 1868,
      "Ġeager": 1869,
      "Ġinfant": 1870,
      "Ġstret": 1871,
      "Ġrake": 1872,
      "sting": 1873,
      "ention": 1874,
      "Ġsmell": 1875,
      "Ġrec": 1876,
      "Ġshy": 1877,
      "Ġspin": 1878,
      "Ġanother": 1879,
      "Ġlion": 1880,
      "ĠTommy": 1881,
      "Ġsea": 1882,
      "ĠBen": 1883,
      "Ġdoing": 1884,
      "Ġdoct": 1885,
      "Ġbackyard": 1886,
      "Ġwouldn": 1887,
      "Ġhelping": 1888,
      "Ġhelpful": 1889,
      "Ġalong": 1890,
      "ĠWhenever": 1891,
      "Ġintere": 1892,
      "Ġbecome": 1893,
      "Ġmole": 1894,
      "ĠFinally": 1895,
      "Ġlaugh": 1896,
      "Ġswing": 1897,
      "ions": 1898,
      "Ġhopping": 1899,
      "Ġanyone": 1900,
      "Soon": 1901,
      "Ġcarrot": 1902,
      "Ġbears": 1903,
      "Ġplaces": 1904,
      "Ġfrustrated": 1905,
      "Ġenjoying": 1906,
      "Ġstranger": 1907,
      "Ġsubway": 1908,
      "ĠChar": 1909,
      "Ġwindow": 1910,
      "Ġparade": 1911,
      "Ġjog": 1912,
      "Ġprint": 1913,
      "Ġrude": 1914,
      "Ġsquash": 1915,
      "Ġdropped": 1916,
      "blem": 1917,
      "Ġclimbed": 1918,
      "Ġleft": 1919,
      "Ġsailor": 1920,
      "Ġdriver": 1921,
      "Ġpeaceful": 1922,
      "Ġswimming": 1923,
      "ĠAnna": 1924,
      "Ġobedient": 1925,
      "Ġstanding": 1926,
      "Ġorange": 1927,
      "Ġwelcome": 1928,
      "Ġspoke": 1929,
      "Ġbranch": 1930,
      "Ġembarrassed": 1931,
      "Ġtuna": 1932,
      "Ġmirror": 1933,
      "Ġcourse": 1934,
      "Ġocean": 1935,
      "Ġgenerous": 1936,
      "Ġdoctor": 1937,
      "Dad": 1938,
      "My": 1939,
      "Max": 1940,
      "To": 1941,
      "ball": 1942,
      "hile": 1943,
      "land": 1944,
      "ond": 1945,
      "ru": 1946,
      "reddy": 1947,
      "sing": 1948,
      "ying": 1949,
      "zer": 1950,
      "zag": 1951,
      "ĠK": 1952,
      "Ġour": 1953,
      "Ġtid": 1954,
      "Ġwise": 1955,
      "Ġwings": 1956,
      "ndma": 1957,
      "ince": 1958,
      "iness": 1959,
      "Ġhot": 1960,
      "Ġfis": 1961,
      "Ġheav": 1962,
      "Ġdaught": 1963,
      "Ġpet": 1964,
      "Ġpil": 1965,
      "Ġmoney": 1966,
      "enise": 1967,
      "Ġsol": 1968,
      "Ġnap": 1969,
      "Ġrug": 1970,
      "Ġrare": 1971,
      "ighed": 1972,
      "igzag": 1973,
      "rior": 1974,
      "imes": 1975,
      "Ġweek": 1976,
      "Ġtimes": 1977,
      "Ġresp": 1978,
      "ĠJust": 1979,
      "Ġext": 1980,
      "Ġshore": 1981,
      "Ġplayful": 1982,
      "Ġkick": 1983,
      "Ġkite": 1984,
      "Ġlive": 1985,
      "Ġjob": 1986,
      "Ġjung": 1987,
      "urse": 1988,
      "Ġfunny": 1989,
      "Ġvine": 1990,
      "Ġcozy": 1991,
      "ÅĵLet": 1992,
      "Ġbring": 1993,
      "Ġbrown": 1994,
      "ately": 1995,
      "Ġtrust": 1996,
      "Ġtrue": 1997,
      "Ġwoke": 1998,
      "Ġcube": 1999,
      "Ġcomfortable": 2000,
      "Ġwarrior": 2001,
      "Ġconfused": 2002,
      "Ġforever": 2003,
      "Ġfrown": 2004,
      "Ġdancing": 2005,
      "Ġrocket": 2006,
      "Ġdelicate": 2007,
      "Ġzip": 2008,
      "Ġnearby": 2009,
      "Ġtalking": 2010,
      "ĠRachel": 2011,
      "Ġturn": 2012,
      "Ġblueber": 2013,
      "Ġmatch": 2014,
      "Ġfreezer": 2015,
      "Ġsearching": 2016,
      "Ġsplas": 2017,
      "Ġfloat": 2018,
      "ult": 2019,
      "Ġcircle": 2020,
      "Ġproblem": 2021,
      "Ġbottom": 2022,
      "Ġpointed": 2023,
      "Ġreminded": 2024,
      "Ġcherry": 2025,
      "Ġphone": 2026,
      "Ġtiny": 2027,
      "Ġpaper": 2028,
      "Ġrecord": 2029,
      "Ġinteresting": 2030,
      "Ġdaughter": 2031,
      "Ġpilot": 2032,
      "Ġjungle": 2033,
      "ÅĵLetÃ¢": 2034,
      "Come": 2035,
      "If": 2036,
      "Just": 2037,
      "Of": 2038,
      "Sam": 2039,
      "Sue": 2040,
      "ae": 2041,
      "bow": 2042,
      "baby": 2043,
      "cle": 2044,
      "dge": 2045,
      "hin": 2046,
      "iers": 2047,
      "kin": 2048,
      "man": 2049,
      "nie": 2050,
      "old": 2051,
      "par": 2052,
      "ray": 2053,
      "sab": 2054,
      "ti": 2055,
      "ĠO": 2056,
      "ĠOn": 2057,
      "Ġact": 2058,
      "Ġself": 2059,
      "Ġsinging": 2060,
      "Ġsign": 2061,
      "Ġwis": 2062,
      "Ġwra": 2063,
      "innie": 2064,
      "Ġba": 2065,
      "Ġbri": 2066,
      "Ġbike": 2067,
      "Ġbask": 2068,
      "Ġhay": 2069,
      "Ġhop": 2070,
      "ert": 2071,
      "eros": 2072,
      "Ġcut": 2073,
      "Ġcand": 2074,
      "Ġcush": 2075,
      "Ġdiz": 2076,
      "Ġgem": 2077,
      "Ġped": 2078,
      "Ġpen": 2079,
      "Ġpurp": 2080,
      "Ġmind": 2081,
      "Ġmountain": 2082,
      "ari": 2083,
      "llo": 2084,
      "aybe": 2085,
      "ider": 2086,
      "ney": 2087,
      "Ġhair": 2088,
      "Ġhang": 2089,
      "Ġhairy": 2090,
      "Ġitch": 2091,
      "ldiers": 2092,
      "irrel": 2093,
      "Ġsoldiers": 2094,
      "Ġstuck": 2095,
      "Ġrhin": 2096,
      "utes": 2097,
      "ĠIÃ¢": 2098,
      "ilk": 2099,
      "alk": 2100,
      "acket": 2101,
      "chanic": 2102,
      "ĠJune": 2103,
      "Ġshr": 2104,
      "Ġshap": 2105,
      "Ġant": 2106,
      "ummer": 2107,
      "Ġjour": 2108,
      "Ġjacket": 2109,
      "Ġseed": 2110,
      "ĠBeep": 2111,
      "ĠBenny": 2112,
      "ĠBinky": 2113,
      "Ġdove": 2114,
      "!\"\"\"": 2115,
      "!\"\".": 2116,
      "ĠEnd": 2117,
      "Ġcloth": 2118,
      "Ġfeet": 2119,
      "Ġmechanic": 2120,
      "Ġrolled": 2121,
      "Ġisland": 2122,
      "Ġmakes": 2123,
      "aser": 2124,
      "usual": 2125,
      "Ġqueen": 2126,
      "Ġmoving": 2127,
      "ourite": 2128,
      "Ġpol": 2129,
      "Ġpole": 2130,
      "Joe": 2131,
      "Ġfridge": 2132,
      "Ġtower": 2133,
      "Ġrocks": 2134,
      "Ġaccept": 2135,
      "Ġcrying": 2136,
      "Ġuni": 2137,
      "Ġunusual": 2138,
      "ĠEmily": 2139,
      "Ġexplored": 2140,
      "Ġgroup": 2141,
      "Ġsounded": 2142,
      "Ġsquirrel": 2143,
      "Ġpainter": 2144,
      "Ġfavourite": 2145,
      "Ġcolors": 2146,
      "Ġleg": 2147,
      "Ġsearch": 2148,
      "ola": 2149,
      "Ġcircles": 2150,
      "Ġthankful": 2151,
      "Ġrainbow": 2152,
      "Ġslide": 2153,
      "Ġgrandbaby": 2154,
      "Ġpushed": 2155,
      "Ġimagined": 2156,
      "Ġshoot": 2157,
      "Ġadmire": 2158,
      "Ġminutes": 2159,
      "oceros": 2160,
      "Ġmodel": 2161,
      "laire": 2162,
      "Ġpassport": 2163,
      "ussel": 2164,
      "Ġengine": 2165,
      "Ġextra": 2166,
      "sabel": 2167,
      "Ġselfish": 2168,
      "Ġbasket": 2169,
      "Ġcushion": 2170,
      "Ġdizzy": 2171,
      "Ġpurple": 2172,
      "Ġrhinoceros": 2173,
      "Ġshapes": 2174,
      "Ġjourney": 2175,
      "aur": 2176,
      "eo": 2177,
      "eer": 2178,
      "fra": 2179,
      "gg": 2180,
      "gn": 2181,
      "gle": 2182,
      "loo": 2183,
      "loom": 2184,
      "nic": 2185,
      "pill": 2186,
      "ten": 2187,
      "tti": 2188,
      "vous": 2189,
      "Ġind": 2190,
      "heart": 2191,
      "hetti": 2192,
      "Ġtra": 2193,
      "Ġturt": 2194,
      "Ġafra": 2195,
      "Ġser": 2196,
      "Ġsitt": 2197,
      "Ġsight": 2198,
      "Ġsummer": 2199,
      "Ġwin": 2200,
      "Ġwit": 2201,
      "Ġwhenever": 2202,
      "Ġwand": 2203,
      "Ġbreat": 2204,
      "Ġboun": 2205,
      "Ġtoug": 2206,
      "Ġfake": 2207,
      "erpill": 2208,
      "ervous": 2209,
      "Ġhello": 2210,
      "Ġlast": 2211,
      "Ġdea": 2212,
      "inger": 2213,
      "Ġoct": 2214,
      "Ġgar": 2215,
      "Ġgig": 2216,
      "Ġgif": 2217,
      "Ġpour": 2218,
      "Ġpump": 2219,
      "Ġpool": 2220,
      "Ġmis": 2221,
      "Ġmama": 2222,
      "Ġmilk": 2223,
      "ature": 2224,
      "There": 2225,
      "ness": 2226,
      "lease": 2227,
      "Ġhas": 2228,
      "Ġsack": 2229,
      "anged": 2230,
      "Ġeas": 2231,
      "Ġinv": 2232,
      "Ġur": 2233,
      "Ġstack": 2234,
      "Ġstood": 2235,
      "Ġstick": 2236,
      "Ġnervous": 2237,
      "amp": 2238,
      "ents": 2239,
      "ĠIsabel": 2240,
      "aled": 2241,
      "Ġweak": 2242,
      "Ġreco": 2243,
      "Ġshook": 2244,
      "Ġshadow": 2245,
      "Ġasking": 2246,
      "Ġspag": 2247,
      "umber": 2248,
      "Ġju": 2249,
      "Ġjar": 2250,
      "Ġgoat": 2251,
      "ured": 2252,
      "Ġsepar": 2253,
      "ĠBloom": 2254,
      ".\"\"\"": 2255,
      "ĠEventually": 2256,
      "Ġclum": 2257,
      "Ġlog": 2258,
      "Ġnosy": 2259,
      "iest": 2260,
      "Ġchased": 2261,
      "Ġmush": 2262,
      "opus": 2263,
      "Ġval": 2264,
      "Ġcoat": 2265,
      "ĠWhile": 2266,
      "ĠDanny": 2267,
      "ĠDenise": 2268,
      "Ġbrush": 2269,
      "asure": 2270,
      "Ġkey": 2271,
      "Ġstrug": 2272,
      "ushed": 2273,
      "usie": 2274,
      "Ġenv": 2275,
      "osaur": 2276,
      "umpy": 2277,
      "Ġcaterpill": 2278,
      "aul": 2279,
      "Ġknowing": 2280,
      "Ġarrow": 2281,
      "Ġdelight": 2282,
      "Ġorgan": 2283,
      "Ġkinds": 2284,
      "Ġflu": 2285,
      "Ġcheerful": 2286,
      "Ġsafely": 2287,
      "Ġbedroom": 2288,
      "Ġfarm": 2289,
      "Ġtasty": 2290,
      "Ġwrite": 2291,
      "Ġsweetheart": 2292,
      "Ġcrane": 2293,
      "Ġrubbed": 2294,
      "Ġperform": 2295,
      "Ġsounds": 2296,
      "ĠRussel": 2297,
      "Ġturkey": 2298,
      "Ġtouched": 2299,
      "Ġunderstood": 2300,
      "Ġdiscover": 2301,
      "Ġvest": 2302,
      "ependent": 2303,
      "Ġpicnic": 2304,
      "umbled": 2305,
      "Ġstones": 2306,
      "Ġwandered": 2307,
      "Ġbusy": 2308,
      "Ġbushes": 2309,
      "Ġpushing": 2310,
      "ĠAlice": 2311,
      "Ġfootball": 2312,
      "Ġbathroom": 2313,
      "Ġhungry": 2314,
      "Ġanswer": 2315,
      "Ġinstead": 2316,
      "Ġneighb": 2317,
      "Ġcelebrate": 2318,
      "Ġcollec": 2319,
      "Ġdisappeared": 2320,
      "Ġcolourful": 2321,
      "Ġhurry": 2322,
      "Ġpictures": 2323,
      "Ġtidy": 2324,
      "Ġheavy": 2325,
      "Ġbald": 2326,
      "Ġcandle": 2327,
      "Ġindependent": 2328,
      "Ġturtle": 2329,
      "Ġafraid": 2330,
      "Ġsitting": 2331,
      "Ġwitch": 2332,
      "Ġbreath": 2333,
      "Ġtough": 2334,
      "Ġdeaf": 2335,
      "Ġoctopus": 2336,
      "Ġgarage": 2337,
      "Ġpumpkin": 2338,
      "Ġrecogn": 2339,
      "Ġspaghetti": 2340,
      "Ġmushroom": 2341,
      "Ġcaterpillar": 2342,
      "Be": 2343,
      "Mum": 2344,
      "Now": 2345,
      "Where": 2346,
      "Zigzag": 2347,
      "cage": 2348,
      "cient": 2349,
      "ccept": 2350,
      "gly": 2351,
      "hie": 2352,
      "io": 2353,
      "ier": 2354,
      "late": 2355,
      "ment": 2356,
      "mined": 2357,
      "munk": 2358,
      "nam": 2359,
      "nger": 2360,
      "ranny": 2361,
      "yer": 2362,
      "year": 2363,
      "ĠNo": 2364,
      "Ġtable": 2365,
      "Ġaw": 2366,
      "Ġsilly": 2367,
      "Ġwore": 2368,
      "Ġwish": 2369,
      "Ġwip": 2370,
      "inked": 2371,
      "inal": 2372,
      "ination": 2373,
      "Ġbur": 2374,
      "Ġblew": 2375,
      "Ġhoo": 2376,
      "eri": 2377,
      "Ġhedge": 2378,
      "Ġlaw": 2379,
      "Ġlying": 2380,
      "Ġcor": 2381,
      "Ġcase": 2382,
      "Ġcute": 2383,
      "Ġdi": 2384,
      "Ġdir": 2385,
      "Ġdirt": 2386,
      "Ġdeter": 2387,
      "Ġgas": 2388,
      "Ġgate": 2389,
      "Ġpile": 2390,
      "Ġpurse": 2391,
      "Ġmad": 2392,
      "Ġmine": 2393,
      "arn": 2394,
      "isted": 2395,
      "Ġhanger": 2396,
      "imp": 2397,
      "Ġegg": 2398,
      "ĠHenry": 2399,
      "Ġsock": 2400,
      "cky": 2401,
      "Ġbeg": 2402,
      "Ġstep": 2403,
      "Ġstable": 2404,
      "Ġstumbled": 2405,
      "othes": 2406,
      "Ġrad": 2407,
      "Ġrushed": 2408,
      "iginal": 2409,
      "Ġyach": 2410,
      "Ġyarn": 2411,
      "Ġdays": 2412,
      "ilt": 2413,
      "ilty": 2414,
      "Ġweight": 2415,
      "Ġforward": 2416,
      "Ġsmo": 2417,
      "Ġref": 2418,
      "Ġwhis": 2419,
      "Ġash": 2420,
      "Ġask": 2421,
      "âĤ¬.": 2422,
      "Ġspade": 2423,
      "Ġspoon": 2424,
      "Ġspicy": 2425,
      "Ġspider": 2426,
      "Ġancient": 2427,
      "Ġkitc": 2428,
      "illie": 2429,
      "rag": 2430,
      "Ġjeep": 2431,
      "ĠMr": 2432,
      "ĠMeri": 2433,
      "ĠAli": 2434,
      "ĠAccept": 2435,
      "ĠBear": 2436,
      "Ġsometimes": 2437,
      "ĠEven": 2438,
      "Ġclothes": 2439,
      "ĠLeo": 2440,
      "Ġfeather": 2441,
      "Ġstart": 2442,
      "Ġworries": 2443,
      "ief": 2444,
      "Ġchip": 2445,
      "Ġchose": 2446,
      "Ġchalk": 2447,
      "ophie": 2448,
      "Ġmeant": 2449,
      "Ġvase": 2450,
      "Ġroad": 2451,
      "ife": 2452,
      "Ġscre": 2453,
      "Ġscary": 2454,
      "Ġbirdcage": 2455,
      "ÅĵYou": 2456,
      "pty": 2457,
      "Ġblinked": 2458,
      "Ġenorm": 2459,
      "Ġgrace": 2460,
      "Ġsadly": 2461,
      "Ġtwist": 2462,
      "ateful": 2463,
      "Ġways": 2464,
      "Ġhold": 2465,
      "bbing": 2466,
      "Ġtrou": 2467,
      "Ġtrunk": 2468,
      "orts": 2469,
      "Ġremain": 2470,
      "ĠGranny": 2471,
      "Ġleak": 2472,
      "Ġboats": 2473,
      "ction": 2474,
      "Ġjumping": 2475,
      "Ġdeligh": 2476,
      "Ġornam": 2477,
      "Ġoriginal": 2478,
      "Ġbubb": 2479,
      "Ġbuilt": 2480,
      "Ġusing": 2481,
      "Ġbugs": 2482,
      "Ġglove": 2483,
      "Ġstronger": 2484,
      "ĠPeter": 2485,
      "ĠClaire": 2486,
      "Ġclever": 2487,
      "ailable": 2488,
      "Ġcontent": 2489,
      "colate": 2490,
      "Ġzeb": 2491,
      "Ġjoke": 2492,
      "Ġuseful": 2493,
      "Ġcreative": 2494,
      "Ġdinosaur": 2495,
      "Ġrubbing": 2496,
      "Ġgrumpy": 2497,
      "Ġgrateful": 2498,
      "Ġbows": 2499,
      "Ġpale": 2500,
      "ocked": 2501,
      "Ġappro": 2502,
      "Ġsleepy": 2503,
      "Ġsearched": 2504,
      "Ġairport": 2505,
      "Ġears": 2506,
      "Ġpower": 2507,
      "Ġpowder": 2508,
      "Ġdrive": 2509,
      "Ġsplash": 2510,
      "ĠGrandma": 2511,
      "Ġbarn": 2512,
      "Ġdiscovery": 2513,
      "Ġsaying": 2514,
      "Ġattic": 2515,
      "Ġmessy": 2516,
      "Ġempty": 2517,
      "Ġpretended": 2518,
      "Ġknife": 2519,
      "board": 2520,
      "body": 2521,
      "Ġplanet": 2522,
      "Ġballoons": 2523,
      "Ġguard": 2524,
      "Ġguilty": 2525,
      "Ġshoes": 2526,
      "Ġpieces": 2527,
      "Ġdesk": 2528,
      "Ġhealthy": 2529,
      "Ġchocolate": 2530,
      "âĤ¬âĢľ": 2531,
      "Ġzipping": 2532,
      "Ġavailable": 2533,
      "Ġinclu": 2534,
      "Ġcurtains": 2535,
      "Ġfishing": 2536,
      "Ġsplashed": 2537,
      "Ġpedal": 2538,
      "Ġpolite": 2539,
      "Ġshooting": 2540,
      "Ġclumsy": 2541,
      "Ġenvious": 2542,
      "Ġhoop": 2543,
      "Ġlawyer": 2544,
      "Ġcorner": 2545,
      "Ġdirty": 2546,
      "Ġdetermined": 2547,
      "Ġradio": 2548,
      "Ġyacht": 2549,
      "Ġkitchen": 2550,
      "ĠAcceptor": 2551,
      "Ġchipmunk": 2552,
      "Ġenormous": 2553,
      "Ġdelighted": 2554,
      "Ġornaments": 2555,
      "Ġzebra": 2556,
      "Ann": 2557,
      "Ben": 2558,
      "Char": 2559,
      "Em": 2560,
      "Frank": 2561,
      "Jim": 2562,
      "Mary": 2563,
      "Okay": 2564,
      "Sure": 2565,
      "Well": 2566,
      "ale": 2567,
      "aced": 2568,
      "cil": 2569,
      "ches": 2570,
      "ded": 2571,
      "ee": 2572,
      "ext": 2573,
      "fic": 2574,
      "ges": 2575,
      "gular": 2576,
      "hood": 2577,
      "hive": 2578,
      "ipped": 2579,
      "iant": 2580,
      "ience": 2581,
      "pack": 2582,
      "uce": 2583,
      "wards": 2584,
      "Ġer": 2585,
      "head": 2586,
      "Ġtied": 2587,
      "Ġahead": 2588,
      "Ġsne": 2589,
      "Ġsug": 2590,
      "Ġsur": 2591,
      "ina": 2592,
      "ines": 2593,
      "Ġwag": 2594,
      "Ġwake": 2595,
      "Ġwaist": 2596,
      "Ġtomor": 2597,
      "Ġhit": 2598,
      "rew": 2599,
      "ita": 2600,
      "ited": 2601,
      "Ġfan": 2602,
      "Ġlad": 2603,
      "Ġlater": 2604,
      "Ġcou": 2605,
      "Ġcal": 2606,
      "Ġdig": 2607,
      "Ġdependable": 2608,
      "Ġpin": 2609,
      "Ġpop": 2610,
      "Ġpudd": 2611,
      "Ġmar": 2612,
      "Ġmay": 2613,
      "Ġmout": 2614,
      "Ġmug": 2615,
      "Ġmention": 2616,
      "lliant": 2617,
      "ayak": 2618,
      "ens": 2619,
      "Ġsaf": 2620,
      "Ġsand": 2621,
      "Ġsang": 2622,
      "Ġsauce": 2623,
      "Ġthumb": 2624,
      "Ġthrew": 2625,
      "ĠSome": 2626,
      "ĠSusie": 2627,
      "ĠSophie": 2628,
      "ete": 2629,
      "ird": 2630,
      "cked": 2631,
      "Ġbelow": 2632,
      "Ġstir": 2633,
      "Ġstra": 2634,
      "Ġnature": 2635,
      "ote": 2636,
      "Ġround": 2637,
      "Ġoften": 2638,
      "oof": 2639,
      "ila": 2640,
      "Ġweal": 2641,
      "Ġwearing": 2642,
      "Ġrequ": 2643,
      "Ġrefused": 2644,
      "Ġregular": 2645,
      "Ġkayak": 2646,
      "Ġbiggest": 2647,
      "Ġlily": 2648,
      "icia": 2649,
      "ĠMan": 2650,
      "ĠMae": 2651,
      "ĠMillie": 2652,
      "Ġsell": 2653,
      "Ġclay": 2654,
      "ĠLila": 2655,
      "Ġexcitedly": 2656,
      "aged": 2657,
      "ears": 2658,
      "getable": 2659,
      "Ġnose": 2660,
      "Ġchas": 2661,
      "que": 2662,
      "Ġmanaged": 2663,
      "ĠJacky": 2664,
      "ĠDependable": 2665,
      "Ġscare": 2666,
      "ÅĵIt": 2667,
      "ÅĵYes": 2668,
      "ÅĵNo": 2669,
      "ÅĵCan": 2670,
      "Ġstring": 2671,
      "Ġskipped": 2672,
      "Ġsunset": 2673,
      "Ġener": 2674,
      "Ġgrab": 2675,
      "ĠFin": 2676,
      "Ġpoor": 2677,
      "Ġsmaller": 2678,
      "Ġoffer": 2679,
      "Ġswam": 2680,
      "Ġhose": 2681,
      "bbon": 2682,
      "Ġlearnt": 2683,
      "Ġlearning": 2684,
      "Ġshowing": 2685,
      "Ġcarry": 2686,
      "Ġneedle": 2687,
      "Ġboxes": 2688,
      "Hey": 2689,
      "ĠPete": 2690,
      "Ġdiffic": 2691,
      "Ġpart": 2692,
      "Ġwrote": 2693,
      "Ġbehave": 2694,
      "Ġprep": 2695,
      "ĠEmmy": 2696,
      "Ġtreasure": 2697,
      "Ġtalked": 2698,
      "Ġbowl": 2699,
      "ixie": 2700,
      "Ġgiven": 2701,
      "Ġgiving": 2702,
      "Ġrich": 2703,
      "Ġribbon": 2704,
      "Ġgrew": 2705,
      "Ġearth": 2706,
      "Ġpowerful": 2707,
      "Ġfloated": 2708,
      "Ġbarrel": 2709,
      "Ġlovely": 2710,
      "Ġdiscovered": 2711,
      "Ġvegetable": 2712,
      "Ġmessage": 2713,
      "Ġhappening": 2714,
      "Ġfolded": 2715,
      "Ġbored": 2716,
      "Ġborrow": 2717,
      "Ġbeef": 2718,
      "Ġbeehive": 2719,
      "Ġoranges": 2720,
      "Ġthinking": 2721,
      "airs": 2722,
      "Ġwalls": 2723,
      "Ġcounting": 2724,
      "Ġsparkly": 2725,
      "Ġanswered": 2726,
      "Ġpackage": 2727,
      "Ġstudy": 2728,
      "Ġchickens": 2729,
      "âĤ¬âĢĿ": 2730,
      "Ġzipped": 2731,
      "ĠBecky": 2732,
      "ĠCharlie": 2733,
      "Ġblueberries": 2734,
      "Ġwishes": 2735,
      "Ġwrapped": 2736,
      "Ġbrilliant": 2737,
      "Ġpencil": 2738,
      "Ġunique": 2739,
      "Ġserious": 2740,
      "Ġseparated": 2741,
      "Ġfluffy": 2742,
      "Ġneighbour": 2743,
      "Ġcollecting": 2744,
      "Ġfeathers": 2745,
      "Ġscreamed": 2746,
      "Ġeraser": 2747,
      "Ġtomorrow": 2748,
      "Ġladder": 2749,
      "Ġmouth": 2750,
      "Ġrequest": 2751,
      "Ġchasing": 2752,
      "Ġdifficult": 2753,
      "Ġvegetables": 2754,
      "Billy": 2755,
      "Daisy": 2756,
      "Eventually": 2757,
      "How": 2758,
      "Jill": 2759,
      "Jenny": 2760,
      "Please": 2761,
      "Tommy": 2762,
      "acy": 2763,
      "bug": 2764,
      "can": 2765,
      "eked": 2766,
      "gy": 2767,
      "gust": 2768,
      "ible": 2769,
      "lb": 2770,
      "lf": 2771,
      "lcan": 2772,
      "met": 2773,
      "nit": 2774,
      "sel": 2775,
      "sist": 2776,
      "tor": 2777,
      "uit": 2778,
      "uable": 2779,
      "vice": 2780,
      "wed": 2781,
      "zor": 2782,
      "zard": 2783,
      "Ġed": 2784,
      "Ġicy": 2785,
      "ĠZigzag": 2786,
      "Ġtask": 2787,
      "Ġsis": 2788,
      "Ġsil": 2789,
      "Ġsong": 2790,
      "Ġsoup": 2791,
      "Ġsince": 2792,
      "Ġsighed": 2793,
      "Ġsorts": 2794,
      "ndry": 2795,
      "Ġbent": 2796,
      "Ġbal": 2797,
      "Ġbree": 2798,
      "Ġbought": 2799,
      "Ġbicy": 2800,
      "Ġhut": 2801,
      "Ġhidd": 2802,
      "Ġfil": 2803,
      "Ġfather": 2804,
      "Ġla": 2805,
      "Ġlay": 2806,
      "Ġlend": 2807,
      "Ġlau": 2808,
      "Ġletter": 2809,
      "Ġcr": 2810,
      "Ġcard": 2811,
      "Ġcried": 2812,
      "Ġcrow": 2813,
      "Ġcandy": 2814,
      "Ġdead": 2815,
      "Ġgun": 2816,
      "Ġgames": 2817,
      "Ġpot": 2818,
      "Ġmot": 2819,
      "Ġmiss": 2820,
      "arp": 2821,
      "omed": 2822,
      "atue": 2823,
      "atient": 2824,
      "\"\",": 2825,
      "Ġsave": 2826,
      "ĠitÃ¢": 2827,
      "Ġitself": 2828,
      "imed": 2829,
      "ora": 2830,
      "orge": 2831,
      "Ġinve": 2832,
      "ony": 2833,
      "Ġshell": 2834,
      "Ġbeam": 2835,
      "Ġstamp": 2836,
      "Ġstatue": 2837,
      "Ġringing": 2838,
      "Ġroof": 2839,
      "igate": 2840,
      "stigate": 2841,
      "Ġyaw": 2842,
      "ado": 2843,
      "Ġplaced": 2844,
      "Ġweird": 2845,
      "Ġfork": 2846,
      "Ġforth": 2847,
      "unately": 2848,
      "chor": 2849,
      "Ġrece": 2850,
      "Ġreve": 2851,
      "Ġnest": 2852,
      "Ġexam": 2853,
      "Ġexper": 2854,
      "Ġshut": 2855,
      "Ġsharp": 2856,
      "Ġasleep": 2857,
      "Ġspray": 2858,
      "Ġanchor": 2859,
      "Ġlizard": 2860,
      "ĠTed": 2861,
      "inda": 2862,
      "indy": 2863,
      "Ġdoves": 2864,
      "Ġhelmet": 2865,
      "ĠLola": 2866,
      "ĠLacy": 2867,
      "Ġstars": 2868,
      "Ġalert": 2869,
      "iew": 2870,
      "Ġchir": 2871,
      "Ġchore": 2872,
      "Ġchanged": 2873,
      "Ġthemsel": 2874,
      "Ġmuff": 2875,
      "Ġeveryday": 2876,
      "ĠcanÃ¢": 2877,
      "Ġabove": 2878,
      "Ġmemor": 2879,
      "Ġview": 2880,
      "ĠWill": 2881,
      "Ġseek": 2882,
      "ÅĵThat": 2883,
      "Ġquit": 2884,
      "Ġskull": 2885,
      "osity": 2886,
      "Ġadvice": 2887,
      "Ġtwisted": 2888,
      "ĠFreddy": 2889,
      "ĠcouldnÃ¢": 2890,
      "apa": 2891,
      "Ġpeeked": 2892,
      "Ġyourself": 2893,
      "ĠGina": 2894,
      "Ġpicking": 2895,
      "Ġcup": 2896,
      "Ġneeds": 2897,
      "Ġstove": 2898,
      "Ġeye": 2899,
      "Ġbulb": 2900,
      "Ġteasing": 2901,
      "Ġfruit": 2902,
      "Ġflame": 2903,
      "Ġvolcan": 2904,
      "Ġdisgust": 2905,
      "ĠPaul": 2906,
      "ĠPapa": 2907,
      "Ġcuriosity": 2908,
      "ĠCan": 2909,
      "Ġsecond": 2910,
      "Ġrealised": 2911,
      "liver": 2912,
      "Ġsteal": 2913,
      "ĠLetÃ¢": 2914,
      "ĠLeticia": 2915,
      "Ġmatching": 2916,
      "ĠToday": 2917,
      "Ġclapping": 2918,
      "Ġlead": 2919,
      "Ġladybug": 2920,
      "Ġfurnit": 2921,
      "Ġlanded": 2922,
      "Ġgently": 2923,
      "Ġpleased": 2924,
      "Ġsplit": 2925,
      "Ġfloor": 2926,
      "Ġharsh": 2927,
      "Ġraced": 2928,
      "Ġrazor": 2929,
      "Ġquietly": 2930,
      "Ġfixed": 2931,
      "Ġyelled": 2932,
      "Ġhappens": 2933,
      "ÅĵIÃ¢": 2934,
      "Ġmystery": 2935,
      "Ġsnacks": 2936,
      "Ġmeeting": 2937,
      "Ġadmired": 2938,
      "Ġtreats": 2939,
      "Ġimpatient": 2940,
      "Ġmodest": 2941,
      "Ġneighbor": 2942,
      "Ġavoc": 2943,
      "Ġdistance": 2944,
      "Ġentered": 2945,
      "Ġpractice": 2946,
      "Ġriding": 2947,
      "Ġclouds": 2948,
      "Ġpastry": 2949,
      "Ġcarrots": 2950,
      "ĠKate": 2951,
      "Ġrespect": 2952,
      "Ġgiggled": 2953,
      "Ġsticks": 2954,
      "Ġjuicy": 2955,
      "Ġvaluable": 2956,
      "Ġdiscovering": 2957,
      "Ġrecognized": 2958,
      "Ġgasped": 2959,
      "Ġbegin": 2960,
      "Ġsmooth": 2961,
      "Ġwhisper": 2962,
      "ĠMrs": 2963,
      "Ġholding": 2964,
      "Ġsuggest": 2965,
      "Ġfancy": 2966,
      "Ġcalm": 2967,
      "Ġpopular": 2968,
      "Ġenergy": 2969,
      "Ġedge": 2970,
      "Ġsister": 2971,
      "Ġsilver": 2972,
      "Ġbreeze": 2973,
      "Ġhidden": 2974,
      "Ġlaundry": 2975,
      "Ġinvestigate": 2976,
      "Ġyawned": 2977,
      "Ġthemselves": 2978,
      "Ġmuffin": 2979,
      "Ġvolcano": 2980,
      "Ġfurniture": 2981,
      "'.": 2982,
      "All": 2983,
      "Ella": 2984,
      "Freddy": 2985,
      "Gra": 2986,
      "Maybe": 2987,
      "St": 2988,
      "Un": 2989,
      "apped": 2990,
      "bot": 2991,
      "bur": 2992,
      "bled": 2993,
      "cise": 2994,
      "dad": 2995,
      "dled": 2996,
      "ever": 2997,
      "eal": 2998,
      "eleph": 2999,
      "eorge": 3000,
      "fast": 3001,
      "hl": 3002,
      "kip": 3003,
      "ler": 3004,
      "lar": 3005,
      "med": 3006,
      "mmer": 3007,
      "not": 3008,
      "nail": 3009,
      "oe": 3010,
      "ping": 3011,
      "pted": 3012,
      "ser": 3013,
      "uel": 3014,
      "ubb": 3015,
      "zen": 3016,
      "Ġign": 3017,
      "Ġtick": 3018,
      "Ġtie": 3019,
      "Ġtears": 3020,
      "Ġteleph": 3021,
      "Ġsudden": 3022,
      "Ġsour": 3023,
      "Ġblow": 3024,
      "Ġband": 3025,
      "rept": 3026,
      "itive": 3027,
      "Ġfing": 3028,
      "Ġfine": 3029,
      "Ġfountain": 3030,
      "Ġfuel": 3031,
      "Ġlines": 3032,
      "Ġca": 3033,
      "Ġcane": 3034,
      "Ġcoun": 3035,
      "Ġcrept": 3036,
      "Ġdug": 3037,
      "Ġdrank": 3038,
      "Ġdeer": 3039,
      "Ġoven": 3040,
      "Ġgust": 3041,
      "Ġpay": 3042,
      "Ġpill": 3043,
      "Ġpos": 3044,
      "Ġmer": 3045,
      "Ġmel": 3046,
      "Ġmix": 3047,
      "ises": 3048,
      "let": 3049,
      "leton": 3050,
      "Ġhammer": 3051,
      "Ġsaus": 3052,
      "Ġthief": 3053,
      "imon": 3054,
      "orcy": 3055,
      "Ġesp": 3056,
      "owed": 3057,
      "Ġugly": 3058,
      "cess": 3059,
      "Ġnumber": 3060,
      "Ġring": 3061,
      "Ġrice": 3062,
      "igent": 3063,
      "stal": 3064,
      "stairs": 3065,
      "keleton": 3066,
      "amond": 3067,
      "Ġupset": 3068,
      "Ġhadn": 3069,
      "ĠIf": 3070,
      "Ġplate": 3071,
      "Ġplast": 3072,
      "Ġweighed": 3073,
      "Ġonce": 3074,
      "ĠJen": 3075,
      "Ġwhist": 3076,
      "Ġwhale": 3077,
      "ected": 3078,
      "Ġnet": 3079,
      "Ġneat": 3080,
      "Ġneck": 3081,
      "Ġexp": 3082,
      "Ġexer": 3083,
      "uggled": 3084,
      "Ġshout": 3085,
      "Ġshone": 3086,
      "Ġshaking": 3087,
      "Ġshape": 3088,
      "Ġspend": 3089,
      "Ġspike": 3090,
      "Ġbody": 3091,
      "tern": 3092,
      "Ġliving": 3093,
      "Ġjug": 3094,
      "ĠMaisy": 3095,
      "ĠMilly": 3096,
      "ĠMike": 3097,
      "ĠMama": 3098,
      "Ġgoal": 3099,
      "ĠBill": 3100,
      "ĠBaby": 3101,
      "Ġexcla": 3102,
      "ĠEach": 3103,
      "ĠLinda": 3104,
      "Ġloves": 3105,
      "Ġfeed": 3106,
      "Ġstarting": 3107,
      "Ġrang": 3108,
      "Ġagree": 3109,
      "Ġnobody": 3110,
      "Ġchair": 3111,
      "Ġchubb": 3112,
      "ecially": 3113,
      "Ġmusc": 3114,
      "Ġcannot": 3115,
      "Ġolder": 3116,
      "ĠWould": 3117,
      "Ġrobot": 3118,
      "ĠDo": 3119,
      "Ġscar": 3120,
      "ÅĵHello": 3121,
      "ĠEverything": 3122,
      "Ġisn": 3123,
      "Ġnews": 3124,
      "Ġintell": 3125,
      "Ġquest": 3126,
      "Ġskin": 3127,
      "Ġskip": 3128,
      "Ġskirt": 3129,
      "Ġfinding": 3130,
      "Ġbeak": 3131,
      "Ġoffered": 3132,
      "Ġswinging": 3133,
      "Ġbeauty": 3134,
      "Ġleash": 3135,
      "Ġnowhere": 3136,
      "Ġdressed": 3137,
      "Ġhanded": 3138,
      "Ġframe": 3139,
      "Ġgloom": 3140,
      "Ġglass": 3141,
      "Ġwaiting": 3142,
      "Ġchewed": 3143,
      "ĠPolly": 3144,
      "ĠPixie": 3145,
      "Ġstorm": 3146,
      "Ġsuper": 3147,
      "Ġsuitc": 3148,
      "ngth": 3149,
      "Ġpattern": 3150,
      "Ġcrystal": 3151,
      "Ġshoulder": 3152,
      "Ġprinting": 3153,
      "Ġrub": 3154,
      "Ġsnail": 3155,
      "Ġsnuggled": 3156,
      "ĠNora": 3157,
      "Ġappear": 3158,
      "Ġclimbing": 3159,
      "Ġfinish": 3160,
      "Ġfrozen": 3161,
      "Ġelf": 3162,
      "Ġlandscape": 3163,
      "Ġmonkey": 3164,
      "Ġbelongs": 3165,
      "Ġowners": 3166,
      "Ġblankets": 3167,
      "Ġattract": 3168,
      "Ġthanks": 3169,
      "Ġangel": 3170,
      "Ġmighty": 3171,
      "Ġplants": 3172,
      "Ġfolding": 3173,
      "Ġprincess": 3174,
      "Ġgrowing": 3175,
      "Ġgrandma": 3176,
      "Ġstrength": 3177,
      "Ġimagination": 3178,
      "fortunately": 3179,
      "Ġtightly": 3180,
      "Ġbottle": 3181,
      "Ġminute": 3182,
      "Ġrelaxed": 3183,
      "Ġimpre": 3184,
      "Ġimpro": 3185,
      "Ġbuilding": 3186,
      "Ġbreakfast": 3187,
      "issa": 3188,
      "Ġunderstanding": 3189,
      "Ġpacked": 3190,
      "Ġbuttons": 3191,
      "Ġcollect": 3192,
      "Ġfireman": 3193,
      "Ġpracticed": 3194,
      "Ġshelf": 3195,
      "Ġshelter": 3196,
      "Ġrides": 3197,
      "Ġreading": 3198,
      "Ġdoesn": 3199,
      "Ġcrawl": 3200,
      "Ġhiding": 3201,
      "Ġglowed": 3202,
      "Ġstretch": 3203,
      "Ġstretched": 3204,
      "ĠCharles": 3205,
      "Ġwindows": 3206,
      "ĠKari": 3207,
      "Ġlively": 3208,
      "Ġturns": 3209,
      "ĠOliver": 3210,
      "Ġshrimp": 3211,
      "Ġants": 3212,
      "looking": 3213,
      "Ġgift": 3214,
      "Ġinvited": 3215,
      "Ġurged": 3216,
      "Ġawe": 3217,
      "Ġwiped": 3218,
      "Ġdiamond": 3219,
      "Ġrefle": 3220,
      "Ġgraceful": 3221,
      "Ġapproached": 3222,
      "Ġincluded": 3223,
      "Charlie": 3224,
      "Ġsnee": 3225,
      "Ġwagon": 3226,
      "Ġpuddle": 3227,
      "Ġsafer": 3228,
      "Ġwealthy": 3229,
      "Ġneighbourhood": 3230,
      "Ġbicycle": 3231,
      "Ġlazy": 3232,
      "Ġmotorcy": 3233,
      "Ġchores": 3234,
      "Ġmemories": 3235,
      "ÅĵThatÃ¢": 3236,
      "Ġdisgusting": 3237,
      "Ġavocado": 3238,
      "Ġsuggested": 3239,
      "Unfortunately": 3240,
      "hloe": 3241,
      "larissa": 3242,
      "Ġtelephone": 3243,
      "Ġfingers": 3244,
      "Ġespecially": 3245,
      "Ġplastic": 3246,
      "Ġexclaimed": 3247,
      "Ġchubby": 3248,
      "Ġintelligent": 3249,
      "Ġgloomy": 3250,
      "Ġsuitcase": 3251,
      "Ġmotorcycle": 3252,
      "Benny": 3253,
      "Henry": 3254,
      "June": 3255,
      "Lola": 3256,
      "Me": 3257,
      "Mama": 3258,
      "Next": 3259,
      "Peter": 3260,
      "Rita": 3261,
      "Who": 3262,
      "bw": 3263,
      "bed": 3264,
      "big": 3265,
      "bes": 3266,
      "bers": 3267,
      "com": 3268,
      "eat": 3269,
      "ese": 3270,
      "fit": 3271,
      "fie": 3272,
      "gling": 3273,
      "hh": 3274,
      "iver": 3275,
      "iately": 3276,
      "lid": 3277,
      "light": 3278,
      "lace": 3279,
      "mo": 3280,
      "mit": 3281,
      "og": 3282,
      "oin": 3283,
      "oor": 3284,
      "pid": 3285,
      "peat": 3286,
      "sit": 3287,
      "tle": 3288,
      "tan": 3289,
      "tiest": 3290,
      "uby": 3291,
      "wber": 3292,
      "xe": 3293,
      "yru": 3294,
      "zie": 3295,
      "heel": 3296,
      "Ġter": 3297,
      "Ġtank": 3298,
      "Ġtak": 3299,
      "Ġtape": 3300,
      "Ġaxe": 3301,
      "Ġsing": 3302,
      "Ġsle": 3303,
      "Ġsent": 3304,
      "Ġsli": 3305,
      "Ġsize": 3306,
      "Ġsyru": 3307,
      "Ġwine": 3308,
      "Ġwild": 3309,
      "Ġwheel": 3310,
      "Ġthese": 3311,
      "Ġwaves": 3312,
      "Ġben": 3313,
      "Ġbet": 3314,
      "Ġbare": 3315,
      "Ġtodd": 3316,
      "Ġhum": 3317,
      "Ġhive": 3318,
      "res": 3319,
      "ready": 3320,
      "Ġfir": 3321,
      "Ġfence": 3322,
      "Ġfrag": 3323,
      "erable": 3324,
      "Ġhesit": 3325,
      "Ġled": 3326,
      "Ġlow": 3327,
      "Ġlumber": 3328,
      "Ġcoo": 3329,
      "Ġcri": 3330,
      "Ġcomet": 3331,
      "Ġcudd": 3332,
      "Ġcook": 3333,
      "Ġdem": 3334,
      "Ġok": 3335,
      "Ġoak": 3336,
      "Ġpri": 3337,
      "Ġpad": 3338,
      "omas": 3339,
      "ating": 3340,
      "issed": 3341,
      "enge": 3342,
      "ides": 3343,
      "net": 3344,
      "Ġhairc": 3345,
      "Ġsaved": 3346,
      "ans": 3347,
      "angle": 3348,
      "ĠSkip": 3349,
      "ĠSnail": 3350,
      "ĠStan": 3351,
      "etty": 3352,
      "vers": 3353,
      "Ġinsist": 3354,
      "Ġsoar": 3355,
      "Ġsoak": 3356,
      "Ġbeside": 3357,
      "Ġbeans": 3358,
      "cepted": 3359,
      "Ġnail": 3360,
      "Ġnames": 3361,
      "Ġnorm": 3362,
      "ots": 3363,
      "Ġrise": 3364,
      "Ġrough": 3365,
      "rible": 3366,
      "Ġhistor": 3367,
      "Ġyet": 3368,
      "ilbur": 3369,
      "Ġweep": 3370,
      "Ġweap": 3371,
      "Ġrever": 3372,
      "Ġreind": 3373,
      "ĠJake": 3374,
      "Ġhappiness": 3375,
      "seum": 3376,
      "allenge": 3377,
      "Ġexit": 3378,
      "ugged": 3379,
      "Ġshake": 3380,
      "Ġsharing": 3381,
      "Ġspill": 3382,
      "Ġboss": 3383,
      "Ġboots": 3384,
      "Ġkissed": 3385,
      "Ġlip": 3386,
      "Ġlibr": 3387,
      "rage": 3388,
      "Ġjeal": 3389,
      "ĠMel": 3390,
      "ĠMouse": 3391,
      "ĠMinnie": 3392,
      "ĠTilly": 3393,
      "ĠTeddy": 3394,
      "ĠTony": 3395,
      "ĠAt": 3396,
      "Ġseat": 3397,
      "Ġseas": 3398,
      "Ġdolly": 3399,
      "!\"\",": 3400,
      "Ġclick": 3401,
      "Ġclock": 3402,
      "ĠLiz": 3403,
      "Ġfear": 3404,
      "Ġhelpless": 3405,
      "Ġalmo": 3406,
      "Ġalready": 3407,
      "Ġchat": 3408,
      "Ġchain": 3409,
      "Ġchance": 3410,
      "Ġchallenge": 3411,
      "Ġmud": 3412,
      "Ġmuseum": 3413,
      "Ġagainst": 3414,
      "Ġvet": 3415,
      "Ġcover": 3416,
      "Ġcobw": 3417,
      "ĠWho": 3418,
      "ĠWhy": 3419,
      "ĠWinnie": 3420,
      "Ġroll": 3421,
      "ĠDon": 3422,
      "ĠDave": 3423,
      "ÅĵW": 3424,
      "ÅĵMommy": 3425,
      "ÅĵThank": 3426,
      "ÅĵDo": 3427,
      "Ġbridge": 3428,
      "ĠJoy": 3429,
      "ĠJosh": 3430,
      "Ġones": 3431,
      "Ġcareless": 3432,
      "Ġprot": 3433,
      "Ġlotion": 3434,
      "Ġquite": 3435,
      "Ġbloom": 3436,
      "Ġfoal": 3437,
      "ucked": 3438,
      "Ġtwirl": 3439,
      "Ġmoon": 3440,
      "ĠFirst": 3441,
      "ĠFred": 3442,
      "maid": 3443,
      "Ġpoem": 3444,
      "ella": 3445,
      "Ġcalling": 3446,
      "Ġsword": 3447,
      "Ġholid": 3448,
      "Ġoverjoy": 3449,
      "Ġproudly": 3450,
      "Ġwolf": 3451,
      "Ġmyself": 3452,
      "Ġpebb": 3453,
      "ĠdidnÃ¢": 3454,
      "Ġcars": 3455,
      "Ġfastest": 3456,
      "ĠGive": 3457,
      "ĠGeorge": 3458,
      "Ġleaf": 3459,
      "Ġleaving": 3460,
      "Ġcubes": 3461,
      "Ġcomm": 3462,
      "Ġfamous": 3463,
      "Ġmagnet": 3464,
      "Ġimmed": 3465,
      "Ġdrew": 3466,
      "Ġwarned": 3467,
      "Ġord": 3468,
      "Ġkindness": 3469,
      "Ġburied": 3470,
      "ĠJoey": 3471,
      "Jacky": 3472,
      "Ġharder": 3473,
      "Ġflute": 3474,
      "Ġcheer": 3475,
      "Ġcheese": 3476,
      "Ġprettiest": 3477,
      "Ġcolours": 3478,
      "ĠCome": 3479,
      "ĠCindy": 3480,
      "ĠChloe": 3481,
      "Ġclearing": 3482,
      "Ġreplace": 3483,
      "Ġaccepted": 3484,
      "lies": 3485,
      "Ġzoom": 3486,
      "Ġpermit": 3487,
      "Ġunl": 3488,
      "Ġunpack": 3489,
      "Ġheaded": 3490,
      "Ġbutterflies": 3491,
      "Ġamazement": 3492,
      "Ġbowed": 3493,
      "Ġloudly": 3494,
      "Ġpaw": 3495,
      "Ġpainted": 3496,
      "Ġclosely": 3497,
      "Ġblackboard": 3498,
      "Ġdreams": 3499,
      "Ġsleeping": 3500,
      "Ġcleaning": 3501,
      "Ġbrothers": 3502,
      "Ġvisited": 3503,
      "Ġmoments": 3504,
      "Ġbarked": 3505,
      "Ġbarber": 3506,
      "Ġpromise": 3507,
      "Ġcreatures": 3508,
      "Ġattention": 3509,
      "Ġtriangle": 3510,
      "Ġprov": 3511,
      "Ġreturn": 3512,
      "Ġknob": 3513,
      "Ġknocked": 3514,
      "ĠThomas": 3515,
      "Ġslides": 3516,
      "ĠAnnie": 3517,
      "Ġpresents": 3518,
      "Andy": 3519,
      "Ġboring": 3520,
      "Ġobser": 3521,
      "ĠAlfie": 3522,
      "Ġwelcomed": 3523,
      "Ġsparkled": 3524,
      "Ġpointing": 3525,
      "Everyone": 3526,
      "Ġchoice": 3527,
      "Ġcompass": 3528,
      "Ġcomplet": 3529,
      "Ġdistur": 3530,
      "Ġdistant": 3531,
      "Ġdisappoin": 3532,
      "Ġentire": 3533,
      "Ġadding": 3534,
      "Ġcrawled": 3535,
      "Ġcrawling": 3536,
      "Ġbooks": 3537,
      "Ġeagerly": 3538,
      "Ġspinning": 3539,
      "Daddy": 3540,
      "Together": 3541,
      "Today": 3542,
      "ruce": 3543,
      "Ġsolved": 3544,
      "Ġkicked": 3545,
      "Ġfrowning": 3546,
      "Ġblueberry": 3547,
      "ĠOK": 3548,
      "Ġhope": 3549,
      "Ġitchy": 3550,
      "Ġseeds": 3551,
      "Ġlegs": 3552,
      "Ġtrap": 3553,
      "Ġbounce": 3554,
      "Ġbouncy": 3555,
      "Ġgifted": 3556,
      "Ġmiserable": 3557,
      "Ġeasy": 3558,
      "Ġeasier": 3559,
      "Ġshadows": 3560,
      "Ġorganized": 3561,
      "Ġorganize": 3562,
      "Ġbury": 3563,
      "Ġtrouble": 3564,
      "Ġtroubled": 3565,
      "Ġleaks": 3566,
      "Ġbubble": 3567,
      "Ġcourage": 3568,
      "Ġmarried": 3569,
      "Ġmayor": 3570,
      "ensive": 3571,
      "Ġstrawber": 3572,
      "ÅĵItÃ¢": 3573,
      "Ġprepare": 3574,
      "Ġribbons": 3575,
      "Ġbalan": 3576,
      "Ġcrowd": 3577,
      "Ġreceive": 3578,
      "Ġrevealed": 3579,
      "Ġchirping": 3580,
      "Ġneighbors": 3581,
      "Ġbeginning": 3582,
      "Ġignor": 3583,
      "Ġtickled": 3584,
      "Ġcounted": 3585,
      "Ġmermaid": 3586,
      "Ġmelon": 3587,
      "Ġnecklace": 3588,
      "Ġexpensive": 3589,
      "Ġexercise": 3590,
      "Ġagreement": 3591,
      "Ġmuscles": 3592,
      "Ġscarf": 3593,
      "Ġquestions": 3594,
      "Ġattractive": 3595,
      "Ġimpressed": 3596,
      "Ġsneeze": 3597,
      "bigail": 3598,
      "Ġtaken": 3599,
      "Ġslept": 3600,
      "Ġsyrup": 3601,
      "Ġbarely": 3602,
      "Ġtoddler": 3603,
      "Ġfirm": 3604,
      "Ġfragile": 3605,
      "Ġcrib": 3606,
      "Ġpaddled": 3607,
      "Ġhaircut": 3608,
      "Ġnormal": 3609,
      "Ġhistory": 3610,
      "Ġweapon": 3611,
      "Ġreindeer": 3612,
      "Ġbossy": 3613,
      "Ġjealous": 3614,
      "ĠLizzie": 3615,
      "Ġalmost": 3616,
      "Ġcobweb": 3617,
      "Ġholiday": 3618,
      "Ġoverjoyed": 3619,
      "Ġimmediately": 3620,
      "Ġcompassion": 3621,
      "Ġcomplete": 3622,
      "Ġdisappointed": 3623,
      "'ve": 3624,
      "Al": 3625,
      "Clarissa": 3626,
      "Danny": 3627,
      "Fluffy": 3628,
      "Ginger": 3629,
      "Hel": 3630,
      "James": 3631,
      "Later": 3632,
      "Milly": 3633,
      "Mae": 3634,
      "Ok": 3635,
      "Paul": 3636,
      "Qu": 3637,
      "Rachel": 3638,
      "Sally": 3639,
      "Since": 3640,
      "Until": 3641,
      "ait": 3642,
      "aked": 3643,
      "aving": 3644,
      "aff": 3645,
      "action": 3646,
      "book": 3647,
      "cet": 3648,
      "cuss": 3649,
      "ccess": 3650,
      "du": 3651,
      "eath": 3652,
      "ealed": 3653,
      "ging": 3654,
      "gage": 3655,
      "hi": 3656,
      "ien": 3657,
      "ject": 3658,
      "ker": 3659,
      "ls": 3660,
      "lv": 3661,
      "momet": 3662,
      "mare": 3663,
      "oss": 3664,
      "pite": 3665,
      "right": 3666,
      "ruck": 3667,
      "rmomet": 3668,
      "son": 3669,
      "sured": 3670,
      "time": 3671,
      "tion": 3672,
      "tune": 3673,
      "uzy": 3674,
      "ucet": 3675,
      "ween": 3676,
      "ym": 3677,
      "zz": 3678,
      "Ġx": 3679,
      "Ġig": 3680,
      "hell": 3681,
      "Ġtax": 3682,
      "Ġtip": 3683,
      "Ġap": 3684,
      "Ġadded": 3685,
      "Ġson": 3686,
      "Ġsway": 3687,
      "Ġsick": 3688,
      "Ġsip": 3689,
      "Ġtheat": 3690,
      "Ġtheater": 3691,
      "Ġthermomet": 3692,
      "Ġtoes": 3693,
      "resh": 3694,
      "repeat": 3695,
      "iting": 3696,
      "Ġfle": 3697,
      "Ġfreed": 3698,
      "Ġfinger": 3699,
      "Ġfresh": 3700,
      "ercy": 3701,
      "Ġlar": 3702,
      "Ġlid": 3703,
      "Ġlug": 3704,
      "Ġlect": 3705,
      "Ġlaser": 3706,
      "Ġcro": 3707,
      "Ġcity": 3708,
      "Ġdic": 3709,
      "Ġdust": 3710,
      "Ġdull": 3711,
      "Ġdire": 3712,
      "Ġdest": 3713,
      "Ġoas": 3714,
      "Ġgym": 3715,
      "Ġmall": 3716,
      "Ġmea": 3717,
      "Ġmist": 3718,
      "Ġmail": 3719,
      "atched": 3720,
      "ising": 3721,
      "Ġsaving": 3722,
      "Ġthrow": 3723,
      "Ġthose": 3724,
      "Ġthirst": 3725,
      "any": 3726,
      "ĠSimon": 3727,
      "ĠSkeleton": 3728,
      "etitive": 3729,
      "Ġevent": 3730,
      "Ġemer": 3731,
      "onse": 3732,
      "ĠHow": 3733,
      "Ġherb": 3734,
      "Ġsoared": 3735,
      "Ġsoaring": 3736,
      "cks": 3737,
      "Ġstage": 3738,
      "Ġstair": 3739,
      "Ġstaff": 3740,
      "Ġnic": 3741,
      "Ġnumb": 3742,
      "Ġnurse": 3743,
      "oto": 3744,
      "Ġrow": 3745,
      "Ġrust": 3746,
      "Ġrais": 3747,
      "iggly": 3748,
      "stead": 3749,
      "oose": 3750,
      "ric": 3751,
      "Ġupstairs": 3752,
      "Ġyog": 3753,
      "als": 3754,
      "alph": 3755,
      "Ġweigh": 3756,
      "Ġfortune": 3757,
      "chief": 3758,
      "Ġonward": 3759,
      "Ġonwards": 3760,
      "Ġreach": 3761,
      "herman": 3762,
      "ecause": 3763,
      "ses": 3764,
      "Ġshort": 3765,
      "Ġshocked": 3766,
      "Ġspun": 3767,
      "Ġspea": 3768,
      "Ġspace": 3769,
      "Ġkiss": 3770,
      "Ġlif": 3771,
      "Ġlicked": 3772,
      "ills": 3773,
      "Ġoutfit": 3774,
      "akes": 3775,
      "ĠIts": 3776,
      "Ġjail": 3777,
      "Ġjunk": 3778,
      "Ġallowed": 3779,
      "ĠMum": 3780,
      "ĠMaybe": 3781,
      "uring": 3782,
      "urous": 3783,
      "ĠBy": 3784,
      "ĠBella": 3785,
      "ĠBruce": 3786,
      "ometimes": 3787,
      "Ġboys": 3788,
      "Ġbackpack": 3789,
      "ĠLea": 3790,
      "ĠLater": 3791,
      "Ġalive": 3792,
      "Ġalright": 3793,
      "ages": 3794,
      "ssel": 3795,
      "ssroom": 3796,
      "Ġworking": 3797,
      "Ġchase": 3798,
      "Ġchoose": 3799,
      "Ġfasc": 3800,
      "Ġfaucet": 3801,
      "rodu": 3802,
      "ĠWilbur": 3803,
      "Ġrod": 3804,
      "Ġrose": 3805,
      "ÅĵWhy": 3806,
      "ÅĵOf": 3807,
      "ÅĵNow": 3808,
      "Ġwhatever": 3809,
      "ĠEveryday": 3810,
      "antly": 3811,
      "Ġintrodu": 3812,
      "Ġskills": 3813,
      "Ġsunlight": 3814,
      "ands": 3815,
      "Ġadult": 3816,
      "Ġfond": 3817,
      "Ġtwig": 3818,
      "Ġtwink": 3819,
      "istent": 3820,
      "Ġswings": 3821,
      "umpet": 3822,
      "Ġanyway": 3823,
      "Ġanywhere": 3824,
      "Ġadventurous": 3825,
      "Ġtrade": 3826,
      "Ġtrumpet": 3827,
      "Ġknows": 3828,
      "Ġyours": 3829,
      "ĠGinger": 3830,
      "Ġwilling": 3831,
      "Ġcomf": 3832,
      "ctive": 3833,
      "ĠJohnson": 3834,
      "Ġwarning": 3835,
      "Ġhandker": 3836,
      "Ġended": 3837,
      "Ġending": 3838,
      "Ġusual": 3839,
      "though": 3840,
      "Ġteapot": 3841,
      "Ġfright": 3842,
      "Ġflight": 3843,
      "Ġremembers": 3844,
      "Ġdiscuss": 3845,
      "ĠPercy": 3846,
      "Ġowner": 3847,
      "Ġsuff": 3848,
      "Ġsuccess": 3849,
      "ĠCount": 3850,
      "ffed": 3851,
      "Ġclear": 3852,
      "Ġpatience": 3853,
      "Ġwarmly": 3854,
      "Ġwarmth": 3855,
      "Ġfaces": 3856,
      "Ġnightmare": 3857,
      "Ġcontain": 3858,
      "lier": 3859,
      "Ġzigzag": 3860,
      "Ġunk": 3861,
      "Ġshouldn": 3862,
      "Ġjoined": 3863,
      "Ġfollowing": 3864,
      "Ġbehav": 3865,
      "Ġsweets": 3866,
      "Ġcreate": 3867,
      "Ġprevent": 3868,
      "Ġpressed": 3869,
      "Ġtrem": 3870,
      "Ġwooden": 3871,
      "Ġgrown": 3872,
      "Ġkittens": 3873,
      "Ġseems": 3874,
      "Ġsquare": 3875,
      "Ġsquee": 3876,
      "Ġsquealed": 3877,
      "Ġpassed": 3878,
      "ĠRabbit": 3879,
      "ĠRita": 3880,
      "ĠRalph": 3881,
      "ĠTodd": 3882,
      "Ġclassroom": 3883,
      "Ġdreaming": 3884,
      "Ġgreet": 3885,
      "Ġcleaned": 3886,
      "Ġsailing": 3887,
      "Ġearlier": 3888,
      "Thanks": 3889,
      "Ġhurts": 3890,
      "Ġpowers": 3891,
      "Ġdriving": 3892,
      "Ġnaughtiness": 3893,
      "Ġraven": 3894,
      "Ġraise": 3895,
      "Ġvelv": 3896,
      "Ġvessel": 3897,
      "Ġattach": 3898,
      "umbling": 3899,
      "Ġexplaining": 3900,
      "Ġpretending": 3901,
      "ĠwonÃ¢": 3902,
      "Ġprove": 3903,
      "box": 3904,
      "Ġhills": 3905,
      "Ġgranddad": 3906,
      "Ġwandering": 3907,
      "Ġobject": 3908,
      "Ġbroke": 3909,
      "Ġpersistent": 3910,
      "Ġdesign": 3911,
      "Ġblocked": 3912,
      "Ġfalling": 3913,
      "Ġfallen": 3914,
      "Ġcountry": 3915,
      "Ġspoiled": 3916,
      "Ġsparkle": 3917,
      "Ġcherries": 3918,
      "Ġbranches": 3919,
      "Ġcompany": 3920,
      "Ġcompetitive": 3921,
      "Ġcelebrated": 3922,
      "Ġducks": 3923,
      "Ġduckling": 3924,
      "Ġphoto": 3925,
      "Ġcoloured": 3926,
      "Ġincred": 3927,
      "Ġshelves": 3928,
      "Ġglowing": 3929,
      "Ġsmelled": 3930,
      "Ġlions": 3931,
      "Ġjogged": 3932,
      "Ġfisherman": 3933,
      "Ġsolve": 3934,
      "Ġresponse": 3935,
      "Ġwrap": 3936,
      "Ġbrick": 3937,
      "Ġhoped": 3938,
      "ertain": 3939,
      "Ġgems": 3940,
      "arian": 3941,
      "Ġpoured": 3942,
      "Ġmissed": 3943,
      "Ġurge": 3944,
      "Ġjuice": 3945,
      "Ġlogs": 3946,
      "Ġstruggled": 3947,
      "Ġstruggle": 3948,
      "Ġstruggling": 3949,
      "Ġperforming": 3950,
      "Ġperformance": 3951,
      "Ġrecognize": 3952,
      "Ġwipe": 3953,
      "Ġdiving": 3954,
      "Ġsteps": 3955,
      "Ġrefres": 3956,
      "Ġbubbles": 3957,
      "Emily": 3958,
      "Ġsandw": 3959,
      "Ġthumbs": 3960,
      "Ġstirred": 3961,
      "Ġstraight": 3962,
      "Ġselling": 3963,
      "Ġfilm": 3964,
      "Ġfilthy": 3965,
      "Ġexamined": 3966,
      "Ġexperience": 3967,
      "Ġexperien": 3968,
      "Grandma": 3969,
      "Stop": 3970,
      "Ġblowing": 3971,
      "Ġsausage": 3972,
      "Ġreflection": 3973,
      "Ġterrible": 3974,
      "Ġslipped": 3975,
      "Ġbeneath": 3976,
      "Ġbetween": 3977,
      "Ġhumble": 3978,
      "Ġlower": 3979,
      "Ġcooked": 3980,
      "Ġcuddled": 3981,
      "Ġprize": 3982,
      "Ġinsisting": 3983,
      "Ġreversing": 3984,
      "Ġspilling": 3985,
      "Ġseashell": 3986,
      "Ġtwirled": 3987,
      "Ġordered": 3988,
      "Ġzoomed": 3989,
      "Ġprovide": 3990,
      "Ġobserve": 3991,
      "Ġdisturbed": 3992,
      "Ġignorant": 3993,
      "Ġfirmly": 3994,
      "Ġcompassionate": 3995,
      "Quick": 3996,
      "tionary": 3997,
      "Ġigloo": 3998,
      "Ġtaxi": 3999,
      "Ġtheatre": 4000,
      "Ġthermometer": 4001,
      "Ġfreedom": 4002,
      "Ġlarge": 4003,
      "Ġluggage": 4004,
      "Ġlecture": 4005,
      "Ġdictionary": 4006,
      "Ġoasis": 4007,
      "Ġthirsty": 4008,
      "Ġemerged": 4009,
      "Ġnicer": 4010,
      "Ġnumbers": 4011,
      "Ġyoga": 4012,
      "Ġfascin": 4013,
      "Ġintroduced": 4014,
      "Ġhandkerchief": 4015,
      "ĠCounting": 4016,
      "Ġbehavi": 4017,
      "Ġvelvet": 4018,
      "Ġseashells": 4019,
      "!'": 4020,
      "..": 4021,
      "?!": 4022,
      "Are": 4023,
      "Abigail": 4024,
      "By": 4025,
      "Betty": 4026,
      "Because": 4027,
      "Coo": 4028,
      "Claire": 4029,
      "Cindy": 4030,
      "Denise": 4031,
      "Even": 4032,
      "Fred": 4033,
      "Good": 4034,
      "Is": 4035,
      "Jos": 4036,
      "Joy": 4037,
      "Kate": 4038,
      "Kari": 4039,
      "Mor": 4040,
      "Minnie": 4041,
      "Ou": 4042,
      "Pixie": 4043,
      "Poor": 4044,
      "Rem": 4045,
      "Ruby": 4046,
      "Slow": 4047,
      "Sandy": 4048,
      "Susie": 4049,
      "See": 4050,
      "Simon": 4051,
      "Sometimes": 4052,
      "Ted": 4053,
      "Tilly": 4054,
      "Teddy": 4055,
      "Wh": 4056,
      "With": 4057,
      "Will": 4058,
      "While": 4059,
      "Yay": 4060,
      "aven": 4061,
      "appy": 4062,
      "bling": 4063,
      "cc": 4064,
      "cou": 4065,
      "cted": 4066,
      "cal": 4067,
      "cast": 4068,
      "cious": 4069,
      "ding": 4070,
      "ester": 4071,
      "fa": 4072,
      "fid": 4073,
      "found": 4074,
      "face": 4075,
      "gum": 4076,
      "gers": 4077,
      "hind": 4078,
      "hip": 4079,
      "iar": 4080,
      "ived": 4081,
      "iking": 4082,
      "ivered": 4083,
      "jured": 4084,
      "ks": 4085,
      "len": 4086,
      "lau": 4087,
      "liness": 4088,
      "mag": 4089,
      "na": 4090,
      "nk": 4091,
      "nce": 4092,
      "night": 4093,
      "noon": 4094,
      "pit": 4095,
      "pool": 4096,
      "pered": 4097,
      "rn": 4098,
      "sday": 4099,
      "tled": 4100,
      "ub": 4101,
      "uly": 4102,
      "uri": 4103,
      "ulu": 4104,
      "ude": 4105,
      "val": 4106,
      "wl": 4107,
      "wn": 4108,
      "wo": 4109,
      "wer": 4110,
      "wor": 4111,
      "wise": 4112,
      "well": 4113,
      "walk": 4114,
      "xc": 4115,
      "xible": 4116,
      "yed": 4117,
      "yal": 4118,
      "Ġing": 4119,
      "ĠOnce": 4120,
      "ĠUntil": 4121,
      "ĠQuick": 4122,
      "Ġtv": 4123,
      "Ġtar": 4124,
      "Ġtag": 4125,
      "Ġtem": 4126,
      "Ġtest": 4127,
      "Ġtugged": 4128,
      "Ġtucked": 4129,
      "Ġtub": 4130,
      "Ġach": 4131,
      "Ġsen": 4132,
      "Ġsimp": 4133,
      "Ġskeleton": 4134,
      "Ġwing": 4135,
      "Ġwider": 4136,
      "Ġwiggly": 4137,
      "ndles": 4138,
      "nddad": 4139,
      "edne": 4140,
      "ining": 4141,
      "inary": 4142,
      "Ġwave": 4143,
      "Ġwaving": 4144,
      "Ġbitt": 4145,
      "Ġbake": 4146,
      "Ġbump": 4147,
      "Ġbase": 4148,
      "Ġbiking": 4149,
      "Ġtorn": 4150,
      "Ġhone": 4151,
      "Ġhos": 4152,
      "Ġhidea": 4153,
      "Ġhoney": 4154,
      "render": 4155,
      "rease": 4156,
      "reased": 4157,
      "itions": 4158,
      "itude": 4159,
      "Ġfat": 4160,
      "Ġfour": 4161,
      "ery": 4162,
      "Ġwash": 4163,
      "Ġlitt": 4164,
      "Ġlined": 4165,
      "Ġcur": 4166,
      "Ġcries": 4167,
      "Ġcertain": 4168,
      "Ġdar": 4169,
      "Ġdra": 4170,
      "Ġdear": 4171,
      "Ġdive": 4172,
      "Ġdied": 4173,
      "Ġdrag": 4174,
      "Ġduring": 4175,
      "Ġocc": 4176,
      "Ġgle": 4177,
      "Ġgon": 4178,
      "Ġgue": 4179,
      "Ġpra": 4180,
      "Ġpur": 4181,
      "Ġpand": 4182,
      "Ġpage": 4183,
      "Ġpush": 4184,
      "Ġmach": 4185,
      "Ġmild": 4186,
      "Ġmac": 4187,
      "Ġmask": 4188,
      "Ġmass": 4189,
      "Ġmaybe": 4190,
      "arming": 4191,
      "oming": 4192,
      "omped": 4193,
      "llip": 4194,
      "ats": 4195,
      "isy": 4196,
      "isks": 4197,
      "Their": 4198,
      "iders": 4199,
      "nected": 4200,
      "leased": 4201,
      "Ġsal": 4202,
      "Ġsank": 4203,
      "Ġthri": 4204,
      "Ġthick": 4205,
      "Ġthous": 4206,
      "ang": 4207,
      "anted": 4208,
      "angled": 4209,
      "Ġitches": 4210,
      "orn": 4211,
      "orable": 4212,
      "orated": 4213,
      "ĠSure": 4214,
      "ĠSince": 4215,
      "ĠSee": 4216,
      "ĠSuzy": 4217,
      "ety": 4218,
      "veral": 4219,
      "lden": 4220,
      "Ġinter": 4221,
      "Ġinjured": 4222,
      "irit": 4223,
      "Ġsofa": 4224,
      "Ġshed": 4225,
      "Ġbellow": 4226,
      "ows": 4227,
      "ĠHere": 4228,
      "Ġstri": 4229,
      "Ġstro": 4230,
      "Ġstream": 4231,
      "Ġstairs": 4232,
      "Ġstomped": 4233,
      "Ġna": 4234,
      "Ġnone": 4235,
      "othing": 4236,
      "Ġrat": 4237,
      "Ġrot": 4238,
      "Ġrisks": 4239,
      "utter": 4240,
      "ution": 4241,
      "utching": 4242,
      "igned": 4243,
      "sts": 4244,
      "stum": 4245,
      "ooped": 4246,
      "vel": 4247,
      "rily": 4248,
      "ently": 4249,
      "itten": 4250,
      "ittered": 4251,
      "Ġplain": 4252,
      "iliar": 4253,
      "ality": 4254,
      "ĠweÃ¢": 4255,
      "unic": 4256,
      "Ġsmart": 4257,
      "changed": 4258,
      "Ġonion": 4259,
      "Ġrecept": 4260,
      "Ġreass": 4261,
      "Ġreward": 4262,
      "Ġresist": 4263,
      "Ġreaction": 4264,
      "Ġreleased": 4265,
      "hero": 4266,
      "ĠyouÃ¢": 4267,
      "Ġwhirl": 4268,
      "Ġhappiest": 4269,
      "Ġneare": 4270,
      "sess": 4271,
      "seek": 4272,
      "hter": 4273,
      "Ġexchanged": 4274,
      "Ġshown": 4275,
      "Ġshorts": 4276,
      "Ġshiver": 4277,
      "âĤ¬\"": 4278,
      "Ġspr": 4279,
      "Ġspiders": 4280,
      "Ġspirit": 4281,
      "Ġweren": 4282,
      "umm": 4283,
      "icing": 4284,
      "iches": 4285,
      "ictor": 4286,
      "ĠItÃ¢": 4287,
      "Ġgolden": 4288,
      "ĠTV": 4289,
      "ĠTruck": 4290,
      "ĠTwo": 4291,
      "ĠAre": 4292,
      "ĠAbigail": 4293,
      "Ġsew": 4294,
      "Ġseveral": 4295,
      "Ġtool": 4296,
      "ĠBoth": 4297,
      "ĠBetty": 4298,
      "Ġfriendship": 4299,
      "Ġbacked": 4300,
      "Ġclucked": 4301,
      "Ġclutching": 4302,
      "Ġnotice": 4303,
      "ĠLook": 4304,
      "ĠLulu": 4305,
      "Ġlocal": 4306,
      "Ġloyal": 4307,
      "Ġlollip": 4308,
      "Ġfeast": 4309,
      "Ġstaring": 4310,
      "ags": 4311,
      "agreed": 4312,
      "ssment": 4313,
      "earing": 4314,
      "gets": 4315,
      "Ġworm": 4316,
      "Ġworth": 4317,
      "play": 4318,
      "place": 4319,
      "plane": 4320,
      "plished": 4321,
      "Ġnod": 4322,
      "Ġnoises": 4323,
      "Ġnoisy": 4324,
      "Ġchill": 4325,
      "Ġchop": 4326,
      "Ġcharming": 4327,
      "Ġfair": 4328,
      "Ġfact": 4329,
      "Ġfaced": 4330,
      "quake": 4331,
      "ices": 4332,
      "Ġdecl": 4333,
      "Ġdecis": 4334,
      "Ġdecide": 4335,
      "Ġdecorated": 4336,
      "?\"\",": 4337,
      "ope": 4338,
      "Ġsomewhere": 4339,
      "Ġsomebody": 4340,
      "Ġmeal": 4341,
      "Ġmeowed": 4342,
      "Ġgets": 4343,
      "Ġvan": 4344,
      "Ġvide": 4345,
      "Ġvictor": 4346,
      "Ġcosy": 4347,
      "Ġcocked": 4348,
      "Ġcostum": 4349,
      "ĠWedne": 4350,
      "Ġthanking": 4351,
      "Ġfeels": 4352,
      "Ġroared": 4353,
      "Ġrode": 4354,
      "ĠDin": 4355,
      "Ġscr": 4356,
      "Ġscream": 4357,
      "Ġscaring": 4358,
      "usted": 4359,
      "Ġgotten": 4360,
      "ÅĵJack": 4361,
      "ÅĵMom": 4362,
      "ÅĵOh": 4363,
      "ÅĵWow": 4364,
      "ÅĵLook": 4365,
      "ÅĵHi": 4366,
      "ÅĵMy": 4367,
      "ÅĵHey": 4368,
      "Åĵhi": 4369,
      "Ġbrings": 4370,
      "Ġotherwise": 4371,
      "Ġnewfound": 4372,
      "asion": 4373,
      "Ġdownstairs": 4374,
      "ptain": 4375,
      "Ġstruck": 4376,
      "used": 4377,
      "Ġblouse": 4378,
      "Ġbloss": 4379,
      "Ġhugs": 4380,
      "Ġencou": 4381,
      "anded": 4382,
      "Ġadorable": 4383,
      "Ġthoughtful": 4384,
      "Ġfog": 4385,
      "ucky": 4386,
      "Ġhowever": 4387,
      "Ġlaughter": 4388,
      "Ġwaters": 4389,
      "Ġpopped": 4390,
      "ember": 4391,
      "oys": 4392,
      "isten": 4393,
      "ives": 4394,
      "Ġswell": 4395,
      "ionist": 4396,
      "Ġhoot": 4397,
      "bborn": 4398,
      "Ġtruly": 4399,
      "Ġevening": 4400,
      "ishy": 4401,
      "Ġcloset": 4402,
      "Ġpeek": 4403,
      "Ġcarried": 4404,
      "Ġoper": 4405,
      "Ġquicker": 4406,
      "ĠGood": 4407,
      "Ġpup": 4408,
      "Ġsurprises": 4409,
      "Ġsurprising": 4410,
      "Ġwants": 4411,
      "Ġwonders": 4412,
      "Ġfamiliar": 4413,
      "Ġjumps": 4414,
      "Ġcomes": 4415,
      "Ġstolen": 4416,
      "Ġdelay": 4417,
      "Ġdeliver": 4418,
      "Ġorder": 4419,
      "Ġsmiles": 4420,
      "Ġhandle": 4421,
      "Ġkindly": 4422,
      "Ġbundles": 4423,
      "Ġconvers": 4424,
      "Ġconfid": 4425,
      "Ġconnected": 4426,
      "Ġteaching": 4427,
      "Ġteased": 4428,
      "Ġglittered": 4429,
      "Ġarea": 4430,
      "Ġbrand": 4431,
      "Ġstrangers": 4432,
      "Ġtowel": 4433,
      "Ġflapped": 4434,
      "Ġflutter": 4435,
      "Ġflags": 4436,
      "Ġfilling": 4437,
      "Ġcheck": 4438,
      "ĠAsked": 4439,
      "Ġstrongest": 4440,
      "Ġafternoon": 4441,
      "Ġdisagreed": 4442,
      "Ġdisplay": 4443,
      "ĠPinky": 4444,
      "ĠPlease": 4445,
      "Ġowned": 4446,
      "ients": 4447,
      "ĠCaw": 4448,
      "ĠClarissa": 4449,
      "Ġrocked": 4450,
      "Ġslower": 4451,
      "Ġacted": 4452,
      "Ġaccom": 4453,
      "ĠletÃ¢": 4454,
      "Ġcuriously": 4455,
      "Ġrealize": 4456,
      "Ġparted": 4457,
      "Ġunite": 4458,
      "Ġunable": 4459,
      "Ġuncom": 4460,
      "Ġsteady": 4461,
      "Ġwritten": 4462,
      "Ġprinted": 4463,
      "Ġheading": 4464,
      "Ġbehaving": 4465,
      "Ġsweetie": 4466,
      "Ġcreating": 4467,
      "Ġprecious": 4468,
      "Ġarrive": 4469,
      "Ġdifference": 4470,
      "Ġsecrets": 4471,
      "Ġcrazy": 4472,
      "Ġruined": 4473,
      "ĠInstead": 4474,
      "Ġbrighter": 4475,
      "Ġsnuck": 4476,
      "Ġsnatched": 4477,
      "Ġgranted": 4478,
      "Ġsquirt": 4479,
      "Ġsquishy": 4480,
      "Ġpaid": 4481,
      "ĠNext": 4482,
      "ĠNothing": 4483,
      "ĠRuby": 4484,
      "Ġapples": 4485,
      "Ġapplau": 4486,
      "Ġdrop": 4487,
      "Ġdeeper": 4488,
      "Ġhearing": 4489,
      "ĠSueÃ¢": 4490,
      "ĠJimmyÃ¢": 4491,
      "izon": 4492,
      "Ġfreeze": 4493,
      "Ġbelt": 4494,
      "beh": 4495,
      "Ġairplane": 4496,
      "Ġhorn": 4497,
      "Ġhorizon": 4498,
      "Ġfigured": 4499,
      "Ġearly": 4500,
      "Ġvisiting": 4501,
      "Ġperfectly": 4502,
      "Ġfurther": 4503,
      "Ġrested": 4504,
      "Ġsetting": 4505,
      "Ġsettle": 4506,
      "Ġsettled": 4507,
      "Ġpleasure": 4508,
      "ĠGranddad": 4509,
      "Ġharm": 4510,
      "Ġraked": 4511,
      "Ġquietest": 4512,
      "brant": 4513,
      "brush": 4514,
      "Ġamong": 4515,
      "Ġlights": 4516,
      "Ġcircled": 4517,
      "Afterwards": 4518,
      "Ġtricks": 4519,
      "Ġsidewalk": 4520,
      "Ġfixing": 4521,
      "Ġraining": 4522,
      "Ġhorses": 4523,
      "Ġpeacefully": 4524,
      "Ġtells": 4525,
      "Ġgathering": 4526,
      "Ġknown": 4527,
      "Ġknives": 4528,
      "ĠThank": 4529,
      "spect": 4530,
      "Ġslapped": 4531,
      "Ġgrowled": 4532,
      "Ġplanes": 4533,
      "Ġmeans": 4534,
      "Ġgentleman": 4535,
      "Ġmarkers": 4536,
      "Ġimagine": 4537,
      "Ġghosts": 4538,
      "Ġloneliness": 4539,
      "ĠAlways": 4540,
      "ĠAlthough": 4541,
      "Ġfooting": 4542,
      "Ġdespite": 4543,
      "Ġdesigned": 4544,
      "Ġvibrant": 4545,
      "redients": 4546,
      "Ġbags": 4547,
      "Ġdryer": 4548,
      "Ġinstantly": 4549,
      "Ġstud": 4550,
      "Ġstupid": 4551,
      "Ġstuffed": 4552,
      "Ġstubborn": 4553,
      "Ġnotebook": 4554,
      "Ġchopping": 4555,
      "Ġcoins": 4556,
      "Ġpaintbrush": 4557,
      "Ġspeeding": 4558,
      "Ġcelebration": 4559,
      "Ġplanted": 4560,
      "ĠBefore": 4561,
      "Ġembarrassment": 4562,
      "Ġenter": 4563,
      "Ġhurried": 4564,
      "Ġhurric": 4565,
      "Ġpracticing": 4566,
      "Ġdolls": 4567,
      "Ġengines": 4568,
      "Ġstreets": 4569,
      "Inside": 4570,
      "Ġhooks": 4571,
      "Ġinfants": 4572,
      "Ġsmells": 4573,
      "ĠwouldnÃ¢": 4574,
      "Ġdoctors": 4575,
      "rupt": 4576,
      "Ġtidying": 4577,
      "Ġheavier": 4578,
      "Ġpetals": 4579,
      "Ġsolving": 4580,
      "Ġrespected": 4581,
      "Ġkicking": 4582,
      "Ġfrowned": 4583,
      "Ġsplashing": 4584,
      "Ġfloating": 4585,
      "Ġactually": 4586,
      "Ġhoping": 4587,
      "Ġcutting": 4588,
      "Ġhanging": 4589,
      "Ġshrink": 4590,
      "Ġshrugged": 4591,
      "Ġunivers": 4592,
      "Ġrainbows": 4593,
      "Ġtrail": 4594,
      "Ġserve": 4595,
      "Ġgiggle": 4596,
      "Ġmisbeh": 4597,
      "Ġinvol": 4598,
      "Ġinviting": 4599,
      "Ġseparate": 4600,
      "Ġvalue": 4601,
      "Ġarrows": 4602,
      "Ġneighbours": 4603,
      "Ġcollected": 4604,
      "Ġhurrying": 4605,
      "Before": 4606,
      "Ġawake": 4607,
      "Ġburrow": 4608,
      "Ġweightless": 4609,
      "Ġsmoke": 4610,
      "Ġwhispered": 4611,
      "Ġashamed": 4612,
      "raging": 4613,
      "ÅĵYouÃ¢": 4614,
      "Ġgracefully": 4615,
      "Ġtwisty": 4616,
      "Ġremained": 4617,
      "Ġjokes": 4618,
      "Ġapproval": 4619,
      "Ġincluding": 4620,
      "Ġpedals": 4621,
      "Ġpolitely": 4622,
      "Anna": 4623,
      "Annie": 4624,
      "Charles": 4625,
      "Emmy": 4626,
      "Emma": 4627,
      "Ġsurface": 4628,
      "Ġsurrender": 4629,
      "Ġwagged": 4630,
      "Ġcouch": 4631,
      "Ġdigging": 4632,
      "Ġpuddles": 4633,
      "Ġmentioned": 4634,
      "Ġsafety": 4635,
      "Ġsandcast": 4636,
      "ĠSomeone": 4637,
      "Ġwealth": 4638,
      "Ġpreparing": 4639,
      "Ġearthquake": 4640,
      "Ġsongs": 4641,
      "Ġbalance": 4642,
      "Ġcrown": 4643,
      "Ġmission": 4644,
      "Ġshells": 4645,
      "Ġreceived": 4646,
      "Ġreveal": 4647,
      "Ġsprayed": 4648,
      "Ġcupboard": 4649,
      "Ġleader": 4650,
      "Ġmuffins": 4651,
      "Grace": 4652,
      "Ġsource": 4653,
      "Ġcaptain": 4654,
      "Ġpillows": 4655,
      "Ġpositive": 4656,
      "Ġpossess": 4657,
      "Ġmixed": 4658,
      "Ġsausages": 4659,
      "Ġwhistle": 4660,
      "Ġwhistling": 4661,
      "Ġnetwor": 4662,
      "Ġneatly": 4663,
      "Ġshouting": 4664,
      "Ġsuperhero": 4665,
      "Ġcrystals": 4666,
      "Ġimprove": 4667,
      "Ġimproved": 4668,
      "Ġwindowsill": 4669,
      "Ġreflective": 4670,
      "Meow": 4671,
      "hhh": 4672,
      "Ġhesitant": 4673,
      "Ġhesitated": 4674,
      "Ġcookies": 4675,
      "Ġdemanded": 4676,
      "Ġlips": 4677,
      "Ġlibrary": 4678,
      "Ġlibrarian": 4679,
      "Ġcovering": 4680,
      "Ġpebble": 4681,
      "Ġpebbles": 4682,
      "Ġcommunic": 4683,
      "Ġcheering": 4684,
      "Ġunlock": 4685,
      "Ġunpacked": 4686,
      "Ġpaws": 4687,
      "Ġbubblegum": 4688,
      "Ġstrawberry": 4689,
      "Ġstrawberries": 4690,
      "Ġbalanced": 4691,
      "Ġbalancing": 4692,
      "Alice": 4693,
      "Help": 4694,
      "zzled": 4695,
      "Ġapart": 4696,
      "Ġflexible": 4697,
      "Ġcrossed": 4698,
      "Ġdirection": 4699,
      "Ġdestination": 4700,
      "Ġmeasured": 4701,
      "Ġmistakes": 4702,
      "Ġmailbox": 4703,
      "Ġraised": 4704,
      "Ġspeak": 4705,
      "Ġjunkyard": 4706,
      "ĠLeave": 4707,
      "Ġadults": 4708,
      "Ġtwigs": 4709,
      "Ġcomfy": 4710,
      "Ġfrightened": 4711,
      "Ġsuffer": 4712,
      "Ġsuccessful": 4713,
      "Ġcontainers": 4714,
      "Ġunkind": 4715,
      "Ġtremble": 4716,
      "Ġsqueezed": 4717,
      "Ġgreeted": 4718,
      "Ġobjects": 4719,
      "Ġdesigns": 4720,
      "Ġincredible": 4721,
      "Ġrefreshed": 4722,
      "Ġsandwiches": 4723,
      "Ġexperienced": 4724,
      "Ġfascinated": 4725,
      "Ġbehaviour": 4726,
      "Josh": 4727,
      "Moral": 4728,
      "Ouch": 4729,
      "Remember": 4730,
      "Slowly": 4731,
      "esterday": 4732,
      "pital": 4733,
      "urious": 4734,
      "Ġingredients": 4735,
      "Ġtargets": 4736,
      "Ġachie": 4737,
      "Ġsense": 4738,
      "Ġsimple": 4739,
      "Ġbitter": 4740,
      "Ġbumped": 4741,
      "Ġhonest": 4742,
      "Ġhospital": 4743,
      "Ġhideaway": 4744,
      "Ġdrawer": 4745,
      "Ġoccasion": 4746,
      "Ġglee": 4747,
      "Ġgonna": 4748,
      "Ġguests": 4749,
      "Ġpraised": 4750,
      "Ġpanda": 4751,
      "Ġmachine": 4752,
      "Ġthrilled": 4753,
      "Ġinterrupt": 4754,
      "Ġbellowed": 4755,
      "Ġreceptionist": 4756,
      "Ġwhirlpool": 4757,
      "Ġnearer": 4758,
      "Ġlollipop": 4759,
      "Ġvictorious": 4760,
      "Ġcostumes": 4761,
      "ĠWednesday": 4762,
      "Ġencouraging": 4763,
      "Ġconversation": 4764,
      "Ġaccomplished": 4765,
      "Ġuncomfortable": 4766,
      "Ġhurricane": 4767,
      "Ġuniversity": 4768,
      "Ġsandcastles": 4769,
      "Ġnetwork": 4770,
      "Ġcommunicate": 4771
    },
    "merges": [
      "h e",
      "Ġ t",
      "Ġ a",
      "Ġ s",
      "Ġ w",
      "Ġt he",
      "n d",
      "e d",
      "i n",
      "Ġw a",
      "Ġa nd",
      "Ġ b",
      "Ġt o",
      "Ġ h",
      "r e",
      "i t",
      "Ġ f",
      "o u",
      "e r",
      "Ġwa s",
      "Ġ he",
      "Ġ l",
      "Ġ c",
      "Ġ d",
      "in g",
      "Ġ o",
      "Ġ g",
      "Ġ p",
      "Ġ m",
      "a r",
      "o m",
      "l l",
      "a t",
      "a y",
      "i s",
      "e n",
      "\" \"",
      "T he",
      "i d",
      "n e",
      "l e",
      "Ġh a",
      "Ġs a",
      "Ġt h",
      "a n",
      "Ġ it",
      "i m",
      "o r",
      "Ġ S",
      "e t",
      "v er",
      "Ġ e",
      "l d",
      "Ġ in",
      "o n",
      "Ġ H",
      "i r",
      "Ġhe r",
      "Ġs o",
      "Ġs he",
      "c k",
      "Ġb e",
      "o w",
      "ĠH e",
      "Ġ u",
      "c e",
      "Ġ The",
      "Ġs t",
      "Ġ n",
      "o t",
      "Ġ r",
      "Ġo f",
      "ĠS he",
      "u t",
      "i g",
      "s t",
      "ver y",
      "Ġsa id",
      "p p",
      "l y",
      "k ed",
      "o o",
      "k e",
      "v e",
      "r i",
      "Ġ \"\"",
      "Ġh is",
      "a m",
      "Ġu p",
      "Ġ y",
      "Ġd ay",
      "Ġth at",
      "a d",
      "t ed",
      "en t",
      "it h",
      "Ġha d",
      "Ġ I",
      "it t",
      "ou ld",
      "Ġw ith",
      "e l",
      "ou nd",
      "itt le",
      "Ġp l",
      "i l",
      "a l",
      "Ġl ittle",
      "a ck",
      "im e",
      "Ġw e",
      "Ġf or",
      "u n",
      "Ġs m",
      "Ġt ime",
      "ou t",
      "Ġthe re",
      "c h",
      "Ġo n",
      "Ġthe y",
      "Ġ re",
      "he r",
      "Ġ J",
      "Ġy ou",
      "Ġw h",
      "ir l",
      "Ġ very",
      "om e",
      "Ġha pp",
      "e c",
      "Ġg irl",
      "Ġ ne",
      "s e",
      "a ll",
      "e nd",
      "h t",
      ". \"",
      "Ġe x",
      "u g",
      "Ġs h",
      "O n",
      "Ġa s",
      "Ġpl ay",
      "e s",
      "On ce",
      "Ã ¢",
      "â Ĥ",
      "âĤ ¬",
      "Ġs p",
      "' s",
      "Ġb o",
      "t er",
      "Ġa n",
      "Ġwa n",
      "Ġf ri",
      "Ġfri end",
      "o re",
      "Ġ k",
      "Ġl oo",
      "Ġb ig",
      "Ġhapp y",
      "v ed",
      "Ġl i",
      "f u",
      "i ll",
      "m y",
      "r ound",
      "Ġwe re",
      "Ġb ut",
      "id e",
      "h ing",
      "O ne",
      "Ġ out",
      "u m",
      "Ġsa w",
      "ar d",
      "w ay",
      "a ke",
      "r a",
      "Ġup on",
      "i c",
      "o ne",
      "Ġc ould",
      "Ġh im",
      "ĠI t",
      "' t",
      "Ġwan ted",
      "Ġ j",
      "he n",
      "Ġm om",
      "Ġa ll",
      "il ed",
      "Ġ M",
      "Ġg o",
      "fu l",
      "Ġ T",
      "i nd",
      "Ġsm iled",
      "Ġ A",
      "ĠThe y",
      "a in",
      "u r",
      "Ġs e",
      "he d",
      "Ġa round",
      "Ġa t",
      "Ġw ent",
      "Ġto o",
      "Ġ B",
      "Ġd o",
      "r y",
      "! \"\"",
      "om et",
      "Ġex c",
      ". \"\"",
      "r om",
      "Ġexc it",
      "Ġs omet",
      "Ġfriend s",
      "Ġbo y",
      "Ġhe l",
      "Ġb ack",
      "a re",
      "Ġloo ked",
      "Ġsomet hing",
      "Ġw ould",
      "u re",
      "Ġ E",
      "ig ht",
      "d d",
      "Ġc l",
      "Ġn ot",
      "Ġ L",
      "ou g",
      "Ġl o",
      "Ġf e",
      "Ġst ar",
      "Ġhel p",
      "s ide",
      "am e",
      "k ing",
      "oo d",
      "Ġexcit ed",
      "Ġa l",
      "a g",
      "Ġas ked",
      "s s",
      "e ar",
      "n t",
      "a b",
      "on g",
      "g et",
      "Ġstar ted",
      "ar k",
      "el t",
      "i ck",
      "Ġf elt",
      "Ġr an",
      "Ġw or",
      "re e",
      "Ġa g",
      "Ġthe n",
      "Ġf un",
      "p l",
      "Ġh ome",
      "Ġn o",
      "i e",
      "i ly",
      "pp ed",
      "Ġw hen",
      "Ġc h",
      "ec i",
      "Ġf a",
      "ll y",
      "get her",
      "Ġthe m",
      "Ġm u",
      "ad e",
      "a ug",
      "r o",
      "eci al",
      "Ġa way",
      "Ġe very",
      "Ġsp ecial",
      "e p",
      "q u",
      "Ġc an",
      "Ġwh o",
      "i ce",
      "Ġha ve",
      "e a",
      "Ġwa l",
      "Ġo ld",
      "Ġd ec",
      "Ġf ound",
      "Ġm an",
      "am ed",
      "? \"\"",
      "Ġa b",
      "o p",
      "Ġs ome",
      "ou s",
      "Ġlo ved",
      "Ġm e",
      "Ġag ain",
      "id ed",
      "u dd",
      "Ġg et",
      "Ġ One",
      "Ġto gether",
      "Ġf rom",
      "ow n",
      "Ġdec ided",
      "Ġb ir",
      "Ġn amed",
      "Ġ v",
      "Ġc o",
      "Ġ W",
      "Ġm ade",
      "Ġth an",
      "Ġthe ir",
      "udd en",
      "h at",
      "Ġth ing",
      "ĠJ ack",
      "Ġse e",
      "Ġfe el",
      "Ġr o",
      "Ġli ke",
      "i f",
      "Ġ D",
      "all y",
      "Ġplay ing",
      "udden ly",
      "Ġs c",
      "Ġbir d",
      "Ġd id",
      "u st",
      "Ġg ot",
      "way s",
      "l ow",
      "oug ht",
      "Å ĵ",
      "Ġwh at",
      "Ġ Ã¢",
      "ĠE very",
      "Ġal ways",
      "Ġp ark",
      "Ġ is",
      "ou se",
      "Ġex pl",
      "i le",
      "Ġb r",
      "ĠT im",
      "t her",
      "nd er",
      "ou d",
      "Ġm ake",
      "ar ed",
      "an t",
      "ĠJ o",
      "Ġo ne",
      "Ġo ther",
      "Ġne w",
      "Ġne ver",
      "âĤ¬ â",
      "Ġc are",
      "Ġp r",
      "a s",
      "c y",
      "Ġ ke",
      "Ġd own",
      "Ġab out",
      "p t",
      "Ġl ot",
      "Ġp ut",
      "Ġin t",
      "Ġst r",
      "c hed",
      "u s",
      "Ġ qu",
      "Ġt ake",
      "h n",
      "v ent",
      "Ġs k",
      "Ġs un",
      "Ġb l",
      "Ġk ne",
      "ĠB ut",
      "Ġh ug",
      "n y",
      "Ġ en",
      "re at",
      "a nd",
      "g e",
      "o s",
      "Ġa d",
      "Ġg ra",
      "Ġth ought",
      "Ġout side",
      "Ħ ¢",
      "Ġf o",
      "Ġsa d",
      "âĤ¬â Ħ¢",
      "a ve",
      "u ck",
      "Ġt w",
      "Ġg ood",
      "Ġbe c",
      "f ter",
      "v en",
      "Ġm o",
      "Ġmu ch",
      "Ġ F",
      "is e",
      "Ġthing s",
      "m a",
      "Ġh ow",
      "at e",
      "Ġl aug",
      "a ce",
      "Ġcould n",
      "Ġwa ter",
      "Ġf ind",
      "ou r",
      "ri ed",
      "Ġm ore",
      "u cy",
      "it e",
      "Ġbe a",
      "Ġp o",
      "Ġsc ared",
      "Ġint o",
      "Ġkne w",
      "re t",
      "Ġth is",
      "Ġsm all",
      "f e",
      "er s",
      "Ġtoo k",
      "Ġthan ked",
      "d y",
      "Ġto y",
      "Ġd ad",
      "Ġg ard",
      "Ġgard en",
      "u e",
      "a st",
      "e m",
      "o lly",
      "Ġc ame",
      "en ed",
      "um my",
      "e ll",
      "n ing",
      "n ow",
      "Ġc all",
      "Ġof f",
      "el f",
      "a ne",
      "g ed",
      "o y",
      "Ġwa y",
      "is t",
      "i ve",
      "Ġs w",
      "um p",
      "i on",
      "Ġt ree",
      "Ġh o",
      "Ġsk y",
      "v ing",
      "Ġwa t",
      "Ġtw o",
      "Ġhe ard",
      "Ġc at",
      "an k",
      "Ġo ver",
      "Ġst ay",
      "oug h",
      "Ġcall ed",
      "a ch",
      "b b",
      "om my",
      "Ġso on",
      "Ġan y",
      "ic ed",
      "ab le",
      "! \"",
      "s elf",
      "nt il",
      "Ġad vent",
      "Ġbea ut",
      "Ġt r",
      "Ġl ong",
      "ĠS o",
      "Ġe ven",
      "Ġpr oud",
      "Ġ if",
      "Ġw o",
      "Ġm y",
      "Ġloo k",
      "Ġke pt",
      "Ġu ntil",
      "Ġadvent ure",
      "n ed",
      "Ġg ave",
      "Ġin side",
      "Ġr un",
      "ur p",
      "Ġnot iced",
      "Y ou",
      "a p",
      "a u",
      "i ful",
      "in e",
      "ad y",
      "Ġbeaut iful",
      "S o",
      "b er",
      "Ġl ear",
      "is h",
      "Ġlot s",
      "Ġlaug hed",
      "or t",
      "Ġcl os",
      "Ġfeel ing",
      "i ld",
      "Ġh ouse",
      "Ġp e",
      "Ġre m",
      "Ġsh ow",
      "Ġj ust",
      "Ġdid n",
      "W hen",
      "Ġli ked",
      "Ġexpl ore",
      "he re",
      "Ġto ld",
      "Ġc ar",
      "Ġo p",
      "ĠThe n",
      "b y",
      "ot h",
      "Ġk now",
      "Ġfa st",
      ", \"\"",
      "Ġyou r",
      "Ġqu ick",
      "o b",
      "Ġbe ar",
      "Ġpl ace",
      "a h",
      "f ore",
      "Ġ G",
      "Ġs urp",
      "Ġp u",
      "le w",
      "Ġbe st",
      "Ġli ved",
      "Ġevery one",
      "Ġsurp r",
      "a is",
      "z ed",
      "Ġp ick",
      "ar ah",
      "ot her",
      "Ġt ried",
      "Ġw ill",
      "in k",
      "Ġf low",
      "Ġg round",
      "im al",
      "Ġan imal",
      "ĠL ucy",
      "Ġl ea",
      "Ġc u",
      "Ġc om",
      "et ter",
      "Ġne ed",
      "Ġbo at",
      "Ġwan t",
      "Ġwal king",
      "Ġwo nder",
      "b it",
      "l ed",
      "Ġa r",
      "Ġa ma",
      "Ġf am",
      "Ġm ag",
      "Ġbe fore",
      "Ġn ow",
      "Ġy ear",
      "ĠA nd",
      "aug ht",
      "ais y",
      "I t",
      "c t",
      "Ġ im",
      "es s",
      "Ġj ump",
      "ab bit",
      "Ġquick ly",
      "t y",
      "Ġb y",
      "op le",
      "ĠJo hn",
      "Ġhug ged",
      "J o",
      "g er",
      "Ġc ome",
      "Ġst o",
      "Ġpe ople",
      "Ġf lew",
      "Ġe ach",
      "au se",
      "i ous",
      "Ġd re",
      "Ġr abbit",
      "Ġro om",
      "Ġwat ched",
      "Ġt ry",
      "Ġwa r",
      "Ġb etter",
      "Ġd el",
      "Ġo r",
      "Ġth ree",
      "ĠS uddenly",
      "Ġe ver",
      "Ġsm ile",
      "Ġfam ily",
      "Ġmag ic",
      "' m",
      "B ut",
      "L et",
      "Ġm um",
      "ar y",
      "is ed",
      "Ġha nd",
      "Ġe y",
      "Ġe nd",
      "Ġk ind",
      "Ġwal ked",
      "Ġbec ause",
      "g an",
      "j oy",
      "t ing",
      "Ġb u",
      "Ġc on",
      "ĠH er",
      "l ie",
      "t hing",
      "in ally",
      "Ġf ore",
      "ĠS arah",
      "ĠH is",
      "Ġu s",
      "by e",
      "S uddenly",
      "t h",
      "Ġt ea",
      "Ġb ug",
      "Ġf r",
      "Ġg l",
      "ĠM olly",
      "ag e",
      "T hat",
      "Ġb oth",
      "Ġit s",
      "ig h",
      "Ġbo x",
      "Ġse en",
      "Ġgood bye",
      "Ġclos er",
      "Ġwa it",
      "im my",
      "Ġst ill",
      "ve s",
      "Ġloo king",
      "Ġmom my",
      "ĠD aisy",
      "ĠJo e",
      "Ġen joy",
      "Ġsto pped",
      "W hat",
      "oo k",
      "ĠL ily",
      "Ġwor ld",
      "Ġch ild",
      "Jo hn",
      "Ġey es",
      "J ack",
      "r ow",
      "x t",
      "Ġa re",
      "Ġb ra",
      "Ġh ard",
      "Ġd on",
      "Ġplay ed",
      "Ġcare ful",
      "Ġstr an",
      "i a",
      "Ġd an",
      "Ġg reat",
      "pp y",
      "H e",
      "a se",
      "e ep",
      "Ġto w",
      "Ġf l",
      "Ġf ill",
      "Ġc he",
      "Ġp ret",
      "Ġgo ing",
      "ĠA s",
      "Ġv o",
      "ĠEvery one",
      "Ġstr ong",
      "bb ed",
      "Ġrem em",
      "Ġop ened",
      "Ġanimal s",
      "a x",
      "Ġ -",
      "Ġs ure",
      "Ġf ish",
      "Ġm ouse",
      "ĠS am",
      "Ġbe gan",
      "Ġn ice",
      "oo l",
      "ĠJ ane",
      "Ġpu ppy",
      "i p",
      "Ġe at",
      "ĠT om",
      "d ay",
      "i ed",
      "s h",
      "Ġa fter",
      "Ġd is",
      "Ġwh ile",
      "fu lly",
      "Ġyear s",
      "Ġbra ve",
      "Ġremem ber",
      "u ll",
      "Ġ P",
      "Ġf ly",
      "Ġo w",
      "Ġst or",
      "Ġco l",
      "ĠD ad",
      "Ġcu ri",
      "Ġfore st",
      "i ent",
      "Ġs u",
      "Ġsa fe",
      "ir ed",
      "Ġbe en",
      "Ġne xt",
      "ide a",
      "Y es",
      "a king",
      "Ġ C",
      "Ġb ed",
      "Ġf ar",
      "en ny",
      "Ġre ady",
      "ur t",
      "dd ed",
      "Ġvo ice",
      "a k",
      "n g",
      "p ort",
      "Ġ idea",
      "Ġb it",
      "Ġl ist",
      "Ġm or",
      "ec t",
      "Ġro ck",
      "Ġwonder ful",
      "o se",
      "Ġt ast",
      "Ġw ind",
      "Ġman y",
      "ĠW hen",
      "Ġcare fully",
      "Ġjump ed",
      "Ġmagic al",
      "Ġfill ed",
      "f f",
      "Ġs low",
      "Ġwa ved",
      "Ġc le",
      "Ġd if",
      "Ġp at",
      "ll ow",
      "Ġha ving",
      "Ġre pl",
      "Ġsh in",
      "ill y",
      "Ġno dded",
      "Ġwar m",
      "a il",
      "Ġ You",
      "Ġa c",
      "Ġs ec",
      "Ġl et",
      "Ġwh y",
      "ĠB ob",
      "Ġfa ce",
      "Ġgra bbed",
      "ĠF rom",
      "Ġcuri ous",
      "i re",
      "r ough",
      "Ġt ired",
      "Ġth rough",
      "Ġre al",
      "ĠA fter",
      "Ġrun ning",
      "N o",
      "T h",
      "er ed",
      "Ġc ry",
      "Ġn ight",
      "Ġwor k",
      "us h",
      "Ġdel ic",
      "Ġcon t",
      "Ġstran ge",
      "c o",
      "l i",
      "Ġ z",
      "Ġb all",
      "Ġf ood",
      "Ġhe re",
      "Ġp er",
      "Ġp ar",
      "is hed",
      "Ġu n",
      "Ġu nder",
      "Ġst e",
      "st er",
      "Ġsh ould",
      "Ġhim self",
      "Ġj o",
      "Ġdo g",
      "Ġfo llow",
      "Ġbec ame",
      "e et",
      "Ġw r",
      "Ġf ull",
      "Ġg ame",
      "Ġg ive",
      "The y",
      "le s",
      "nt s",
      "Ġwal k",
      "Ġpr in",
      "Ġlear ned",
      "Ġflow ers",
      "Ġrepl ied",
      "n er",
      "Ġhe ad",
      "Ġp are",
      "ir st",
      "Ġbe h",
      "Ġu se",
      "ĠJ ill",
      "ter f",
      "Ġbut terf",
      "ĠM ommy",
      "Ġdo or",
      "Ġsw eet",
      "Ġtr uck",
      "Ġpare nts",
      "e st",
      "Ġc reat",
      "Ġp re",
      "at ed",
      "\"\" .",
      "ch ing",
      "Ġne ar",
      "ĠE m",
      "ab y",
      "Ġexpl or",
      "Ġgra ss",
      "fe re",
      "Ġpick ed",
      "Ġar ri",
      "Ġama z",
      "Ġdif fere",
      "Ġsec ret",
      "f t",
      "Ġt re",
      "ou ted",
      "Ġc ra",
      "Ġd in",
      "at her",
      "Ġr u",
      "Ġr ight",
      "ĠI n",
      "ĠM om",
      "Ġno ise",
      "Ġbr ight",
      "Ġpo nd",
      "Ġsurpr ise",
      "Ġcom ing",
      "c ed",
      "i zed",
      "Ġs n",
      "Ġw ood",
      "Ġg r",
      "le ep",
      "Ġbe ing",
      "Ġsh are",
      "Ġsh outed",
      "Ġk itt",
      "Ġsee m",
      "Ġenjoy ed",
      "Ġper f",
      "Ġarri ved",
      "Ġdiffere nt",
      "L ucy",
      "he s",
      "Ġt al",
      "Ġs ound",
      "Ġs qu",
      "Ġb ow",
      "ou nt",
      "Ġl oud",
      "Ġp a",
      "Ġke ep",
      "Ġbutterf ly",
      "M olly",
      "i x",
      "m er",
      "o ck",
      "w here",
      "Ġ N",
      "Ġ R",
      "Ġ ice",
      "Ġt ur",
      "Ġa pp",
      "Ġto u",
      "Ġd one",
      "Ġd ro",
      "Ġd eep",
      "Ġp ain",
      "ir t",
      "Ġre ally",
      "ĠM ia",
      "Ġstay ed",
      "Ġgl ad",
      "ĠDad dy",
      "Ġamaz ing",
      "u ally",
      "Ġh igh",
      "Ġhe ar",
      "Ġl ess",
      "The n",
      "ĠS ue",
      "Ġr ed",
      "pp ing",
      "ad ow",
      "Ġcl ose",
      "Ġbl ue",
      "Ġtoy s",
      "Ġsurpr ised",
      "Ġslow ly",
      "Ġkitt y",
      "M ommy",
      "a ched",
      "b le",
      "r ank",
      "u ed",
      "Ġf inally",
      "Ġf irst",
      "Ġg i",
      "Ġm other",
      "Ġn ame",
      "Ġr i",
      "Ġy ummy",
      "ĠJ immy",
      "Ġhapp ily",
      "ard s",
      "ĠL et",
      "Ġfa v",
      "Ġab le",
      "Ġsome one",
      "Ġco ld",
      "Ġbird s",
      "Ġlea ves",
      "Ġama zed",
      "Ġste pped",
      "S he",
      "i z",
      "o on",
      "p h",
      "z y",
      "Ġw here",
      "Ġto p",
      "re am",
      "Ġm at",
      "im b",
      "Ġher self",
      "Ġj oy",
      "ĠT o",
      "Ġcl a",
      "Ġcl imb",
      "Ġfe w",
      "ro om",
      "vent ually",
      "Ġbl ack",
      "Ġho pped",
      "Ġflow er",
      "Ġdre am",
      "Ġcol or",
      "Ġmor ning",
      "Ġdelic ious",
      "Ġcont in",
      "l u",
      "s o",
      "Ġs leep",
      "in ed",
      "Ġg one",
      "Ġm et",
      "Ġget ting",
      "ap e",
      "Ġshow ed",
      "Ġstor y",
      "Ġshin y",
      "Ġcontin ued",
      "H er",
      "M ummy",
      "ed dy",
      "Ġf ree",
      "Ġl e",
      "Ġl ady",
      "Ġg re",
      "ll ed",
      "Ġbe l",
      "Ġsp ot",
      "Ġbig ger",
      "Ġse ar",
      "ss ed",
      "Ġfo x",
      "Ġmo st",
      "Ġany thing",
      "Ġfast er",
      "Ġim port",
      "Ġus ed",
      "Ġremember ed",
      "Ġcle an",
      "Ġimport ant",
      "A t",
      "o l",
      "s c",
      "Ġf in",
      "le ph",
      "Ġsa il",
      "un g",
      "Ġon ly",
      "ĠA ll",
      "Ġal so",
      "Ġbr other",
      "Ġho le",
      "Ġlear n",
      "Ġlist en",
      "Ġexplor ing",
      "Ġseem ed",
      "Ġless on",
      "C an",
      "b e",
      "h o",
      "i es",
      "n n",
      "s ed",
      "Ġa ir",
      "Ġh or",
      "re ed",
      "Ġf ig",
      "Ġf ro",
      "Ġd ark",
      "is it",
      "Ġe l",
      "Ġe ar",
      "ir c",
      "am es",
      "Ġevery thing",
      "Ġv isit",
      "ĠTim my",
      "Ġcat ch",
      "Ġpret ty",
      "ff y",
      "Th ank",
      "Ġtre es",
      "Ġdin ner",
      "Ġperf ect",
      "F rom",
      "M om",
      "c her",
      "m e",
      "Ġb ad",
      "Ġh urt",
      "Ġf ur",
      "Ġl and",
      "Ġg ent",
      "Ġp ow",
      "Ġm on",
      "Ġbe lie",
      "Ġre st",
      "Ġre ached",
      "ic y",
      "Ġmom ent",
      "ro ss",
      "Ġadventure s",
      "Ġtry ing",
      "Ġhand s",
      "Ġtea cher",
      "Ġbeh ind",
      "Ġbel ong",
      "J immy",
      "Ġs or",
      "Ġs et",
      "Ġs uddenly",
      "Ġd ri",
      "Ġp le",
      "Ġn aught",
      "Ġyou ng",
      "Ġhapp ened",
      "Ġsp l",
      "Ġk id",
      "Ġwor d",
      "ĠW e",
      "Ġmo ve",
      "our s",
      "Ġlong er",
      "ĠG ra",
      "Ġfl o",
      "Ġac ross",
      "Ġreal ized",
      "Ġunder st",
      "Ġfig ure",
      "Ġsor ry",
      "T im",
      "h y",
      "i et",
      "u l",
      "Ġt all",
      "Ġb ar",
      "Ġb un",
      "Ġh ar",
      "re n",
      "Ġp rom",
      "Ġp ea",
      "ar ing",
      "Ġsa me",
      "ir y",
      "ĠThe re",
      "Ġr a",
      "ĠM ary",
      "Ġat e",
      "ĠL ittle",
      "Ġlo ve",
      "ear ed",
      "Ġwor ked",
      "Ġmu st",
      "Ġme adow",
      "Ġqu iet",
      "Ġbl ank",
      "Ġneed ed",
      "ĠAnd y",
      "Ġdre ss",
      "Ġchild ren",
      "Ġdis co",
      "Ġow n",
      "Ġfollow ed",
      "Ġcreat ure",
      "Ġtou ch",
      "Ġbelie ve",
      "Ġblank et",
      "' ll",
      "H ell",
      "b r",
      "k ay",
      "l ing",
      "Ġ ve",
      "Ġa m",
      "Ġs ay",
      "Ġb aby",
      "Ġwas n",
      "Ġl ake",
      "Ġl ight",
      "Ġc irc",
      "Ġm aking",
      "Ġe leph",
      "Ġso ft",
      "ri es",
      "Ġre lie",
      "Ġwh ite",
      "Ġsh op",
      "Ġat t",
      "ep end",
      "Ġthan k",
      "Ġen ough",
      "Ġtow ards",
      "Ġwood s",
      "ĠN ow",
      "Ġfin ished",
      "Ġbun ny",
      "Hell o",
      "Ġeleph ant",
      "A fter",
      "H is",
      "b or",
      "o om",
      "p ot",
      "he ne",
      "Ġt ri",
      "Ġs at",
      "Ġs ide",
      "Ġf ix",
      "Ġc aught",
      "ing ing",
      "Ġp ic",
      "Ġm ess",
      "or m",
      "ver ed",
      "Ġe m",
      "Ġst ore",
      "Ġr ain",
      "Ġy ell",
      "Ġhapp en",
      "Ġan g",
      "Ġfriend ly",
      "um b",
      "ĠM ax",
      "Ġag reed",
      "Ġexpl ain",
      "and y",
      "Ġop en",
      "Ġpret end",
      "Ġfav or",
      "Ġhor se",
      "Ġel se",
      "Ġnaught y",
      "Ġpea ce",
      "Ġrelie ved",
      "hene ver",
      "i ke",
      "m ore",
      "t on",
      "t ur",
      "Ġt ell",
      "Ġs now",
      "Ġw on",
      "Ġhe ld",
      "Ġc ool",
      "Ġg ather",
      "Ġp ro",
      "Ġm ight",
      "et er",
      "Ġst one",
      "Ġy es",
      "Ġpl ant",
      "Ġre tur",
      "Ġk n",
      "ĠT h",
      "ĠT hat",
      "Ġother s",
      "as h",
      "Ġsun sh",
      "Ġfo ld",
      "Ġsw im",
      "Ġany more",
      "Ġlook s",
      "Ġar m",
      "Ġow l",
      "Ġpat ient",
      "Ġwr ong",
      "Ġprin ce",
      "Ġpre s",
      "ĠEm ma",
      "Ġcla pped",
      "Ġfavor ite",
      "Ġsunsh ine",
      "' re",
      "D on",
      "T om",
      "W e",
      "b o",
      "i ch",
      "s p",
      "Ġs l",
      "Ġb uck",
      "Ġh ill",
      "Ġg row",
      "Ġp ink",
      "at h",
      "id d",
      "an ny",
      "ce pt",
      "Ġpl ane",
      "un k",
      "ĠM ummy",
      "ĠA nn",
      "Ġme an",
      "Åĵ I",
      "Ġgra nd",
      "em ent",
      "Ġclos ed",
      "Ġtast ed",
      "Ġball oon",
      "Ġfro g",
      "Ġgent le",
      "Ġmon ster",
      "Ġkid s",
      "Ġprom ised",
      "Ġpres ent",
      "Ġbuck et",
      "A nd",
      "h ar",
      "p er",
      "s y",
      "t o",
      "Ġ 3",
      "Ġwa nder",
      "Ġb re",
      "Ġb or",
      "Ġb us",
      "Ġd r",
      "Ġo b",
      "Ġg um",
      "Ġg ho",
      "Ġp ie",
      "Ġp us",
      "Ġm ark",
      "ll a",
      "ĠS pot",
      "Ġbe e",
      "Ġst re",
      "Ġst and",
      "Ġr ace",
      "ut e",
      "Ġsh irt",
      "ĠA my",
      "as ed",
      "Ġsun ny",
      "ĠF rank",
      "Ġmy ster",
      "Ġim ag",
      "Ġor an",
      "Ġfly ing",
      "Ġpar ty",
      "Ġsn ack",
      "Ġdro ve",
      "lu ffy",
      "Ġgre en",
      "sc ape",
      "Ġgho st",
      "W hy",
      "a c",
      "d e",
      "d er",
      "e ad",
      "f ort",
      "Ġs ch",
      "Ġb ro",
      "Ġb ush",
      "Ġh ide",
      "Ġh ours",
      "Ġl one",
      "Ġl uck",
      "Ġc ave",
      "Ġg u",
      "Ġp ir",
      "Ġp ers",
      "Ġm ill",
      "Ġm ummy",
      "at ion",
      "ot t",
      "ig n",
      "am a",
      "el c",
      "Ġon to",
      "Ġwh ich",
      "Ġsh o",
      "Ġsh ared",
      "fu sed",
      "ra ct",
      "ĠA l",
      "Ġfe ll",
      "Ġhelp ed",
      "Ġal one",
      "Ġwor ry",
      "Ġwor ried",
      "Ġme et",
      "as k",
      "Ġad m",
      "Ġfo ot",
      "Ġsu ch",
      "Ġjo in",
      "Ġgi ant",
      "Ġri ver",
      "Ġpie ce",
      "Ġsch ool",
      "Ġpir ate",
      "D o",
      "F inally",
      "L ily",
      "O h",
      "a w",
      "c ing",
      "g led",
      "k en",
      "l ax",
      "u ne",
      "z e",
      "Ġt ight",
      "Ġt reat",
      "Ġw elc",
      "Ġb ott",
      "re l",
      "ou p",
      "Ġd es",
      "ing s",
      "Ġm in",
      "Ġth in",
      "or d",
      "ck et",
      "il ing",
      "Ġfor g",
      "Ġsm iling",
      "Ġre lax",
      "Ġsp e",
      "Ġsp ent",
      "Ġli fe",
      "Ġexcit ing",
      "Ġlo st",
      "Ġwho le",
      "Ġv i",
      "ĠW ith",
      "Ġbr ought",
      "Ġbl ock",
      "Ġkne e",
      "Ġpo cket",
      "ĠG ary",
      "Ġwonder ed",
      "Ġim p",
      "Ġbu ild",
      "Ġwait ed",
      "Ġdan ger",
      "Ġtow n",
      "Ġlist ened",
      "Ġtal k",
      "ĠTo gether",
      "Ġcolor ful",
      "Ġbre ak",
      "B ob",
      "a ir",
      "o c",
      "r ed",
      "s w",
      "Ġwa ll",
      "Ġb ag",
      "Ġb ath",
      "Ġh ung",
      "Ġf all",
      "er ful",
      "Ġc ake",
      "Ġc ast",
      "Ġc ount",
      "Ġo kay",
      "at er",
      "is s",
      "Ġth ink",
      "Ġe ventually",
      "Ġbe ll",
      "ĠJ enny",
      "Ġsp o",
      "Ġsp ark",
      "Ġan sw",
      "ĠB illy",
      "Ġexcit ement",
      "Ġmo d",
      "Ġmo ved",
      "ĠF luffy",
      "Ġlaug hing",
      "Ġpo in",
      "Ġdad dy",
      "Ġrem ind",
      "Ġpu lled",
      "Ġlea ve",
      "th y",
      "th day",
      "Ġmor al",
      "Ġpat h",
      "ĠIn side",
      "Ġhear t",
      "Ġspot ted",
      "Ġple ase",
      "Ġunderst and",
      "Ġhar bor",
      "Ġyell ow",
      "Ġang ry",
      "Ġexplain ed",
      "Ġgather ed",
      "Ġretur ned",
      "Ġarm s",
      "Ġdr ink",
      "Ġlone ly",
      "Ġforg ot",
      "A s",
      "E very",
      "W ow",
      "a v",
      "e k",
      "e le",
      "l a",
      "m ing",
      "s ic",
      "Ġt aking",
      "Ġs it",
      "Ġw et",
      "Ġf ight",
      "ou n",
      "Ġhe al",
      "Ġc her",
      "Ġc ele",
      "Ġd ry",
      "Ġp ack",
      "le ss",
      "Ġth ough",
      "an ce",
      "et le",
      "Ġin st",
      "Ġbe etle",
      "Ġst u",
      "ke ep",
      "Ġy ard",
      "Ġwe ll",
      "un ch",
      "Ġre li",
      "Ġne igh",
      "Ġbut ton",
      "ic op",
      "Ġhel icop",
      "Ġnot e",
      "Ġnot hing",
      "ick en",
      "ie ld",
      "Ġch o",
      "Ġch icken",
      "Ġbir thday",
      "Ġco in",
      "ĠEvery where",
      "Ġbr an",
      "âĤ¬â Ģ",
      "Ġwat ch",
      "Ġcom p",
      "Ġbu y",
      "Ġstor ies",
      "Ġtast e",
      "Ġshin ing",
      "Th is",
      "Ġz i",
      "ount ain",
      "Ġpa ss",
      "Ġapp eared",
      "Ġpain t",
      "ol in",
      "ĠGra ce",
      "Ġshop keep",
      "ĠTh is",
      "Ġbro ken",
      "Ġpers on",
      "Ġspe ed",
      "Ġvi olin",
      "Ġcast le",
      "Ġcele br",
      "Ġreli able",
      "Ġhelicop ter",
      "Ġshopkeep er",
      "L ook",
      "M ia",
      "a pp",
      "b ar",
      "c ream",
      "e lly",
      "o ve",
      "r ated",
      "u al",
      "y ard",
      "he l",
      "Ġa v",
      "Ġw om",
      "Ġw ide",
      "Ġw ished",
      "Ġb ite",
      "re ad",
      "Ġl ine",
      "Ġl unch",
      "Ġd uck",
      "Ġd ist",
      "Ġp h",
      "Ġp ig",
      "id ge",
      "ĠS andy",
      "Ġe scape",
      "Ġst op",
      "Ġr ide",
      "ke y",
      "Ġpl an",
      "Ġsm elly",
      "ĠJ im",
      "ĠJ ames",
      "Ġsp read",
      "ill age",
      "one y",
      "ĠB e",
      "Ġfa iry",
      "Ġmu sic",
      "?\"\" .",
      "Ġv illage",
      "Ġco ll",
      "ĠW hat",
      "Ġhug e",
      "ge st",
      "Ġbea ch",
      "ink y",
      "Ġdan ce",
      "Ġche ered",
      "Ġeat ing",
      "Ġdis app",
      "Ġcol our",
      "Ġfar mer",
      "Ġmet al",
      "Ġfur ry",
      "Ġbelong ed",
      "Ġword s",
      "epend able",
      "Ġem bar",
      "idd le",
      "Ġmark et",
      "ac hel",
      "Ġwom an",
      "Ġembar ra",
      "' d",
      "A my",
      "J ane",
      "a ss",
      "e en",
      "g round",
      "m or",
      "r or",
      "t ure",
      "u ss",
      "w ard",
      "Ġ ent",
      "Ġt un",
      "Ġa dd",
      "Ġh ur",
      "it c",
      "it y",
      "Ġf it",
      "Ġf ire",
      "Ġf ield",
      "Ġl it",
      "Ġc urt",
      "Ġp ract",
      "Ġm ir",
      "Ġm iddle",
      "ar t",
      "Ġsa iled",
      "Ġin c",
      "on t",
      "Ġshe l",
      "Ġr id",
      "ig her",
      "Ġwith out",
      "Ġwe ar",
      "Ġfor get",
      "Ġre ad",
      "Ġplay ground",
      "Ġj et",
      "Ġdo ll",
      "Ġdo es",
      "ĠE lly",
      "ĠE lla",
      "Ġcl oud",
      "ag er",
      "Ġevery where",
      "Ġco vered",
      "ust rated",
      "Ġen g",
      "Ġwat ching",
      "ĠSo on",
      "Ġtea ch",
      "Ġfr ont",
      "Ġdon Ã¢",
      "Ġdan ced",
      "Ġche st",
      "Ġcra b",
      "Ġcra w",
      "Ġbright ly",
      "Ġtur ned",
      "iz e",
      "Ġmat ter",
      "ul ar",
      "Ġtri p",
      "Ġpic ture",
      "Ġstre et",
      "Ġmyster ious",
      "fort able",
      "Ġluck y",
      "Ġblock s",
      "Ġdanger ous",
      "Ġcurt ain",
      "H i",
      "I n",
      "L ittle",
      "S arah",
      "b way",
      "e b",
      "e re",
      "f ant",
      "p ed",
      "r ot",
      "s et",
      "Ġ '",
      "Ġt in",
      "Ġt aught",
      "Ġt ail",
      "Ġt eddy",
      "ed ient",
      "Ġb ook",
      "Ġto day",
      "Ġh at",
      "Ġh id",
      "Ġh ook",
      "Ġh igher",
      "er ous",
      "Ġl ate",
      "Ġc our",
      "Ġc ream",
      "Ġo ce",
      "Ġg en",
      "Ġg low",
      "Ġp ast",
      "Ġp ap",
      "Ġp enny",
      "en ce",
      "en ry",
      "an ic",
      "ĠS ally",
      "Ġe ager",
      "Ġin fant",
      "Ġst ret",
      "Ġr ake",
      "st ing",
      "ent ion",
      "Ġsm ell",
      "Ġre c",
      "Ġsh y",
      "Ġsp in",
      "Ġan other",
      "Ġli on",
      "ĠT ommy",
      "Ġse a",
      "ĠB en",
      "Ġdo ing",
      "Ġdo ct",
      "Ġback yard",
      "Ġwould n",
      "Ġhelp ing",
      "Ġhelp ful",
      "Ġal ong",
      "ĠW henever",
      "Ġint ere",
      "Ġbec ome",
      "Ġmo le",
      "ĠF inally",
      "Ġlaug h",
      "Ġsw ing",
      "ion s",
      "Ġho pping",
      "Ġany one",
      "So on",
      "Ġcar rot",
      "Ġbear s",
      "Ġplace s",
      "Ġfr ustrated",
      "Ġenjoy ing",
      "Ġstran ger",
      "Ġsu bway",
      "ĠC har",
      "Ġwind ow",
      "Ġpar ade",
      "Ġjo g",
      "Ġprin t",
      "Ġru de",
      "Ġsqu ash",
      "Ġdro pped",
      "ble m",
      "Ġclimb ed",
      "Ġle ft",
      "Ġsail or",
      "Ġdri ver",
      "Ġpeace ful",
      "Ġswim ming",
      "ĠAnn a",
      "Ġob edient",
      "Ġstand ing",
      "Ġoran ge",
      "Ġwelc ome",
      "Ġspo ke",
      "Ġbran ch",
      "Ġembarra ssed",
      "Ġtun a",
      "Ġmir ror",
      "Ġcour se",
      "Ġoce an",
      "Ġgen erous",
      "Ġdoct or",
      "D ad",
      "M y",
      "M ax",
      "T o",
      "b all",
      "h ile",
      "l and",
      "o nd",
      "r u",
      "r eddy",
      "s ing",
      "y ing",
      "z er",
      "z ag",
      "Ġ K",
      "Ġ our",
      "Ġt id",
      "Ġw ise",
      "Ġw ings",
      "nd ma",
      "in ce",
      "in ess",
      "Ġh ot",
      "Ġf is",
      "Ġhe av",
      "Ġd aught",
      "Ġp et",
      "Ġp il",
      "Ġm oney",
      "en ise",
      "Ġso l",
      "Ġn ap",
      "Ġr ug",
      "Ġr are",
      "ig hed",
      "ig zag",
      "ri or",
      "ime s",
      "Ġwe ek",
      "Ġtime s",
      "Ġre sp",
      "ĠJ ust",
      "Ġex t",
      "Ġsh ore",
      "Ġplay ful",
      "Ġk ick",
      "Ġk ite",
      "Ġli ve",
      "Ġj ob",
      "Ġj ung",
      "ur se",
      "Ġfun ny",
      "Ġv ine",
      "Ġco zy",
      "Åĵ Let",
      "Ġbr ing",
      "Ġbr own",
      "ate ly",
      "Ġtr ust",
      "Ġtr ue",
      "Ġwo ke",
      "Ġcu be",
      "Ġcom fortable",
      "Ġwar rior",
      "Ġcon fused",
      "Ġfore ver",
      "Ġfr own",
      "Ġdan cing",
      "Ġrock et",
      "Ġdelic ate",
      "Ġz ip",
      "Ġnear by",
      "Ġtal king",
      "ĠR achel",
      "Ġtur n",
      "Ġblue ber",
      "Ġmat ch",
      "Ġfree zer",
      "Ġsear ching",
      "Ġspl as",
      "Ġflo at",
      "ul t",
      "Ġcirc le",
      "Ġpro blem",
      "Ġbott om",
      "Ġpoin ted",
      "Ġremind ed",
      "Ġcher ry",
      "Ġph one",
      "Ġtin y",
      "Ġpap er",
      "Ġrec ord",
      "Ġintere sting",
      "Ġdaught er",
      "Ġpil ot",
      "Ġjung le",
      "ÅĵLet Ã¢",
      "C ome",
      "I f",
      "J ust",
      "O f",
      "S am",
      "S ue",
      "a e",
      "b ow",
      "b aby",
      "c le",
      "d ge",
      "h in",
      "i ers",
      "k in",
      "m an",
      "n ie",
      "o ld",
      "p ar",
      "r ay",
      "s ab",
      "t i",
      "Ġ O",
      "Ġ On",
      "Ġa ct",
      "Ġs elf",
      "Ġs inging",
      "Ġs ign",
      "Ġw is",
      "Ġw ra",
      "in nie",
      "Ġb a",
      "Ġb ri",
      "Ġb ike",
      "Ġb ask",
      "Ġh ay",
      "Ġh op",
      "er t",
      "er os",
      "Ġc ut",
      "Ġc and",
      "Ġc ush",
      "Ġd iz",
      "Ġg em",
      "Ġp ed",
      "Ġp en",
      "Ġp urp",
      "Ġm ind",
      "Ġm ountain",
      "ar i",
      "ll o",
      "ay be",
      "id er",
      "ne y",
      "Ġha ir",
      "Ġha ng",
      "Ġha iry",
      "Ġit ch",
      "ld iers",
      "ir rel",
      "Ġso ldiers",
      "Ġst uck",
      "Ġr hin",
      "ut es",
      "ĠI Ã¢",
      "il k",
      "al k",
      "ack et",
      "ch anic",
      "ĠJ une",
      "Ġsh r",
      "Ġsh ap",
      "Ġan t",
      "um mer",
      "Ġj our",
      "Ġj acket",
      "Ġse ed",
      "ĠB eep",
      "ĠB enny",
      "ĠB inky",
      "Ġdo ve",
      "!\"\" \"",
      "!\"\" .",
      "ĠE nd",
      "Ġcl oth",
      "Ġfe et",
      "Ġme chanic",
      "Ġro lled",
      "Ġis land",
      "Ġmake s",
      "as er",
      "us ual",
      "Ġqu een",
      "Ġmo ving",
      "our ite",
      "Ġpo l",
      "Ġpo le",
      "Jo e",
      "Ġfr idge",
      "Ġtow er",
      "Ġrock s",
      "Ġac cept",
      "Ġcry ing",
      "Ġun i",
      "Ġun usual",
      "ĠEm ily",
      "Ġexplor ed",
      "Ġgr oup",
      "Ġsound ed",
      "Ġsqu irrel",
      "Ġpain ter",
      "Ġfav ourite",
      "Ġcolor s",
      "Ġle g",
      "Ġsear ch",
      "ol a",
      "Ġcirc les",
      "Ġthank ful",
      "Ġrain bow",
      "Ġsl ide",
      "Ġgrand baby",
      "Ġpus hed",
      "Ġimag ined",
      "Ġsho ot",
      "Ġadm ire",
      "Ġmin utes",
      "oc eros",
      "Ġmod el",
      "la ire",
      "Ġpass port",
      "uss el",
      "Ġeng ine",
      "Ġext ra",
      "sab el",
      "Ġself ish",
      "Ġbask et",
      "Ġcush ion",
      "Ġdiz zy",
      "Ġpurp le",
      "Ġrhin oceros",
      "Ġshap es",
      "Ġjour ney",
      "a ur",
      "e o",
      "e er",
      "f ra",
      "g g",
      "g n",
      "g le",
      "l oo",
      "l oom",
      "n ic",
      "p ill",
      "t en",
      "t ti",
      "v ous",
      "Ġ ind",
      "he art",
      "he tti",
      "Ġt ra",
      "Ġt urt",
      "Ġa fra",
      "Ġs er",
      "Ġs itt",
      "Ġs ight",
      "Ġs ummer",
      "Ġw in",
      "Ġw it",
      "Ġw henever",
      "Ġwa nd",
      "Ġb reat",
      "Ġb oun",
      "Ġto ug",
      "Ġf ake",
      "er pill",
      "er vous",
      "Ġhe llo",
      "Ġl ast",
      "Ġd ea",
      "ing er",
      "Ġo ct",
      "Ġg ar",
      "Ġg ig",
      "Ġg if",
      "Ġp our",
      "Ġp ump",
      "Ġp ool",
      "Ġm is",
      "Ġm ama",
      "Ġm ilk",
      "at ure",
      "The re",
      "ne ss",
      "le ase",
      "Ġha s",
      "Ġsa ck",
      "an ged",
      "Ġe as",
      "Ġin v",
      "Ġu r",
      "Ġst ack",
      "Ġst ood",
      "Ġst ick",
      "Ġn ervous",
      "am p",
      "ent s",
      "ĠI sabel",
      "al ed",
      "Ġwe ak",
      "Ġre co",
      "Ġsh ook",
      "Ġsh adow",
      "Ġas king",
      "Ġsp ag",
      "um ber",
      "Ġj u",
      "Ġj ar",
      "Ġgo at",
      "ur ed",
      "Ġse par",
      "ĠB loom",
      ".\"\" \"",
      "ĠE ventually",
      "Ġcl um",
      "Ġlo g",
      "Ġno sy",
      "ie st",
      "Ġch ased",
      "Ġmu sh",
      "op us",
      "Ġv al",
      "Ġco at",
      "ĠW hile",
      "ĠD anny",
      "ĠD enise",
      "Ġbr ush",
      "as ure",
      "Ġke y",
      "Ġstr ug",
      "us hed",
      "us ie",
      "Ġen v",
      "os aur",
      "ump y",
      "Ġcat erpill",
      "au l",
      "Ġknow ing",
      "Ġar row",
      "Ġdel ight",
      "Ġor gan",
      "Ġkind s",
      "Ġfl u",
      "Ġche erful",
      "Ġsafe ly",
      "Ġbed room",
      "Ġfar m",
      "Ġtast y",
      "Ġwr ite",
      "Ġsweet heart",
      "Ġcra ne",
      "Ġru bbed",
      "Ġperf orm",
      "Ġsound s",
      "ĠR ussel",
      "Ġtur key",
      "Ġtou ched",
      "Ġunderst ood",
      "Ġdisco ver",
      "Ġve st",
      "epend ent",
      "Ġpic nic",
      "umb led",
      "Ġstone s",
      "Ġwander ed",
      "Ġbus y",
      "Ġbus hes",
      "Ġpus hing",
      "ĠAl ice",
      "Ġfoot ball",
      "Ġbath room",
      "Ġhung ry",
      "Ġansw er",
      "Ġinst ead",
      "Ġneigh b",
      "Ġcelebr ate",
      "Ġcoll ec",
      "Ġdisapp eared",
      "Ġcolour ful",
      "Ġhur ry",
      "Ġpicture s",
      "Ġtid y",
      "Ġheav y",
      "Ġba ld",
      "Ġcand le",
      "Ġind ependent",
      "Ġturt le",
      "Ġafra id",
      "Ġsitt ing",
      "Ġwit ch",
      "Ġbreat h",
      "Ġtoug h",
      "Ġdea f",
      "Ġoct opus",
      "Ġgar age",
      "Ġpump kin",
      "Ġreco gn",
      "Ġspag hetti",
      "Ġmush room",
      "Ġcaterpill ar",
      "B e",
      "M um",
      "N ow",
      "W here",
      "Z igzag",
      "c age",
      "c ient",
      "c cept",
      "g ly",
      "h ie",
      "i o",
      "i er",
      "l ate",
      "m ent",
      "m ined",
      "m unk",
      "n am",
      "n ger",
      "r anny",
      "y er",
      "y ear",
      "Ġ No",
      "Ġt able",
      "Ġa w",
      "Ġs illy",
      "Ġw ore",
      "Ġw ish",
      "Ġw ip",
      "in ked",
      "in al",
      "in ation",
      "Ġb ur",
      "Ġb lew",
      "Ġh oo",
      "er i",
      "Ġhe dge",
      "Ġl aw",
      "Ġl ying",
      "Ġc or",
      "Ġc ase",
      "Ġc ute",
      "Ġd i",
      "Ġd ir",
      "Ġd irt",
      "Ġd eter",
      "Ġg as",
      "Ġg ate",
      "Ġp ile",
      "Ġp urse",
      "Ġm ad",
      "Ġm ine",
      "ar n",
      "is ted",
      "Ġha nger",
      "im p",
      "Ġe gg",
      "ĠH enry",
      "Ġso ck",
      "ck y",
      "Ġbe g",
      "Ġst ep",
      "Ġst able",
      "Ġst umbled",
      "ot hes",
      "Ġr ad",
      "Ġr ushed",
      "ig inal",
      "Ġy ach",
      "Ġy arn",
      "Ġday s",
      "il t",
      "il ty",
      "Ġwe ight",
      "Ġfor ward",
      "Ġsm o",
      "Ġre f",
      "Ġwh is",
      "Ġas h",
      "Ġas k",
      "âĤ¬ .",
      "Ġsp ade",
      "Ġsp oon",
      "Ġsp icy",
      "Ġsp ider",
      "Ġan cient",
      "Ġk itc",
      "ill ie",
      "ra g",
      "Ġj eep",
      "ĠM r",
      "ĠM eri",
      "ĠA li",
      "ĠA ccept",
      "ĠB ear",
      "Ġsomet imes",
      "ĠE ven",
      "Ġcl othes",
      "ĠL eo",
      "Ġfe ather",
      "Ġstar t",
      "Ġwor ries",
      "ie f",
      "Ġch ip",
      "Ġch ose",
      "Ġch alk",
      "op hie",
      "Ġme ant",
      "Ġv ase",
      "Ġro ad",
      "if e",
      "Ġsc re",
      "Ġsc ary",
      "Ġbird cage",
      "Åĵ You",
      "pt y",
      "Ġbl inked",
      "Ġen orm",
      "Ġgra ce",
      "Ġsad ly",
      "Ġtw ist",
      "ate ful",
      "Ġway s",
      "Ġho ld",
      "bb ing",
      "Ġtr ou",
      "Ġtr unk",
      "ort s",
      "Ġrem ain",
      "ĠG ranny",
      "Ġlea k",
      "Ġboat s",
      "ct ion",
      "Ġjump ing",
      "Ġdel igh",
      "Ġor nam",
      "Ġor iginal",
      "Ġbu bb",
      "Ġbu ilt",
      "Ġus ing",
      "Ġbug s",
      "Ġgl ove",
      "Ġstrong er",
      "ĠP eter",
      "ĠC laire",
      "Ġcle ver",
      "ail able",
      "Ġcont ent",
      "co late",
      "Ġz eb",
      "Ġjo ke",
      "Ġuse ful",
      "Ġcreat ive",
      "Ġdin osaur",
      "Ġru bbing",
      "Ġgr umpy",
      "Ġgr ateful",
      "Ġbow s",
      "Ġpa le",
      "ock ed",
      "Ġapp ro",
      "Ġsleep y",
      "Ġsear ched",
      "Ġair port",
      "Ġear s",
      "Ġpow er",
      "Ġpow der",
      "Ġdri ve",
      "Ġspl ash",
      "ĠGra ndma",
      "Ġbar n",
      "Ġdisco very",
      "Ġsay ing",
      "Ġatt ic",
      "Ġmess y",
      "Ġem pty",
      "Ġpretend ed",
      "Ġkn ife",
      "bo ard",
      "bo dy",
      "Ġplane t",
      "Ġballoon s",
      "Ġgu ard",
      "Ġgu ilty",
      "Ġsho es",
      "Ġpiece s",
      "Ġdes k",
      "Ġheal thy",
      "Ġcho colate",
      "âĤ¬âĢ ľ",
      "Ġzi pping",
      "Ġav ailable",
      "Ġinc lu",
      "Ġcurtain s",
      "Ġfis hing",
      "Ġsplas hed",
      "Ġped al",
      "Ġpol ite",
      "Ġshoot ing",
      "Ġclum sy",
      "Ġenv ious",
      "Ġhoo p",
      "Ġlaw yer",
      "Ġcor ner",
      "Ġdir ty",
      "Ġdeter mined",
      "Ġrad io",
      "Ġyach t",
      "Ġkitc hen",
      "ĠAccept or",
      "Ġchip munk",
      "Ġenorm ous",
      "Ġdeligh ted",
      "Ġornam ents",
      "Ġzeb ra",
      "A nn",
      "B en",
      "C har",
      "E m",
      "F rank",
      "J im",
      "M ary",
      "O kay",
      "S ure",
      "W ell",
      "a le",
      "a ced",
      "c il",
      "c hes",
      "d ed",
      "e e",
      "e xt",
      "f ic",
      "g es",
      "g ular",
      "h ood",
      "h ive",
      "i pped",
      "i ant",
      "i ence",
      "p ack",
      "u ce",
      "w ards",
      "Ġ er",
      "he ad",
      "Ġt ied",
      "Ġa head",
      "Ġs ne",
      "Ġs ug",
      "Ġs ur",
      "in a",
      "in es",
      "Ġwa g",
      "Ġwa ke",
      "Ġwa ist",
      "Ġto mor",
      "Ġh it",
      "re w",
      "it a",
      "it ed",
      "Ġf an",
      "Ġl ad",
      "Ġl ater",
      "Ġc ou",
      "Ġc al",
      "Ġd ig",
      "Ġd ependable",
      "Ġp in",
      "Ġp op",
      "Ġp udd",
      "Ġm ar",
      "Ġm ay",
      "Ġm out",
      "Ġm ug",
      "Ġm ention",
      "ll iant",
      "ay ak",
      "en s",
      "Ġsa f",
      "Ġsa nd",
      "Ġsa ng",
      "Ġsa uce",
      "Ġth umb",
      "Ġth rew",
      "ĠS ome",
      "ĠS usie",
      "ĠS ophie",
      "et e",
      "ir d",
      "ck ed",
      "Ġbe low",
      "Ġst ir",
      "Ġst ra",
      "Ġn ature",
      "ot e",
      "Ġr ound",
      "Ġof ten",
      "oo f",
      "il a",
      "Ġwe al",
      "Ġwe aring",
      "Ġre qu",
      "Ġre fused",
      "Ġre gular",
      "Ġk ayak",
      "Ġbig gest",
      "Ġli ly",
      "ic ia",
      "ĠM an",
      "ĠM ae",
      "ĠM illie",
      "Ġse ll",
      "Ġcl ay",
      "ĠL ila",
      "Ġexcited ly",
      "ag ed",
      "ear s",
      "get able",
      "Ġno se",
      "Ġch as",
      "qu e",
      "Ġman aged",
      "ĠJack y",
      "ĠD ependable",
      "Ġsc are",
      "Åĵ It",
      "Åĵ Yes",
      "Åĵ No",
      "Åĵ Can",
      "Ġstr ing",
      "Ġsk ipped",
      "Ġsun set",
      "Ġen er",
      "Ġgra b",
      "ĠF in",
      "Ġpo or",
      "Ġsmall er",
      "Ġoff er",
      "Ġsw am",
      "Ġho se",
      "bb on",
      "Ġlear nt",
      "Ġlear ning",
      "Ġshow ing",
      "Ġcar ry",
      "Ġneed le",
      "Ġbox es",
      "He y",
      "ĠP ete",
      "Ġdif fic",
      "Ġpar t",
      "Ġwr ote",
      "Ġbeh ave",
      "Ġpre p",
      "ĠEm my",
      "Ġtre asure",
      "Ġtal ked",
      "Ġbow l",
      "ix ie",
      "Ġgi ven",
      "Ġgi ving",
      "Ġri ch",
      "Ġri bbon",
      "Ġgre w",
      "Ġear th",
      "Ġpow erful",
      "Ġflo ated",
      "Ġbar rel",
      "Ġlove ly",
      "Ġdisco vered",
      "Ġve getable",
      "Ġmess age",
      "Ġhappen ing",
      "Ġfold ed",
      "Ġbor ed",
      "Ġbor row",
      "Ġbee f",
      "Ġbee hive",
      "Ġoran ges",
      "Ġthin king",
      "air s",
      "Ġwall s",
      "Ġcount ing",
      "Ġspark ly",
      "Ġansw ered",
      "Ġpack age",
      "Ġstu dy",
      "Ġchicken s",
      "âĤ¬âĢ Ŀ",
      "Ġzi pped",
      "ĠBe cky",
      "ĠChar lie",
      "Ġblueber ries",
      "Ġwis hes",
      "Ġwra pped",
      "Ġbri lliant",
      "Ġpen cil",
      "Ġuni que",
      "Ġser ious",
      "Ġsepar ated",
      "Ġflu ffy",
      "Ġneighb our",
      "Ġcollec ting",
      "Ġfeather s",
      "Ġscre amed",
      "Ġer aser",
      "Ġtomor row",
      "Ġlad der",
      "Ġmout h",
      "Ġrequ est",
      "Ġchas ing",
      "Ġdiffic ult",
      "Ġvegetable s",
      "B illy",
      "D aisy",
      "E ventually",
      "H ow",
      "J ill",
      "J enny",
      "P lease",
      "T ommy",
      "a cy",
      "b ug",
      "c an",
      "e ked",
      "g y",
      "g ust",
      "i ble",
      "l b",
      "l f",
      "l can",
      "m et",
      "n it",
      "s el",
      "s ist",
      "t or",
      "u it",
      "u able",
      "v ice",
      "w ed",
      "z or",
      "z ard",
      "Ġ ed",
      "Ġ icy",
      "Ġ Zigzag",
      "Ġt ask",
      "Ġs is",
      "Ġs il",
      "Ġs ong",
      "Ġs oup",
      "Ġs ince",
      "Ġs ighed",
      "Ġs orts",
      "nd ry",
      "Ġb ent",
      "Ġb al",
      "Ġb ree",
      "Ġb ought",
      "Ġb icy",
      "Ġh ut",
      "Ġh idd",
      "Ġf il",
      "Ġf ather",
      "Ġl a",
      "Ġl ay",
      "Ġl end",
      "Ġl au",
      "Ġl etter",
      "Ġc r",
      "Ġc ard",
      "Ġc ried",
      "Ġc row",
      "Ġc andy",
      "Ġd ead",
      "Ġg un",
      "Ġg ames",
      "Ġp ot",
      "Ġm ot",
      "Ġm iss",
      "ar p",
      "om ed",
      "at ue",
      "at ient",
      "\"\" ,",
      "Ġsa ve",
      "Ġit Ã¢",
      "Ġit self",
      "im ed",
      "or a",
      "or ge",
      "Ġin ve",
      "on y",
      "Ġshe ll",
      "Ġbe am",
      "Ġst amp",
      "Ġst atue",
      "Ġr inging",
      "Ġr oof",
      "ig ate",
      "st igate",
      "Ġy aw",
      "ad o",
      "Ġpl aced",
      "Ġwe ird",
      "Ġfor k",
      "Ġfor th",
      "un ately",
      "ch or",
      "Ġre ce",
      "Ġre ve",
      "Ġne st",
      "Ġex am",
      "Ġex per",
      "Ġsh ut",
      "Ġsh arp",
      "Ġas leep",
      "Ġsp ray",
      "Ġan chor",
      "Ġli zard",
      "ĠT ed",
      "ind a",
      "ind y",
      "Ġdo ves",
      "Ġhel met",
      "ĠL ola",
      "ĠL acy",
      "Ġstar s",
      "Ġal ert",
      "ie w",
      "Ġch ir",
      "Ġch ore",
      "Ġch anged",
      "Ġthem sel",
      "Ġmu ff",
      "Ġevery day",
      "Ġcan Ã¢",
      "Ġab ove",
      "Ġme mor",
      "Ġv iew",
      "ĠW ill",
      "Ġsee k",
      "Åĵ That",
      "Ġqu it",
      "Ġsk ull",
      "os ity",
      "Ġad vice",
      "Ġtw isted",
      "ĠF reddy",
      "Ġcouldn Ã¢",
      "ap a",
      "Ġpe eked",
      "Ġyour self",
      "ĠG ina",
      "Ġpick ing",
      "Ġcu p",
      "Ġneed s",
      "Ġsto ve",
      "Ġey e",
      "Ġbu lb",
      "Ġtea sing",
      "Ġfr uit",
      "Ġfl ame",
      "Ġvo lcan",
      "Ġdis gust",
      "ĠP aul",
      "ĠP apa",
      "Ġcuri osity",
      "ĠC an",
      "Ġsec ond",
      "Ġreal ised",
      "li ver",
      "Ġste al",
      "ĠLet Ã¢",
      "ĠLet icia",
      "Ġmat ching",
      "ĠTo day",
      "Ġcla pping",
      "Ġle ad",
      "Ġlady bug",
      "Ġfur nit",
      "Ġland ed",
      "Ġgent ly",
      "Ġple ased",
      "Ġspl it",
      "Ġflo or",
      "Ġhar sh",
      "Ġra ced",
      "Ġra zor",
      "Ġquiet ly",
      "Ġfix ed",
      "Ġyell ed",
      "Ġhappen s",
      "ÅĵI Ã¢",
      "Ġmyster y",
      "Ġsnack s",
      "Ġmeet ing",
      "Ġadm ired",
      "Ġtreat s",
      "Ġimp atient",
      "Ġmod est",
      "Ġneigh bor",
      "Ġav oc",
      "Ġdist ance",
      "Ġent ered",
      "Ġpract ice",
      "Ġrid ing",
      "Ġcloud s",
      "Ġpast ry",
      "Ġcarrot s",
      "ĠK ate",
      "Ġresp ect",
      "Ġgig gled",
      "Ġstick s",
      "Ġju icy",
      "Ġval uable",
      "Ġdiscover ing",
      "Ġrecogn ized",
      "Ġgas ped",
      "Ġbeg in",
      "Ġsmo oth",
      "Ġwhis per",
      "ĠMr s",
      "Ġhold ing",
      "Ġsug gest",
      "Ġfan cy",
      "Ġcal m",
      "Ġpop ular",
      "Ġener gy",
      "Ġed ge",
      "Ġsis ter",
      "Ġsil ver",
      "Ġbree ze",
      "Ġhidd en",
      "Ġlau ndry",
      "Ġinve stigate",
      "Ġyaw ned",
      "Ġthemsel ves",
      "Ġmuff in",
      "Ġvolcan o",
      "Ġfurnit ure",
      "' .",
      "A ll",
      "E lla",
      "F reddy",
      "G ra",
      "M aybe",
      "S t",
      "U n",
      "a pped",
      "b ot",
      "b ur",
      "b led",
      "c ise",
      "d ad",
      "d led",
      "e ver",
      "e al",
      "e leph",
      "e orge",
      "f ast",
      "h l",
      "k ip",
      "l er",
      "l ar",
      "m ed",
      "m mer",
      "n ot",
      "n ail",
      "o e",
      "p ing",
      "p ted",
      "s er",
      "u el",
      "u bb",
      "z en",
      "Ġ ign",
      "Ġt ick",
      "Ġt ie",
      "Ġt ears",
      "Ġt eleph",
      "Ġs udden",
      "Ġs our",
      "Ġb low",
      "Ġb and",
      "re pt",
      "it ive",
      "Ġf ing",
      "Ġf ine",
      "Ġf ountain",
      "Ġf uel",
      "Ġl ines",
      "Ġc a",
      "Ġc ane",
      "Ġc oun",
      "Ġc rept",
      "Ġd ug",
      "Ġd rank",
      "Ġd eer",
      "Ġo ven",
      "Ġg ust",
      "Ġp ay",
      "Ġp ill",
      "Ġp os",
      "Ġm er",
      "Ġm el",
      "Ġm ix",
      "is es",
      "le t",
      "le ton",
      "Ġha mmer",
      "Ġsa us",
      "Ġth ief",
      "im on",
      "or cy",
      "Ġe sp",
      "ow ed",
      "Ġu gly",
      "ce ss",
      "Ġn umber",
      "Ġr ing",
      "Ġr ice",
      "ig ent",
      "st al",
      "st airs",
      "ke leton",
      "am ond",
      "Ġup set",
      "Ġhad n",
      "ĠI f",
      "Ġpl ate",
      "Ġpl ast",
      "Ġwe ighed",
      "Ġon ce",
      "ĠJ en",
      "Ġwh ist",
      "Ġwh ale",
      "ec ted",
      "Ġne t",
      "Ġne at",
      "Ġne ck",
      "Ġex p",
      "Ġex er",
      "ug gled",
      "Ġsh out",
      "Ġsh one",
      "Ġsh aking",
      "Ġsh ape",
      "Ġsp end",
      "Ġsp ike",
      "Ġbo dy",
      "ter n",
      "Ġli ving",
      "Ġj ug",
      "ĠM aisy",
      "ĠM illy",
      "ĠM ike",
      "ĠM ama",
      "Ġgo al",
      "ĠB ill",
      "ĠB aby",
      "Ġexc la",
      "ĠE ach",
      "ĠL inda",
      "Ġlo ves",
      "Ġfe ed",
      "Ġstar ting",
      "Ġran g",
      "Ġag ree",
      "Ġno body",
      "Ġch air",
      "Ġch ubb",
      "eci ally",
      "Ġmu sc",
      "Ġcan not",
      "Ġold er",
      "ĠW ould",
      "Ġro bot",
      "ĠD o",
      "Ġsc ar",
      "Åĵ Hello",
      "ĠEvery thing",
      "Ġis n",
      "Ġnew s",
      "Ġint ell",
      "Ġqu est",
      "Ġsk in",
      "Ġsk ip",
      "Ġsk irt",
      "Ġfind ing",
      "Ġbea k",
      "Ġoff ered",
      "Ġsw inging",
      "Ġbeaut y",
      "Ġlea sh",
      "Ġnow here",
      "Ġdre ssed",
      "Ġhand ed",
      "Ġfr ame",
      "Ġgl oom",
      "Ġgl ass",
      "Ġwait ing",
      "Ġche wed",
      "ĠP olly",
      "ĠP ixie",
      "Ġstor m",
      "Ġsu per",
      "Ġsu itc",
      "ng th",
      "Ġpat tern",
      "Ġcry stal",
      "Ġshould er",
      "Ġprin ting",
      "Ġru b",
      "Ġsn ail",
      "Ġsn uggled",
      "ĠN ora",
      "Ġapp ear",
      "Ġclimb ing",
      "Ġfin ish",
      "Ġfro zen",
      "Ġel f",
      "Ġland scape",
      "Ġmon key",
      "Ġbelong s",
      "Ġown ers",
      "Ġblanket s",
      "Ġatt ract",
      "Ġthank s",
      "Ġang el",
      "Ġmight y",
      "Ġplant s",
      "Ġfold ing",
      "Ġprince ss",
      "Ġgrow ing",
      "Ġgrand ma",
      "Ġstre ngth",
      "Ġimag ination",
      "fort unately",
      "Ġtight ly",
      "Ġbott le",
      "Ġmin ute",
      "Ġrelax ed",
      "Ġimp re",
      "Ġimp ro",
      "Ġbuild ing",
      "Ġbreak fast",
      "iss a",
      "Ġunderstand ing",
      "Ġpack ed",
      "Ġbutton s",
      "Ġcoll ect",
      "Ġfire man",
      "Ġpract iced",
      "Ġshel f",
      "Ġshel ter",
      "Ġrid es",
      "Ġread ing",
      "Ġdoes n",
      "Ġcraw l",
      "Ġhid ing",
      "Ġglow ed",
      "Ġstret ch",
      "Ġstret ched",
      "ĠChar les",
      "Ġwindow s",
      "ĠK ari",
      "Ġlive ly",
      "Ġturn s",
      "ĠO liver",
      "Ġshr imp",
      "Ġant s",
      "loo king",
      "Ġgif t",
      "Ġinv ited",
      "Ġur ged",
      "Ġaw e",
      "Ġwip ed",
      "Ġdi amond",
      "Ġref le",
      "Ġgrace ful",
      "Ġappro ached",
      "Ġinclu ded",
      "Char lie",
      "Ġsne e",
      "Ġwag on",
      "Ġpudd le",
      "Ġsaf er",
      "Ġweal thy",
      "Ġneighbour hood",
      "Ġbicy cle",
      "Ġla zy",
      "Ġmot orcy",
      "Ġchore s",
      "Ġmemor ies",
      "ÅĵThat Ã¢",
      "Ġdisgust ing",
      "Ġavoc ado",
      "Ġsuggest ed",
      "Un fortunately",
      "hl oe",
      "lar issa",
      "Ġteleph one",
      "Ġfing ers",
      "Ġesp ecially",
      "Ġplast ic",
      "Ġexcla imed",
      "Ġchubb y",
      "Ġintell igent",
      "Ġgloom y",
      "Ġsuitc ase",
      "Ġmotorcy cle",
      "B enny",
      "H enry",
      "J une",
      "L ola",
      "M e",
      "M ama",
      "N ext",
      "P eter",
      "R ita",
      "W ho",
      "b w",
      "b ed",
      "b ig",
      "b es",
      "b ers",
      "c om",
      "e at",
      "e se",
      "f it",
      "f ie",
      "g ling",
      "h h",
      "i ver",
      "i ately",
      "l id",
      "l ight",
      "l ace",
      "m o",
      "m it",
      "o g",
      "o in",
      "o or",
      "p id",
      "p eat",
      "s it",
      "t le",
      "t an",
      "t iest",
      "u by",
      "w ber",
      "x e",
      "y ru",
      "z ie",
      "he el",
      "Ġt er",
      "Ġt ank",
      "Ġt ak",
      "Ġt ape",
      "Ġa xe",
      "Ġs ing",
      "Ġs le",
      "Ġs ent",
      "Ġs li",
      "Ġs ize",
      "Ġs yru",
      "Ġw ine",
      "Ġw ild",
      "Ġw heel",
      "Ġthe se",
      "Ġwa ves",
      "Ġb en",
      "Ġb et",
      "Ġb are",
      "Ġto dd",
      "Ġh um",
      "Ġh ive",
      "re s",
      "re ady",
      "Ġf ir",
      "Ġf ence",
      "Ġf rag",
      "er able",
      "Ġhe sit",
      "Ġl ed",
      "Ġl ow",
      "Ġl umber",
      "Ġc oo",
      "Ġc ri",
      "Ġc omet",
      "Ġc udd",
      "Ġc ook",
      "Ġd em",
      "Ġo k",
      "Ġo ak",
      "Ġp ri",
      "Ġp ad",
      "om as",
      "at ing",
      "is sed",
      "en ge",
      "id es",
      "ne t",
      "Ġha irc",
      "Ġsa ved",
      "an s",
      "an gle",
      "ĠS kip",
      "ĠS nail",
      "ĠS tan",
      "et ty",
      "ver s",
      "Ġin sist",
      "Ġso ar",
      "Ġso ak",
      "Ġbe side",
      "Ġbe ans",
      "ce pted",
      "Ġn ail",
      "Ġn ames",
      "Ġn orm",
      "ot s",
      "Ġr ise",
      "Ġr ough",
      "ri ble",
      "Ġhis tor",
      "Ġy et",
      "il bur",
      "Ġwe ep",
      "Ġwe ap",
      "Ġre ver",
      "Ġre ind",
      "ĠJ ake",
      "Ġhapp iness",
      "se um",
      "all enge",
      "Ġex it",
      "ug ged",
      "Ġsh ake",
      "Ġsh aring",
      "Ġsp ill",
      "Ġbo ss",
      "Ġbo ots",
      "Ġk issed",
      "Ġli p",
      "Ġli br",
      "ra ge",
      "Ġj eal",
      "ĠM el",
      "ĠM ouse",
      "ĠM innie",
      "ĠT illy",
      "ĠT eddy",
      "ĠT ony",
      "ĠA t",
      "Ġse at",
      "Ġse as",
      "Ġdo lly",
      "!\"\" ,",
      "Ġcl ick",
      "Ġcl ock",
      "ĠL iz",
      "Ġfe ar",
      "Ġhelp less",
      "Ġal mo",
      "Ġal ready",
      "Ġch at",
      "Ġch ain",
      "Ġch ance",
      "Ġch allenge",
      "Ġmu d",
      "Ġmu seum",
      "Ġagain st",
      "Ġv et",
      "Ġco ver",
      "Ġco bw",
      "ĠW ho",
      "ĠW hy",
      "ĠW innie",
      "Ġro ll",
      "ĠD on",
      "ĠD ave",
      "Åĵ W",
      "Åĵ Mommy",
      "Åĵ Thank",
      "Åĵ Do",
      "Ġbr idge",
      "ĠJo y",
      "ĠJo sh",
      "Ġone s",
      "Ġcare less",
      "Ġpr ot",
      "Ġlot ion",
      "Ġqu ite",
      "Ġbl oom",
      "Ġfo al",
      "uck ed",
      "Ġtw irl",
      "Ġmo on",
      "ĠF irst",
      "ĠF red",
      "ma id",
      "Ġpo em",
      "ell a",
      "Ġcall ing",
      "Ġsw ord",
      "Ġho lid",
      "Ġover joy",
      "Ġproud ly",
      "Ġwo lf",
      "Ġmy self",
      "Ġpe bb",
      "Ġdidn Ã¢",
      "Ġcar s",
      "Ġfast est",
      "ĠG ive",
      "ĠG eorge",
      "Ġlea f",
      "Ġlea ving",
      "Ġcu bes",
      "Ġcom m",
      "Ġfam ous",
      "Ġmag net",
      "Ġim med",
      "Ġdre w",
      "Ġwar ned",
      "Ġor d",
      "Ġkind ness",
      "Ġbu ried",
      "ĠJoe y",
      "Jack y",
      "Ġhard er",
      "Ġfl ute",
      "Ġche er",
      "Ġche ese",
      "Ġpret tiest",
      "Ġcol ours",
      "ĠC ome",
      "ĠC indy",
      "ĠC hloe",
      "Ġcle aring",
      "Ġrepl ace",
      "Ġac cepted",
      "li es",
      "Ġz oom",
      "Ġper mit",
      "Ġun l",
      "Ġun pack",
      "Ġhead ed",
      "Ġbutterf lies",
      "Ġamaz ement",
      "Ġbow ed",
      "Ġloud ly",
      "Ġpa w",
      "Ġpain ted",
      "Ġclose ly",
      "Ġblack board",
      "Ġdream s",
      "Ġsleep ing",
      "Ġclean ing",
      "Ġbrother s",
      "Ġvisit ed",
      "Ġmoment s",
      "Ġbar ked",
      "Ġbar ber",
      "Ġprom ise",
      "Ġcreature s",
      "Ġatt ention",
      "Ġtri angle",
      "Ġpro v",
      "Ġretur n",
      "Ġkn ob",
      "Ġkn ocked",
      "ĠTh omas",
      "Ġsl ides",
      "ĠAnn ie",
      "Ġpresent s",
      "And y",
      "Ġbor ing",
      "Ġob ser",
      "ĠAl fie",
      "Ġwelc omed",
      "Ġspark led",
      "Ġpoin ting",
      "Every one",
      "Ġcho ice",
      "Ġcomp ass",
      "Ġcomp let",
      "Ġdist ur",
      "Ġdist ant",
      "Ġdisapp oin",
      "Ġent ire",
      "Ġadd ing",
      "Ġcraw led",
      "Ġcraw ling",
      "Ġbook s",
      "Ġeager ly",
      "Ġspin ning",
      "Dad dy",
      "To gether",
      "To day",
      "ru ce",
      "Ġsol ved",
      "Ġkick ed",
      "Ġfrown ing",
      "Ġblueber ry",
      "ĠO K",
      "Ġhop e",
      "Ġitch y",
      "Ġseed s",
      "Ġleg s",
      "Ġtra p",
      "Ġboun ce",
      "Ġboun cy",
      "Ġgif ted",
      "Ġmis erable",
      "Ġeas y",
      "Ġeas ier",
      "Ġshadow s",
      "Ġorgan ized",
      "Ġorgan ize",
      "Ġbur y",
      "Ġtrou ble",
      "Ġtrou bled",
      "Ġleak s",
      "Ġbubb le",
      "Ġcou rage",
      "Ġmar ried",
      "Ġmay or",
      "ens ive",
      "Ġstra wber",
      "ÅĵIt Ã¢",
      "Ġprep are",
      "Ġribbon s",
      "Ġbal an",
      "Ġcrow d",
      "Ġrece ive",
      "Ġreve aled",
      "Ġchir ping",
      "Ġneighbor s",
      "Ġbegin ning",
      "Ġign or",
      "Ġtick led",
      "Ġcoun ted",
      "Ġmer maid",
      "Ġmel on",
      "Ġneck lace",
      "Ġexp ensive",
      "Ġexer cise",
      "Ġagree ment",
      "Ġmusc les",
      "Ġscar f",
      "Ġquest ions",
      "Ġattract ive",
      "Ġimpre ssed",
      "Ġsnee ze",
      "big ail",
      "Ġtak en",
      "Ġsle pt",
      "Ġsyru p",
      "Ġbare ly",
      "Ġtodd ler",
      "Ġfir m",
      "Ġfrag ile",
      "Ġcri b",
      "Ġpad dled",
      "Ġhairc ut",
      "Ġnorm al",
      "Ġhistor y",
      "Ġweap on",
      "Ġreind eer",
      "Ġboss y",
      "Ġjeal ous",
      "ĠLiz zie",
      "Ġalmo st",
      "Ġcobw eb",
      "Ġholid ay",
      "Ġoverjoy ed",
      "Ġimmed iately",
      "Ġcompass ion",
      "Ġcomplet e",
      "Ġdisappoin ted",
      "' ve",
      "A l",
      "C larissa",
      "D anny",
      "F luffy",
      "G inger",
      "H el",
      "J ames",
      "L ater",
      "M illy",
      "M ae",
      "O k",
      "P aul",
      "Q u",
      "R achel",
      "S ally",
      "S ince",
      "U ntil",
      "a it",
      "a ked",
      "a ving",
      "a ff",
      "a ction",
      "b ook",
      "c et",
      "c uss",
      "c cess",
      "d u",
      "e ath",
      "e aled",
      "g ing",
      "g age",
      "h i",
      "i en",
      "j ect",
      "k er",
      "l s",
      "l v",
      "m omet",
      "m are",
      "o ss",
      "p ite",
      "r ight",
      "r uck",
      "r momet",
      "s on",
      "s ured",
      "t ime",
      "t ion",
      "t une",
      "u zy",
      "u cet",
      "w een",
      "y m",
      "z z",
      "Ġ x",
      "Ġ ig",
      "he ll",
      "Ġt ax",
      "Ġt ip",
      "Ġa p",
      "Ġa dded",
      "Ġs on",
      "Ġs way",
      "Ġs ick",
      "Ġs ip",
      "Ġthe at",
      "Ġthe ater",
      "Ġthe rmomet",
      "Ġto es",
      "re sh",
      "re peat",
      "it ing",
      "Ġf le",
      "Ġf reed",
      "Ġf inger",
      "Ġf resh",
      "er cy",
      "Ġl ar",
      "Ġl id",
      "Ġl ug",
      "Ġl ect",
      "Ġl aser",
      "Ġc ro",
      "Ġc ity",
      "Ġd ic",
      "Ġd ust",
      "Ġd ull",
      "Ġd ire",
      "Ġd est",
      "Ġo as",
      "Ġg ym",
      "Ġm all",
      "Ġm ea",
      "Ġm ist",
      "Ġm ail",
      "at ched",
      "is ing",
      "Ġsa ving",
      "Ġth row",
      "Ġth ose",
      "Ġth irst",
      "an y",
      "ĠS imon",
      "ĠS keleton",
      "et itive",
      "Ġe vent",
      "Ġe mer",
      "on se",
      "ĠH ow",
      "Ġher b",
      "Ġso ared",
      "Ġso aring",
      "ck s",
      "Ġst age",
      "Ġst air",
      "Ġst aff",
      "Ġn ic",
      "Ġn umb",
      "Ġn urse",
      "ot o",
      "Ġr ow",
      "Ġr ust",
      "Ġr ais",
      "ig gly",
      "st ead",
      "oo se",
      "ri c",
      "Ġup stairs",
      "Ġy og",
      "al s",
      "al ph",
      "Ġwe igh",
      "Ġfor tune",
      "ch ief",
      "Ġon ward",
      "Ġon wards",
      "Ġre ach",
      "her man",
      "ec ause",
      "se s",
      "Ġsh ort",
      "Ġsh ocked",
      "Ġsp un",
      "Ġsp ea",
      "Ġsp ace",
      "Ġk iss",
      "Ġli f",
      "Ġli cked",
      "ill s",
      "Ġout fit",
      "ake s",
      "ĠIt s",
      "Ġj ail",
      "Ġj unk",
      "Ġall owed",
      "ĠM um",
      "ĠM aybe",
      "ur ing",
      "ur ous",
      "ĠB y",
      "ĠB ella",
      "ĠB ruce",
      "omet imes",
      "Ġboy s",
      "Ġback pack",
      "ĠL ea",
      "ĠL ater",
      "Ġal ive",
      "Ġal right",
      "ag es",
      "ss el",
      "ss room",
      "Ġwor king",
      "Ġch ase",
      "Ġch oose",
      "Ġfa sc",
      "Ġfa ucet",
      "ro du",
      "ĠW ilbur",
      "Ġro d",
      "Ġro se",
      "Åĵ Why",
      "Åĵ Of",
      "Åĵ Now",
      "Ġwhat ever",
      "ĠEvery day",
      "ant ly",
      "Ġint rodu",
      "Ġsk ills",
      "Ġsun light",
      "and s",
      "Ġad ult",
      "Ġfo nd",
      "Ġtw ig",
      "Ġtw ink",
      "ist ent",
      "Ġsw ings",
      "ump et",
      "Ġany way",
      "Ġany where",
      "Ġadvent urous",
      "Ġtr ade",
      "Ġtr umpet",
      "Ġknow s",
      "Ġyour s",
      "ĠG inger",
      "Ġwill ing",
      "Ġcom f",
      "ct ive",
      "ĠJohn son",
      "Ġwar ning",
      "Ġhand ker",
      "Ġend ed",
      "Ġend ing",
      "Ġus ual",
      "th ough",
      "Ġtea pot",
      "Ġfr ight",
      "Ġfl ight",
      "Ġremem bers",
      "Ġdis cuss",
      "ĠP ercy",
      "Ġow ner",
      "Ġsu ff",
      "Ġsu ccess",
      "ĠC ount",
      "ff ed",
      "Ġcle ar",
      "Ġpat ience",
      "Ġwarm ly",
      "Ġwarm th",
      "Ġface s",
      "Ġnight mare",
      "Ġcont ain",
      "li er",
      "Ġz igzag",
      "Ġun k",
      "Ġshould n",
      "Ġjo ined",
      "Ġfollow ing",
      "Ġbeh av",
      "Ġsweet s",
      "Ġcreat e",
      "Ġpre vent",
      "Ġpre ssed",
      "Ġtre m",
      "Ġwood en",
      "Ġgr own",
      "Ġkitt ens",
      "Ġseem s",
      "Ġsqu are",
      "Ġsqu ee",
      "Ġsqu ealed",
      "Ġpa ssed",
      "ĠR abbit",
      "ĠR ita",
      "ĠR alph",
      "ĠTo dd",
      "Ġcla ssroom",
      "Ġdream ing",
      "Ġgre et",
      "Ġclean ed",
      "Ġsail ing",
      "Ġear lier",
      "Thank s",
      "Ġhurt s",
      "Ġpow ers",
      "Ġdri ving",
      "Ġnaught iness",
      "Ġra ven",
      "Ġra ise",
      "Ġve lv",
      "Ġve ssel",
      "Ġatt ach",
      "umb ling",
      "Ġexplain ing",
      "Ġpretend ing",
      "Ġwon Ã¢",
      "Ġpro ve",
      "bo x",
      "Ġhill s",
      "Ġgrand dad",
      "Ġwander ing",
      "Ġob ject",
      "Ġbro ke",
      "Ġpers istent",
      "Ġdes ign",
      "Ġblock ed",
      "Ġfall ing",
      "Ġfall en",
      "Ġcount ry",
      "Ġspo iled",
      "Ġspark le",
      "Ġcher ries",
      "Ġbran ches",
      "Ġcomp any",
      "Ġcomp etitive",
      "Ġcelebr ated",
      "Ġduck s",
      "Ġduck ling",
      "Ġph oto",
      "Ġcolour ed",
      "Ġinc red",
      "Ġshel ves",
      "Ġglow ing",
      "Ġsmell ed",
      "Ġlion s",
      "Ġjog ged",
      "Ġfis herman",
      "Ġsol ve",
      "Ġresp onse",
      "Ġwra p",
      "Ġbri ck",
      "Ġhop ed",
      "ert ain",
      "Ġgem s",
      "ari an",
      "Ġpour ed",
      "Ġmis sed",
      "Ġur ge",
      "Ġju ice",
      "Ġlog s",
      "Ġstrug gled",
      "Ġstrug gle",
      "Ġstrug gling",
      "Ġperform ing",
      "Ġperform ance",
      "Ġrecogn ize",
      "Ġwip e",
      "Ġdi ving",
      "Ġstep s",
      "Ġref res",
      "Ġbubb les",
      "Em ily",
      "Ġsand w",
      "Ġthumb s",
      "Ġstir red",
      "Ġstra ight",
      "Ġsell ing",
      "Ġfil m",
      "Ġfil thy",
      "Ġexam ined",
      "Ġexper ience",
      "Ġexper ien",
      "Gra ndma",
      "St op",
      "Ġblow ing",
      "Ġsaus age",
      "Ġrefle ction",
      "Ġter rible",
      "Ġsli pped",
      "Ġben eath",
      "Ġbet ween",
      "Ġhum ble",
      "Ġlow er",
      "Ġcoo ked",
      "Ġcudd led",
      "Ġpri ze",
      "Ġinsist ing",
      "Ġrever sing",
      "Ġspill ing",
      "Ġseas hell",
      "Ġtwirl ed",
      "Ġord ered",
      "Ġzoom ed",
      "Ġprov ide",
      "Ġobser ve",
      "Ġdistur bed",
      "Ġignor ant",
      "Ġfirm ly",
      "Ġcompassion ate",
      "Qu ick",
      "tion ary",
      "Ġig loo",
      "Ġtax i",
      "Ġtheat re",
      "Ġthermomet er",
      "Ġfreed om",
      "Ġlar ge",
      "Ġlug gage",
      "Ġlect ure",
      "Ġdic tionary",
      "Ġoas is",
      "Ġthirst y",
      "Ġemer ged",
      "Ġnic er",
      "Ġnumb ers",
      "Ġyog a",
      "Ġfasc in",
      "Ġintrodu ced",
      "Ġhandker chief",
      "ĠCount ing",
      "Ġbehav i",
      "Ġvelv et",
      "Ġseashell s",
      "! '",
      ". .",
      "? !",
      "A re",
      "A bigail",
      "B y",
      "B etty",
      "B ecause",
      "C oo",
      "C laire",
      "C indy",
      "D enise",
      "E ven",
      "F red",
      "G ood",
      "I s",
      "J os",
      "J oy",
      "K ate",
      "K ari",
      "M or",
      "M innie",
      "O u",
      "P ixie",
      "P oor",
      "R em",
      "R uby",
      "S low",
      "S andy",
      "S usie",
      "S ee",
      "S imon",
      "S ometimes",
      "T ed",
      "T illy",
      "T eddy",
      "W h",
      "W ith",
      "W ill",
      "W hile",
      "Y ay",
      "a ven",
      "a ppy",
      "b ling",
      "c c",
      "c ou",
      "c ted",
      "c al",
      "c ast",
      "c ious",
      "d ing",
      "e ster",
      "f a",
      "f id",
      "f ound",
      "f ace",
      "g um",
      "g ers",
      "h ind",
      "h ip",
      "i ar",
      "i ved",
      "i king",
      "i vered",
      "j ured",
      "k s",
      "l en",
      "l au",
      "l iness",
      "m ag",
      "n a",
      "n k",
      "n ce",
      "n ight",
      "n oon",
      "p it",
      "p ool",
      "p ered",
      "r n",
      "s day",
      "t led",
      "u b",
      "u ly",
      "u ri",
      "u lu",
      "u de",
      "v al",
      "w l",
      "w n",
      "w o",
      "w er",
      "w or",
      "w ise",
      "w ell",
      "w alk",
      "x c",
      "x ible",
      "y ed",
      "y al",
      "Ġ ing",
      "Ġ Once",
      "Ġ Until",
      "Ġ Quick",
      "Ġt v",
      "Ġt ar",
      "Ġt ag",
      "Ġt em",
      "Ġt est",
      "Ġt ugged",
      "Ġt ucked",
      "Ġt ub",
      "Ġa ch",
      "Ġs en",
      "Ġs imp",
      "Ġs keleton",
      "Ġw ing",
      "Ġw ider",
      "Ġw iggly",
      "nd les",
      "nd dad",
      "ed ne",
      "in ing",
      "in ary",
      "Ġwa ve",
      "Ġwa ving",
      "Ġb itt",
      "Ġb ake",
      "Ġb ump",
      "Ġb ase",
      "Ġb iking",
      "Ġto rn",
      "Ġh one",
      "Ġh os",
      "Ġh idea",
      "Ġh oney",
      "re nder",
      "re ase",
      "re ased",
      "it ions",
      "it ude",
      "Ġf at",
      "Ġf our",
      "er y",
      "Ġwas h",
      "Ġl itt",
      "Ġl ined",
      "Ġc ur",
      "Ġc ries",
      "Ġc ertain",
      "Ġd ar",
      "Ġd ra",
      "Ġd ear",
      "Ġd ive",
      "Ġd ied",
      "Ġd rag",
      "Ġd uring",
      "Ġo cc",
      "Ġg le",
      "Ġg on",
      "Ġg ue",
      "Ġp ra",
      "Ġp ur",
      "Ġp and",
      "Ġp age",
      "Ġp ush",
      "Ġm ach",
      "Ġm ild",
      "Ġm ac",
      "Ġm ask",
      "Ġm ass",
      "Ġm aybe",
      "ar ming",
      "om ing",
      "om ped",
      "ll ip",
      "at s",
      "is y",
      "is ks",
      "The ir",
      "id ers",
      "ne cted",
      "le ased",
      "Ġsa l",
      "Ġsa nk",
      "Ġth ri",
      "Ġth ick",
      "Ġth ous",
      "an g",
      "an ted",
      "an gled",
      "Ġit ches",
      "or n",
      "or able",
      "or ated",
      "ĠS ure",
      "ĠS ince",
      "ĠS ee",
      "ĠS uzy",
      "et y",
      "ver al",
      "ld en",
      "Ġin ter",
      "Ġin jured",
      "ir it",
      "Ġso fa",
      "Ġshe d",
      "Ġbe llow",
      "ow s",
      "ĠHe re",
      "Ġst ri",
      "Ġst ro",
      "Ġst ream",
      "Ġst airs",
      "Ġst omped",
      "Ġn a",
      "Ġn one",
      "ot hing",
      "Ġr at",
      "Ġr ot",
      "Ġr isks",
      "ut ter",
      "ut ion",
      "ut ching",
      "ig ned",
      "st s",
      "st um",
      "oo ped",
      "ve l",
      "ri ly",
      "ent ly",
      "itt en",
      "itt ered",
      "Ġpl ain",
      "il iar",
      "al ity",
      "Ġwe Ã¢",
      "un ic",
      "Ġsm art",
      "ch anged",
      "Ġon ion",
      "Ġre cept",
      "Ġre ass",
      "Ġre ward",
      "Ġre sist",
      "Ġre action",
      "Ġre leased",
      "her o",
      "Ġyou Ã¢",
      "Ġwh irl",
      "Ġhapp iest",
      "Ġne are",
      "se ss",
      "se ek",
      "ht er",
      "Ġex changed",
      "Ġsh own",
      "Ġsh orts",
      "Ġsh iver",
      "âĤ¬ \"",
      "Ġsp r",
      "Ġsp iders",
      "Ġsp irit",
      "Ġwere n",
      "um m",
      "ic ing",
      "ic hes",
      "ic tor",
      "ĠIt Ã¢",
      "Ġgo lden",
      "ĠT V",
      "ĠT ruck",
      "ĠT wo",
      "ĠA re",
      "ĠA bigail",
      "Ġse w",
      "Ġse veral",
      "Ġtoo l",
      "ĠB oth",
      "ĠB etty",
      "Ġfriends hip",
      "Ġback ed",
      "Ġcl ucked",
      "Ġcl utching",
      "Ġnot ice",
      "ĠL ook",
      "ĠL ulu",
      "Ġlo cal",
      "Ġlo yal",
      "Ġlo llip",
      "Ġfe ast",
      "Ġstar ing",
      "ag s",
      "ag reed",
      "ss ment",
      "ear ing",
      "get s",
      "Ġwor m",
      "Ġwor th",
      "pl ay",
      "pl ace",
      "pl ane",
      "pl ished",
      "Ġno d",
      "Ġno ises",
      "Ġno isy",
      "Ġch ill",
      "Ġch op",
      "Ġch arming",
      "Ġfa ir",
      "Ġfa ct",
      "Ġfa ced",
      "qu ake",
      "ice s",
      "Ġdec l",
      "Ġdec is",
      "Ġdec ide",
      "Ġdec orated",
      "?\"\" ,",
      "op e",
      "Ġsome where",
      "Ġsome body",
      "Ġme al",
      "Ġme owed",
      "Ġget s",
      "Ġv an",
      "Ġv ide",
      "Ġv ictor",
      "Ġco sy",
      "Ġco cked",
      "Ġco stum",
      "ĠW edne",
      "Ġthan king",
      "Ġfeel s",
      "Ġro ared",
      "Ġro de",
      "ĠD in",
      "Ġsc r",
      "Ġsc ream",
      "Ġsc aring",
      "ust ed",
      "Ġgot ten",
      "Åĵ Jack",
      "Åĵ Mom",
      "Åĵ Oh",
      "Åĵ Wow",
      "Åĵ Look",
      "Åĵ Hi",
      "Åĵ My",
      "Åĵ Hey",
      "Åĵ hi",
      "Ġbr ings",
      "Ġother wise",
      "Ġnew found",
      "as ion",
      "Ġdown stairs",
      "pt ain",
      "Ġstr uck",
      "us ed",
      "Ġbl ouse",
      "Ġbl oss",
      "Ġhug s",
      "Ġen cou",
      "and ed",
      "Ġad orable",
      "Ġthought ful",
      "Ġfo g",
      "uck y",
      "Ġhow ever",
      "Ġlaug hter",
      "Ġwater s",
      "Ġpo pped",
      "em ber",
      "oy s",
      "ist en",
      "ive s",
      "Ġsw ell",
      "ion ist",
      "Ġho ot",
      "bb orn",
      "Ġtr uly",
      "Ġeven ing",
      "ish y",
      "Ġclos et",
      "Ġpe ek",
      "Ġcar ried",
      "Ġop er",
      "Ġquick er",
      "ĠG ood",
      "Ġpu p",
      "Ġsurpr ises",
      "Ġsurpr ising",
      "Ġwant s",
      "Ġwonder s",
      "Ġfam iliar",
      "Ġjump s",
      "Ġcome s",
      "Ġsto len",
      "Ġdel ay",
      "Ġdel iver",
      "Ġor der",
      "Ġsmile s",
      "Ġhand le",
      "Ġkind ly",
      "Ġbu ndles",
      "Ġcon vers",
      "Ġcon fid",
      "Ġcon nected",
      "Ġtea ching",
      "Ġtea sed",
      "Ġgl ittered",
      "Ġare a",
      "Ġbra nd",
      "Ġstran gers",
      "Ġtow el",
      "Ġfl apped",
      "Ġfl utter",
      "Ġfl ags",
      "Ġfill ing",
      "Ġche ck",
      "ĠAs ked",
      "Ġstrong est",
      "Ġafter noon",
      "Ġdis agreed",
      "Ġdis play",
      "ĠP inky",
      "ĠP lease",
      "Ġow ned",
      "ient s",
      "ĠC aw",
      "ĠC larissa",
      "Ġrock ed",
      "Ġslow er",
      "Ġac ted",
      "Ġac com",
      "Ġlet Ã¢",
      "Ġcurious ly",
      "Ġreal ize",
      "Ġpar ted",
      "Ġun ite",
      "Ġun able",
      "Ġun com",
      "Ġste ady",
      "Ġwr itten",
      "Ġprin ted",
      "Ġhead ing",
      "Ġbeh aving",
      "Ġsweet ie",
      "Ġcreat ing",
      "Ġpre cious",
      "Ġarri ve",
      "Ġdiffere nce",
      "Ġsecret s",
      "Ġcra zy",
      "Ġru ined",
      "ĠIn stead",
      "Ġbright er",
      "Ġsn uck",
      "Ġsn atched",
      "Ġgr anted",
      "Ġsqu irt",
      "Ġsqu ishy",
      "Ġpa id",
      "ĠN ext",
      "ĠN othing",
      "ĠR uby",
      "Ġapp les",
      "Ġapp lau",
      "Ġdro p",
      "Ġdeep er",
      "Ġhear ing",
      "ĠSue Ã¢",
      "ĠJimmy Ã¢",
      "iz on",
      "Ġfree ze",
      "Ġbel t",
      "be h",
      "Ġair plane",
      "Ġhor n",
      "Ġhor izon",
      "Ġfig ured",
      "Ġear ly",
      "Ġvisit ing",
      "Ġperfect ly",
      "Ġfur ther",
      "Ġrest ed",
      "Ġset ting",
      "Ġset tle",
      "Ġset tled",
      "Ġple asure",
      "ĠGra nddad",
      "Ġhar m",
      "Ġra ked",
      "Ġquiet est",
      "br ant",
      "br ush",
      "Ġam ong",
      "Ġlight s",
      "Ġcirc led",
      "After wards",
      "Ġtri cks",
      "Ġside walk",
      "Ġfix ing",
      "Ġrain ing",
      "Ġhorse s",
      "Ġpeace fully",
      "Ġtell s",
      "Ġgather ing",
      "Ġkn own",
      "Ġkn ives",
      "ĠTh ank",
      "sp ect",
      "Ġsl apped",
      "Ġgrow led",
      "Ġplane s",
      "Ġmean s",
      "Ġgentle man",
      "Ġmark ers",
      "Ġimag ine",
      "Ġghost s",
      "Ġlone liness",
      "ĠAl ways",
      "ĠAl though",
      "Ġfoot ing",
      "Ġdes pite",
      "Ġdes igned",
      "Ġvi brant",
      "red ients",
      "Ġbag s",
      "Ġdry er",
      "Ġinst antly",
      "Ġstu d",
      "Ġstu pid",
      "Ġstu ffed",
      "Ġstu bborn",
      "Ġnote book",
      "Ġcho pping",
      "Ġcoin s",
      "Ġpaint brush",
      "Ġspeed ing",
      "Ġcelebr ation",
      "Ġplan ted",
      "ĠBe fore",
      "Ġembarra ssment",
      "Ġent er",
      "Ġhur ried",
      "Ġhur ric",
      "Ġpract icing",
      "Ġdoll s",
      "Ġeng ines",
      "Ġstreet s",
      "In side",
      "Ġhook s",
      "Ġinfant s",
      "Ġsmell s",
      "Ġwouldn Ã¢",
      "Ġdoctor s",
      "ru pt",
      "Ġtid ying",
      "Ġheav ier",
      "Ġpet als",
      "Ġsol ving",
      "Ġresp ected",
      "Ġkick ing",
      "Ġfrown ed",
      "Ġsplas hing",
      "Ġfloat ing",
      "Ġact ually",
      "Ġhop ing",
      "Ġcut ting",
      "Ġhang ing",
      "Ġshr ink",
      "Ġshr ugged",
      "Ġuni vers",
      "Ġrainbow s",
      "Ġtra il",
      "Ġser ve",
      "Ġgig gle",
      "Ġmis beh",
      "Ġinv ol",
      "Ġinv iting",
      "Ġsepar ate",
      "Ġval ue",
      "Ġarrow s",
      "Ġneighb ours",
      "Ġcollec ted",
      "Ġhurry ing",
      "Be fore",
      "Ġaw ake",
      "Ġbur row",
      "Ġweight less",
      "Ġsmo ke",
      "Ġwhis pered",
      "Ġash amed",
      "rag ing",
      "ÅĵYou Ã¢",
      "Ġgrace fully",
      "Ġtwist y",
      "Ġremain ed",
      "Ġjoke s",
      "Ġappro val",
      "Ġinclu ding",
      "Ġpedal s",
      "Ġpolite ly",
      "Ann a",
      "Ann ie",
      "Char les",
      "Em my",
      "Em ma",
      "Ġsur face",
      "Ġsur render",
      "Ġwag ged",
      "Ġcou ch",
      "Ġdig ging",
      "Ġpudd les",
      "Ġmention ed",
      "Ġsaf ety",
      "Ġsand cast",
      "ĠSome one",
      "Ġweal th",
      "Ġprep aring",
      "Ġearth quake",
      "Ġsong s",
      "Ġbal ance",
      "Ġcr own",
      "Ġmiss ion",
      "Ġshell s",
      "Ġrece ived",
      "Ġreve al",
      "Ġspray ed",
      "Ġcup board",
      "Ġlead er",
      "Ġmuffin s",
      "Gra ce",
      "Ġsour ce",
      "Ġca ptain",
      "Ġpill ows",
      "Ġpos itive",
      "Ġpos sess",
      "Ġmix ed",
      "Ġsaus ages",
      "Ġwhist le",
      "Ġwhist ling",
      "Ġnet wor",
      "Ġneat ly",
      "Ġshout ing",
      "Ġsuper hero",
      "Ġcrystal s",
      "Ġimpro ve",
      "Ġimpro ved",
      "Ġwindows ill",
      "Ġrefle ctive",
      "Me ow",
      "hh h",
      "Ġhesit ant",
      "Ġhesit ated",
      "Ġcook ies",
      "Ġdem anded",
      "Ġlip s",
      "Ġlibr ary",
      "Ġlibr arian",
      "Ġcover ing",
      "Ġpebb le",
      "Ġpebb les",
      "Ġcomm unic",
      "Ġcheer ing",
      "Ġunl ock",
      "Ġunpack ed",
      "Ġpaw s",
      "Ġbubble gum",
      "Ġstrawber ry",
      "Ġstrawber ries",
      "Ġbalan ced",
      "Ġbalan cing",
      "Al ice",
      "Hel p",
      "zz led",
      "Ġap art",
      "Ġfle xible",
      "Ġcro ssed",
      "Ġdire ction",
      "Ġdest ination",
      "Ġmea sured",
      "Ġmist akes",
      "Ġmail box",
      "Ġrais ed",
      "Ġspea k",
      "Ġjunk yard",
      "ĠLea ve",
      "Ġadult s",
      "Ġtwig s",
      "Ġcomf y",
      "Ġfright ened",
      "Ġsuff er",
      "Ġsuccess ful",
      "Ġcontain ers",
      "Ġunk ind",
      "Ġtrem ble",
      "Ġsquee zed",
      "Ġgreet ed",
      "Ġobject s",
      "Ġdesign s",
      "Ġincred ible",
      "Ġrefres hed",
      "Ġsandw iches",
      "Ġexperien ced",
      "Ġfascin ated",
      "Ġbehavi our",
      "Jos h",
      "Mor al",
      "Ou ch",
      "Rem ember",
      "Slow ly",
      "ester day",
      "pit al",
      "uri ous",
      "Ġing redients",
      "Ġtar gets",
      "Ġach ie",
      "Ġsen se",
      "Ġsimp le",
      "Ġbitt er",
      "Ġbump ed",
      "Ġhone st",
      "Ġhos pital",
      "Ġhidea way",
      "Ġdra wer",
      "Ġocc asion",
      "Ġgle e",
      "Ġgon na",
      "Ġgue sts",
      "Ġpra ised",
      "Ġpand a",
      "Ġmach ine",
      "Ġthri lled",
      "Ġinter rupt",
      "Ġbellow ed",
      "Ġrecept ionist",
      "Ġwhirl pool",
      "Ġneare r",
      "Ġlollip op",
      "Ġvictor ious",
      "Ġcostum es",
      "ĠWedne sday",
      "Ġencou raging",
      "Ġconvers ation",
      "Ġaccom plished",
      "Ġuncom fortable",
      "Ġhurric ane",
      "Ġunivers ity",
      "Ġsandcast les",
      "Ġnetwor k",
      "Ġcommunic ate"
    ]
  }
}