{
  "version": "1.0",
  "truncation": null,
  "padding": null,
  "added_tokens": [
    {
      "id": 0,
      "content": "<unk>",
      "single_word": false,
      "lstrip": false,
      "rstrip": false,
      "normalized": false,
      "special": true
    },
    {
      "id": 1,
      "content": "<pad>",
      "single_word": false,
      "lstrip": false,
      "rstrip": false,
      "normalized": false,
      "special": true
    },
    {
      "id": 2,
      "content": "<bos>",
      "single_word": false,
      "lstrip": false,
      "rstrip": false,
      "normalized": false,
      "special": true
    },
    {
      "id": 3,
      "content": "<eos>",
      "single_word": false,
      "lstrip": false,
      "rstrip": false,
      "normalized": false,
      "special": true
    }
  ],
  "normalizer": null,
  "pre_tokenizer": {
    "type": "ByteLevel",
    "add_prefix_space": true,
    "trim_offsets": true,
    "use_regex": true
  },
  "post_processor": null,
  "decoder": {
    "type": "ByteLevel",
    "add_prefix_space": true,
    "trim_offsets": true,
    "use_regex": true
  },
  "model": {
    "type": "BPE",
    "dropout": null,
    "unk_token": "<unk>",
    "continuing_subword_prefix": null,
    "end_of_word_suffix": null,
    "fuse_unk": false,
    "byte_fallback": false,
    "ignore_merges": false,
    "vocab": {
      "<unk>": 0,
      "<pad>": 1,
      "<bos>": 2,
      "<eos>": 3,
      "!": 4,
      "\"": 5,
      "#": 6,
      "$": 7,
      "%": 8,
      "&": 9,
      "'": 10,
      "(": 11,
      ")": 12,
      "*": 13,
      "+": 14,
      ",": 15,
      "-": 16,
      ".": 17,
      "/": 18,
      "0": 19,
      "1": 20,
      "2": 21,
      "3": 22,
      "4": 23,
      "5": 24,
      "6": 25,
      "7": 26,
      "8": 27,
      "9": 28,
      ":": 29,
      ";": 30,
      "<": 31,
      "=": 32,
      ">": 33,
      "?": 34,
      "@": 35,
      "A": 36,
      "B": 37,
      "C": 38,
      "D": 39,
      "E": 40,
      "F": 41,
      "G": 42,
      "H": 43,
      "I": 44,
      "J": 45,
      "K": 46,
      "L": 47,
      "M": 48,
      "N": 49,
      "O": 50,
      "P": 51,
      "Q": 52,
      "R": 53,
      "S": 54,
      "T": 55,
      "U": 56,
      "V": 57,
      "W": 58,
      "X": 59,
      "Y": 60,
      "Z": 61,
      "[": 62,
      "\\": 63,
      "]": 64,
      "^": 65,
      "_": 66,
      "`": 67,
      "a": 68,
      "b": 69,
      "c": 70,
      "d": 71,
      "e": 72,
      "f": 73,
      "g": 74,
      "h": 75,
      "i": 76,
      "j": 77,
      "k": 78,
      "l": 79,
      "m": 80,
      "n": 81,
      "o": 82,
      "p": 83,
      "q": 84,
      "r": 85,
      "s": 86,
      "t": 87,
      "u": 88,
      "v": 89,
      "w": 90,
      "x": 91,
      "y": 92,
      "z": 93,
      "{": 94,
      "|": 95,
      "}": 96,
      "~": 97,
      "¡": 98,
      "¢": 99,
      "£": 100,
      "¤": 101,
      "¥": 102,
      "¦": 103,
      "§": 104,
      "¨": 105,
      "©": 106,
      "ª": 107,
      "«": 108,
      "¬": 109,
      "®": 110,
      "¯": 111,
      "°": 112,
      "±": 113,
      "²": 114,
      "³": 115,
      "´": 116,
      "µ": 117,
      "¶": 118,
      "·": 119,
      "¸": 120,
      "¹": 121,
      "º": 122,
      "»": 123,
      "¼": 124,
      "½": 125,
      "¾": 126,
      "¿": 127,
      "Â": 128,
      "Ã": 129,
      "Ä": 130,
      "Å": 131,
      "Æ": 132,
      "Ç": 133,
      "È": 134,
      "É": 135,
      "Ê": 136,
      "Ë": 137,
      "Ì": 138,
      "Í": 139,
      "Î": 140,
      "Ï": 141,
      "Ð": 142,
      "Ñ": 143,
      "Ò": 144,
      "Ó": 145,
      "Ô": 146,
      "Õ": 147,
      "Ö": 148,
      "×": 149,
      "Ø": 150,
      "Ù": 151,
      "Ú": 152,
      "Û": 153,
      "à": 154,
      "á": 155,
      "â": 156,
      "ã": 157,
      "ä": 158,
      "å": 159,
      "æ": 160,
      "ç": 161,
      "è": 162,
      "é": 163,
      "ê": 164,
      "ë": 165,
      "ì": 166,
      "í": 167,
      "ï": 168,
      "ð": 169,
      "ó": 170,
      "ā": 171,
      "ĉ": 172,
      "Ġ": 173,
      "Ģ": 174,
      "ģ": 175,
      "Ĥ": 176,
      "ĥ": 177,
      "Ħ": 178,
      "ħ": 179,
      "Ĩ": 180,
      "ĩ": 181,
      "Ī": 182,
      "ī": 183,
      "Ĭ": 184,
      "ĭ": 185,
      "Į": 186,
      "į": 187,
      "İ": 188,
      "ı": 189,
      "Ĳ": 190,
      "ĳ": 191,
      "Ĵ": 192,
      "ĵ": 193,
      "Ķ": 194,
      "ķ": 195,
      "ĸ": 196,
      "Ĺ": 197,
      "ĺ": 198,
      "Ļ": 199,
      "ļ": 200,
      "Ľ": 201,
      "ľ": 202,
      "Ŀ": 203,
      "ŀ": 204,
      "Ł": 205,
      "ł": 206,
      "Ń": 207,
      "Ġt": 208,
      "Ġa": 209,
      "in": 210,
      "he": 211,
      "re": 212,
      "on": 213,
      "er": 214,
      "Ġthe": 215,
      "Ġs": 216,
      "at": 217,
      "or": 218,
      "en": 219,
      "Ġc": 220,
      "Ġw": 221,
      "nd": 222,
      "Ġo": 223,
      "es": 224,
      "it": 225,
      "is": 226,
      "Ġp": 227,
      "Ġf": 228,
      "ing": 229,
      "al": 230,
      "ed": 231,
      "Ġb": 232,
      "an": 233,
      "ou": 234,
      "Ġin": 235,
      "ar": 236,
      "Ġand": 237,
      "Ġof": 238,
      "Ġm": 239,
      "Ġto": 240,
      "ic": 241,
      "ion": 242,
      "Ġd": 243,
      "ro": 244,
      "le": 245,
      "as": 246,
      "os": 247,
      "ent": 248,
      "Ġh": 249,
      "il": 250,
      "ct": 251,
      "om": 252,
      "ĠT": 253,
      "Ġth": 254,
      "ve": 255,
      "Ġre": 256,
      "Ġl": 257,
      "Ġe": 258,
      "us": 259,
      "et": 260,
      "ĠS": 261,
      "Ġn": 262,
      "ĠI": 263,
      "ĠA": 264,
      "ĠC": 265,
      "Ġg": 266,
      "id": 267,
      "Ġis": 268,
      "ol": 269,
      "Ġfor": 270,
      "âĢ": 271,
      "el": 272,
      "ation": 273,
      "ra": 274,
      "Ġy": 275,
      "ur": 276,
      "ut": 277,
      "ig": 278,
      "..": 279,
      "ly": 280,
      "ot": 281,
      "ch": 282,
      "ce": 283,
      "ow": 284,
      "im": 285,
      "Ġon": 286,
      "Ġbe": 287,
      "ith": 288,
      "Ġst": 289,
      "ver": 290,
      "ĠM": 291,
      "ay": 292,
      "ĠP": 293,
      "Ġwith": 294,
      "Ġyou": 295,
      "am": 296,
      "st": 297,
      "Ġpro": 298,
      "ul": 299,
      "ad": 300,
      "ĠThe": 301,
      "ir": 302,
      "ĠB": 303,
      "Ġthat": 304,
      "ter": 305,
      "Ġan": 306,
      "ĠW": 307,
      "ment": 308,
      "Ġcon": 309,
      "ge": 310,
      "ĠD": 311,
      "Ġas": 312,
      "un": 313,
      "Ġal": 314,
      "if": 315,
      "ate": 316,
      "Ġhe": 317,
      "ĠF": 318,
      "ĠH": 319,
      "Ġ<": 320,
      "ers": 321,
      "ill": 322,
      "Ġ1": 323,
      "Ġ2": 324,
      "ĠR": 325,
      "Ġcom": 326,
      "Ġare": 327,
      "Ġit": 328,
      "ab": 329,
      "Ġwh": 330,
      "eos": 331,
      "ess": 332,
      "pp": 333,
      "Ġ(": 334,
      "bos": 335,
      "od": 336,
      "ri": 337,
      "est": 338,
      "ity": 339,
      "ect": 340,
      "res": 341,
      "em": 342,
      "ac": 343,
      "th": 344,
      "op": 345,
      "âĢĻ": 346,
      "Ġwe": 347,
      "Ġex": 348,
      "ĠL": 349,
      "ist": 350,
      "Ġv": 351,
      "Ġor": 352,
      "Ġha": 353,
      "ore": 354,
      "um": 355,
      "ew": 356,
      "her": 357,
      "qu": 358,
      "ĠE": 359,
      "ĠN": 360,
      "ive": 361,
      "oc": 362,
      "igh": 363,
      "rom": 364,
      "Ġat": 365,
      "ke": 366,
      "ec": 367,
      "ort": 368,
      "Ġsu": 369,
      "ĠG": 370,
      "ant": 371,
      "ies": 372,
      "se": 373,
      "Ġby": 374,
      "art": 375,
      "ĠO": 376,
      "Ġfrom": 377,
      "ain": 378,
      "ld": 379,
      "ud": 380,
      "nt": 381,
      "Ġr": 382,
      "Ġus": 383,
      "Ġwas": 384,
      "and": 385,
      "ial": 386,
      "00": 387,
      "ĠâĢ": 388,
      "ure": 389,
      "iv": 390,
      "Ġch": 391,
      "Ġde": 392,
      "Ġhave": 393,
      "ust": 394,
      "ear": 395,
      "Ġcan": 396,
      "Ġthis": 397,
      "Ġsh": 398,
      "ard": 399,
      "og": 400,
      "Ġyour": 401,
      "Ġle": 402,
      "per": 403,
      "our": 404,
      "all": 405,
      "Ġen": 406,
      "ight": 407,
      "Ġsp": 408,
      "Ġu": 409,
      "ell": 410,
      "Ġ-": 411,
      "du": 412,
      "Ġwill": 413,
      "rou": 414,
      "ine": 415,
      "Ġwor": 416,
      ".<": 417,
      "ag": 418,
      "out": 419,
      "ide": 420,
      "ated": 421,
      "Ġcomp": 422,
      "red": 423,
      "pt": 424,
      "ĠU": 425,
      "age": 426,
      "ical": 427,
      "Ġpl": 428,
      "ip": 429,
      "Ġhas": 430,
      "ĠIn": 431,
      "ff": 432,
      "Ġse": 433,
      "Ġad": 434,
      "ost": 435,
      "ast": 436,
      "ĠJ": 437,
      "Ġab": 438,
      "Ġnot": 439,
      "ions": 440,
      "ome": 441,
      "ĠTh": 442,
      "end": 443,
      "Ġall": 444,
      "ok": 445,
      "ich": 446,
      "iz": 447,
      "ak": 448,
      "able": 449,
      "gh": 450,
      "are": 451,
      "'s": 452,
      "ice": 453,
      "Ġint": 454,
      "act": 455,
      "ans": 456,
      "Ġim": 457,
      "ould": 458,
      "pl": 459,
      "ign": 460,
      "Ġne": 461,
      "ult": 462,
      "Ġcont": 463,
      "ap": 464,
      "orm": 465,
      "Ġinc": 466,
      "Ġ20": 467,
      "cc": 468,
      "vel": 469,
      "ry": 470,
      "Ġk": 471,
      "ĠSt": 472,
      "ase": 473,
      "Ġmore": 474,
      "ib": 475,
      "Ġj": 476,
      "Ġres": 477,
      "ia": 478,
      "ack": 479,
      "Ġwhe": 480,
      "ru": 481,
      "ations": 482,
      "ther": 483,
      "ind": 484,
      "ous": 485,
      "ere": 486,
      "ong": 487,
      "ents": 488,
      "Ġcl": 489,
      "ub": 490,
      "ance": 491,
      "Ġme": 492,
      "Ġwhich": 493,
      "ook": 494,
      "Ġ3": 495,
      "ire": 496,
      "ood": 497,
      "ary": 498,
      "Ġwork": 499,
      "so": 500,
      "Ġte": 501,
      "ĠV": 502,
      "ĠK": 503,
      "Ġapp": 504,
      "ail": 505,
      "Ġout": 506,
      "Ġdo": 507,
      "ep": 508,
      "Ġper": 509,
      "reat": 510,
      "Ġtheir": 511,
      "ace": 512,
      "ime": 513,
      "one": 514,
      "Ġup": 515,
      "ake": 516,
      "ber": 517,
      "Ġdis": 518,
      "ite": 519,
      "Ġour": 520,
      "ach": 521,
      "âĢĿ": 522,
      "ĠĠ": 523,
      "Ġun": 524,
      "very": 525,
      "form": 526,
      "Ġnew": 527,
      "Ġman": 528,
      "Ġbut": 529,
      "Ġ\"": 530,
      "ition": 531,
      "Ġyear": 532,
      "Ġso": 533,
      "ĠY": 534,
      "ens": 535,
      "ĠâĢľ": 536,
      "Ġsa": 537,
      "ress": 538,
      "ence": 539,
      "Ġpart": 540,
      "erv": 541,
      "Ġ201": 542,
      "Ġone": 543,
      "ory": 544,
      "lect": 545,
      "Ġabout": 546,
      "ue": 547,
      "ors": 548,
      "ally": 549,
      "ass": 550,
      "Ġalso": 551,
      "ie": 552,
      "ile": 553,
      "Ġqu": 554,
      "ount": 555,
      "ree": 556,
      "lic": 557,
      "Ġar": 558,
      "duct": 559,
      "ark": 560,
      "ĠIt": 561,
      "ord": 562,
      "ĠWe": 563,
      "Ġrec": 564,
      "ĠThis": 565,
      "Ġtra": 566,
      "av": 567,
      "ild": 568,
      "Ġbeen": 569,
      "Ġimp": 570,
      "Ġli": 571,
      "Ġoff": 572,
      "Ġthey": 573,
      "ame": 574,
      "ĠCh": 575,
      "vers": 576,
      "Ġmy": 577,
      "Ġwho": 578,
      "ose": 579,
      "Ġro": 580,
      "ond": 581,
      "ll": 582,
      "Ġother": 583,
      "own": 584,
      "ks": 585,
      "Ġdes": 586,
      "Ġpre": 587,
      "ings": 588,
      "ric": 589,
      "Ġev": 590,
      "Ġprov": 591,
      "ater": 592,
      "Ġcomm": 593,
      "ob": 594,
      "lud": 595,
      "te": 596,
      "Ġwere": 597,
      "Ġsc": 598,
      "Ġgo": 599,
      "ound": 600,
      "ove": 601,
      "ph": 602,
      "ays": 603,
      "int": 604,
      "Ġag": 605,
      "ram": 606,
      "ject": 607,
      "Ġtime": 608,
      "Ġits": 609,
      "Ġam": 610,
      "tern": 611,
      "Ġacc": 612,
      "ments": 613,
      "Ġneed": 614,
      ").": 615,
      "Ġ$": 616,
      "Ġover": 617,
      "Ġstud": 618,
      "ates": 619,
      "ish": 620,
      "Ġ4": 621,
      "ov": 622,
      "anc": 623,
      "Ġsy": 624,
      "ang": 625,
      "Ġcol": 626,
      "Ġinclud": 627,
      "Ġhis": 628,
      "Ġ5": 629,
      "mer": 630,
      "Ġadd": 631,
      "lp": 632,
      "Ġpe": 633,
      "fere": 634,
      "Ġco": 635,
      "Ġkn": 636,
      "Ġtr": 637,
      "olog": 638,
      "Ġwhen": 639,
      "Ġind": 640,
      "ased": 641,
      "low": 642,
      "Ġact": 643,
      "Ġsome": 644,
      "Ġhelp": 645,
      "iew": 646,
      "velop": 647,
      "ĠRe": 648,
      "irst": 649,
      "Ġinto": 650,
      "rough": 651,
      "ific": 652,
      "Ġthan": 653,
      "ons": 654,
      "Ġlike": 655,
      "ual": 656,
      "nder": 657,
      "ck": 658,
      "row": 659,
      "Ġthere": 660,
      "--": 661,
      "Ġbu": 662,
      "Ġsupp": 663,
      "Ġrep": 664,
      "les": 665,
      "we": 666,
      "ne": 667,
      "oy": 668,
      "ian": 669,
      "Ġwould": 670,
      "Ġph": 671,
      "Ġbet": 672,
      "hed": 673,
      "amp": 674,
      "old": 675,
      "ities": 676,
      "enc": 677,
      "stem": 678,
      "Ġany": 679,
      "Ġinv": 680,
      "Ġget": 681,
      "ick": 682,
      "ĠHe": 683,
      "Ġuse": 684,
      "ely": 685,
      "ft": 686,
      "Ġthem": 687,
      "ating": 688,
      "Ġ19": 689,
      "Ġhow": 690,
      "Ġbl": 691,
      "ational": 692,
      "Ġeff": 693,
      "ople": 694,
      "ning": 695,
      "Ġfe": 696,
      "ract": 697,
      "Ġra": 698,
      "ious": 699,
      "ough": 700,
      "Ġtw": 701,
      "Ġpat": 702,
      "Ġsaid": 703,
      "Ġcons": 704,
      "ĠâĢĵ": 705,
      "ink": 706,
      "ool": 707,
      "Ġrel": 708,
      "ĠPro": 709,
      "ular": 710,
      "Ġyears": 711,
      "Ġfirst": 712,
      "ative": 713,
      "ont": 714,
      "Ġdevelop": 715,
      "Ġass": 716,
      "ility": 717,
      "fter": 718,
      "Ġhigh": 719,
      "Ġthrough": 720,
      "xt": 721,
      "rit": 722,
      "ĠUn": 723,
      "Ġdif": 724,
      "Ġexp": 725,
      "pe": 726,
      "Ġserv": 727,
      "Ġif": 728,
      "alth": 729,
      "ĠAs": 730,
      "eth": 731,
      "Ġexper": 732,
      "Ġunder": 733,
      "ures": 734,
      "oth": 735,
      "ices": 736,
      "ade": 737,
      "Ġreg": 738,
      "ange": 739,
      "use": 740,
      "Ġwhat": 741,
      "Ġtrans": 742,
      "ren": 743,
      "Ġpeople": 744,
      "Ġem": 745,
      "ĠCom": 746,
      "Ġbec": 747,
      "Ġfl": 748,
      "iss": 749,
      "Ġspec": 750,
      "als": 751,
      "Ġproduct": 752,
      "Ġ&": 753,
      "ful": 754,
      "ise": 755,
      "Ġsystem": 756,
      "Ġac": 757,
      "ics": 758,
      "ient": 759,
      "Ġmay": 760,
      "chn": 761,
      "Ġmost": 762,
      "Ġno": 763,
      "ting": 764,
      "round": 765,
      "day": 766,
      ":.": 767,
      "Ġhad": 768,
      "Ġwell": 769,
      "hen": 770,
      "aw": 771,
      "erm": 772,
      "ruct": 773,
      "Ġtwo": 774,
      "rib": 775,
      "uring": 776,
      "Ġ6": 777,
      "Ġpres": 778,
      "Ġpr": 779,
      "Ġjust": 780,
      "iness": 781,
      "Ġdec": 782,
      "ock": 783,
      "io": 784,
      "ĠWh": 785,
      "Ġthese": 786,
      "Ġsur": 787,
      "ys": 788,
      "Ġsub": 789,
      "Ġmod": 790,
      "Ġmake": 791,
      "ener": 792,
      "Ġdesign": 793,
      "duc": 794,
      "Ġevery": 795,
      "ork": 796,
      "Ġpol": 797,
      "ied": 798,
      "irect": 799,
      "Ġsuch": 800,
      "Ġproc": 801,
      "any": 802,
      "ident": 803,
      "get": 804,
      "ife": 805,
      "roup": 806,
      "ble": 807,
      "Ġpos": 808,
      "ts": 809,
      "its": 810,
      "wn": 811,
      "ience": 812,
      "ily": 813,
      "ĠAn": 814,
      "com": 815,
      "),": 816,
      "hip": 817,
      "Ġher": 818,
      "gan": 819,
      "hes": 820,
      "Ġonly": 821,
      "usiness": 822,
      "gram": 823,
      "Ġatt": 824,
      "ĠYou": 825,
      "Ġused": 826,
      "Ġ200": 827,
      "ower": 828,
      "Ġinter": 829,
      "formation": 830,
      "ible": 831,
      "Ġloc": 832,
      "ata": 833,
      "Ġ0": 834,
      "ivers": 835,
      "Ġlook": 836,
      "ward": 837,
      "The": 838,
      "ional": 839,
      "ath": 840,
      "Ġknow": 841,
      "ients": 842,
      "ert": 843,
      "fore": 844,
      "Ġprovid": 845,
      "Ġmed": 846,
      "Ġdiffere": 847,
      "Ġdet": 848,
      "Ġwhere": 849,
      "Ġback": 850,
      "ited": 851,
      "Ġinst": 852,
      "Ġmany": 853,
      "20": 854,
      "Ġart": 855,
      "ues": 856,
      "chool": 857,
      "Ġsec": 858,
      "Ġform": 859,
      "Ġrequ": 860,
      "'t": 861,
      "Ġsign": 862,
      "Ġset": 863,
      "Ġafter": 864,
      "Ġcar": 865,
      "Ġrem": 866,
      "Ġins": 867,
      "Ġfin": 868,
      "ull": 869,
      "up": 870,
      "Ġshe": 871,
      "und": 872,
      "Ġsm": 873,
      "ĠFor": 874,
      "Ġsupport": 875,
      "Ġmon": 876,
      "Ġcur": 877,
      "ĠNew": 878,
      "Ġwant": 879,
      "Ġdisc": 880,
      "ĠAl": 881,
      "ner": 882,
      "Ġ10": 883,
      "Ġtechn": 884,
      "Ġ7": 885,
      "ros": 886,
      "ty": 887,
      "ause": 888,
      "Ġob": 889,
      "ology": 890,
      "aking": 891,
      "Ġcre": 892,
      "ax": 893,
      "view": 894,
      "uc": 895,
      "Ġgreat": 896,
      "ix": 897,
      "oint": 898,
      "Ġmem": 899,
      "ek": 900,
      "ateg": 901,
      "Ġusing": 902,
      "Ġcommun": 903,
      "Ġke": 904,
      "ween": 905,
      "ĠĠĠĠ": 906,
      "Ġ8": 907,
      "Ġsol": 908,
      "uch": 909,
      "ĠAd": 910,
      "ĠSp": 911,
      "Ġprocess": 912,
      "air": 913,
      "Ġresp": 914,
      "ublic": 915,
      "Ġlong": 916,
      "ize": 917,
      "Ġshow": 918,
      "Ġent": 919,
      "arch": 920,
      "ality": 921,
      "Ġfind": 922,
      "Ġmark": 923,
      "ĠAr": 924,
      "ines": 925,
      "ng": 926,
      "ption": 927,
      "Ġnow": 928,
      "Ġvar": 929,
      "Ġav": 930,
      "Ġbetween": 931,
      "Ġbr": 932,
      "rent": 933,
      "Ġhere": 934,
      "Ġhealth": 935,
      "ution": 936,
      "Ġstart": 937,
      "riv": 938,
      "itt": 939,
      "ollow": 940,
      "ĠSh": 941,
      "ene": 942,
      "Ġcare": 943,
      "oun": 944,
      "Ġext": 945,
      "Ġcomple": 946,
      "ĠSe": 947,
      "Ġthen": 948,
      "ages": 949,
      "Ġbusiness": 950,
      "...": 951,
      "Ġlar": 952,
      "Ġinformation": 953,
      "Ġplay": 954,
      "ĠDe": 955,
      "land": 956,
      "Ġ|": 957,
      "ins": 958,
      "Ġway": 959,
      "Ġnum": 960,
      "ĠIf": 961,
      "Ġprogram": 962,
      "eld": 963,
      "Ġeffect": 964,
      "vent": 965,
      "Ġcould": 966,
      "Ġeach": 967,
      "Ġresult": 968,
      "Ġbest": 969,
      "Ġgood": 970,
      "Ġgu": 971,
      "Ġmade": 972,
      "Ġvery": 973,
      "elf": 974,
      "Ġown": 975,
      "oci": 976,
      "ature": 977,
      "Ġmin": 978,
      "Ġinf": 979,
      "Ġser": 980,
      "Ġgroup": 981,
      "arm": 982,
      "Ġfam": 983,
      "lease": 984,
      "Ġed": 985,
      "urn": 986,
      "Ġread": 987,
      "ug": 988,
      "Ġend": 989,
      "pen": 990,
      "Ġsee": 991,
      "Ġproject": 992,
      "ives": 993,
      "Ġsim": 994,
      "ized": 995,
      "erson": 996,
      "Ġincre": 997,
      "Ġworld": 998,
      "Ġgra": 999,
      "Ġboth": 1000,
      "ces": 1001,
      "Ġ9": 1002,
      "Ġlead": 1003,
      "ince": 1004,
      "ank": 1005,
      "ining": 1006,
      "Ġdirect": 1007,
      "Ġdifferent": 1008,
      "az": 1009,
      "!.": 1010,
      "ically": 1011,
      "Ġstr": 1012,
      "Ġche": 1013,
      "ict": 1014,
      "led": 1015,
      "ety": 1016,
      "ital": 1017,
      "Ġty": 1018,
      "Ġvis": 1019,
      "ets": 1020,
      "ash": 1021,
      "ale": 1022,
      "Ġdata": 1023,
      "Ġbo": 1024,
      "Ġgener": 1025,
      "Ġbuild": 1026,
      "Ġshould": 1027,
      "Ġfound": 1028,
      "Ġelect": 1029,
      "ĠHow": 1030,
      "Ġcount": 1031,
      "ired": 1032,
      "ection": 1033,
      "iqu": 1034,
      "Ġright": 1035,
      "ield": 1036,
      "Ġmuch": 1037,
      "ists": 1038,
      "iversity": 1039,
      "Ġfil": 1040,
      "000": 1041,
      "eg": 1042,
      "ants": 1043,
      "ven": 1044,
      "Ġ=": 1045,
      "Ġlife": 1046,
      "Ġgl": 1047,
      "ural": 1048,
      "Ġpartic": 1049,
      "Ġfollow": 1050,
      "Ġhand": 1051,
      "Ġval": 1052,
      "cent": 1053,
      "els": 1054,
      "oad": 1055,
      "ĠCl": 1056,
      "Ġsk": 1057,
      ".âĢĿ": 1058,
      "Ġbefore": 1059,
      "Ġprof": 1060,
      "ĠEx": 1061,
      "Ġcor": 1062,
      "Ġadv": 1063,
      "Ġbel": 1064,
      "ĠAnd": 1065,
      "arn": 1066,
      "Ġdon": 1067,
      "li": 1068,
      "ouse": 1069,
      "ĠTe": 1070,
      "ten": 1071,
      "rol": 1072,
      "Ġincluding": 1073,
      "Ġappro": 1074,
      "Ġaut": 1075,
      "line": 1076,
      "Ġbeing": 1077,
      "Ġchild": 1078,
      "der": 1079,
      "ral": 1080,
      "Ġdi": 1081,
      "ved": 1082,
      "ustom": 1083,
      "Ġmain": 1084,
      "Ġdel": 1085,
      "con": 1086,
      "Ġeven": 1087,
      "Ġgrow": 1088,
      "de": 1089,
      "ailable": 1090,
      "ness": 1091,
      "Ġdown": 1092,
      "Ġcent": 1093,
      "ars": 1094,
      "ters": 1095,
      "Ġteam": 1096,
      "Ġstate": 1097,
      "ever": 1098,
      "ms": 1099,
      "Ġthose": 1100,
      "Ġdist": 1101,
      "cept": 1102,
      "way": 1103,
      "Ġrese": 1104,
      "ĠThere": 1105,
      "Ġhome": 1106,
      "Ġ[": 1107,
      "Ġdep": 1108,
      "ave": 1109,
      "Ġreport": 1110,
      "ving": 1111,
      "Ġprovide": 1112,
      "ium": 1113,
      "Ġorgan": 1114,
      "Ġcour": 1115,
      "ished": 1116,
      "uss": 1117,
      "Ġlevel": 1118,
      "Ġday": 1119,
      "Ġlight": 1120,
      "ĠSc": 1121,
      "bs": 1122,
      "ases": 1123,
      "ple": 1124,
      "Ġduring": 1125,
      "Ġtake": 1126,
      "Ġcall": 1127,
      "Ġcell": 1128,
      "other": 1129,
      "vern": 1130,
      "Ġallow": 1131,
      "ĠQ": 1132,
      "Ġplan": 1133,
      "Ġlast": 1134,
      "nce": 1135,
      "Ġchar": 1136,
      "ined": 1137,
      "__": 1138,
      "Ġcurrent": 1139,
      "Ġwhile": 1140,
      "ĠPh": 1141,
      "ration": 1142,
      "Ġperform": 1143,
      "Ġimport": 1144,
      "meric": 1145,
      "ĠTo": 1146,
      "Ġeas": 1147,
      "ĠPl": 1148,
      "Ġtop": 1149,
      "inal": 1150,
      "Ġbook": 1151,
      "bers": 1152,
      "ute": 1153,
      "ected": 1154,
      "Ġoper": 1155,
      "Ġexc": 1156,
      "gy": 1157,
      "ross": 1158,
      "read": 1159,
      "ton": 1160,
      "ior": 1161,
      "ency": 1162,
      "ared": 1163,
      "ĠCol": 1164,
      "Ġwater": 1165,
      "pr": 1166,
      "10": 1167,
      "ĠInd": 1168,
      "Ġbecause": 1169,
      "Ġcompany": 1170,
      "Ġpresent": 1171,
      "Ġmonth": 1172,
      "eng": 1173,
      "Ġagain": 1174,
      "ĠÂ": 1175,
      "iron": 1176,
      "man": 1177,
      "Ġopen": 1178,
      "ĠLe": 1179,
      "ern": 1180,
      "Ġavailable": 1181,
      "imes": 1182,
      "Ġdoes": 1183,
      "yl": 1184,
      "ered": 1185,
      "akes": 1186,
      "Ġthree": 1187,
      "ah": 1188,
      "atch": 1189,
      "----": 1190,
      "Ġ'": 1191,
      "Ġinvest": 1192,
      "Ġactiv": 1193,
      "Ġsame": 1194,
      "ather": 1195,
      "alk": 1196,
      "ron": 1197,
      "erest": 1198,
      "gest": 1199,
      "ason": 1200,
      "ery": 1201,
      "ering": 1202,
      "co": 1203,
      "Ġperson": 1204,
      "Ġtest": 1205,
      "Ġschool": 1206,
      "Ġexperience": 1207,
      "Ġprot": 1208,
      "ĠBut": 1209,
      "Ġplace": 1210,
      "ogra": 1211,
      "au": 1212,
      "Ġsom": 1213,
      "ody": 1214,
      "Ġcustom": 1215,
      "Ġstudy": 1216,
      "Ġcle": 1217,
      "iving": 1218,
      "ĠOur": 1219,
      "Ġimpro": 1220,
      "ential": 1221,
      "Ġmarket": 1222,
      "ĠAll": 1223,
      "Ġbased": 1224,
      "Ġequ": 1225,
      "ĠRes": 1226,
      "ator": 1227,
      "Ġpur": 1228,
      "Ġlist": 1229,
      "Ġnumber": 1230,
      "Ġiss": 1231,
      "Ġtreat": 1232,
      "ĠAmeric": 1233,
      "Ġest": 1234,
      "Ġaround": 1235,
      "Ġref": 1236,
      "Ġpost": 1237,
      "Ġx": 1238,
      "ploy": 1239,
      "reen": 1240,
      "port": 1241,
      "Ġrun": 1242,
      "ox": 1243,
      "Ġdev": 1244,
      "Ġret": 1245,
      "Ġcontin": 1246,
      "rid": 1247,
      "50": 1248,
      "Ġpublic": 1249,
      "Ġstand": 1250,
      "ĠUniversity": 1251,
      "ĠBl": 1252,
      "stand": 1253,
      "Ġapplic": 1254,
      "Ġaccess": 1255,
      "agement": 1256,
      "Ġmet": 1257,
      "Ġthink": 1258,
      "Ġ12": 1259,
      "oor": 1260,
      "ĠBe": 1261,
      "ism": 1262,
      "Ġdevelopment": 1263,
      "ling": 1264,
      "ccess": 1265,
      "Ġweek": 1266,
      "ually": 1267,
      "ĠCon": 1268,
      "Ġresearch": 1269,
      "Ġarea": 1270,
      "Ġconst": 1271,
      "Ġconf": 1272,
      "aj": 1273,
      "aterial": 1274,
      "Ġdid": 1275,
      "Ġrece": 1276,
      "Ġproble": 1277,
      "Ġpower": 1278,
      "Ġve": 1279,
      "Ġpatients": 1280,
      "Ġspecial": 1281,
      "Ġaddition": 1282,
      "Ġcap": 1283,
      "Ġworking": 1284,
      "ision": 1285,
      "ocial": 1286,
      "Ġi": 1287,
      "ization": 1288,
      "?.": 1289,
      "Ġintern": 1290,
      "Ġservices": 1291,
      "Ġmus": 1292,
      "Ġfull": 1293,
      "illion": 1294,
      "19": 1295,
      "Ġfac": 1296,
      "viron": 1297,
      "Ġsmall": 1298,
      "ivid": 1299,
      ",âĢĿ": 1300,
      "dition": 1301,
      "osed": 1302,
      "Ġfact": 1303,
      "riend": 1304,
      "cri": 1305,
      "ee": 1306,
      "Ġstudents": 1307,
      "Ġ/": 1308,
      "ĠIs": 1309,
      "Ġmeth": 1310,
      "ĠZ": 1311,
      "Ġphot": 1312,
      "ER": 1313,
      "ier": 1314,
      "ex": 1315,
      "Ġeng": 1316,
      "Ġbetter": 1317,
      "Ġinterest": 1318,
      "Ġide": 1319,
      "ission": 1320,
      "Ġlarge": 1321,
      "Ġear": 1322,
      "ĠSo": 1323,
      "ĠAt": 1324,
      "ats": 1325,
      "Ġwithin": 1326,
      "duced": 1327,
      "Ġfamily": 1328,
      "Ġsince": 1329,
      "ability": 1330,
      "ote": 1331,
      "ĠThey": 1332,
      "Ġopt": 1333,
      "orn": 1334,
      "ocus": 1335,
      "to": 1336,
      "ps": 1337,
      "ards": 1338,
      "Ġpract": 1339,
      "omen": 1340,
      "ves": 1341,
      "Ġant": 1342,
      "ted": 1343,
      "Ġcost": 1344,
      ".\"": 1345,
      "Ġbra": 1346,
      "Ġexpl": 1347,
      "Ġproper": 1348,
      "Ġindust": 1349,
      "less": 1350,
      "work": 1351,
      "Ġwithout": 1352,
      "ention": 1353,
      "Ġpass": 1354,
      "ĠOn": 1355,
      "ample": 1356,
      "ĠNo": 1357,
      "Ġposs": 1358,
      "tain": 1359,
      "Ġfew": 1360,
      "ĠComm": 1361,
      "oot": 1362,
      "ently": 1363,
      "ĠTr": 1364,
      "ique": 1365,
      "Ġsecond": 1366,
      "Ġ18": 1367,
      "Ġmult": 1368,
      "Ġdem": 1369,
      "Ġhum": 1370,
      "ames": 1371,
      "ĠShe": 1372,
      "ĠWith": 1373,
      "Ġann": 1374,
      "ĠCent": 1375,
      "ware": 1376,
      "ane": 1377,
      "Ġcontrol": 1378,
      "ograph": 1379,
      "Ġimportant": 1380,
      "ulation": 1381,
      "ination": 1382,
      "Ġservice": 1383,
      "Ġopp": 1384,
      "Ġrest": 1385,
      "ittle": 1386,
      "Ġmaterial": 1387,
      "vironment": 1388,
      "ified": 1389,
      "ries": 1390,
      "Ġquality": 1391,
      "Ġcommunity": 1392,
      "Ġleg": 1393,
      "Ġpot": 1394,
      "aut": 1395,
      "itions": 1396,
      "Ġconn": 1397,
      "Ġmethod": 1398,
      "Ġfree": 1399,
      "ording": 1400,
      "ĠDes": 1401,
      "vernment": 1402,
      "Ġreal": 1403,
      "sh": 1404,
      "ann": 1405,
      "Ġprom": 1406,
      "Ġchildren": 1407,
      "lement": 1408,
      "ategory": 1409,
      "ina": 1410,
      "Ġcome": 1411,
      "earch": 1412,
      "âĢ¦": 1413,
      "ik": 1414,
      "Ġpoint": 1415,
      "Ġprofess": 1416,
      "Ġcreat": 1417,
      "Ġhy": 1418,
      "ĠUS": 1419,
      "Ġlaw": 1420,
      "por": 1421,
      "Ġconc": 1422,
      "itive": 1423,
      "Ġcreate": 1424,
      "Ġthough": 1425,
      "Ġfood": 1426,
      "Ġfocus": 1427,
      "Ġsaf": 1428,
      "Ġstill": 1429,
      "Ġnext": 1430,
      "ĠMan": 1431,
      "ways": 1432,
      "ĠOr": 1433,
      "Ġhist": 1434,
      "conom": 1435,
      "yc": 1436,
      "Ġnon": 1437,
      "Ġsay": 1438,
      "ym": 1439,
      "room": 1440,
      "ĠJo": 1441,
      "ours": 1442,
      "ĠCo": 1443,
      "Ġbre": 1444,
      "ains": 1445,
      "Ġpop": 1446,
      "Ġlove": 1447,
      "icle": 1448,
      "pping": 1449,
      "Ġair": 1450,
      "Ġquest": 1451,
      "ode": 1452,
      "ĠWhat": 1453,
      "Ġfun": 1454,
      "Ġaff": 1455,
      "Ġresults": 1456,
      "Ġgoing": 1457,
      "Ġcho": 1458,
      "Ġchang": 1459,
      "Ġca": 1460,
      "par": 1461,
      "Ġhead": 1462,
      "atures": 1463,
      "agn": 1464,
      "Ġwrit": 1465,
      "sc": 1466,
      "uro": 1467,
      "atic": 1468,
      "inc": 1469,
      "ially": 1470,
      "Ġlow": 1471,
      "urs": 1472,
      "ris": 1473,
      "Ġproducts": 1474,
      "Ġevent": 1475,
      "Ġmust": 1476,
      "ource": 1477,
      "Ġtri": 1478,
      "ortun": 1479,
      "outh": 1480,
      "ately": 1481,
      "Ġorder": 1482,
      "Ġ+": 1483,
      "Ġkeep": 1484,
      "let": 1485,
      "Ġlocal": 1486,
      "Ġener": 1487,
      "Ġrange": 1488,
      "Ġinclude": 1489,
      "rap": 1490,
      "Ġpay": 1491,
      "aster": 1492,
      "ĠThese": 1493,
      "Ġview": 1494,
      "ĠâĢĶ": 1495,
      "30": 1496,
      "min": 1497,
      "Ġlot": 1498,
      "ĠMed": 1499,
      "12": 1500,
      "ĠSu": 1501,
      "Ġspe": 1502,
      "Ġvari": 1503,
      "Ġthings": 1504,
      "ories": 1505,
      "Ġport": 1506,
      "Ġbig": 1507,
      "Ġsuccess": 1508,
      "Ġreally": 1509,
      "erc": 1510,
      "Ġvol": 1511,
      "lished": 1512,
      "Ġless": 1513,
      "thing": 1514,
      "Ġ15": 1515,
      "ott": 1516,
      "ideo": 1517,
      "Ġlittle": 1518,
      "ĠGo": 1519,
      "utions": 1520,
      "Ġhim": 1521,
      "omm": 1522,
      "Ġbas": 1523,
      "Ġsl": 1524,
      "Ġcollect": 1525,
      "ething": 1526,
      "Ġ#": 1527,
      "Ġhig": 1528,
      "of": 1529,
      "Ġtoo": 1530,
      "ret": 1531,
      "Ġsal": 1532,
      "ump": 1533,
      "Ġneeds": 1534,
      "the": 1535,
      "Ġtem": 1536,
      "AT": 1537,
      "Ġsit": 1538,
      "ĠCont": 1539,
      "oss": 1540,
      "Ġel": 1541,
      "Ġmov": 1542,
      "Ġmat": 1543,
      "Ġhard": 1544,
      "ope": 1545,
      "Ġprovides": 1546,
      "pro": 1547,
      "orth": 1548,
      "enef": 1549,
      "ĠCan": 1550,
      "Ġselect": 1551,
      "acter": 1552,
      "ills": 1553,
      "ring": 1554,
      "ury": 1555,
      "Ġorig": 1556,
      "ĠâĢĺ": 1557,
      "Ġsocial": 1558,
      "Ġemploy": 1559,
      "Ġfriend": 1560,
      "ĠApp": 1561,
      "IN": 1562,
      "Ġlet": 1563,
      "Ġeduc": 1564,
      "Ġunderstand": 1565,
      "ividual": 1566,
      "Ġcomb": 1567,
      "ify": 1568,
      "ĠEng": 1569,
      "Ġ\\": 1570,
      "ĠFe": 1571,
      "ĠWhen": 1572,
      "ails": 1573,
      "ĠTra": 1574,
      "Ġbeh": 1575,
      "Ġline": 1576,
      "Ġ.": 1577,
      "**": 1578,
      "ajor": 1579,
      "ense": 1580,
      ",\"": 1581,
      "Ġhapp": 1582,
      "ĠCategory": 1583,
      "iver": 1584,
      "ounc": 1585,
      "Ġnet": 1586,
      "ON": 1587,
      "duce": 1588,
      "ĠAss": 1589,
      "Ġenergy": 1590,
      "Ġspace": 1591,
      "fect": 1592,
      "ised": 1593,
      "Ġmeet": 1594,
      "sp": 1595,
      "Ġold": 1596,
      "Ġclass": 1597,
      "be": 1598,
      "fer": 1599,
      "Ġterm": 1600,
      "Ġroom": 1601,
      "med": 1602,
      "Ġenvironment": 1603,
      "lish": 1604,
      "osp": 1605,
      "ger": 1606,
      "ĠMar": 1607,
      "veral": 1608,
      "Ġmeas": 1609,
      "Ġtry": 1610,
      "Ġable": 1611,
      "Ġsing": 1612,
      "Ġdays": 1613,
      "fact": 1614,
      "Ġsite": 1615,
      "me": 1616,
      "Ġsignific": 1617,
      "Ġsomething": 1618,
      "ured": 1619,
      "ged": 1620,
      "ole": 1621,
      "put": 1622,
      "Ġchange": 1623,
      "Ġris": 1624,
      "aper": 1625,
      "Ġfund": 1626,
      "Ġcourse": 1627,
      "ream": 1628,
      "Ġ11": 1629,
      "Ġcase": 1630,
      "ived": 1631,
      "Ġdra": 1632,
      "Ġtreatment": 1633,
      "ider": 1634,
      "Ġ30": 1635,
      "iting": 1636,
      "ush": 1637,
      "Ġtyp": 1638,
      "Ġtoday": 1639,
      "Ġsug": 1640,
      "Ġtechnology": 1641,
      "Ġmaking": 1642,
      "hor": 1643,
      "Ġput": 1644,
      "irc": 1645,
      ".,": 1646,
      "yle": 1647,
      "Ġla": 1648,
      "Ġindividual": 1649,
      "Ġknown": 1650,
      "Ġlearn": 1651,
      "Ġreview": 1652,
      "Ġlim": 1653,
      "iven": 1654,
      "Ġstruct": 1655,
      "by": 1656,
      "arent": 1657,
      "ending": 1658,
      "ems": 1659,
      "ĠEn": 1660,
      "ilt": 1661,
      "orts": 1662,
      "Ġ>": 1663,
      "ids": 1664,
      "ĠAb": 1665,
      "Ġrequire": 1666,
      "Ġeconom": 1667,
      "yn": 1668,
      "Ġalong": 1669,
      "gin": 1670,
      "ĠAm": 1671,
      "hib": 1672,
      "Ġtoget": 1673,
      "Ġtogether": 1674,
      "ĠX": 1675,
      "Ġpress": 1676,
      "urther": 1677,
      "Ġident": 1678,
      "ĠMy": 1679,
      "Ġpar": 1680,
      "ieve": 1681,
      "Ġfollowing": 1682,
      "Ġexample": 1683,
      "Ġgovernment": 1684,
      "ĠMay": 1685,
      "Ġbenef": 1686,
      "ĠHowever": 1687,
      "ective": 1688,
      "ES": 1689,
      "Ġmembers": 1690,
      "Ġcert": 1691,
      "Ġspecific": 1692,
      "Ġsignificant": 1693,
      "ley": 1694,
      "itor": 1695,
      "Ġcamp": 1696,
      "ape": 1697,
      "Ġtraining": 1698,
      "Ġjob": 1699,
      "Ġmajor": 1700,
      "Ġbi": 1701,
      "rop": 1702,
      "ides": 1703,
      "Ġinvol": 1704,
      "Ġtre": 1705,
      "Ġgive": 1706,
      "Ġocc": 1707,
      "rug": 1708,
      "aff": 1709,
      "ners": 1710,
      "ney": 1711,
      "une": 1712,
      "Ġvers": 1713,
      "Th": 1714,
      "Ġfield": 1715,
      "==": 1716,
      "ference": 1717,
      "Ġbro": 1718,
      "Ġparticular": 1719,
      "Ġseveral": 1720,
      "Ġanother": 1721,
      "here": 1722,
      "cription": 1723,
      "Ġtool": 1724,
      "Ġagainst": 1725,
      "ienc": 1726,
      "resent": 1727,
      "Ġmar": 1728,
      "Ġpack": 1729,
      "ĠFl": 1730,
      "att": 1731,
      "joy": 1732,
      "Ġrele": 1733,
      "ĠPr": 1734,
      "Ġdesigned": 1735,
      "Ġbuilding": 1736,
      "vious": 1737,
      "Ġes": 1738,
      "Ġsystems": 1739,
      "Ġcult": 1740,
      "ĠMore": 1741,
      "Ġwomen": 1742,
      "artment": 1743,
      "Ġshare": 1744,
      "ffic": 1745,
      "bsite": 1746,
      "Ġprop": 1747,
      "Ġpain": 1748,
      "ocu": 1749,
      "uture": 1750,
      "ĠOne": 1751,
      "ored": 1752,
      "Ġtru": 1753,
      "Ġhaving": 1754,
      "ĠRep": 1755,
      "rac": 1756,
      "ĠCar": 1757,
      "Ġvarious": 1758,
      "ember": 1759,
      "ird": 1760,
      "ĠIntern": 1761,
      "Ġsoft": 1762,
      "Ã©": 1763,
      "Ġmillion": 1764,
      "11": 1765,
      "Ġpercent": 1766,
      "face": 1767,
      "mber": 1768,
      "Ġhuman": 1769,
      "abor": 1770,
      "Ġmove": 1771,
      "Ġdri": 1772,
      "AR": 1773,
      "Ġpast": 1774,
      "rate": 1775,
      "Ġfour": 1776,
      "ources": 1777,
      "obal": 1778,
      "Ġacross": 1779,
      "Ġimprove": 1780,
      "over": 1781,
      "ister": 1782,
      "We": 1783,
      "ended": 1784,
      "Ġname": 1785,
      "Ġalways": 1786,
      "Ġgame": 1787,
      "Ġ100": 1788,
      "Ġmanagement": 1789,
      "ression": 1790,
      "Ġwin": 1791,
      "icro": 1792,
      "Ġdiscuss": 1793,
      "Ġsw": 1794,
      "Ġcountry": 1795,
      "Ġtype": 1796,
      "Ġvideo": 1797,
      "Ġ*": 1798,
      "Ġmight": 1799,
      "ĠInst": 1800,
      "Ġindustry": 1801,
      "Ġmusic": 1802,
      "app": 1803,
      "itc": 1804,
      "Ġseries": 1805,
      "Ġbody": 1806,
      "Ġoffic": 1807,
      "Ġcity": 1808,
      "ray": 1809,
      "Ġpossible": 1810,
      "ruction": 1811,
      "Ġ199": 1812,
      "self": 1813,
      "ĠSchool": 1814,
      "ĠIm": 1815,
      "aging": 1816,
      "cer": 1817,
      "Ġfre": 1818,
      "oney": 1819,
      "Ġnear": 1820,
      "af": 1821,
      "Ġrecord": 1822,
      "ction": 1823,
      "ĠEuro": 1824,
      "ably": 1825,
      "Ġoffer": 1826,
      "ead": 1827,
      "bo": 1828,
      "ĠServ": 1829,
      "roll": 1830,
      "Ġopportun": 1831,
      "Ġsure": 1832,
      "ĠThat": 1833,
      "Ġ:": 1834,
      "rist": 1835,
      "side": 1836,
      "Ġpriv": 1837,
      "Ġens": 1838,
      "Ġstrong": 1839,
      "Ġsays": 1840,
      "Ġassoci": 1841,
      "ising": 1842,
      "Ġet": 1843,
      "ilities": 1844,
      "aring": 1845,
      "Ġturn": 1846,
      "Ġamong": 1847,
      "ental": 1848,
      "ai": 1849,
      "Ġmil": 1850,
      "Ġflow": 1851,
      "Ġland": 1852,
      "OR": 1853,
      "enn": 1854,
      "ights": 1855,
      "Ġz": 1856,
      "Ġhold": 1857,
      "Ġkind": 1858,
      "15": 1859,
      "Ġenc": 1860,
      "Ġ14": 1861,
      "....": 1862,
      "aces": 1863,
      "lege": 1864,
      "atural": 1865,
      "Ġdise": 1866,
      "Ġfeel": 1867,
      "Ġareas": 1868,
      "ances": 1869,
      "Ġ16": 1870,
      "Ġlooking": 1871,
      "Ġperformance": 1872,
      "Ġkey": 1873,
      "Ġphys": 1874,
      "ĠMin": 1875,
      "AN": 1876,
      "Ġsize": 1877,
      "Ġpotential": 1878,
      "ows": 1879,
      "load": 1880,
      "Ġeasy": 1881,
      "'m": 1882,
      "Ġabove": 1883,
      "Ġfilm": 1884,
      "Ġinstall": 1885,
      "ĠFr": 1886,
      "Ġcal": 1887,
      "verage": 1888,
      "book": 1889,
      "Ġbecome": 1890,
      "Ġdeg": 1891,
      "Ġunt": 1892,
      "ĠComp": 1893,
      "Ġnever": 1894,
      "vert": 1895,
      "ĠSy": 1896,
      "Ġperfect": 1897,
      "Ġbring": 1898,
      "Ġgr": 1899,
      "ĠAmerican": 1900,
      "Ġach": 1901,
      "Ġmonths": 1902,
      "Ġbelow": 1903,
      "ĠWor": 1904,
      "Ġcells": 1905,
      "hn": 1906,
      "ĠStud": 1907,
      "ĠRec": 1908,
      "Ġdig": 1909,
      "anies": 1910,
      "nov": 1911,
      "Ġago": 1912,
      "Ġlay": 1913,
      "Ġsuggest": 1914,
      "ding": 1915,
      "Ġobject": 1916,
      "Ġjo": 1917,
      "In": 1918,
      "ĠState": 1919,
      "Ġsingle": 1920,
      "ĠPat": 1921,
      "Ġnec": 1922,
      "Ġtimes": 1923,
      "hers": 1924,
      "Ġonline": 1925,
      "Ġcompet": 1926,
      "Ġoften": 1927,
      "ables": 1928,
      "Ġmot": 1929,
      "asing": 1930,
      "Ġstory": 1931,
      "18": 1932,
      "Ġeffic": 1933,
      "Ġfuture": 1934,
      "Ġtravel": 1935,
      "ĠNe": 1936,
      "ĠEurope": 1937,
      "ĠArt": 1938,
      "Ġchall": 1939,
      "Ġcontact": 1940,
      "ĠDr": 1941,
      "Ġbeaut": 1942,
      "Ġ13": 1943,
      "ots": 1944,
      "ones": 1945,
      "AS": 1946,
      "ĠUnited": 1947,
      "ĠPol": 1948,
      "wards": 1949,
      "atory": 1950,
      "lex": 1951,
      "Ġoil": 1952,
      "aly": 1953,
      "Ġside": 1954,
      "Ġproblem": 1955,
      "Ġwebsite": 1956,
      "anced": 1957,
      "ourn": 1958,
      "Ġsuper": 1959,
      "pped": 1960,
      "iod": 1961,
      "ĠHealth": 1962,
      "hem": 1963,
      "ĠMe": 1964,
      "ĠGu": 1965,
      "Ġenjoy": 1966,
      "crib": 1967,
      "Ġmeans": 1968,
      "Ġcr": 1969,
      "Ġmodel": 1970,
      "ators": 1971,
      "Ġdone": 1972,
      "ges": 1973,
      "Ġcut": 1974,
      "ĠPre": 1975,
      "ological": 1976,
      "Ġworks": 1977,
      "ufact": 1978,
      "ĠCal": 1979,
      "Ġfeatures": 1980,
      "Ġrad": 1981,
      "Ġincludes": 1982,
      "rated": 1983,
      "icy": 1984,
      "Ġincrease": 1985,
      "Ġvalue": 1986,
      "Ġeffective": 1987,
      "!<": 1988,
      "ogn": 1989,
      "anks": 1990,
      "Ġrole": 1991,
      "Ġissues": 1992,
      "ancial": 1993,
      "Ġstrateg": 1994,
      "eral": 1995,
      "Ġwind": 1996,
      "idence": 1997,
      "ledge": 1998,
      "Ġcirc": 1999,
      "Ġpub": 2000,
      "lu": 2001,
      "urity": 2002,
      "ication": 2003,
      "25": 2004,
      "ips": 2005,
      "16": 2006,
      "Ġcheck": 2007,
      "Ġlive": 2008,
      "Ġste": 2009,
      "Ġinsp": 2010,
      "Ġdeterm": 2011,
      "Ġ25": 2012,
      "ĠPart": 2013,
      "'re": 2014,
      "ĠAust": 2015,
      "ĠBy": 2016,
      "Ġbed": 2017,
      "rict": 2018,
      "Ġfr": 2019,
      "Ġdue": 2020,
      "Ġmedia": 2021,
      "acy": 2022,
      "Ġaddress": 2023,
      "ects": 2024,
      "tt": 2025,
      "'ve": 2026,
      "ED": 2027,
      "Ġcontent": 2028,
      "Ġgot": 2029,
      "ification": 2030,
      "for": 2031,
      "Ġaccount": 2032,
      "ilar": 2033,
      "Ġcond": 2034,
      "____": 2035,
      "ians": 2036,
      "rior": 2037,
      "Ġsum": 2038,
      "Ġcontain": 2039,
      "ensive": 2040,
      "14": 2041,
      "ĠNational": 2042,
      "Ġask": 2043,
      "arget": 2044,
      "ready": 2045,
      "Ġ--": 2046,
      "Ġsens": 2047,
      "Ġexam": 2048,
      "ĠCount": 2049,
      "go": 2050,
      "Ġinit": 2051,
      "Ġuntil": 2052,
      "Ġmean": 2053,
      "ibr": 2054,
      "Ġadded": 2055,
      "utes": 2056,
      "Ġproduction": 2057,
      "Ġprint": 2058,
      "Ġimpact": 2059,
      "eter": 2060,
      "ĠHere": 2061,
      "son": 2062,
      "ĠAfter": 2063,
      "pper": 2064,
      "Ġcommon": 2065,
      "duction": 2066,
      "astic": 2067,
      "Ġyoung": 2068,
      "Ġstep": 2069,
      "Ġcompanies": 2070,
      "Ġaway": 2071,
      "Ġ24": 2072,
      "Ġlik": 2073,
      "Ġfore": 2074,
      "ibility": 2075,
      "Ġdocu": 2076,
      "ume": 2077,
      "EN": 2078,
      "Ġ17": 2079,
      "Ġbar": 2080,
      "place": 2081,
      "oid": 2082,
      "ober": 2083,
      "ĠDep": 2084,
      "Ġestab": 2085,
      "isc": 2086,
      "ĠQu": 2087,
      "ĠCity": 2088,
      "ĠRead": 2089,
      "Ġshort": 2090,
      "Ġcalled": 2091,
      "Ġparticip": 2092,
      "ging": 2093,
      "Ġoffers": 2094,
      "ĠDo": 2095,
      "âĢĶ": 2096,
      "hest": 2097,
      "IS": 2098,
      "ĠReg": 2099,
      "come": 2100,
      "Ġclients": 2101,
      "Ġpolit": 2102,
      "play": 2103,
      "sel": 2104,
      "Ġage": 2105,
      "Ġrequired": 2106,
      "Ġtot": 2107,
      "Ġinteg": 2108,
      "Ġcou": 2109,
      "ĠTw": 2110,
      "ores": 2111,
      "Ġrelations": 2112,
      "Ġele": 2113,
      "Ġseason": 2114,
      "ĠAcc": 2115,
      "Ġ2017": 2116,
      "pec": 2117,
      "Ġhistory": 2118,
      "Ġengine": 2119,
      "based": 2120,
      "Ġrisk": 2121,
      "Ġgrowth": 2122,
      "Ġrespons": 2123,
      "uck": 2124,
      "ĠYour": 2125,
      "Ġvisit": 2126,
      "chan": 2127,
      "unch": 2128,
      "err": 2129,
      "Ġrecent": 2130,
      "Ġhigher": 2131,
      "Ġunique": 2132,
      "Ġnetwork": 2133,
      "Ġearly": 2134,
      "Ġ50": 2135,
      "Ġfav": 2136,
      "13": 2137,
      "Ġdeal": 2138,
      "Ġleast": 2139,
      "Ġwhy": 2140,
      "Ġsubst": 2141,
      "Ġhouse": 2142,
      "ither": 2143,
      "St": 2144,
      "Ġmakes": 2145,
      "ung": 2146,
      "Ġdef": 2147,
      "Ġimm": 2148,
      "Ġrepresent": 2149,
      "Ġdiff": 2150,
      "17": 2151,
      "Ġ2016": 2152,
      "ĠPres": 2153,
      "Ġbuilt": 2154,
      "iful": 2155,
      "Ġapplication": 2156,
      "ĠĠĠĠĠĠĠĠ": 2157,
      "uff": 2158,
      "Ġcharacter": 2159,
      "onst": 2160,
      "ĠJan": 2161,
      "reet": 2162,
      "Ġalready": 2163,
      "Ġbuy": 2164,
      "Ġce": 2165,
      "Ġwall": 2166,
      "Ġgiven": 2167,
      "Ġothers": 2168,
      "oph": 2169,
      "imate": 2170,
      "obile": 2171,
      "Ġdevice": 2172,
      "lus": 2173,
      "ask": 2174,
      "Ġperiod": 2175,
      "imal": 2176,
      "iple": 2177,
      "ma": 2178,
      "Ġnight": 2179,
      "val": 2180,
      "//": 2181,
      "etic": 2182,
      "Ġprojects": 2183,
      "rad": 2184,
      "Ġhot": 2185,
      "ĠSouth": 2186,
      "irm": 2187,
      "ds": 2188,
      "Ġbit": 2189,
      "Ġleft": 2190,
      "Ġinternational": 2191,
      "Ġamount": 2192,
      "Ġprim": 2193,
      "ĠEm": 2194,
      "aps": 2195,
      "Ġdr": 2196,
      "AL": 2197,
      "ĠJohn": 2198,
      "Ġ2013": 2199,
      "aim": 2200,
      "ĠPlease": 2201,
      "ĠYork": 2202,
      "Ġpage": 2203,
      "Ġcrit": 2204,
      "Ġ2018": 2205,
      "angu": 2206,
      "minist": 2207,
      "ĠGl": 2208,
      "augh": 2209,
      "icles": 2210,
      "Ġliving": 2211,
      "Ġyet": 2212,
      "ued": 2213,
      "Ġrelease": 2214,
      "AC": 2215,
      "Ġoriginal": 2216,
      "ĠInc": 2217,
      "Ġmedical": 2218,
      "ival": 2219,
      "Ġrate": 2220,
      "Ġposition": 2221,
      "Ġveh": 2222,
      "IT": 2223,
      "ief": 2224,
      "Ġclean": 2225,
      "Ġpath": 2226,
      "..<": 2227,
      "Ġnatural": 2228,
      "Ġlevels": 2229,
      "ike": 2230,
      "Ġprofessional": 2231,
      "itted": 2232,
      "ops": 2233,
      "ecut": 2234,
      "--------": 2235,
      "Ġeducation": 2236,
      "Ġfurther": 2237,
      "Ġconsum": 2238,
      "Ġtext": 2239,
      "Ġmanufact": 2240,
      "Ġprovided": 2241,
      "ĠNorth": 2242,
      "Ġclin": 2243,
      "atus": 2244,
      "ift": 2245,
      "Ġenough": 2246,
      "Ġheart": 2247,
      "IC": 2248,
      "mon": 2249,
      "rel": 2250,
      "Ġgen": 2251,
      "ĠAf": 2252,
      "most": 2253,
      "ĠKe": 2254,
      "Ġdescrib": 2255,
      "arning": 2256,
      "ography": 2257,
      "raft": 2258,
      "atter": 2259,
      "epend": 2260,
      "Ġcoll": 2261,
      "Ġdeveloped": 2262,
      "oll": 2263,
      "sw": 2264,
      "ĠInt": 2265,
      "Ġmember": 2266,
      "NA": 2267,
      "ivity": 2268,
      "ĠSec": 2269,
      "ĠHigh": 2270,
      "gen": 2271,
      "Ġpan": 2272,
      "idd": 2273,
      "alf": 2274,
      "resh": 2275,
      "Ġbrand": 2276,
      "Ġimage": 2277,
      "Ġfar": 2278,
      "Ġactivity": 2279,
      "rew": 2280,
      "Ġclear": 2281,
      "ength": 2282,
      "Ġproblems": 2283,
      "elling": 2284,
      "Ġwr": 2285,
      "80": 2286,
      "illed": 2287,
      "Ġknowledge": 2288,
      "olution": 2289,
      "Ġhost": 2290,
      "Ġaim": 2291,
      "reg": 2292,
      "Ġinvestig": 2293,
      "Ġpaper": 2294,
      "ĠUs": 2295,
      "ires": 2296,
      "Ġprevent": 2297,
      "ĠNot": 2298,
      "Ġwood": 2299,
      "Ġfive": 2300,
      "60": 2301,
      "Ġcard": 2302,
      "ipment": 2303,
      "nces": 2304,
      "ĠGra": 2305,
      "Ġcontrib": 2306,
      "ĠCenter": 2307,
      "ĠFrom": 2308,
      "Ġquick": 2309,
      "Ġintro": 2310,
      "Ġ,": 2311,
      "Ġgroups": 2312,
      "Ġlo": 2313,
      "Ġtarget": 2314,
      "back": 2315,
      "Ġbegin": 2316,
      "Ġchanges": 2317,
      "emic": 2318,
      "ĠMark": 2319,
      "br": 2320,
      "Ġgetting": 2321,
      "imum": 2322,
      "ĠBo": 2323,
      "ux": 2324,
      "Ġcreated": 2325,
      "pecially": 2326,
      "Ġtalk": 2327,
      "Ġhours": 2328,
      "Ġprograms": 2329,
      "Ġmoney": 2330,
      "Ġcomplex": 2331,
      "Ġlater": 2332,
      "umb": 2333,
      "ada": 2334,
      "ĠStates": 2335,
      "ĠAg": 2336,
      "ille": 2337,
      "Ġnews": 2338,
      "Ġmen": 2339,
      "21": 2340,
      "Ġlink": 2341,
      "Ġallows": 2342,
      "Ġsurface": 2343,
      "Ġprivate": 2344,
      "Ġcancer": 2345,
      "Ġupd": 2346,
      "Ġassist": 2347,
      "oon": 2348,
      "40": 2349,
      "Ġtax": 2350,
      "irt": 2351,
      "Ġcomplete": 2352,
      "Ġrecomm": 2353,
      "Ġcurrently": 2354,
      "aching": 2355,
      "ID": 2356,
      "Ġincreased": 2357,
      "Ġut": 2358,
      "Ġdisease": 2359,
      "Ġsolution": 2360,
      "Ġwide": 2361,
      "ĠNow": 2362,
      "lin": 2363,
      "Ġexist": 2364,
      "Ġbreak": 2365,
      "Ġtable": 2366,
      "Ġuser": 2367,
      "now": 2368,
      "aign": 2369,
      "Ġprevious": 2370,
      "Ġtemper": 2371,
      "Ġwon": 2372,
      "ĠEd": 2373,
      "rapy": 2374,
      "Ġworked": 2375,
      "izing": 2376,
      "time": 2377,
      "This": 2378,
      "Ġcustomers": 2379,
      "ĠApr": 2380,
      "Ġfram": 2381,
      "ules": 2382,
      "Ġstaff": 2383,
      "Ġpersonal": 2384,
      "itchen": 2385,
      "Ġgeneral": 2386,
      "Ġblog": 2387,
      "Ġdoing": 2388,
      "ĠWorld": 2389,
      "ager": 2390,
      "ĠPost": 2391,
      ",.": 2392,
      "omes": 2393,
      "Ġfit": 2394,
      "ler": 2395,
      "redit": 2396,
      "ĠPer": 2397,
      "aken": 2398,
      "Ġweb": 2399,
      "Ġauthor": 2400,
      "Ġbase": 2401,
      "opy": 2402,
      "Ġsimilar": 2403,
      "era": 2404,
      "uation": 2405,
      "atform": 2406,
      "Ġmechan": 2407,
      "Ġrelated": 2408,
      "It": 2409,
      "Ġlog": 2410,
      "Ġglobal": 2411,
      "Ġprote": 2412,
      "ĠChrist": 2413,
      "iation": 2414,
      "22": 2415,
      "Ġself": 2416,
      "ĠPark": 2417,
      "Ġespecially": 2418,
      "hel": 2419,
      "ched": 2420,
      "ands": 2421,
      "Ġexperienc": 2422,
      "Ġfinancial": 2423,
      "ino": 2424,
      "Ġtotal": 2425,
      "ana": 2426,
      "Ġwa": 2427,
      "Ġcompared": 2428,
      "Ġsubject": 2429,
      "99": 2430,
      "itch": 2431,
      "ĠJu": 2432,
      "icult": 2433,
      "Ġgas": 2434,
      "aged": 2435,
      "Ġevents": 2436,
      "Ġclos": 2437,
      "Ġsimple": 2438,
      "ĠDirect": 2439,
      "orage": 2440,
      "uel": 2441,
      "ites": 2442,
      "ĠAustral": 2443,
      "fort": 2444,
      "fully": 2445,
      "Ġsolutions": 2446,
      "ches": 2447,
      "Ġapplications": 2448,
      "ball": 2449,
      "onse": 2450,
      "ples": 2451,
      "Ġsound": 2452,
      "arden": 2453,
      "iece": 2454,
      "ension": 2455,
      "ditional": 2456,
      "Ġey": 2457,
      "Ġpractice": 2458,
      "gress": 2459,
      "Ġrecogn": 2460,
      "Ġoffice": 2461,
      "Ġever": 2462,
      "Ġaud": 2463,
      "EC": 2464,
      "Ġconnect": 2465,
      "Ġcaus": 2466,
      "osis": 2467,
      "Ġrelationship": 2468,
      "ĠMc": 2469,
      "ĠBar": 2470,
      "Ġcover": 2471,
      "Ġaccording": 2472,
      "Ġstarted": 2473,
      "Ġeffects": 2474,
      "Ġcat": 2475,
      "Ġconduct": 2476,
      "though": 2477,
      "Ġleaders": 2478,
      "Ġbeautiful": 2479,
      "mit": 2480,
      "Ġdistrib": 2481,
      "Ġboard": 2482,
      "Ġprice": 2483,
      "Ġcomes": 2484,
      "Ġversion": 2485,
      "iate": 2486,
      "atur": 2487,
      "ĠOct": 2488,
      "Ġmaterials": 2489,
      "Ġconditions": 2490,
      "Ġthing": 2491,
      "Ġquestion": 2492,
      "Ġsafety": 2493,
      "Ġwhether": 2494,
      "Ġcertain": 2495,
      "Ġstra": 2496,
      "].": 2497,
      "Ġplease": 2498,
      "Ġfamil": 2499,
      "icated": 2500,
      "Ġneeded": 2501,
      "ĠSm": 2502,
      "Ġap": 2503,
      "Ġfile": 2504,
      "Ġofficial": 2505,
      "ze": 2506,
      "Ġdigital": 2507,
      "Ġcases": 2508,
      "Ġnational": 2509,
      "Ġ2014": 2510,
      "Ġappear": 2511,
      "Ġcountries": 2512,
      "ĠFin": 2513,
      "Ġpurch": 2514,
      "'ll": 2515,
      "Ġcompon": 2516,
      "Ġsource": 2517,
      "ained": 2518,
      "ĠPresident": 2519,
      "Ġdou": 2520,
      "Ġlower": 2521,
      "ĠMarch": 2522,
      "inks": 2523,
      "Ġnorm": 2524,
      "ĠBu": 2525,
      "Ġonce": 2526,
      "not": 2527,
      "ground": 2528,
      "ĠAc": 2529,
      "ession": 2530,
      "Ġill": 2531,
      "Ġparent": 2532,
      "ule": 2533,
      "ese": 2534,
      "Ġlat": 2535,
      "Ġthought": 2536,
      "emb": 2537,
      "Ġmaintain": 2538,
      "Ġquestions": 2539,
      "Ġep": 2540,
      "eks": 2541,
      "ĠMr": 2542,
      "Ġsix": 2543,
      "Ġvia": 2544,
      "Ġstructure": 2545,
      "Ġrecently": 2546,
      "ĠCor": 2547,
      "Ġtell": 2548,
      "Ġdom": 2549,
      "Ġeither": 2550,
      "Ġadditional": 2551,
      "Ġground": 2552,
      "Ġprior": 2553,
      "Ġimplement": 2554,
      "Ġ2011": 2555,
      "ĠAut": 2556,
      "Ġdeb": 2557,
      "Ġdetails": 2558,
      "Ġweight": 2559,
      "sy": 2560,
      "Ġeverything": 2561,
      "ĠChe": 2562,
      "ournal": 2563,
      "Ġmess": 2564,
      "Ġstyle": 2565,
      "ĠInternational": 2566,
      "Ġplans": 2567,
      "ĠGe": 2568,
      "Ġnecess": 2569,
      "ties": 2570,
      "ĠUK": 2571,
      "Ġfloor": 2572,
      "Ġskills": 2573,
      "ees": 2574,
      "year": 2575,
      "uary": 2576,
      "Ġgradu": 2577,
      "Ġ2015": 2578,
      "Ġseen": 2579,
      "Ġstudies": 2580,
      "Ġapproach": 2581,
      "Ġpressure": 2582,
      "Ġconsider": 2583,
      "Ġmultiple": 2584,
      "Ġincluded": 2585,
      "Ġlearning": 2586,
      "ĠApril": 2587,
      "AM": 2588,
      "ĠGroup": 2589,
      "reng": 2590,
      "Ġsil": 2591,
      ");": 2592,
      "Ġdrug": 2593,
      "Ġequipment": 2594,
      "Ġsepar": 2595,
      "ends": 2596,
      "Ġensure": 2597,
      "Ġtrack": 2598,
      "Ġsect": 2599,
      "ĠJune": 2600,
      "ales": 2601,
      "ĠPe": 2602,
      "Ġcampaign": 2603,
      "Ġtook": 2604,
      "Ġprob": 2605,
      "iol": 2606,
      "Ġinnov": 2607,
      "ef": 2608,
      "mm": 2609,
      "Ġsupply": 2610,
      "Ġmodern": 2611,
      "cast": 2612,
      "aid": 2613,
      "Ġarch": 2614,
      "Ġproperty": 2615,
      "pos": 2616,
      "=\"": 2617,
      "Ġ{": 2618,
      "Ġobs": 2619,
      "ĠCounty": 2620,
      "Ġwhite": 2621,
      "200": 2622,
      "ĠAssoci": 2623,
      "Ġreceived": 2624,
      "Ġtypes": 2625,
      "RE": 2626,
      "Ġassess": 2627,
      "Ġstay": 2628,
      "eds": 2629,
      "Ġformer": 2630,
      "Ġess": 2631,
      "yt": 2632,
      "Ġthroughout": 2633,
      "iter": 2634,
      "ĠAct": 2635,
      "ĠAug": 2636,
      "ried": 2637,
      "Ġred": 2638,
      "OS": 2639,
      "Ġ2012": 2640,
      "Ġâ": 2641,
      "ĠAfric": 2642,
      "Ġmind": 2643,
      "ĠTechn": 2644,
      "Ġchem": 2645,
      "ociety": 2646,
      "Ġeval": 2647,
      "nes": 2648,
      "Ġhighly": 2649,
      "amic": 2650,
      "Ġactivities": 2651,
      "Ġcolor": 2652,
      "na": 2653,
      "ĠSw": 2654,
      "Ġdifficult": 2655,
      "ison": 2656,
      "action": 2657,
      "Ġshows": 2658,
      "hern": 2659,
      "Ġreading": 2660,
      "Ġvariety": 2661,
      "Ġfriends": 2662,
      "ĠCommun": 2663,
      "vey": 2664,
      "Ġplant": 2665,
      "ĠBra": 2666,
      "ĠHouse": 2667,
      "bor": 2668,
      "Ġways": 2669,
      "Ġplatform": 2670,
      "Ġweeks": 2671,
      "ĠSept": 2672,
      "Ġroad": 2673,
      "Ġfeature": 2674,
      "Ġsat": 2675,
      "!!": 2676,
      "ogle": 2677,
      "Ġconstruction": 2678,
      "Ġtaking": 2679,
      "Ġregion": 2680,
      "Ġblock": 2681,
      "Ġeveryone": 2682,
      "Ġtold": 2683,
      "ĠHar": 2684,
      "aur": 2685,
      "aches": 2686,
      "Ġautom": 2687,
      "Ġresponse": 2688,
      "ĠSome": 2689,
      "Ġclose": 2690,
      "Ġactive": 2691,
      "aced": 2692,
      "Ġstandard": 2693,
      "ronic": 2694,
      "Ġfavor": 2695,
      "ET": 2696,
      "Ġarticle": 2697,
      "Ġabs": 2698,
      "asc": 2699,
      "anguage": 2700,
      "Ġwriting": 2701,
      "ulated": 2702,
      "apt": 2703,
      "ĠCons": 2704,
      "ĠWhile": 2705,
      "Ġdevices": 2706,
      "Ġissue": 2707,
      "Ġachieve": 2708,
      "Ġmass": 2709,
      "\",": 2710,
      "Ġexpert": 2711,
      "Ġ@": 2712,
      "Ġdam": 2713,
      "ĠOff": 2714,
      "Ġtrying": 2715,
      "Ġcontract": 2716,
      "Ġability": 2717,
      "aining": 2718,
      "Ġproviding": 2719,
      "ĠDepartment": 2720,
      "Ġfoot": 2721,
      "Ġcareer": 2722,
      "ply": 2723,
      "Ġetc": 2724,
      "Ġdriv": 2725,
      "uit": 2726,
      "Ġsearch": 2727,
      "Ġadj": 2728,
      "Ġfront": 2729,
      "hy": 2730,
      "ĠProf": 2731,
      "ĠPar": 2732,
      "dro": 2733,
      "Ġbath": 2734,
      "Ġbott": 2735,
      "Ġpopular": 2736,
      "rect": 2737,
      "ĠEl": 2738,
      "ĠFeb": 2739,
      "ĠDon": 2740,
      "Ġforward": 2741,
      "ender": 2742,
      "Ġtools": 2743,
      "Ġlocation": 2744,
      "apan": 2745,
      "Ġoptions": 2746,
      ")..": 2747,
      "Ġ40": 2748,
      "umn": 2749,
      "urg": 2750,
      "Ġideas": 2751,
      "Ġdocument": 2752,
      "irl": 2753,
      "Ġsho": 2754,
      "Ġassociated": 2755,
      "ĠJust": 2756,
      "Ġpred": 2757,
      "Ġidea": 2758,
      "ospital": 2759,
      "Ġpatient": 2760,
      "Ġgames": 2761,
      "Ġdisplay": 2762,
      "ided": 2763,
      "lick": 2764,
      "Ġmom": 2765,
      "Ġ21": 2766,
      "ducing": 2767,
      "Ġchalleng": 2768,
      "ĠNews": 2769,
      "izes": 2770,
      "ĠWest": 2771,
      "urance": 2772,
      "ached": 2773,
      "Ġfrequ": 2774,
      "Ġcand": 2775,
      "ĠRel": 2776,
      "ĠDesign": 2777,
      "ama": 2778,
      "Ġreported": 2779,
      "Ġremov": 2780,
      "bon": 2781,
      "Ġprep": 2782,
      "Ġcook": 2783,
      "Ġcame": 2784,
      "Ġmicro": 2785,
      "Ġresist": 2786,
      "Ġdraw": 2787,
      "Ġmount": 2788,
      "Ġenh": 2789,
      "ĠJuly": 2790,
      "\".": 2791,
      "cl": 2792,
      "urb": 2793,
      "Ġlocated": 2794,
      "Ġneg": 2795,
      "Ġwhole": 2796,
      "rown": 2797,
      "amm": 2798,
      "head": 2799,
      "Ġimages": 2800,
      "Ġemb": 2801,
      "Ġobtain": 2802,
      "Ġwalk": 2803,
      "Ġstreng": 2804,
      "aker": 2805,
      "AP": 2806,
      "Ġlate": 2807,
      "ĠSpec": 2808,
      "oper": 2809,
      "ĠTrans": 2810,
      "iam": 2811,
      "Ġpolicy": 2812,
      "ondon": 2813,
      "ouncil": 2814,
      "Ġpartners": 2815,
      "Ġinvention": 2816,
      "Ġuses": 2817,
      "Ġpict": 2818,
      "Ġcreating": 2819,
      "rial": 2820,
      "Ġreleased": 2821,
      "oura": 2822,
      "Ġcommit": 2823,
      "Ġscreen": 2824,
      "Ġdoesn": 2825,
      "ĠNet": 2826,
      "Ġhowever": 2827,
      "Ġcool": 2828,
      "ĠCollege": 2829,
      "Ġsoftware": 2830,
      "overed": 2831,
      "Ġbehind": 2832,
      "Ġmax": 2833,
      "Ġentire": 2834,
      "Ġtakes": 2835,
      "Ġdemonst": 2836,
      "Ġwond": 2837,
      "itute": 2838,
      "Ġcam": 2839,
      "ĠUp": 2840,
      "ests": 2841,
      "Ġsym": 2842,
      "Ġstorage": 2843,
      "uk": 2844,
      "itter": 2845,
      "Ġinvolved": 2846,
      "irth": 2847,
      "Ġminutes": 2848,
      "ĠAmerica": 2849,
      "rec": 2850,
      "RO": 2851,
      "Ġhope": 2852,
      "ĠProgram": 2853,
      "elt": 2854,
      "ovember": 2855,
      "70": 2856,
      "Ġready": 2857,
      "ises": 2858,
      "istic": 2859,
      "ounced": 2860,
      "ĠIndia": 2861,
      "lied": 2862,
      "Ġrout": 2863,
      "Ġreason": 2864,
      "Ġcapac": 2865,
      "right": 2866,
      "Ġkitchen": 2867,
      "Ġpublished": 2868,
      "Ġadminist": 2869,
      "ĠChina": 2870,
      "azing": 2871,
      "selves": 2872,
      "airs": 2873,
      "ĠMus": 2874,
      "Ġstudent": 2875,
      "Ġcollection": 2876,
      "ĠSen": 2877,
      "Ġsales": 2878,
      "Ġvac": 2879,
      "ĠSer": 2880,
      "Ġrequirements": 2881,
      "Ġtit": 2882,
      "Ġpresident": 2883,
      "Ġtransport": 2884,
      "light": 2885,
      "Ġusers": 2886,
      "rast": 2887,
      "ĠBusiness": 2888,
      "Ġmeasure": 2889,
      "ĠJanuary": 2890,
      "Ġlab": 2891,
      "omet": 2892,
      "Ġcomput": 2893,
      "Ġpolitical": 2894,
      "mission": 2895,
      "Ġload": 2896,
      "org": 2897,
      "Ġful": 2898,
      "ĠDevelop": 2899,
      "ington": 2900,
      "Ġpoly": 2901,
      "Ġlatest": 2902,
      "verse": 2903,
      "ran": 2904,
      "Ġconcent": 2905,
      "ĠVal": 2906,
      "EL": 2907,
      "Ġcomfort": 2908,
      "ĠHis": 2909,
      "Ġdu": 2910,
      "Ġeconomic": 2911,
      "Ġmix": 2912,
      "Ġapply": 2913,
      "ĠWill": 2914,
      "ications": 2915,
      "oo": 2916,
      "Ġblack": 2917,
      "ST": 2918,
      "arc": 2919,
      "Ġflu": 2920,
      "ĠDav": 2921,
      "Ġfinal": 2922,
      "Ġcontinue": 2923,
      "oma": 2924,
      "ĠSte": 2925,
      "24": 2926,
      "rem": 2927,
      "Ġdetail": 2928,
      "Ġcommerc": 2929,
      "Ġheld": 2930,
      "ĠCour": 2931,
      "ĠAdd": 2932,
      "Ġfall": 2933,
      "âĢĵ": 2934,
      "Ġlikely": 2935,
      "Ġheat": 2936,
      "Ġwar": 2937,
      "Ġstore": 2938,
      "Ġemer": 2939,
      "ĠHer": 2940,
      "ony": 2941,
      "Ġtemperature": 2942,
      "Ġstri": 2943,
      "ĠJapan": 2944,
      "Ġclinical": 2945,
      "istics": 2946,
      "Ġpiece": 2947,
      "Ġ2010": 2948,
      "Ġbenefits": 2949,
      "Ġop": 2950,
      "Ġmach": 2951,
      "Ġpositive": 2952,
      "Ġoutside": 2953,
      "Ġdegree": 2954,
      "Ġsqu": 2955,
      "sych": 2956,
      "Ġansw": 2957,
      "Ġaction": 2958,
      "atives": 2959,
      "Ġaccept": 2960,
      "Ġprec": 2961,
      "Ġalmost": 2962,
      "Ġfarm": 2963,
      "ĠLondon": 2964,
      "Ġtrue": 2965,
      "Ġfail": 2966,
      "ening": 2967,
      "ĠResearch": 2968,
      "Ġfast": 2969,
      "ĠCO": 2970,
      "://": 2971,
      "ulations": 2972,
      "Ġdrive": 2973,
      "ĠAre": 2974,
      "Ġconcern": 2975,
      "Ġlif": 2976,
      "ependent": 2977,
      "ĠOver": 2978,
      "Ġrather": 2979,
      "urch": 2980,
      "ĠBrit": 2981,
      "Ġface": 2982,
      "Ġ2019": 2983,
      "ĠCalif": 2984,
      "Ġexcell": 2985,
      "ouch": 2986,
      "ĠGet": 2987,
      "ĠNovember": 2988,
      "hood": 2989,
      "Ġfeed": 2990,
      "ederal": 2991,
      "Ġparticularly": 2992,
      "Ġinflu": 2993,
      "Ch": 2994,
      "Ġpric": 2995,
      "Ġaward": 2996,
      "Ġleading": 2997,
      "Ġdirectly": 2998,
      "Ġlength": 2999,
      "Ġprotect": 3000,
      "Ġmobile": 3001,
      "Ġreceive": 3002,
      "ĠÂ£": 3003,
      "oles": 3004,
      "ysis": 3005,
      "Ġlegal": 3006,
      "ĠBro": 3007,
      "ults": 3008,
      "iring": 3009,
      "Ġregard": 3010,
      "ĠSeptember": 3011,
      "weet": 3012,
      "Ġbox": 3013,
      "wh": 3014,
      "Ġreduce": 3015,
      "Ġagree": 3016,
      "oring": 3017,
      "Ġbal": 3018,
      "Ġprimary": 3019,
      "itation": 3020,
      "pose": 3021,
      "Ġsecurity": 3022,
      "Ġbehav": 3023,
      "Ġexpected": 3024,
      "Ġlives": 3025,
      "ĠDis": 3026,
      "aily": 3027,
      "Ġ23": 3028,
      "Ġconsist": 3029,
      "wood": 3030,
      "ĠMod": 3031,
      "ĠDay": 3032,
      "Ġfire": 3033,
      "Ġ22": 3034,
      "AD": 3035,
      "icate": 3036,
      "gra": 3037,
      "Ġaverage": 3038,
      "Ġactually": 3039,
      "ĠFirst": 3040,
      "Ġdiagn": 3041,
      "ĠProduct": 3042,
      "Ġhon": 3043,
      "uge": 3044,
      "iles": 3045,
      "ologies": 3046,
      "Ġclaim": 3047,
      "ĠPhot": 3048,
      "ĠSan": 3049,
      "ĠLaw": 3050,
      "ĠAlso": 3051,
      "ha": 3052,
      "Ġdeep": 3053,
      "Ġmethods": 3054,
      "Ġloss": 3055,
      "amed": 3056,
      "Ġeasily": 3057,
      "ĠOctober": 3058,
      "Ġtele": 3059,
      "ĠEnglish": 3060,
      "Ġox": 3061,
      "Ġclick": 3062,
      "Ġresources": 3063,
      "oman": 3064,
      "ustain": 3065,
      "ecutive": 3066,
      "ipe": 3067,
      "ĠSim": 3068,
      "ĠServices": 3069,
      "Ġtour": 3070,
      "Ġsafe": 3071,
      "set": 3072,
      "ĠSee": 3073,
      "ĠGener": 3074,
      "ornia": 3075,
      "ude": 3076,
      "Ġpret": 3077,
      "ĠRuss": 3078,
      "idered": 3079,
      "erved": 3080,
      "Ġculture": 3081,
      "Ġshown": 3082,
      "Ġopportunities": 3083,
      "Ġhalf": 3084,
      "ĠSk": 3085,
      "ibrary": 3086,
      "Ġdate": 3087,
      "Ġunderstanding": 3088,
      "Ġtaken": 3089,
      "ĠMon": 3090,
      "Ġthird": 3091,
      "Ġ198": 3092,
      "Ġterms": 3093,
      "ĠSystem": 3094,
      "Ġhealthy": 3095,
      "het": 3096,
      "ĠLoc": 3097,
      "Ġgrowing": 3098,
      "Ġ...": 3099,
      "itable": 3100,
      "eal": 3101,
      "Ġrat": 3102,
      "iet": 3103,
      "Ġextra": 3104,
      "Ġcoun": 3105,
      "75": 3106,
      "Ġanim": 3107,
      "tee": 3108,
      "hold": 3109,
      "ww": 3110,
      "Ġpers": 3111,
      "Ġreve": 3112,
      "ĠFace": 3113,
      "Ġrelative": 3114,
      "iques": 3115,
      "lation": 3116,
      "Ġmor": 3117,
      "Ġmagn": 3118,
      "elcome": 3119,
      "Ġsurg": 3120,
      "Ġpattern": 3121,
      "Ġexperim": 3122,
      "Ġcommercial": 3123,
      "Ġbroad": 3124,
      "Ġpo": 3125,
      "Ġconsult": 3126,
      "ĠWar": 3127,
      "ĠTH": 3128,
      "ferences": 3129,
      "Ġskin": 3130,
      "ctor": 3131,
      "Ġcenter": 3132,
      "23": 3133,
      ".âĢĿ.": 3134,
      "aving": 3135,
      "ĠThanks": 3136,
      "Ġinterview": 3137,
      "Ġpromot": 3138,
      "Ġdeath": 3139,
      "Ġincreasing": 3140,
      "Ġhous": 3141,
      "inary": 3142,
      "Ġsignal": 3143,
      "ĠDescription": 3144,
      "ĠEuropean": 3145,
      "Ġasp": 3146,
      "Ġcele": 3147,
      "ĠSince": 3148,
      "ĠOb": 3149,
      "Ġproduced": 3150,
      "Ġblood": 3151,
      "riday": 3152,
      "amb": 3153,
      "Ġsle": 3154,
      "Ġannounced": 3155,
      "Ġanything": 3156,
      "vis": 3157,
      "Ġ2008": 3158,
      "OT": 3159,
      "Ġcondition": 3160,
      "Ġcross": 3161,
      "lier": 3162,
      "ĠReview": 3163,
      "Ġinvestment": 3164,
      "Ġult": 3165,
      "Ġspeed": 3166,
      "pm": 3167,
      "oom": 3168,
      "Ġchoose": 3169,
      "olid": 3170,
      "Ġcoming": 3171,
      "ressed": 3172,
      "ils": 3173,
      "ĠOut": 3174,
      "ĠMich": 3175,
      "icine": 3176,
      "ĠSupp": 3177,
      "ĠAugust": 3178,
      "Ġregular": 3179,
      "ĠCalifornia": 3180,
      "Ġpark": 3181,
      "ament": 3182,
      "IG": 3183,
      "Ġstates": 3184,
      "ruary": 3185,
      "Ġproced": 3186,
      "ĠRed": 3187,
      "cript": 3188,
      "ube": 3189,
      "Ġestablished": 3190,
      "ĠPublic": 3191,
      "Ġlimited": 3192,
      "arter": 3193,
      "ĠLear": 3194,
      "Ġdidn": 3195,
      "Ġparts": 3196,
      "ham": 3197,
      "iddle": 3198,
      "Ġwent": 3199,
      "Ġorganiz": 3200,
      "ĠAccording": 3201,
      "ivery": 3202,
      "Ġdecre": 3203,
      "ĠII": 3204,
      "Ġrunning": 3205,
      "Ġbus": 3206,
      "Ġcredit": 3207,
      "vant": 3208,
      "oud": 3209,
      "my": 3210,
      "ipping": 3211,
      "ancy": 3212,
      "====": 3213,
      "BC": 3214,
      "ternal": 3215,
      "ĠWed": 3216,
      "Ġaltern": 3217,
      "Ġroll": 3218,
      "imately": 3219,
      "Ġconsidered": 3220,
      "Ġcomplet": 3221,
      "itect": 3222,
      "ĠAbout": 3223,
      "Ġfib": 3224,
      "Ġ26": 3225,
      "Ġhelps": 3226,
      "Ġdecision": 3227,
      "Ġparty": 3228,
      "empt": 3229,
      "Ġdirector": 3230,
      "Ġreflect": 3231,
      "Ġopportunity": 3232,
      "Ġprotein": 3233,
      "ĠGerm": 3234,
      "hing": 3235,
      "Ġunit": 3236,
      "erve": 3237,
      "Ġmiss": 3238,
      "cember": 3239,
      "ades": 3240,
      "Ġ28": 3241,
      "iff": 3242,
      "Ġindividuals": 3243,
      "Ġbooks": 3244,
      ":<": 3245,
      "Ġ2009": 3246,
      "Â®": 3247,
      "Ġsummer": 3248,
      "Ġvehicle": 3249,
      "Ġamazing": 3250,
      "Ġball": 3251,
      "ĠDet": 3252,
      "ĠFound": 3253,
      "ĠGoogle": 3254,
      "Ġitems": 3255,
      "ĠStreet": 3256,
      "Ġpoints": 3257,
      "lim": 3258,
      "Ġgarden": 3259,
      "Ġemail": 3260,
      "vention": 3261,
      "Ġsoon": 3262,
      "Ġmarketing": 3263,
      "Ġproperties": 3264,
      "Ġfig": 3265,
      "ĠOf": 3266,
      "Ġglass": 3267,
      "aby": 3268,
      "Ġphysical": 3269,
      "Ġcalc": 3270,
      "bl": 3271,
      "ĠEduc": 3272,
      "Ġfamilies": 3273,
      "Pro": 3274,
      "Ġencoura": 3275,
      "IL": 3276,
      "Ġfirm": 3277,
      "ĠSch": 3278,
      "Ġplanning": 3279,
      "ĠAir": 3280,
      "Ġcomment": 3281,
      "Ġwid": 3282,
      "istry": 3283,
      "Ġnecessary": 3284,
      "Ġupon": 3285,
      "Ġcosts": 3286,
      "Ġvalues": 3287,
      "Ġscient": 3288,
      "Ġfresh": 3289,
      "Ġ60": 3290,
      "Ġacid": 3291,
      "Ġsteel": 3292,
      "Ġcyc": 3293,
      "Ġqual": 3294,
      "ened": 3295,
      "board": 3296,
      "Ġple": 3297,
      "ĠEar": 3298,
      "ocks": 3299,
      "vest": 3300,
      "Ġlonger": 3301,
      "Ġgreen": 3302,
      "Ġinhib": 3303,
      "âĢĿ.": 3304,
      "Ġcustomer": 3305,
      "ĠDem": 3306,
      "PS": 3307,
      "EO": 3308,
      "Ġsent": 3309,
      "Ġtown": 3310,
      "Ġproduce": 3311,
      "Ġlayer": 3312,
      "Ġren": 3313,
      "Ġcandid": 3314,
      "ster": 3315,
      "Ġsignificantly": 3316,
      "term": 3317,
      "rench": 3318,
      "key": 3319,
      "ĠFriday": 3320,
      "ĠSub": 3321,
      "illing": 3322,
      "ĠEach": 3323,
      "ĠWork": 3324,
      "Ġcontroll": 3325,
      "Ġ}": 3326,
      "Ġwatch": 3327,
      "olf": 3328,
      "aves": 3329,
      "Ġlargest": 3330,
      "ville": 3331,
      "avy": 3332,
      "Ġsimply": 3333,
      "Ġmeeting": 3334,
      "Ġexact": 3335,
      "ags": 3336,
      "ounds": 3337,
      "Ġpopulation": 3338,
      "ĠFebruary": 3339,
      "Ġdeliver": 3340,
      "Ġschools": 3341,
      "akers": 3342,
      "Ġprem": 3343,
      "ogen": 3344,
      "Ġwords": 3345,
      "ype": 3346,
      "Ġcry": 3347,
      "inated": 3348,
      "ĠWash": 3349,
      "Ġtraditional": 3350,
      "ĠDist": 3351,
      "Ġsett": 3352,
      "Ġwanted": 3353,
      "Ġreach": 3354,
      "ĠFacebook": 3355,
      "Ġtal": 3356,
      "ĠOther": 3357,
      "iding": 3358,
      "45": 3359,
      "Ġled": 3360,
      "ares": 3361,
      "Ġlooks": 3362,
      "off": 3363,
      "orks": 3364,
      "Ġhair": 3365,
      "ĠCanada": 3366,
      "ari": 3367,
      "ĠTV": 3368,
      "Ġrecommend": 3369,
      "35": 3370,
      "26": 3371,
      "Ġgives": 3372,
      "Ġfem": 3373,
      "oice": 3374,
      "Ġcorrect": 3375,
      "ĠBook": 3376,
      "aul": 3377,
      "Ġpick": 3378,
      "Ġdest": 3379,
      "ĠView": 3380,
      "Ġsomeone": 3381,
      "Ġfab": 3382,
      "ĠCare": 3383,
      "order": 3384,
      "Ġhighest": 3385,
      "Ġshowed": 3386,
      "Ġprobably": 3387,
      "ĠHist": 3388,
      "sequ": 3389,
      "Ġexpect": 3390,
      "Wh": 3391,
      "Ġgreater": 3392,
      "Ġquite": 3393,
      "ĠAng": 3394,
      "Ġessential": 3395,
      "ĠIN": 3396,
      "ĠMond": 3397,
      "Ġmatter": 3398,
      "ĠDecember": 3399,
      "Ġrights": 3400,
      "ION": 3401,
      "Ġfuel": 3402,
      "iction": 3403,
      "ext": 3404,
      "Ġconcept": 3405,
      "ĠCur": 3406,
      "Ġefficient": 3407,
      "Ġplayers": 3408,
      "uted": 3409,
      "Ġrot": 3410,
      "rag": 3411,
      "Ġgoal": 3412,
      "UR": 3413,
      "Ġphoto": 3414,
      "que": 3415,
      "Ġexhib": 3416,
      "Ġnormal": 3417,
      "Ġseems": 3418,
      "Ġpretty": 3419,
      "90": 3420,
      "vision": 3421,
      "wide": 3422,
      "Ġcause": 3423,
      "Ġsun": 3424,
      "ford": 3425,
      "fl": 3426,
      "ĠInter": 3427,
      "US": 3428,
      "mark": 3429,
      "idents": 3430,
      "CC": 3431,
      "Ġbirth": 3432,
      "Ġdry": 3433,
      "ara": 3434,
      "Ġrates": 3435,
      "Ġlanguage": 3436,
      "ruit": 3437,
      "alysis": 3438,
      "Ġbusinesses": 3439,
      "Ġguide": 3440,
      "Ġnut": 3441,
      "Ġ2020": 3442,
      "Ġoccur": 3443,
      "ellow": 3444,
      "Ġstarting": 3445,
      "Ġdifference": 3446,
      "Ġsex": 3447,
      "house": 3448,
      "Ġcollabor": 3449,
      "iated": 3450,
      "osing": 3451,
      "ĠTrump": 3452,
      "ING": 3453,
      "Ġvot": 3454,
      "aries": 3455,
      "enge": 3456,
      "ĠDel": 3457,
      "Ġoverall": 3458,
      "Ġtechniques": 3459,
      "95": 3460,
      "aled": 3461,
      "ĠLet": 3462,
      "ey": 3463,
      "Ġfix": 3464,
      "Ġteac": 3465,
      "cks": 3466,
      "overy": 3467,
      "ald": 3468,
      "oms": 3469,
      "Ġdeveloping": 3470,
      "ĠBlack": 3471,
      "Ġsense": 3472,
      "ĠProject": 3473,
      "iency": 3474,
      "Ġprotection": 3475,
      "Ġded": 3476,
      "Ġleave": 3477,
      "Ġhistor": 3478,
      "care": 3479,
      "Ġinj": 3480,
      "urer": 3481,
      "asons": 3482,
      "IM": 3483,
      "ĠEast": 3484,
      "Ġitself": 3485,
      "Ġattention": 3486,
      "Ġsuccessful": 3487,
      "pre": 3488,
      "erous": 3489,
      "EM": 3490,
      "ĠAv": 3491,
      "Ġmatch": 3492,
      "ĠChar": 3493,
      "oke": 3494,
      "imens": 3495,
      "Ġ27": 3496,
      "Ġprogress": 3497,
      "Ġexcellent": 3498,
      "As": 3499,
      "rote": 3500,
      "like": 3501,
      "hens": 3502,
      "roid": 3503,
      "ij": 3504,
      "ĠWind": 3505,
      "ĠAustralia": 3506,
      "Ġattract": 3507,
      "Ġadvant": 3508,
      "Ġanti": 3509,
      "Ġoutput": 3510,
      "Ġdat": 3511,
      "Ġfinish": 3512,
      "osition": 3513,
      "ĠPort": 3514,
      "Ġelements": 3515,
      "Ġdouble": 3516,
      "itary": 3517,
      "ĠLa": 3518,
      "more": 3519,
      "Ġbud": 3520,
      "Ġfat": 3521,
      "Ġdog": 3522,
      "Ġgar": 3523,
      "ĠInstitute": 3524,
      "Ġinside": 3525,
      "ĠMonday": 3526,
      "Ġdemand": 3527,
      "Ġchoice": 3528,
      "ague": 3529,
      "Ġstress": 3530,
      "ĠEvery": 3531,
      "ĠManagement": 3532,
      "Ġbelieve": 3533,
      "error": 3534,
      "Ġlov": 3535,
      "ridge": 3536,
      "ĠCouncil": 3537,
      "Ġhappy": 3538,
      "Ġdownload": 3539,
      "active": 3540,
      "Ġmetal": 3541,
      "Ġang": 3542,
      "Ġevalu": 3543,
      "Ġclient": 3544,
      "Ġwrite": 3545,
      "ĠHome": 3546,
      ".)": 3547,
      "olec": 3548,
      "Ġflex": 3549,
      "Ġmap": 3550,
      "Ġelectric": 3551,
      "Ġcontinu": 3552,
      "ming": 3553,
      "Ġsus": 3554,
      "Ġexpand": 3555,
      "useum": 3556,
      "ĠMost": 3557,
      "ica": 3558,
      "Ġslow": 3559,
      "rab": 3560,
      "ocr": 3561,
      "rick": 3562,
      "',": 3563,
      "Ġtransfer": 3564,
      "****": 3565,
      "Ġgoals": 3566,
      "Ġbenefit": 3567,
      "Ġpurpose": 3568,
      "Ġnature": 3569,
      "ulate": 3570,
      "Ġclub": 3571,
      "ĠGreat": 3572,
      "Ġinstit": 3573,
      "Ġviol": 3574,
      "Ġfiles": 3575,
      "Ġprofession": 3576,
      "Ġexpression": 3577,
      "Ġbad": 3578,
      "ĠĠĠ": 3579,
      "Ġrespective": 3580,
      "Ġorganization": 3581,
      "Ġconvers": 3582,
      "Ġcapacity": 3583,
      "ĠGreen": 3584,
      "Ġcarry": 3585,
      "Ġoperation": 3586,
      "28": 3587,
      "Ġbatter": 3588,
      "Ġscience": 3589,
      "ced": 3590,
      "rest": 3591,
      "Ġuseful": 3592,
      "Ġcompleted": 3593,
      "Ġexisting": 3594,
      "Ġcommunication": 3595,
      "Ġcommunities": 3596,
      "Ġadvanced": 3597,
      "yond": 3598,
      "Ġstrategy": 3599,
      "Ġlic": 3600,
      "Ġsurv": 3601,
      "Ġstrength": 3602,
      "rant": 3603,
      "Ġwine": 3604,
      "lear": 3605,
      "umin": 3606,
      "unt": 3607,
      "Ġserious": 3608,
      "ĠDirector": 3609,
      "Ġge": 3610,
      "Ġisn": 3611,
      "ĠFree": 3612,
      "field": 3613,
      "Ġadjust": 3614,
      "Ġacqu": 3615,
      "ĠAssociation": 3616,
      "Ġcourt": 3617,
      "Ġinterested": 3618,
      "rim": 3619,
      "Ġsen": 3620,
      "uesday": 3621,
      "Ġbegan": 3622,
      "estern": 3623,
      "Ġseem": 3624,
      "Ġhit": 3625,
      "Ġspect": 3626,
      "ĠService": 3627,
      "Ġchann": 3628,
      "ĠThen": 3629,
      "ously": 3630,
      "Ġsustain": 3631,
      "Ġcannot": 3632,
      "33": 3633,
      "Ġparents": 3634,
      "Ġsold": 3635,
      "ĠST": 3636,
      "Ġsites": 3637,
      "ĠDevelopment": 3638,
      "Ġfactors": 3639,
      "Ġrepl": 3640,
      "Ġusually": 3641,
      "Ġmag": 3642,
      "Ġutil": 3643,
      "ĠWashington": 3644,
      "ida": 3645,
      "hol": 3646,
      "alt": 3647,
      "Ġbecame": 3648,
      "arge": 3649,
      "Ġformed": 3650,
      "Ġwed": 3651,
      "ĠIS": 3652,
      "Ġstock": 3653,
      "Ġtast": 3654,
      "opt": 3655,
      "hips": 3656,
      "ursday": 3657,
      "Ġstandards": 3658,
      "ĠPC": 3659,
      "ĠYear": 3660,
      "Ġbillion": 3661,
      "ivil": 3662,
      "ĠKing": 3663,
      "Ġattack": 3664,
      "Ġnation": 3665,
      "ĠTex": 3666,
      "Ġdoor": 3667,
      "Ġmodels": 3668,
      "Ġ>>": 3669,
      "Ġbasic": 3670,
      "Ġcomponents": 3671,
      "Ġfully": 3672,
      "Ġselected": 3673,
      "Ġelectro": 3674,
      "rm": 3675,
      "Ġdescribed": 3676,
      "ĠSol": 3677,
      "ĠBest": 3678,
      "ett": 3679,
      "encies": 3680,
      "Ġrequest": 3681,
      "Ġwonder": 3682,
      "Ġlines": 3683,
      "ĠDown": 3684,
      "Ġdelivery": 3685,
      "Ġliqu": 3686,
      "Ġsection": 3687,
      "Ġcode": 3688,
      "Ġyourself": 3689,
      "oday": 3690,
      "Ġtim": 3691,
      "ĠBec": 3692,
      "porate": 3693,
      "ffee": 3694,
      "ĠÂ·": 3695,
      "Ġemployees": 3696,
      "ences": 3697,
      "rical": 3698,
      "ceed": 3699,
      "Ġcouple": 3700,
      "ĠInformation": 3701,
      "100": 3702,
      "lusive": 3703,
      "Ġfavorite": 3704,
      "ipp": 3705,
      "ĠAnt": 3706,
      "Ġneigh": 3707,
      "ooth": 3708,
      "cy": 3709,
      "Ġprocessing": 3710,
      "Ġhom": 3711,
      "state": 3712,
      "Ġinteresting": 3713,
      "ester": 3714,
      "Ġstories": 3715,
      "ĠEducation": 3716,
      "Ġmemory": 3717,
      "oses": 3718,
      "Ġnearly": 3719,
      "Ġsell": 3720,
      "inding": 3721,
      "Ġphone": 3722,
      "usion": 3723,
      "Ġsession": 3724,
      "zz": 3725,
      "rable": 3726,
      "lor": 3727,
      "ula": 3728,
      "Ġtherapy": 3729,
      "Ġoption": 3730,
      "Ġtouch": 3731,
      "Ġevidence": 3732,
      "Ġplaying": 3733,
      "ses": 3734,
      "ĠâĢ¢": 3735,
      "Ġoperations": 3736,
      "Ġhydro": 3737,
      "gu": 3738,
      "bit": 3739,
      "Ġattempt": 3740,
      "Ġcentral": 3741,
      "IP": 3742,
      "Ġ29": 3743,
      "Ġsequ": 3744,
      "ĠMarket": 3745,
      "Ġtesting": 3746,
      "erg": 3747,
      "Ġstation": 3748,
      "ato": 3749,
      "actions": 3750,
      "Ġorigin": 3751,
      "Ġacad": 3752,
      "ĠWhite": 3753,
      "27": 3754,
      "Ġapprox": 3755,
      "Ġhelping": 3756,
      "65": 3757,
      "ico": 3758,
      "ords": 3759,
      "Ġsong": 3760,
      "Ġcomments": 3761,
      "oming": 3762,
      "ĠBoard": 3763,
      "IV": 3764,
      "Ġsolid": 3765,
      "Ġimproved": 3766,
      "osure": 3767,
      "omy": 3768,
      "Ġjoin": 3769,
      "ĠTuesday": 3770,
      "Ġlaunch": 3771,
      "abin": 3772,
      "Ġsche": 3773,
      "odes": 3774,
      "ĠPlan": 3775,
      "Ġnumbers": 3776,
      "ael": 3777,
      "Ġmid": 3778,
      "Ġvisual": 3779,
      "________": 3780,
      "Ġprocesses": 3781,
      "Ġforce": 3782,
      "ĠUse": 3783,
      "Ġtowards": 3784,
      "Ġeffort": 3785,
      "Ġunits": 3786,
      "Ġthemselves": 3787,
      "ĠSund": 3788,
      "Ġfish": 3789,
      "Ġidentify": 3790,
      "ĠTop": 3791,
      "Ġdetermine": 3792,
      "ĠPhil": 3793,
      "Ġtum": 3794,
      "Ġphotos": 3795,
      "Ġgenerally": 3796,
      "Ġchallenges": 3797,
      "Ġtrade": 3798,
      "igation": 3799,
      "Ġcollege": 3800,
      "Ġpresented": 3801,
      "pri": 3802,
      "Ġdyn": 3803,
      "nesday": 3804,
      "gg": 3805,
      "aling": 3806,
      "ought": 3807,
      "Ġten": 3808,
      "ĠRepublic": 3809,
      "ĠDavid": 3810,
      "ĠCompany": 3811,
      "OL": 3812,
      "change": 3813,
      "Ġstop": 3814,
      "Ġpartner": 3815,
      "ĠElect": 3816,
      "ĠIndian": 3817,
      "Ġprinc": 3818,
      ")<": 3819,
      "Ġavoid": 3820,
      "Ġreports": 3821,
      "Ġmaster": 3822,
      "ĠWeb": 3823,
      "Ġreplace": 3824,
      "Ġrespond": 3825,
      "ĠThursday": 3826,
      "Ġround": 3827,
      "ounce": 3828,
      "Ġchemical": 3829,
      "Ġplants": 3830,
      "Ġbill": 3831,
      "icip": 3832,
      "amin": 3833,
      "Ġgraph": 3834,
      "01": 3835,
      "Ġdiscl": 3836,
      "Ġliter": 3837,
      "uration": 3838,
      "ĠBr": 3839,
      "ani": 3840,
      "add": 3841,
      "Ġorganizations": 3842,
      "ĠProfess": 3843,
      "ĠPlay": 3844,
      "Ġreviews": 3845,
      "Ġchanged": 3846,
      "Ġrestaur": 3847,
      "Ġbackground": 3848,
      "Ġcritical": 3849,
      "pat": 3850,
      "44": 3851,
      "Ġnote": 3852,
      "Ġaccom": 3853,
      "Ġsn": 3854,
      "Ġdiv": 3855,
      "Ġanswer": 3856,
      "gn": 3857,
      "Ġpsych": 3858,
      "Ġenvironmental": 3859,
      "Ġ197": 3860,
      "Ġadvice": 3861,
      "Ġnovel": 3862,
      "Ġworth": 3863,
      "attle": 3864,
      "orge": 3865,
      "itiz": 3866,
      "Ġbedroom": 3867,
      "Ġstar": 3868,
      "Ġteams": 3869,
      "ĠTexas": 3870,
      "Ġearn": 3871,
      "resp": 3872,
      "ancing": 3873,
      "ĠClass": 3874,
      "aturday": 3875,
      "ams": 3876,
      "Ġquickly": 3877,
      "venue": 3878,
      "roud": 3879,
      "Ġbank": 3880,
      "ĠDec": 3881,
      "ĠScience": 3882,
      "ĠArch": 3883,
      "Ġinput": 3884,
      "ĠMem": 3885,
      "Ġserve": 3886,
      "29": 3887,
      "Ġmotor": 3888,
      "ĠRem": 3889,
      "ĠOpen": 3890,
      "osph": 3891,
      "Ġgold": 3892,
      "ny": 3893,
      "ĠMet": 3894,
      "Ġcreative": 3895,
      "ĠMany": 3896,
      "irus": 3897,
      "Ġhor": 3898,
      "mitted": 3899,
      "Ġmiles": 3900,
      "Ġprices": 3901,
      "ĠLife": 3902,
      "eed": 3903,
      "iec": 3904,
      "Ġreli": 3905,
      "Ġspecies": 3906,
      "Ġextrem": 3907,
      "bu": 3908,
      "Ġefforts": 3909,
      "dom": 3910,
      "Ġsem": 3911,
      "ĠMac": 3912,
      "PA": 3913,
      "Ġshape": 3914,
      "Ġpurchase": 3915,
      "ios": 3916,
      "ĠCong": 3917,
      "Ġcontains": 3918,
      "Ġgets": 3919,
      "Ġstage": 3920,
      "Ġ80": 3921,
      "ĠVis": 3922,
      "ervation": 3923,
      "mp": 3924,
      "ĠAny": 3925,
      "Ġapplied": 3926,
      "Ġhelped": 3927,
      "ĠBack": 3928,
      "Ġconnected": 3929,
      "Ġexerc": 3930,
      "Ġenter": 3931,
      "ml": 3932,
      "Ġperformed": 3933,
      "Ġrequires": 3934,
      "Ġstuff": 3935,
      "ĠFil": 3936,
      "Ġeth": 3937,
      "Ġmulti": 3938,
      "des": 3939,
      "pite": 3940,
      "Ġdaily": 3941,
      "Ġstatus": 3942,
      "Ġbur": 3943,
      "ĠGold": 3944,
      "Ġanyone": 3945,
      "Ġrap": 3946,
      "Ġmovie": 3947,
      "ĠGeneral": 3948,
      "ĠWednesday": 3949,
      "Ġdream": 3950,
      "Ġtechnologies": 3951,
      "oul": 3952,
      "icon": 3953,
      "ĠMor": 3954,
      "Ġregist": 3955,
      "Ġfabric": 3956,
      "Ph": 3957,
      "Ġfurn": 3958,
      "arily": 3959,
      "Ġ..": 3960,
      "Ġarr": 3961,
      "Ġmessage": 3962,
      "ĠList": 3963,
      "Ġcapt": 3964,
      "TS": 3965,
      "Ġmoment": 3966,
      "yp": 3967,
      "ĠClick": 3968,
      "undred": 3969,
      "Ġarchitect": 3970,
      "Ġri": 3971,
      "ĠBel": 3972,
      "Ġ2007": 3973,
      "Ġbasis": 3974,
      "ventional": 3975,
      "Ġfederal": 3976,
      "Ġeconomy": 3977,
      "ĠCourt": 3978,
      "lies": 3979,
      "ĠUnder": 3980,
      "Ġcart": 3981,
      "ĠWhy": 3982,
      "LE": 3983,
      "ĠEv": 3984,
      "Ġappropri": 3985,
      "ĠChild": 3986,
      "Ġsatis": 3987,
      "isions": 3988,
      "iling": 3989,
      "05": 3990,
      "Ġrev": 3991,
      "Ġaware": 3992,
      "Ġund": 3993,
      "Ġsomet": 3994,
      "ĠCommunity": 3995,
      "unte": 3996,
      "Ġvolume": 3997,
      "Ġband": 3998,
      "Ġing": 3999,
      "ĠÂ»": 4000,
      "Ġdistribution": 4001,
      "Ġter": 4002,
      "Ġwrote": 4003,
      "used": 4004,
      "Ġconfig": 4005,
      "Ġbeyond": 4006,
      "Ġfocused": 4007,
      "Ġreduced": 4008,
      "ĠFurther": 4009,
      "ieved": 4010,
      "Ġreturn": 4011,
      "Ġinform": 4012,
      "Ġeye": 4013,
      "Ġsurpr": 4014,
      "Ġelement": 4015,
      "ĠHum": 4016,
      "rows": 4017,
      "Ġfunding": 4018,
      "ĠSum": 4019,
      "Ġimpl": 4020,
      "inter": 4021,
      "cont": 4022,
      "Ġones": 4023,
      "Ġkids": 4024,
      "anging": 4025,
      "Ġinstead": 4026,
      "Ġstatement": 4027,
      "aser": 4028,
      "Ġhop": 4029,
      "ĠMo": 4030,
      "Ġfactor": 4031,
      "Ġviews": 4032,
      "ĠBritish": 4033,
      "Ġrent": 4034,
      "Ġproposed": 4035,
      "ĠAfrica": 4036,
      "Ġcamera": 4037,
      "col": 4038,
      "ĠSaturday": 4039,
      "Ġbudget": 4040,
      "Ġver": 4041,
      "Ġsaw": 4042,
      "Ġpanel": 4043,
      "ĠOffice": 4044,
      "ĠDuring": 4045,
      "ĠPaul": 4046,
      "ĠRoad": 4047,
      "Ġhuge": 4048,
      "Ġdecor": 4049,
      "Ġsurround": 4050,
      "dd": 4051,
      "ieces": 4052,
      "Ġphase": 4053,
      "Ġfine": 4054,
      "ero": 4055,
      "Ġmovement": 4056,
      "Ġmedium": 4057,
      "coming": 4058,
      "rey": 4059,
      "Ġsave": 4060,
      "Ġpresence": 4061,
      "Ġresearc": 4062,
      "ĠClub": 4063,
      "Ġretail": 4064,
      "ĠGood": 4065,
      "ĠSur": 4066,
      "ĠExper": 4067,
      "Ġjobs": 4068,
      "band": 4069,
      "lands": 4070,
      "Ġestim": 4071,
      "ĠWell": 4072,
      "box": 4073,
      "Ġtiss": 4074,
      "duces": 4075,
      "force": 4076,
      "Ġdamage": 4077,
      "Ġcup": 4078,
      "ĠHol": 4079,
      "rehens": 4080,
      "irr": 4081,
      "Ġmonitor": 4082,
      "Ġbathroom": 4083,
      "Ġcombination": 4084,
      "ĠLast": 4085,
      "ĠAlthough": 4086,
      "inese": 4087,
      "88": 4088,
      "ND": 4089,
      "Ġlost": 4090,
      "Sh": 4091,
      "eration": 4092,
      "Ġasked": 4093,
      "ocol": 4094,
      "Ġestablish": 4095,
      "Ġstream": 4096,
      "omb": 4097,
      "Ġelse": 4098,
      "Ġmolec": 4099,
      "Ġmusc": 4100,
      "Ġpull": 4101,
      "stract": 4102,
      "Ġdirection": 4103,
      "ĠSuper": 4104,
      "Ġwritten": 4105,
      "ĠSpecial": 4106,
      "Ġmother": 4107,
      "ĠAM": 4108,
      "ĠCD": 4109,
      "Ġconstant": 4110,
      "works": 4111,
      "ĠWater": 4112,
      "Ġfollowed": 4113,
      "ĠMicro": 4114,
      "ĠEngine": 4115,
      "Ġlegis": 4116,
      "Ġchallenge": 4117,
      "tra": 4118,
      "Ġdriving": 4119,
      "Ġlarger": 4120,
      "Ġfacilities": 4121,
      "tenance": 4122,
      "Ġmic": 4123,
      "Ġselection": 4124,
      "ĠHot": 4125,
      "ework": 4126,
      "Ġbrain": 4127,
      "Ġlimit": 4128,
      "ae": 4129,
      "Ġplayer": 4130,
      "ception": 4131,
      "Ġquant": 4132,
      "Ġvirt": 4133,
      "Ġadapt": 4134,
      "nergy": 4135,
      "Ġjournal": 4136,
      "Ġson": 4137,
      "Ġpow": 4138,
      "Ġimmed": 4139,
      "ĠTur": 4140,
      "ĠFrench": 4141,
      "ĠHel": 4142,
      "ky": 4143,
      "isation": 4144,
      "Ġtechnique": 4145,
      "Ġwarm": 4146,
      "'d": 4147,
      "64": 4148,
      "Ġprepar": 4149,
      "Ġcompletely": 4150,
      "ixt": 4151,
      "Ġsurvey": 4152,
      "iture": 4153,
      "Ġefficiency": 4154,
      "32": 4155,
      "UT": 4156,
      "Ġspeak": 4157,
      "Ġpractices": 4158,
      "Ġwire": 4159,
      "ĠSunday": 4160,
      "Ġalb": 4161,
      "Ġ90": 4162,
      "Ġfunct": 4163,
      "Ġsector": 4164,
      "Ġrob": 4165,
      "ĠPM": 4166,
      "Ġproud": 4167,
      "Ġnamed": 4168,
      "azine": 4169,
      "ned": 4170,
      "Ġplaces": 4171,
      "mas": 4172,
      "Ġlabor": 4173,
      "rive": 4174,
      "ĠFood": 4175,
      "Ġword": 4176,
      "Ġseek": 4177,
      "Ġtrust": 4178,
      "ifically": 4179,
      "Ġbul": 4180,
      "Ġvit": 4181,
      "Ġhands": 4182,
      "related": 4183,
      "Ġwild": 4184,
      "ĠâĢ¦": 4185,
      "rought": 4186,
      "Ġinsurance": 4187,
      "Ġcircuit": 4188,
      "itors": 4189,
      "ĠBank": 4190,
      "ĠWhe": 4191,
      "ĠÃ": 4192,
      "amily": 4193,
      "Ġpackage": 4194,
      "lying": 4195,
      "cm": 4196,
      "cell": 4197,
      "Ġprefer": 4198,
      "Ġmission": 4199,
      "Ġexcept": 4200,
      "OM": 4201,
      "Ġgave": 4202,
      "abase": 4203,
      "Ġinternal": 4204,
      "Ġapprec": 4205,
      "ĠBi": 4206,
      "fficient": 4207,
      "Ġder": 4208,
      "Ġgiving": 4209,
      "ructure": 4210,
      "rael": 4211,
      "Ġgirl": 4212,
      "Ġcompar": 4213,
      "Ġrefer": 4214,
      "Ġcontinues": 4215,
      "ĠTwitter": 4216,
      "ĠData": 4217,
      "ĠAnn": 4218,
      "Ġalternative": 4219,
      "ĠMain": 4220,
      "CH": 4221,
      "Ġbaby": 4222,
      "ĠLeg": 4223,
      "Ġmoving": 4224,
      "Ġresistance": 4225,
      "Ġhospital": 4226,
      "Ġoutd": 4227,
      "ĠTime": 4228,
      "eff": 4229,
      "Ġfacility": 4230,
      "arant": 4231,
      "Ġinspired": 4232,
      "Ġdark": 4233,
      "Ġthus": 4234,
      "Ġpassion": 4235,
      "Ġsociety": 4236,
      "apter": 4237,
      "IR": 4238,
      "Ġvision": 4239,
      "down": 4240,
      "met": 4241,
      "Ġvent": 4242,
      "la": 4243,
      "Ġserved": 4244,
      "ttp": 4245,
      "Ġsusp": 4246,
      "anch": 4247,
      "ĠFlor": 4248,
      "Ġanimals": 4249,
      "Ġeasier": 4250,
      "Ġsecure": 4251,
      "Ġguid": 4252,
      "Ġdepend": 4253,
      "Ġplus": 4254,
      "Ġlinks": 4255,
      "BS": 4256,
      "Ġcore": 4257,
      "500": 4258,
      "porary": 4259,
      "tage": 4260,
      "Ġtraffic": 4261,
      "Ġdecided": 4262,
      "Ġinitial": 4263,
      "Ġindependent": 4264,
      "othe": 4265,
      "ĠSing": 4266,
      "ensity": 4267,
      "ĠToday": 4268,
      "Ġpromote": 4269,
      "Ġsituation": 4270,
      "Ġextensive": 4271,
      "ĠRiver": 4272,
      "issions": 4273,
      "ĠSocial": 4274,
      "Ġafford": 4275,
      "su": 4276,
      "Ġgeneration": 4277,
      "ĠCheck": 4278,
      "rees": 4279,
      "ĠCamp": 4280,
      "enty": 4281,
      "ĠIT": 4282,
      "Ġportion": 4283,
      "Ġobtained": 4284,
      "ĠAS": 4285,
      "ĠPal": 4286,
      "Ġ70": 4287,
      "standing": 4288,
      ".\".": 4289,
      "Ġsch": 4290,
      "Ġstat": 4291,
      "Ġjud": 4292,
      "Ġgoes": 4293,
      "Ġcapital": 4294,
      "Ġstim": 4295,
      "rier": 4296,
      "Ġconnection": 4297,
      "II": 4298,
      "fit": 4299,
      "ĠFind": 4300,
      "ĠAtt": 4301,
      "Ġsurgery": 4302,
      "Ġframe": 4303,
      "Ġsale": 4304,
      "Ġhundred": 4305,
      "ĠMedical": 4306,
      "ĠPower": 4307,
      "CT": 4308,
      "otic": 4309,
      "ĠVol": 4310,
      "che": 4311,
      "part": 4312,
      "Ġnothing": 4313,
      "ĠAcad": 4314,
      "Ġideal": 4315,
      "Ġsaying": 4316,
      "Ġappoint": 4317,
      "Ġearlier": 4318,
      "cess": 4319,
      "ertain": 4320,
      "raw": 4321,
      "ston": 4322,
      "ĠBuild": 4323,
      "emy": 4324,
      "Ġcopy": 4325,
      "Ġsometimes": 4326,
      "Ġliquid": 4327,
      "Ġincor": 4328,
      "ĠTwo": 4329,
      "48": 4330,
      "55": 4331,
      "equ": 4332,
      "ĠChinese": 4333,
      "Ġwedding": 4334,
      "Ġsources": 4335,
      "ĠStar": 4336,
      "Ġgovern": 4337,
      "Ġannual": 4338,
      "Ġflat": 4339,
      "ĠContact": 4340,
      "Ġspir": 4341,
      "Ġsynt": 4342,
      "Ġinstruct": 4343,
      "Ġpreviously": 4344,
      "Ġfeet": 4345,
      "38": 4346,
      "Ġexperienced": 4347,
      "leg": 4348,
      "Ġhyp": 4349,
      "Ġmaximum": 4350,
      "):": 4351,
      "Ġmanage": 4352,
      "ĠTechnology": 4353,
      "Ġfa": 4354,
      "Ġdiet": 4355,
      "ĠCommission": 4356,
      "embly": 4357,
      "ĠCap": 4358,
      "Ġthinking": 4359,
      "Ġrock": 4360,
      "Ġpet": 4361,
      "ĠForm": 4362,
      "Ġonto": 4363,
      "ricult": 4364,
      "Ġadministration": 4365,
      "ĠBre": 4366,
      "Ġtrend": 4367,
      "Ġoffering": 4368,
      "Ġreference": 4369,
      "urt": 4370,
      "Ġsuff": 4371,
      "nect": 4372,
      "ĠInternet": 4373,
      "Ġfair": 4374,
      "ĠSal": 4375,
      "rehensive": 4376,
      "Ġiniti": 4377,
      "Ġbehavior": 4378,
      "Ġrapid": 4379,
      "Ġhour": 4380,
      "Ġchain": 4381,
      "tr": 4382,
      "ado": 4383,
      "Ġmilitary": 4384,
      "ĠFoundation": 4385,
      "iences": 4386,
      "MS": 4387,
      "pha": 4388,
      "Ġshoot": 4389,
      "Ġleader": 4390,
      "Ġaw": 4391,
      "ographic": 4392,
      "Ġsleep": 4393,
      "outhern": 4394,
      "Ġexperiences": 4395,
      "Ġinnovative": 4396,
      "ĠLearn": 4397,
      "AG": 4398,
      "Ġwish": 4399,
      "redients": 4400,
      "igned": 4401,
      "Ġrich": 4402,
      "ĠInf": 4403,
      "ĠHall": 4404,
      "Ġaffect": 4405,
      "Ġseparate": 4406,
      "Ġsetting": 4407,
      "Ġplayed": 4408,
      "36": 4409,
      "Ġoperating": 4410,
      "Ġlack": 4411,
      "Ġprofessionals": 4412,
      "isms": 4413,
      "Ġthous": 4414,
      "ĠStr": 4415,
      "Ġtransform": 4416,
      "soft": 4417,
      "Ġtechnical": 4418,
      "ĠRich": 4419,
      "iat": 4420,
      "ago": 4421,
      "ĠExp": 4422,
      "39": 4423,
      "ilit": 4424,
      "Ġanalysis": 4425,
      "ĠRet": 4426,
      "Ġwaste": 4427,
      "Ġdesigns": 4428,
      "going": 4429,
      "Ġtherefore": 4430,
      "Ġsmart": 4431,
      "Ġorganic": 4432,
      "ĠMusic": 4433,
      "Ġsam": 4434,
      "oe": 4435,
      "Ġ31": 4436,
      "Ġcoffee": 4437,
      "49": 4438,
      "Ġtips": 4439,
      "Ġborn": 4440,
      "Ġlocations": 4441,
      "Ġextremely": 4442,
      "Ġseven": 4443,
      "Ġindustrial": 4444,
      "ĠAP": 4445,
      "itude": 4446,
      "owl": 4447,
      "Ġprepared": 4448,
      "Ġceleb": 4449,
      "Ġshared": 4450,
      "olars": 4451,
      "Ġplastic": 4452,
      "orial": 4453,
      "ĠStep": 4454,
      "ĠRelated": 4455,
      "rition": 4456,
      "ĠFore": 4457,
      "You": 4458,
      "Ġexplore": 4459,
      "DA": 4460,
      "ĠEnergy": 4461,
      "Ġoptim": 4462,
      "Ġpieces": 4463,
      "Ġnice": 4464,
      "Ġdedicated": 4465,
      "Ġrespectively": 4466,
      "Ġstudied": 4467,
      "ashion": 4468,
      "Ġappropriate": 4469,
      "Ġfold": 4470,
      "Ġnurs": 4471,
      "ĠBay": 4472,
      "arian": 4473,
      "Ġdro": 4474,
      "Ġpolice": 4475,
      "Ġemot": 4476,
      "Ġfriendly": 4477,
      "Ġbrings": 4478,
      "Ġdisp": 4479,
      "ĠIsrael": 4480,
      "Ġmanager": 4481,
      "Ġpowerful": 4482,
      "ĠSun": 4483,
      "Ġrespect": 4484,
      "Ġsteps": 4485,
      "Ġsecret": 4486,
      "Ġindic": 4487,
      "Ġconventional": 4488,
      "Ġcharge": 4489,
      "atically": 4490,
      "ulty": 4491,
      "eline": 4492,
      "ota": 4493,
      "ava": 4494,
      "Ġcombined": 4495,
      "atin": 4496,
      "Ġspent": 4497,
      "%)": 4498,
      "Ġmental": 4499,
      "Ġmeaning": 4500,
      "Ġchance": 4501,
      "Ġentry": 4502,
      "Ġwhose": 4503,
      "ĠMag": 4504,
      "ĠLead": 4505,
      "Ġbottom": 4506,
      "Ġisol": 4507,
      "Ġrecip": 4508,
      "AB": 4509,
      "Ġbeginning": 4510,
      "ellig": 4511,
      "Ġcarbon": 4512,
      "Ġur": 4513,
      "ĠPub": 4514,
      "ste": 4515,
      "Ġeight": 4516,
      "Ġsupported": 4517,
      "ĠCle": 4518,
      "Ġforms": 4519,
      "Ġinternet": 4520,
      "Ġtrip": 4521,
      "odies": 4522,
      "vere": 4523,
      "rief": 4524,
      "Ġmarkets": 4525,
      "Ġtreated": 4526,
      "Ġrelates": 4527,
      "rete": 4528,
      "ĠMichael": 4529,
      "Ġsweet": 4530,
      "Ġresponsible": 4531,
      "Ġannounce": 4532,
      "ĠDemocr": 4533,
      "Ġdoll": 4534,
      "ideos": 4535,
      "Ġblue": 4536,
      "Ġobserved": 4537,
      "osc": 4538,
      "unk": 4539,
      "where": 4540,
      "Ġcold": 4541,
      "eters": 4542,
      "ĠOrgan": 4543,
      "rian": 4544,
      "\":": 4545,
      "Ġpaid": 4546,
      "Ġleadership": 4547,
      "ta": 4548,
      "Ġtick": 4549,
      "Ġedge": 4550,
      "Ġcourses": 4551,
      "Ġcovered": 4552,
      "free": 4553,
      "Ġopening": 4554,
      "Ġspot": 4555,
      "Ġnegative": 4556,
      "ona": 4557,
      "Ġrules": 4558,
      "Ġthick": 4559,
      "aught": 4560,
      "Ġexactly": 4561,
      "iant": 4562,
      "Ġoffered": 4563,
      "Ġhear": 4564,
      "Ġenhance": 4565,
      "Ġsympt": 4566,
      "Ġtypically": 4567,
      "66": 4568,
      "icians": 4569,
      "Ġveget": 4570,
      "Ġmill": 4571,
      "Ġpool": 4572,
      "Ġthreat": 4573,
      "Ġsuitable": 4574,
      "Ġ2021": 4575,
      "gency": 4576,
      "Ġvehicles": 4577,
      "ss": 4578,
      "td": 4579,
      "Ġsmaller": 4580,
      "cohol": 4581,
      "Ġadvantage": 4582,
      "umber": 4583,
      "Ġflo": 4584,
      "ĠMal": 4585,
      "ommod": 4586,
      "anish": 4587,
      "inct": 4588,
      "rd": 4589,
      "ĠSil": 4590,
      "Ġwindow": 4591,
      "uth": 4592,
      "Ġhousing": 4593,
      "Ġconstruct": 4594,
      "ĠMat": 4595,
      "Ġpassed": 4596,
      "cial": 4597,
      "ĠEven": 4598,
      "Ġcolour": 4599,
      "ĠColor": 4600,
      "LC": 4601,
      "ipped": 4602,
      "Ġofficials": 4603,
      "Ġrelatively": 4604,
      "37": 4605,
      "Ġtree": 4606,
      "ĠDig": 4607,
      "Ġrace": 4608,
      "ented": 4609,
      "Ġletter": 4610,
      "Ġtitle": 4611,
      ">.": 4612,
      "ĠPeople": 4613,
      "34": 4614,
      "ĠIns": 4615,
      "Ġinstru": 4616,
      "Ġrow": 4617,
      "Ġapproximately": 4618,
      "New": 4619,
      "ourney": 4620,
      "Ġformat": 4621,
      "ĠMedia": 4622,
      "ĠCEO": 4623,
      "ĠSl": 4624,
      "ĠAward": 4625,
      "ĠConst": 4626,
      "inner": 4627,
      "Ġexperts": 4628,
      "ĠWilliam": 4629,
      "Ġ35": 4630,
      "Ġregul": 4631,
      "Ġswitch": 4632,
      "Ġremains": 4633,
      "Ġspread": 4634,
      "Ġsmooth": 4635,
      "Ġintroduced": 4636,
      "Ġacademic": 4637,
      "Ġpoll": 4638,
      "Ġflav": 4639,
      "Ġalbum": 4640,
      "ĠUSA": 4641,
      "imin": 4642,
      "Ġmer": 4643,
      "Ġnuc": 4644,
      "Ġadding": 4645,
      "Ġmoved": 4646,
      "rig": 4647,
      "Ġattend": 4648,
      "ĠTHE": 4649,
      "Ġresearchers": 4650,
      "Ġreduction": 4651,
      "ĠLook": 4652,
      "orthern": 4653,
      "Ġshipping": 4654,
      "Ġexternal": 4655,
      "Ġadults": 4656,
      "gl": 4657,
      "Ġjoint": 4658,
      "ibly": 4659,
      "Ġantib": 4660,
      "ipl": 4661,
      "Ġconference": 4662,
      "Ġtrain": 4663,
      "Ġparam": 4664,
      "ĠHy": 4665,
      "bed": 4666,
      "ĠSociety": 4667,
      "ĠCentral": 4668,
      "Ġvolunte": 4669,
      "Ġintegrated": 4670,
      "rations": 4671,
      "ĠGod": 4672,
      "ĠFranc": 4673,
      "cel": 4674,
      "aughter": 4675,
      "Ġalthough": 4676,
      "Ġteaching": 4677,
      "Ġextract": 4678,
      "Ġdiscussion": 4679,
      "Ġinject": 4680,
      "ĠDownload": 4681,
      "Ġarticles": 4682,
      "Ġmaintenance": 4683,
      "Ġcentury": 4684,
      "ĠCommit": 4685,
      "ĠCustom": 4686,
      "Ġelectronic": 4687,
      "ĠAngel": 4688,
      "Ġworksh": 4689,
      "SA": 4690,
      "Ġcitiz": 4691,
      "Ġplaced": 4692,
      "Ġhandle": 4693,
      "ĠSaf": 4694,
      "Ġpicture": 4695,
      "Ġcolors": 4696,
      "Ġindex": 4697,
      "illa": 4698,
      "rome": 4699,
      "Ġinfo": 4700,
      "ĠKey": 4701,
      "ĠThank": 4702,
      "Ġprofile": 4703,
      "Ġvoltage": 4704,
      "fol": 4705,
      "nown": 4706,
      "Ġreasons": 4707,
      "ĠEngland": 4708,
      "Cl": 4709,
      "oyal": 4710,
      "idential": 4711,
      "omas": 4712,
      "ĠID": 4713,
      "Ġrank": 4714,
      "Ġgall": 4715,
      "abilities": 4716,
      "Ġanaly": 4717,
      "ĠWood": 4718,
      "ĠApple": 4719,
      "Ġcompetition": 4720,
      "Ġpolic": 4721,
      "Ġpair": 4722,
      "olic": 4723,
      "Ġlaws": 4724,
      "ĠHistory": 4725,
      "Ġlandsc": 4726,
      "Ġcaused": 4727,
      "eria": 4728,
      "ette": 4729,
      "Ġcomprehensive": 4730,
      "Ġwrong": 4731,
      "Ġpractical": 4732,
      "ĠOnce": 4733,
      "Ġpredict": 4734,
      "Ġvoice": 4735,
      "Ġ500": 4736,
      "Ġallowing": 4737,
      "Ġcraft": 4738,
      "Ġsports": 4739,
      "Ġbiggest": 4740,
      "ĠCall": 4741,
      "roph": 4742,
      "acing": 4743,
      "Ġcolumn": 4744,
      "Ġmachine": 4745,
      "Ġalone": 4746,
      "Ġenable": 4747,
      "ĠJames": 4748,
      "uled": 4749,
      "ĠFlorida": 4750,
      "ĠJew": 4751,
      "aratus": 4752,
      "ĠOh": 4753,
      "Ġsubs": 4754,
      "Ġprincip": 4755,
      "IF": 4756,
      "Ġimag": 4757,
      "phone": 4758,
      "Ġartist": 4759,
      "Ġtom": 4760,
      "Ġremain": 4761,
      "Ġmention": 4762,
      "Ġlibrary": 4763,
      "ĠMil": 4764,
      "Ġslight": 4765,
      "enz": 4766,
      "lusion": 4767,
      "respond": 4768,
      "CA": 4769,
      "Ġord": 4770,
      "Ġcompris": 4771,
      "ĠJack": 4772,
      "ograp": 4773,
      "racy": 4774,
      "Ġbrought": 4775,
      "ĠShow": 4776,
      "Ġgain": 4777,
      "itis": 4778,
      "dule": 4779,
      "ĠJournal": 4780,
      "Ġdistance": 4781,
      "Ġhyper": 4782,
      "Ġmeasures": 4783,
      "ĠMart": 4784,
      "Ġvacc": 4785,
      "uty": 4786,
      "Ġcast": 4787,
      "Ġmut": 4788,
      "ĠSupport": 4789,
      "mar": 4790,
      "Ĥ¬": 4791,
      "Ġcra": 4792,
      "Ġtried": 4793,
      "ĠMinister": 4794,
      "Ġcomputer": 4795,
      "Ġrevealed": 4796,
      "ĠDistrict": 4797,
      "ĠWindows": 4798,
      "Ġrecept": 4799,
      "Ġlin": 4800,
      "Ġtrial": 4801,
      "Ġvan": 4802,
      "ĠGovernment": 4803,
      "iny": 4804,
      "Ġexpertise": 4805,
      "Ġpropos": 4806,
      "Ġbuildings": 4807,
      "Ġcris": 4808,
      "Ġturned": 4809,
      "Ġillust": 4810,
      "Ġbattery": 4811,
      "Ġtherm": 4812,
      "adian": 4813,
      "Ġcomplic": 4814,
      "rip": 4815,
      "Ġsenior": 4816,
      "ĠRober": 4817,
      "haps": 4818,
      "Ġexcited": 4819,
      "ĠLight": 4820,
      "Ġdrink": 4821,
      "Ġcounter": 4822,
      "iar": 4823,
      "ying": 4824,
      "ĠFollow": 4825,
      "Ġinterior": 4826,
      "hetic": 4827,
      "Ġfemale": 4828,
      "Ġ2006": 4829,
      "Ġsigned": 4830,
      "Ġallowed": 4831,
      "Ex": 4832,
      "ĠProv": 4833,
      "Ġgrant": 4834,
      "Ġregarding": 4835,
      "Ġpush": 4836,
      "ĠAdv": 4837,
      "ĠCentre": 4838,
      "Ġdetermined": 4839,
      "))": 4840,
      "78": 4841,
      "cing": 4842,
      "ĠRock": 4843,
      "Ġmyself": 4844,
      "Ġfinally": 4845,
      "----------------": 4846,
      "Ġfields": 4847,
      "OP": 4848,
      "Ġdatabase": 4849,
      "/-": 4850,
      "reed": 4851,
      "âĢ¦.": 4852,
      "ĠEU": 4853,
      "frac": 4854,
      "Ġcabin": 4855,
      "Ġpages": 4856,
      "ifications": 4857,
      "Ġeyes": 4858,
      "Ġfindings": 4859,
      "ĠDef": 4860,
      "ĠIts": 4861,
      "Ġgrand": 4862,
      "ĠGlobal": 4863,
      "Ġmanufacturing": 4864,
      "Ar": 4865,
      "Ġden": 4866,
      "ĠQue": 4867,
      "ĠUnion": 4868,
      "ken": 4869,
      "Ġtub": 4870,
      "ĠFund": 4871,
      "Ġconver": 4872,
      "Ġheavy": 4873,
      "estival": 4874,
      "SS": 4875,
      "ĠPay": 4876,
      "sub": 4877,
      "Ġadvert": 4878,
      "Ġpen": 4879,
      "Ġapparatus": 4880,
      "Ġidentified": 4881,
      "ĠÐ": 4882,
      "Ġshel": 4883,
      "Ġ%": 4884,
      "Ġcivil": 4885,
      "ĠBer": 4886,
      "Ġdiam": 4887,
      "Ġwelcome": 4888,
      "Ġremove": 4889,
      "Ġgene": 4890,
      "Ġanimal": 4891,
      "Ġaccommod": 4892,
      "Ġcontinued": 4893,
      "aint": 4894,
      "Ġcontext": 4895,
      "Ġconducted": 4896,
      "Ġfelt": 4897,
      "ĠDNA": 4898,
      "asy": 4899,
      "ĠMount": 4900,
      "ĠPress": 4901,
      "Ġresidents": 4902,
      "hi": 4903,
      "comes": 4904,
      "Ġfill": 4905,
      "Ġroute": 4906,
      "icks": 4907,
      "ĠMary": 4908,
      "Ġbrid": 4909,
      "DF": 4910,
      "ordin": 4911,
      "Ġimmun": 4912,
      "Ġlaun": 4913,
      "Ġharm": 4914,
      "rates": 4915,
      "Ġowners": 4916,
      "azon": 4917,
      "Ġfunction": 4918,
      "Ġrecovery": 4919,
      "Ġdecl": 4920,
      "Ġshopping": 4921,
      "nel": 4922,
      "Ġahead": 4923,
      "ĠFull": 4924,
      "Ġdiss": 4925,
      "ĠUsing": 4926,
      "Ġsort": 4927,
      "UN": 4928,
      "Ġsand": 4929,
      "ĠStand": 4930,
      "ivered": 4931,
      "ĠJapanese": 4932,
      "Ġholid": 4933,
      "Ġvict": 4934,
      "An": 4935,
      "rum": 4936,
      "Ġupdate": 4937,
      "Ġdram": 4938,
      "Ġsquare": 4939,
      "ript": 4940,
      "estic": 4941,
      "Ġpoor": 4942,
      "ads": 4943,
      "Ġfan": 4944,
      "ĠAT": 4945,
      "ĠBig": 4946,
      "Ġsitu": 4947,
      "ĠHuman": 4948,
      "Ġplate": 4949,
      "ĠEnter": 4950,
      "Ġmorning": 4951,
      "ĠBecause": 4952,
      "Ġdead": 4953,
      "ĠIndust": 4954,
      "Ġobjects": 4955,
      "Ã¡": 4956,
      "Ġpul": 4957,
      "Ġfight": 4958,
      "Ġrelevant": 4959,
      "Ġtruly": 4960,
      "Ġfrequency": 4961,
      "Ġrub": 4962,
      "hesis": 4963,
      "Ġnumerous": 4964,
      "Ġcomponent": 4965,
      "oster": 4966,
      "Ġdocuments": 4967,
      "Ġir": 4968,
      "47": 4969,
      "list": 4970,
      "Ġtur": 4971,
      "Ġbecomes": 4972,
      "rastructure": 4973,
      "What": 4974,
      "ĠBen": 4975,
      "Ġmedicine": 4976,
      "rugg": 4977,
      "ĠAuthor": 4978,
      "Ġ2000": 4979,
      "ras": 4980,
      "Ġyouth": 4981,
      "abil": 4982,
      "Ġrail": 4983,
      "ĠChristmas": 4984,
      "Ġmiddle": 4985,
      "inn": 4986,
      "rix": 4987,
      "Ġrelationships": 4988,
      "Ġincred": 4989,
      "Ġhomes": 4990,
      "Ġworkers": 4991,
      "Ġlamp": 4992,
      "ĠPrice": 4993,
      "ĠTeam": 4994,
      "ĠCommittee": 4995,
      "Ġstrategies": 4996,
      "Ġconcentration": 4997,
      "Ġfunds": 4998,
      "craft": 4999,
      "life": 5000,
      "Ġfant": 5001,
      "Ġagency": 5002,
      "Ġartists": 5003,
      "ĠBet": 5004,
      "ĠWomen": 5005,
      "top": 5006,
      "Ġagreement": 5007,
      "ĠAfrican": 5008,
      "Ġestate": 5009,
      "Ġscale": 5010,
      "Ġtrees": 5011,
      "ĠLab": 5012,
      "plate": 5013,
      "ĠEnd": 5014,
      "lo": 5015,
      "Ġtables": 5016,
      "Ġcentre": 5017,
      "Ġ$\\": 5018,
      "Ġ45": 5019,
      "Ġminimum": 5020,
      "body": 5021,
      "inger": 5022,
      "Ġmo": 5023,
      "Ġbeg": 5024,
      "ĠStart": 5025,
      "Ġconven": 5026,
      "ĠRob": 5027,
      "rain": 5028,
      "Ġvs": 5029,
      "ishes": 5030,
      "Ġlots": 5031,
      "ano": 5032,
      "ĠMont": 5033,
      "ĠSpe": 5034,
      "Ġcultural": 5035,
      "Ġpictures": 5036,
      "If": 5037,
      "unning": 5038,
      "ĠFamily": 5039,
      "ĠUN": 5040,
      "ĠReal": 5041,
      "Ġdepartment": 5042,
      "Ġexclusive": 5043,
      "Ġsouth": 5044,
      "Ġbacter": 5045,
      "ulf": 5046,
      "Ġhotel": 5047,
      "ĠField": 5048,
      "anta": 5049,
      "Ġtrail": 5050,
      "Ġspecifically": 5051,
      "Ġapproved": 5052,
      "ĠCarol": 5053,
      "Ġcities": 5054,
      "ndom": 5055,
      "Ġwear": 5056,
      "Ġolder": 5057,
      "Ġheight": 5058,
      "Ġuniversity": 5059,
      "}{": 5060,
      "ĠProt": 5061,
      "],": 5062,
      "alle": 5063,
      "Ġguarant": 5064,
      "Ġpump": 5065,
      "Ġnames": 5066,
      "Ġtissue": 5067,
      "itz": 5068,
      "ĠObama": 5069,
      "ĠTor": 5070,
      "Ġsched": 5071,
      "Ġfinished": 5072,
      "ĠNetwork": 5073,
      "ĠHave": 5074,
      "Ġpeace": 5075,
      "Ġjoined": 5076,
      "Ġbond": 5077,
      "ĠIP": 5078,
      "Ġthanks": 5079,
      "Ġexpress": 5080,
      "ĠApplic": 5081,
      "Ġbalance": 5082,
      "ĠCongress": 5083,
      "lection": 5084,
      "BA": 5085,
      "Ġimportance": 5086,
      "Ġ//": 5087,
      "berg": 5088,
      "Ġcm": 5089,
      "ĠAD": 5090,
      "igration": 5091,
      "ĠAnother": 5092,
      "Ġimplementation": 5093,
      "Ġneighbor": 5094,
      "ĠSet": 5095,
      "Ġnar": 5096,
      "Ġdepending": 5097,
      "Ġaspects": 5098,
      "ĠEconom": 5099,
      "Ġshop": 5100,
      "cos": 5101,
      "ye": 5102,
      "Ġstraight": 5103,
      "Ġmechanism": 5104,
      "Ġinstalled": 5105,
      "CR": 5106,
      "ĠSign": 5107,
      "Ġmis": 5108,
      "Ġkinds": 5109,
      "ĠDisc": 5110,
      "ĠBoth": 5111,
      "Ġunivers": 5112,
      "Ġserver": 5113,
      "icity": 5114,
      "Ġjourney": 5115,
      "Ġcorrespond": 5116,
      "Ġstructures": 5117,
      "Ġwait": 5118,
      "Ġinfluence": 5119,
      "67": 5120,
      "Ġreaction": 5121,
      "::": 5122,
      "enses": 5123,
      "Ġprocedure": 5124,
      "Ġmm": 5125,
      "Ġdefin": 5126,
      "Ġitem": 5127,
      "ĠLand": 5128,
      "apers": 5129,
      "Ġrare": 5130,
      "atever": 5131,
      "abet": 5132,
      "ĠFrance": 5133,
      "Con": 5134,
      "point": 5135,
      "zy": 5136,
      "Ġpaint": 5137,
      "31": 5138,
      "Ġsend": 5139,
      "essions": 5140,
      "Ġunc": 5141,
      "_{": 5142,
      "asp": 5143,
      "ĠRad": 5144,
      "Ġque": 5145,
      "Ġopin": 5146,
      "Ġwonderful": 5147,
      "och": 5148,
      "ĠMake": 5149,
      "Ġbreast": 5150,
      "Ġdelivered": 5151,
      "Ġruns": 5152,
      "Ġengineering": 5153,
      "Ġsustainable": 5154,
      "Ġstudio": 5155,
      "scrib": 5156,
      "âĦ": 5157,
      "ĠGr": 5158,
      "Ġphosph": 5159,
      "Ġmanufacturer": 5160,
      "ya": 5161,
      "igious": 5162,
      "Ġsupporting": 5163,
      "emporary": 5164,
      "pan": 5165,
      "Ġtask": 5166,
      "flow": 5167,
      "Ġcru": 5168,
      "omin": 5169,
      "ĠRE": 5170,
      "Ġkeeping": 5171,
      "Ġoccas": 5172,
      "Ġparticipants": 5173,
      "Ġshap": 5174,
      "Ġbreat": 5175,
      "ĠMass": 5176,
      "ĠChic": 5177,
      "othing": 5178,
      "Ġassessment": 5179,
      "ascular": 5180,
      "net": 5181,
      "Ġsets": 5182,
      "Ġcards": 5183,
      "ĠPack": 5184,
      "Ġspl": 5185,
      "reme": 5186,
      "Ġstrugg": 5187,
      "ĠExt": 5188,
      "ocal": 5189,
      "Ġchair": 5190,
      "Ġforeign": 5191,
      "Ab": 5192,
      "orders": 5193,
      "wise": 5194,
      "ĠMex": 5195,
      "Ġcorporate": 5196,
      "Ġseat": 5197,
      "Ġsample": 5198,
      "Ġpm": 5199,
      "rosc": 5200,
      "Ġincreases": 5201,
      "MP": 5202,
      "Ġtoward": 5203,
      "ania": 5204,
      "imb": 5205,
      "ĠTherefore": 5206,
      "</": 5207,
      "Ġremember": 5208,
      "Ġoptical": 5209,
      "ttps": 5210,
      "ario": 5211,
      "Â°": 5212,
      "Ġtun": 5213,
      "ĠLou": 5214,
      "Ġvideos": 5215,
      "Ġdetect": 5216,
      "Ġsurf": 5217,
      "Des": 5218,
      "ycle": 5219,
      "CS": 5220,
      "Ġfans": 5221,
      "Ġinjury": 5222,
      "Ġboy": 5223,
      "asis": 5224,
      "ĠMS": 5225,
      "Ġspring": 5226,
      "Ġquarter": 5227,
      "Ġcomfortable": 5228,
      "Ġsharing": 5229,
      "ĠHead": 5230,
      "Ġwants": 5231,
      "?<": 5232,
      "ĠNY": 5233,
      "Ġrelax": 5234,
      "Ġscen": 5235,
      "OW": 5236,
      "Ġaid": 5237,
      "Ġactual": 5238,
      "iance": 5239,
      "ĠInvest": 5240,
      "Ġreality": 5241,
      "Ġradio": 5242,
      "Ġton": 5243,
      "isco": 5244,
      "Ġinstallation": 5245,
      "Ġsymptoms": 5246,
      "âĦ¢": 5247,
      "odcast": 5248,
      "rupt": 5249,
      "ĠCurrent": 5250,
      "Ġcere": 5251,
      "Ġtheme": 5252,
      "Ġchanging": 5253,
      "bol": 5254,
      "ĠMaster": 5255,
      "ĠThus": 5256,
      "Ġarray": 5257,
      "Ġraised": 5258,
      "Our": 5259,
      "Ġfaster": 5260,
      "Ġpharm": 5261,
      "Ġtransition": 5262,
      "ĠHill": 5263,
      "inder": 5264,
      "Ġclosed": 5265,
      "Ġrepe": 5266,
      "Ġtopics": 5267,
      "ĠTom": 5268,
      "Re": 5269,
      "Ġ2005": 5270,
      "Ġupdated": 5271,
      "Ġfurniture": 5272,
      "iers": 5273,
      "Ġsizes": 5274,
      "ĠTimes": 5275,
      "ria": 5276,
      "Ġaims": 5277,
      "ded": 5278,
      "Ġcontrast": 5279,
      "Ġreached": 5280,
      "ĠOpt": 5281,
      "Ġelectrical": 5282,
      "IA": 5283,
      "ancer": 5284,
      "Ġfacilit": 5285,
      "Ġwoman": 5286,
      "Ġmort": 5287,
      "ĠOnline": 5288,
      "iced": 5289,
      "ician": 5290,
      "ĠBill": 5291,
      "terior": 5292,
      "Ġflexible": 5293,
      "Ġtested": 5294,
      "Ġencourage": 5295,
      "ĠMiss": 5296,
      "ĠHospital": 5297,
      "ĠDate": 5298,
      "Ġheard": 5299,
      "Ġdesired": 5300,
      "Ġexercise": 5301,
      "Com": 5302,
      "âĢľ": 5303,
      "Ġleaves": 5304,
      "Ġtests": 5305,
      "Ġemployment": 5306,
      "ĠSam": 5307,
      "Ġeducational": 5308,
      "Ġremoved": 5309,
      "ML": 5310,
      "Ġdiseases": 5311,
      "Ġsolar": 5312,
      "Ġcutting": 5313,
      "Ġbecoming": 5314,
      "ospit": 5315,
      "Ġcars": 5316,
      "MA": 5317,
      "Ġnorth": 5318,
      "erate": 5319,
      "Ġmal": 5320,
      "anged": 5321,
      "ka": 5322,
      "Ġdress": 5323,
      "ĠSand": 5324,
      "Ġabsor": 5325,
      "69": 5326,
      "Ġshowing": 5327,
      "ĠSecurity": 5328,
      "Ġfinding": 5329,
      "Ġadvance": 5330,
      "estyle": 5331,
      "ĠNote": 5332,
      "igen": 5333,
      "Ġpolicies": 5334,
      "ius": 5335,
      "ĠOper": 5336,
      "ĠManager": 5337,
      "ĠPosted": 5338,
      "85": 5339,
      "Ġbag": 5340,
      "Ġven": 5341,
      "Ġarriv": 5342,
      "Ġtaste": 5343,
      "irgin": 5344,
      "ampions": 5345,
      "Ġexposure": 5346,
      "orter": 5347,
      "Ġwat": 5348,
      "men": 5349,
      "ĠDetails": 5350,
      "Ġrenew": 5351,
      "Ġsnow": 5352,
      "ĠLike": 5353,
      "Ġcharacteristics": 5354,
      "Ġaccur": 5355,
      "Ġtrou": 5356,
      "Ġfear": 5357,
      "Ġemp": 5358,
      "Ġsea": 5359,
      "atal": 5360,
      "Ġdivid": 5361,
      "look": 5362,
      "Ġcontaining": 5363,
      "Ġtox": 5364,
      "ĠTake": 5365,
      "Ġrandom": 5366,
      "Ġwinter": 5367,
      "CD": 5368,
      "Ġles": 5369,
      "Ġbright": 5370,
      "77": 5371,
      "mail": 5372,
      "Ġped": 5373,
      "Ġneck": 5374,
      "Ġnav": 5375,
      "Ġearth": 5376,
      "Read": 5377,
      "Ġstores": 5378,
      "Ġdifferences": 5379,
      "RA": 5380,
      "ĠMad": 5381,
      "ĠEarth": 5382,
      "icious": 5383,
      "Ġdrop": 5384,
      "ĠLong": 5385,
      "Ġchannel": 5386,
      "ĠDi": 5387,
      "ki": 5388,
      "Ġtow": 5389,
      "Ġhaven": 5390,
      "Ġwasn": 5391,
      "There": 5392,
      "zym": 5393,
      "Ġisland": 5394,
      "ĠIsland": 5395,
      "bb": 5396,
      "ĠLog": 5397,
      "He": 5398,
      "ĠLove": 5399,
      "ĠPet": 5400,
      "amber": 5401,
      "imensions": 5402,
      "date": 5403,
      "Ġlearned": 5404,
      "HS": 5405,
      "Ġwife": 5406,
      "ĠArts": 5407,
      "Ġhealthcare": 5408,
      "Ġapart": 5409,
      "Ġpregn": 5410,
      "no": 5411,
      "with": 5412,
      "Ġgraduate": 5413,
      "Ġtail": 5414,
      "oration": 5415,
      "eless": 5416,
      "Ġcandidate": 5417,
      "riage": 5418,
      "Ġtransmission": 5419,
      "ĠTraining": 5420,
      "ENT": 5421,
      "Ġimprovement": 5422,
      "bour": 5423,
      "ĠAccess": 5424,
      "ĠCre": 5425,
      "ĠHand": 5426,
      "Ġleads": 5427,
      "ĠSeries": 5428,
      "ĠTest": 5429,
      "âĢĿ,": 5430,
      "Ġvalid": 5431,
      "han": 5432,
      "ĠTim": 5433,
      "Ġtransl": 5434,
      "Ġdomain": 5435,
      "Ġbound": 5436,
      "ĠSa": 5437,
      "Ġgrown": 5438,
      "ĠLim": 5439,
      "Ġregional": 5440,
      "Ġthousands": 5441,
      "erry": 5442,
      "ache": 5443,
      "Ġepis": 5444,
      "win": 5445,
      "alian": 5446,
      "Ġscientific": 5447,
      "ifying": 5448,
      "Ġclassic": 5449,
      "iveness": 5450,
      "urban": 5451,
      "ĠShare": 5452,
      "Ġdetailed": 5453,
      "ront": 5454,
      "orrow": 5455,
      "Ġspons": 5456,
      "UL": 5457,
      "Ġeat": 5458,
      "Ġegg": 5459,
      "spec": 5460,
      "known": 5461,
      "ĠStudents": 5462,
      "rs": 5463,
      "osen": 5464,
      "ĠTheir": 5465,
      "Ġclimate": 5466,
      "Ġmode": 5467,
      "$.": 5468,
      "well": 5469,
      "illage": 5470,
      "Ġaudio": 5471,
      "Ġdegrees": 5472,
      "Ġtelevision": 5473,
      "road": 5474,
      "Ġexecutive": 5475,
      "ĠGen": 5476,
      "istan": 5477,
      "Ġcoverage": 5478,
      "Ġlights": 5479,
      "Ġlighting": 5480,
      "<<": 5481,
      "edia": 5482,
      "Ġproviders": 5483,
      "ĠGermany": 5484,
      "abled": 5485,
      "Ġbeauty": 5486,
      "PR": 5487,
      "iled": 5488,
      "Ġ300": 5489,
      "Ġwalls": 5490,
      "ulating": 5491,
      "ĠOffic": 5492,
      "Ġseg": 5493,
      "Ġprogramme": 5494,
      "Ġinfl": 5495,
      "exp": 5496,
      "elines": 5497,
      "Ġguests": 5498,
      "isher": 5499,
      "ansion": 5500,
      "Ġmeasured": 5501,
      "CE": 5502,
      "achel": 5503,
      "ault": 5504,
      "Ġteachers": 5505,
      "hors": 5506,
      "vin": 5507,
      "Ġdecisions": 5508,
      "Ġdrugs": 5509,
      "Ġformation": 5510,
      "ĠGerman": 5511,
      "dy": 5512,
      "ĠScott": 5513,
      "Ġpayment": 5514,
      "Ġsubstrate": 5515,
      "Ġalcohol": 5516,
      "Ġleather": 5517,
      "ĠReport": 5518,
      "rite": 5519,
      "Ġvote": 5520,
      "Ġid": 5521,
      "ĠMot": 5522,
      "Ġcommitted": 5523,
      "68": 5524,
      "Ġdriver": 5525,
      "Al": 5526,
      "Ġinner": 5527,
      "Ġclaims": 5528,
      "Ġlock": 5529,
      "ĠAlex": 5530,
      "yan": 5531,
      "Ġadvoc": 5532,
      "Ġinvolve": 5533,
      "Ġdoub": 5534,
      "Ġposts": 5535,
      "Ġmg": 5536,
      "EW": 5537,
      "ĠValley": 5538,
      "ĠSource": 5539,
      "Ġdoors": 5540,
      "Ġsubstant": 5541,
      "Ġspirit": 5542,
      "Ġcitizens": 5543,
      "anger": 5544,
      "ĠReferences": 5545,
      "Ġregister": 5546,
      "Ġast": 5547,
      "osite": 5548,
      "GB": 5549,
      "Ġexpensive": 5550,
      "ĠAustralian": 5551,
      "Ġappears": 5552,
      "rative": 5553,
      "Ġphen": 5554,
      "ĠIll": 5555,
      "ively": 5556,
      "Ġamb": 5557,
      "Ġoutdoor": 5558,
      "Ġarm": 5559,
      "ĠChildren": 5560,
      "OC": 5561,
      "ĠLake": 5562,
      "Ġlux": 5563,
      "Ġowner": 5564,
      "ĠCanadian": 5565,
      "asks": 5566,
      "Ġjew": 5567,
      "ĠDigital": 5568,
      "Ġaren": 5569,
      "Ġelection": 5570,
      "Ġvirtual": 5571,
      "Ġtend": 5572,
      "reens": 5573,
      "Ġ$$": 5574,
      "On": 5575,
      "Ġyield": 5576,
      "Ġhearing": 5577,
      "ĠEqu": 5578,
      "agram": 5579,
      "Ġfract": 5580,
      "ĠBlue": 5581,
      "Ġaf": 5582,
      "Ġ32": 5583,
      "Ġparties": 5584,
      "Ġfashion": 5585,
      "Ġemergency": 5586,
      "ĠAL": 5587,
      "ĠMuseum": 5588,
      "ĠWhether": 5589,
      "obe": 5590,
      "prene": 5591,
      "bre": 5592,
      "yer": 5593,
      "Ġchief": 5594,
      "ĠMult": 5595,
      "duate": 5596,
      "Ġadult": 5597,
      "Ġcolle": 5598,
      "ĠOnly": 5599,
      "den": 5600,
      "ĠTown": 5601,
      "Ġdiscover": 5602,
      "ĠPolicy": 5603,
      "ĠAsia": 5604,
      "Ġcryst": 5605,
      "cho": 5606,
      "ĠMill": 5607,
      "Ġconcerns": 5608,
      "Ġoccup": 5609,
      "Ġingredients": 5610,
      "pective": 5611,
      "ĠPan": 5612,
      "Ġinnovation": 5613,
      "Ġdynamic": 5614,
      "asure": 5615,
      "Ġexamples": 5616,
      "Ġcauses": 5617,
      "reprene": 5618,
      "Ġreducing": 5619,
      "Ġrecording": 5620,
      "Ġclasses": 5621,
      "ĠReviews": 5622,
      "iately": 5623,
      "Ġhab": 5624,
      "ctors": 5625,
      "ĠWestern": 5626,
      "Ġresolution": 5627,
      "ĠContin": 5628,
      "Ġprocedures": 5629,
      "Ġerror": 5630,
      "Ġax": 5631,
      "Ġhar": 5632,
      "Ġresource": 5633,
      "yles": 5634,
      "ĠAcademy": 5635,
      "uable": 5636,
      "Ġ2004": 5637,
      "Ġhundreds": 5638,
      "ĠQual": 5639,
      "Ġhappen": 5640,
      "Ġunf": 5641,
      "Ġ48": 5642,
      "Ġknows": 5643,
      "ĠCam": 5644,
      "Ġconsists": 5645,
      "Ġfilter": 5646,
      "Ġrecords": 5647,
      "Ġfilms": 5648,
      "Ġfilled": 5649,
      "Ġsoil": 5650,
      "Ġratio": 5651,
      "acters": 5652,
      "Ġemph": 5653,
      "Ġcarried": 5654,
      "Ġreceiving": 5655,
      "DS": 5656,
      ".âĢĿ<": 5657,
      "itting": 5658,
      "Ġthank": 5659,
      "Ġproduc": 5660,
      "Ġreliable": 5661,
      "ker": 5662,
      "Ġcapable": 5663,
      "Ġvary": 5664,
      "Ġaffected": 5665,
      "ĠEnvironment": 5666,
      "Ġupper": 5667,
      "ĠJul": 5668,
      "irmed": 5669,
      "rie": 5670,
      "iors": 5671,
      "Ġlib": 5672,
      "ĠAff": 5673,
      "Ġdiscussed": 5674,
      "ategories": 5675,
      "ĠCreat": 5676,
      "west": 5677,
      "ĠType": 5678,
      "Ġaccompl": 5679,
      "Ġexchange": 5680,
      "Ġwindows": 5681,
      "Ġsubjects": 5682,
      "icken": 5683,
      "ĠWho": 5684,
      "Ġweather": 5685,
      "ĠRussian": 5686,
      "ĠChicago": 5687,
      "Ġroot": 5688,
      "Ġmaybe": 5689,
      "mod": 5690,
      "Ġlaser": 5691,
      "kin": 5692,
      "ĠThrough": 5693,
      "Ġgenerated": 5694,
      "%.": 5695,
      "Ġfather": 5696,
      "EG": 5697,
      "ĠPhys": 5698,
      "Ġrecorded": 5699,
      "ĠNov": 5700,
      "Ġlaunched": 5701,
      "Ġcooper": 5702,
      "LA": 5703,
      "Ġweekend": 5704,
      "Ġfruit": 5705,
      "ĠVict": 5706,
      "Ġscript": 5707,
      "Ġhimself": 5708,
      "Ġconsumption": 5709,
      "ĠMicrosoft": 5710,
      "Ġfol": 5711,
      "Ġgolf": 5712,
      "ĠBas": 5713,
      "Ġspend": 5714,
      "Ġplug": 5715,
      "Ġmanner": 5716,
      "Ġcommittee": 5717,
      "Ġmel": 5718,
      "Ġdiagnosis": 5719,
      "onic": 5720,
      "Ġinfrastructure": 5721,
      "ownt": 5722,
      "Un": 5723,
      "Ġmac": 5724,
      "ola": 5725,
      "Ġrepair": 5726,
      "Ġmixed": 5727,
      "orney": 5728,
      "ĠGrand": 5729,
      "esh": 5730,
      "ĠPriv": 5731,
      "Ġcardi": 5732,
      "02": 5733,
      "alls": 5734,
      "Ġmembr": 5735,
      "04": 5736,
      "Ġpal": 5737,
      "Ġsheet": 5738,
      "Ġissued": 5739,
      "fast": 5740,
      "water": 5741,
      "Ġmale": 5742,
      "ĠLED": 5743,
      "ups": 5744,
      "Ġiron": 5745,
      "ench": 5746,
      "ĠParty": 5747,
      "Ġconsumer": 5748,
      "ĠCA": 5749,
      "ĠLeague": 5750,
      "Ġconcrete": 5751,
      "Ġdoctor": 5752,
      "type": 5753,
      "Ġdepth": 5754,
      "ĠDiv": 5755,
      "Ġsalt": 5756,
      "Ġbrows": 5757,
      "opl": 5758,
      "ĠChurch": 5759,
      "text": 5760,
      "ymph": 5761,
      "Ġpartnership": 5762,
      "Ġschedule": 5763,
      "ĠBur": 5764,
      "ĠSoft": 5765,
      "ĠFire": 5766,
      "Ġopened": 5767,
      "Ġequal": 5768,
      "Ġbringing": 5769,
      "ĠNext": 5770,
      "Ġvirus": 5771,
      "reek": 5772,
      "otal": 5773,
      "ĠJos": 5774,
      "Ġju": 5775,
      "Ġ[âĢ¦": 5776,
      "Ġsuccessfully": 5777,
      "08": 5778,
      "Ġconsumers": 5779,
      "CO": 5780,
      "Ġcable": 5781,
      "char": 5782,
      "ĠPerson": 5783,
      "ĠLin": 5784,
      "Ġknew": 5785,
      "Ġmuscle": 5786,
      "03": 5787,
      "For": 5788,
      "Ġconstit": 5789,
      "07": 5790,
      "ĠId": 5791,
      "Ġhighlight": 5792,
      "Ġadvis": 5793,
      "Ġincorpor": 5794,
      "Ġlabel": 5795,
      "Ġ)": 5796,
      "Ġrecommended": 5797,
      "Cont": 5798,
      "aming": 5799,
      "iration": 5800,
      "Ġinfection": 5801,
      "Ġnetworks": 5802,
      "Ġachieved": 5803,
      "iatric": 5804,
      "Ġmice": 5805,
      "Ġdied": 5806,
      "Ġmagnetic": 5807,
      "Ġsav": 5808,
      "ductor": 5809,
      "Ġprovider": 5810,
      "Ġdistrict": 5811,
      "thlet": 5812,
      "Ġplas": 5813,
      "Ġmajority": 5814,
      "Ġrise": 5815,
      "unct": 5816,
      "Ġspending": 5817,
      "Ġcommand": 5818,
      "Ġcompetitive": 5819,
      "ĠGeorge": 5820,
      "pass": 5821,
      "Ġ36": 5822,
      "ĠAdvert": 5823,
      "ĠCH": 5824,
      "sm": 5825,
      "ini": 5826,
      "edy": 5827,
      "Ġgone": 5828,
      "Ġfounded": 5829,
      ">-": 5830,
      "EP": 5831,
      "ĠTre": 5832,
      "ĠMel": 5833,
      "Ġ2001": 5834,
      "uce": 5835,
      "ione": 5836,
      "Ġdaughter": 5837,
      "aren": 5838,
      "ĠJoin": 5839,
      "hemical": 5840,
      "Ġ`": 5841,
      "ĠSecret": 5842,
      ")-": 5843,
      "unction": 5844,
      "Ġdemonstrated": 5845,
      "etry": 5846,
      "Ġagent": 5847,
      "Ġtumor": 5848,
      "Ġlip": 5849,
      "hester": 5850,
      "olar": 5851,
      "agers": 5852,
      "tered": 5853,
      "weight": 5854,
      "Ġalg": 5855,
      "ĠFarm": 5856,
      "^{": 5857,
      "Ġabsol": 5858,
      "Ġarrange": 5859,
      "lets": 5860,
      "Ġdistinct": 5861,
      "Ġinstitutions": 5862,
      "Ġpip": 5863,
      "Ġincome": 5864,
      "Ġcreation": 5865,
      "Ġassistance": 5866,
      "Ġfigure": 5867,
      "ĠCert": 5868,
      "Ġmirr": 5869,
      "ĠPenn": 5870,
      "Ġsamples": 5871,
      "rape": 5872,
      "ĠDou": 5873,
      "riz": 5874,
      "okes": 5875,
      "folio": 5876,
      "bi": 5877,
      "98": 5878,
      "ĠGall": 5879,
      "Ġactions": 5880,
      "rence": 5881,
      "ĠMedicine": 5882,
      "ĠFeatures": 5883,
      "ĠStudies": 5884,
      "Ġfixed": 5885,
      "Ġimmediately": 5886,
      "Ġslightly": 5887,
      "ĠYes": 5888,
      "Ġelectron": 5889,
      "ait": 5890,
      "ĠRussia": 5891,
      "ĠRobert": 5892,
      "Ġcampus": 5893,
      "ena": 5894,
      "Ġregions": 5895,
      "eries": 5896,
      "ĠKore": 5897,
      "Ġmonitoring": 5898,
      "ĠVirgin": 5899,
      "Ġdecades": 5900,
      "Ġworldwide": 5901,
      "Ġeffectively": 5902,
      "Ġagencies": 5903,
      "lay": 5904,
      "ĠAR": 5905,
      "Ġmanaged": 5906,
      "www": 5907,
      "ĠProfessor": 5908,
      "ĠLibrary": 5909,
      "Ġtalking": 5910,
      "build": 5911,
      "Ġcred": 5912,
      "Ġment": 5913,
      "Ġbelie": 5914,
      "ht": 5915,
      "rat": 5916,
      "rating": 5917,
      "ygen": 5918,
      "iders": 5919,
      "Ġsuggested": 5920,
      "Ġteacher": 5921,
      "Ġmostly": 5922,
      "kg": 5923,
      "Ġgift": 5924,
      "ĠOF": 5925,
      "Ġholds": 5926,
      "Ġstick": 5927,
      "ĠAmazon": 5928,
      "Sc": 5929,
      "Ġphotography": 5930,
      "Ġcop": 5931,
      "Ġstreet": 5932,
      "Ġwidely": 5933,
      "Ġbrief": 5934,
      "Ġcharacters": 5935,
      "Ġexciting": 5936,
      "Ġcreates": 5937,
      "Ġfluid": 5938,
      "itness": 5939,
      "roc": 5940,
      "Ġadvent": 5941,
      "Ġappe": 5942,
      "Ġconflic": 5943,
      "ĠAud": 5944,
      "Ġtheory": 5945,
      "Ġgear": 5946,
      "09": 5947,
      "iment": 5948,
      "Ġcontribute": 5949,
      "Ġscholars": 5950,
      "mary": 5951,
      "Ġcandidates": 5952,
      "Ġhistorical": 5953,
      "Ġproducing": 5954,
      "Ġenzym": 5955,
      "Ġagricult": 5956,
      "46": 5957,
      "Ġer": 5958,
      ">..": 5959,
      "Ġdie": 5960,
      "do": 5961,
      "king": 5962,
      "ĠWhere": 5963,
      "Ġrats": 5964,
      "Ġshot": 5965,
      "Ġcrisis": 5966,
      "ĠConnect": 5967,
      "Ġreact": 5968,
      "ĠLos": 5969,
      "Ġtopic": 5970,
      "Ġcommitment": 5971,
      "mosp": 5972,
      "ship": 5973,
      "Ġintellig": 5974,
      "zen": 5975,
      "anges": 5976,
      "ĠAdminist": 5977,
      "Ġfo": 5978,
      "ĠNor": 5979,
      "liance": 5980,
      "Ġsides": 5981,
      "Ġnotes": 5982,
      "ĠWeek": 5983,
      "ĠSmith": 5984,
      "ĠBrand": 5985,
      "igan": 5986,
      "Ġheating": 5987,
      "Ġshut": 5988,
      "Ġauto": 5989,
      "friend": 5990,
      "0000": 5991,
      "Ġflowers": 5992,
      "Ġoriginally": 5993,
      "TH": 5994,
      "Ġframework": 5995,
      "roy": 5996,
      "cean": 5997,
      "ployment": 5998,
      "%,": 5999,
      "ĠWrit": 6000,
      "burg": 6001,
      "ĠSecond": 6002,
      "Ġdiverse": 6003,
      "Ġcleaning": 6004,
      "ĠPhoto": 6005,
      "06": 6006,
      "Ġconv": 6007,
      "Ġoutcomes": 6008,
      "Ġraise": 6009,
      "Ġresulting": 6010,
      "Ġbowl": 6011,
      "name": 6012,
      "Ġintended": 6013,
      "Ġscore": 6014,
      "Ġhus": 6015,
      "Ġprinted": 6016,
      "ĠĠĠĠĠĠĠĠĠĠĠĠĠĠĠĠ": 6017,
      "Ġphil": 6018,
      "ĠIr": 6019,
      "Ġmainly": 6020,
      "Ġnative": 6021,
      "Ġchurch": 6022,
      "aks": 6023,
      "Ġfaculty": 6024,
      "Ġalle": 6025,
      "Ġsport": 6026,
      "Ġjump": 6027,
      "Ġeditor": 6028,
      "ĠLib": 6029,
      "ala": 6030,
      "Ġcalls": 6031,
      "abetes": 6032,
      "Ġdespite": 6033,
      "Ġhelpful": 6034,
      "59": 6035,
      "ĠCard": 6036,
      "Ġprol": 6037,
      "Ġsupports": 6038,
      "word": 6039,
      "ditionally": 6040,
      "========": 6041,
      "Ġcontrolled": 6042,
      "SP": 6043,
      "Ġdetection": 6044,
      "Ġmolecular": 6045,
      "ixture": 6046,
      "omic": 6047,
      "Ġ</": 6048,
      "Ġserving": 6049,
      "ĠWall": 6050,
      "Ġshares": 6051,
      ").<": 6052,
      "inations": 6053,
      "Ġconfidence": 6054,
      "ello": 6055,
      "Ġhappens": 6056,
      "ðŁ": 6057,
      "ĠSize": 6058,
      "Ġmetab": 6059,
      "Ġmotiv": 6060,
      "Ġelev": 6061,
      "istant": 6062,
      "ishing": 6063,
      "Ġgreatest": 6064,
      "Ġcash": 6065,
      "Ġcycle": 6066,
      "Ġsimpl": 6067,
      "ĠControl": 6068,
      "gal": 6069,
      "za": 6070,
      "outs": 6071,
      "Ġremote": 6072,
      "inf": 6073,
      "Ġcommunications": 6074,
      "ĠSpace": 6075,
      "Ġroof": 6076,
      "ocket": 6077,
      "ĠTO": 6078,
      "Ġring": 6079,
      "ĠVideo": 6080,
      "ocyt": 6081,
      "ailability": 6082,
      "42": 6083,
      "Ġchronic": 6084,
      "Ġapproaches": 6085,
      "ua": 6086,
      "ĠMa": 6087,
      "ĠRequ": 6088,
      "Ġawareness": 6089,
      "resents": 6090,
      "Ġattached": 6091,
      "Ġremaining": 6092,
      "ĠRo": 6093,
      "see": 6094,
      "Ġspaces": 6095,
      "Ġassociation": 6096,
      "Ġtank": 6097,
      "Ġswe": 6098,
      "Ġagents": 6099,
      "ĠTem": 6100,
      "Ġarg": 6101,
      "TA": 6102,
      "Ġforces": 6103,
      "ĠDC": 6104,
      "ĠPA": 6105,
      "Ġpositions": 6106,
      "Ġstring": 6107,
      "Ġfunctional": 6108,
      "ĠMP": 6109,
      "Is": 6110,
      "ĠSuch": 6111,
      "ĠWil": 6112,
      "ĠAtl": 6113,
      "Ġsensor": 6114,
      "Ġaffordable": 6115,
      "agon": 6116,
      "ĠBefore": 6117,
      "ĠSP": 6118,
      "Ġloved": 6119,
      "hent": 6120,
      "ĠSearch": 6121,
      "elry": 6122,
      "ĠLo": 6123,
      "ĠOld": 6124,
      "Ġcontrols": 6125,
      "ĠJob": 6126,
      "Ġcoach": 6127,
      "Ġdelay": 6128,
      "ĠSqu": 6129,
      "Ġdisapp": 6130,
      "Ġowned": 6131,
      "Ġfailure": 6132,
      "57": 6133,
      "Ġship": 6134,
      "bur": 6135,
      "ita": 6136,
      "Ġrooms": 6137,
      "emicon": 6138,
      "Ġfamous": 6139,
      "ca": 6140,
      "ainless": 6141,
      "ĠExpl": 6142,
      "Ġneighborhood": 6143,
      "Ġpil": 6144,
      "Ġ+/-": 6145,
      "Ġnutrition": 6146,
      "Ġarchitecture": 6147,
      "FL": 6148,
      "pet": 6149,
      "Ġtransportation": 6150,
      "otherapy": 6151,
      "View": 6152,
      "Ġminor": 6153,
      "ĠSenate": 6154,
      "Ġlifestyle": 6155,
      "ĠEngineering": 6156,
      "How": 6157,
      "Ġ-.": 6158,
      "ĠOrig": 6159,
      "ĠTravel": 6160,
      "ien": 6161,
      "oral": 6162,
      "ĠMax": 6163,
      "ĠClin": 6164,
      "prise": 6165,
      "yth": 6166,
      "ĠBrown": 6167,
      "Ġplays": 6168,
      "Ġlegislation": 6169,
      "how": 6170,
      "ĠDen": 6171,
      "Ġlisten": 6172,
      "otton": 6173,
      "Ġwhatever": 6174,
      "Ġatmosp": 6175,
      "ĠComments": 6176,
      "profit": 6177,
      "ĠBud": 6178,
      "Ġhem": 6179,
      "Ġgenerate": 6180,
      "Ġvert": 6181,
      "ĠSpring": 6182,
      "ĠAmericans": 6183,
      "aneous": 6184,
      "Ġevaluation": 6185,
      "ĠFrank": 6186,
      "Ġrepresents": 6187,
      "Ġnoted": 6188,
      "Ġthread": 6189,
      "Ġride": 6190,
      "but": 6191,
      "ĠIre": 6192,
      "ĠJud": 6193,
      "Ġ2003": 6194,
      "Ġimproving": 6195,
      "Ġbird": 6196,
      "Ġsevere": 6197,
      "Ġboost": 6198,
      "Ġfiber": 6199,
      "car": 6200,
      "EE": 6201,
      "TC": 6202,
      "Ġnan": 6203,
      "ealand": 6204,
      "Ġsyn": 6205,
      "Ġsilver": 6206,
      "Ġmail": 6207,
      "ĠWatch": 6208,
      "ĠAndroid": 6209,
      "ĠÎ": 6210,
      "Ġcloud": 6211,
      "ĠQuest": 6212,
      "ura": 6213,
      "atre": 6214,
      "ECT": 6215,
      "Ġbusy": 6216,
      "Ġpatterns": 6217,
      "Ġdecrease": 6218,
      "ĠFac": 6219,
      "Ġprosp": 6220,
      "ĠAND": 6221,
      "ĠSpanish": 6222,
      "Ġstarts": 6223,
      "]<": 6224,
      "Ġextension": 6225,
      "Ġcelebr": 6226,
      "ificate": 6227,
      "Ġinterests": 6228,
      "Ġhardware": 6229,
      "Ġfrag": 6230,
      "ĠPeter": 6231,
      "ortunately": 6232,
      "ket": 6233,
      "mentation": 6234,
      "ibilities": 6235,
      "luded": 6236,
      "Ġrecognized": 6237,
      "ingu": 6238,
      "ĠArab": 6239,
      "oston": 6240,
      "coin": 6241,
      "43": 6242,
      "orith": 6243,
      "ethyl": 6244,
      "Ġmotion": 6245,
      "Ġinvestigation": 6246,
      "rapeut": 6247,
      "Ġinstance": 6248,
      "Ġsettings": 6249,
      "Ġice": 6250,
      "Ġsugar": 6251,
      "ĠLocation": 6252,
      "Ġcyt": 6253,
      "antic": 6254,
      "ĠExecutive": 6255,
      "born": 6256,
      "lights": 6257,
      "Ġesc": 6258,
      "Ġholiday": 6259,
      "My": 6260,
      "Ġparticipate": 6261,
      "ivalent": 6262,
      "Ġcorner": 6263,
      "Ġtreatments": 6264,
      "anes": 6265,
      "ĠPR": 6266,
      "Ġrepro": 6267,
      "Ġ75": 6268,
      "ĠConference": 6269,
      "Ġexperiment": 6270,
      "Bl": 6271,
      "ev": 6272,
      "Ġgather": 6273,
      "ĠBeach": 6274,
      "Ġforest": 6275,
      "Ġdecreased": 6276,
      "ME": 6277,
      "Ġshall": 6278,
      "ora": 6279,
      "ĠSar": 6280,
      "ressive": 6281,
      "ĠZealand": 6282,
      "Ġmembership": 6283,
      "cher": 6284,
      "ĠMid": 6285,
      "Ġaccel": 6286,
      "Ġcertainly": 6287,
      "Ġpremium": 6288,
      "ĠDev": 6289,
      "Ġprofessor": 6290,
      "Ġsexual": 6291,
      "rance": 6292,
      "writ": 6293,
      "Ðµ": 6294,
      "Ġthin": 6295,
      "Ġneut": 6296,
      "Ġassembly": 6297,
      "Ġjoining": 6298,
      "Ġclosely": 6299,
      "Ġaudience": 6300,
      "Ġol": 6301,
      "Ġcollected": 6302,
      "ĠChris": 6303,
      "Ġvisitors": 6304,
      "Ġliterature": 6305,
      "ĠAngeles": 6306,
      "rency": 6307,
      "aturing": 6308,
      "Ġborder": 6309,
      "Ġprepare": 6310,
      "Ġhospit": 6311,
      "ĠCa": 6312,
      "Ġcoal": 6313,
      "Ġindustries": 6314,
      "Ġfeedback": 6315,
      "Ġsatisf": 6316,
      "ĠRoyal": 6317,
      "OD": 6318,
      "ĠHi": 6319,
      "Ġinvent": 6320,
      "Ġfootball": 6321,
      "Ġconsequ": 6322,
      "opic": 6323,
      "Ad": 6324,
      "Ġbeach": 6325,
      "Ġsuit": 6326,
      "Ġsubsequ": 6327,
      "Ġlisted": 6328,
      "Ġurban": 6329,
      "Ġdesk": 6330,
      "Ġfreed": 6331,
      "Ġradiation": 6332,
      "inity": 6333,
      "Ġbought": 6334,
      "Ġkid": 6335,
      "Ġmarried": 6336,
      "Ġrestaurants": 6337,
      "Ġsessions": 6338,
      "ĠTrust": 6339,
      "Ġfamiliar": 6340,
      "Ġfantastic": 6341,
      "CP": 6342,
      "lines": 6343,
      "Ġnit": 6344,
      "Ġstability": 6345,
      "Ġassum": 6346,
      "Ġfollows": 6347,
      "stone": 6348,
      "Ġliver": 6349,
      "Ġdial": 6350,
      "Ġdish": 6351,
      "Ġtypical": 6352,
      "Ġfocuses": 6353,
      "ĠAvailable": 6354,
      "Ġevaluate": 6355,
      "Ð¾": 6356,
      "ander": 6357,
      "ĠItaly": 6358,
      "ĠArea": 6359,
      "Ġmagazine": 6360,
      "Ð°": 6361,
      "amil": 6362,
      "Ġdogs": 6363,
      "()": 6364,
      "idering": 6365,
      "Ġperman": 6366,
      "print": 6367,
      "Ġthoughts": 6368,
      "Ġcollaboration": 6369,
      "ias": 6370,
      "Ġmuseum": 6371,
      "Ġnotice": 6372,
      "Ġapparent": 6373,
      "Ġminim": 6374,
      "ĠMiddle": 6375,
      "Ġcovers": 6376,
      "Ġplanned": 6377,
      "Ã³": 6378,
      "Ġbutton": 6379,
      "Ġexpansion": 6380,
      "Ġconfirmed": 6381,
      "orough": 6382,
      "ĠLtd": 6383,
      "Ġdecade": 6384,
      "induced": 6385,
      "Ġconsistent": 6386,
      "brid": 6387,
      "Ġvaluable": 6388,
      "Ġelimin": 6389,
      "Ġrestaurant": 6390,
      "Ġsigns": 6391,
      "azz": 6392,
      "To": 6393,
      "Ġmilk": 6394,
      "ella": 6395,
      "ĠWorks": 6396,
      "Ġresponses": 6397,
      "Ġhousehold": 6398,
      "ĠPS": 6399,
      "Ġlovely": 6400,
      "alled": 6401,
      "41": 6402,
      "bal": 6403,
      "math": 6404,
      "Ġrule": 6405,
      "itar": 6406,
      "Ġhttp": 6407,
      "FA": 6408,
      "charge": 6409,
      "Ġdiscount": 6410,
      "Ġhandling": 6411,
      "Ġclearly": 6412,
      "Ġwave": 6413,
      "osoph": 6414,
      "Ġlose": 6415,
      "Ġbeer": 6416,
      "rize": 6417,
      "Ġampl": 6418,
      "Ġcovering": 6419,
      "zil": 6420,
      "Ġchosen": 6421,
      "ĠItalian": 6422,
      "intage": 6423,
      "~~": 6424,
      "Ġdescription": 6425,
      "Ġseeing": 6426,
      "Ġcontainer": 6427,
      "Ġicon": 6428,
      "ulum": 6429,
      "Ġappeal": 6430,
      "ĠParis": 6431,
      "osit": 6432,
      "Ġvess": 6433,
      "Ġexpressed": 6434,
      "Ġphotograp": 6435,
      "irms": 6436,
      "Ġrecipe": 6437,
      "ĠKn": 6438,
      "Ġinvestors": 6439,
      "ĠÂ©": 6440,
      "Ġcontinuous": 6441,
      "Ġhusband": 6442,
      "Ġmusical": 6443,
      "ystem": 6444,
      "Ġkept": 6445,
      "Ġauthors": 6446,
      "Ġpresentation": 6447,
      "made": 6448,
      "Ġheav": 6449,
      "Ġinfect": 6450,
      "ĠResp": 6451,
      "Ġdensity": 6452,
      "ĠRoom": 6453,
      "ĠMexico": 6454,
      "lymp": 6455,
      "Ġsolve": 6456,
      "Ġcrow": 6457,
      "Ġrevenue": 6458,
      "Ġleaving": 6459,
      "Ġserves": 6460,
      "Ġvariable": 6461,
      "Ġfly": 6462,
      "Ġsensitive": 6463,
      "Ġmechanisms": 6464,
      "ĠIreland": 6465,
      "ĠWH": 6466,
      "ĠThomas": 6467,
      "Ġmounted": 6468,
      "emiconductor": 6469,
      "level": 6470,
      "Ġindicate": 6471,
      "Ġconversation": 6472,
      "ĠCr": 6473,
      "Ġimaging": 6474,
      "Ġuns": 6475,
      "Ġcatch": 6476,
      "ĠBoston": 6477,
      "ĠFair": 6478,
      "Ġexposed": 6479,
      "ĠCarolina": 6480,
      "ii": 6481,
      "Ġsto": 6482,
      "Ġbuying": 6483,
      "Ġselling": 6484,
      "ĠWay": 6485,
      "ĠLouis": 6486,
      "PM": 6487,
      "Ġsink": 6488,
      "Ġwal": 6489,
      "ĠDu": 6490,
      "ĠProper": 6491,
      "ĠGuide": 6492,
      "Ġcoupl": 6493,
      "ĠBuilding": 6494,
      "Ġgun": 6495,
      "ersion": 6496,
      "Ġincreasingly": 6497,
      "Ġlandscape": 6498,
      "bec": 6499,
      "ĠHelp": 6500,
      "Ġdose": 6501,
      "Ġongoing": 6502,
      "Ġmanaging": 6503,
      "athy": 6504,
      "Ġstrategic": 6505,
      "ĠFinancial": 6506,
      "Ġsurrounding": 6507,
      "QL": 6508,
      "ĠNon": 6509,
      "reatment": 6510,
      "bar": 6511,
      "iform": 6512,
      "Ġmechanical": 6513,
      "Ġworry": 6514,
      "ĠUl": 6515,
      "Ġscheduled": 6516,
      "ĠVictor": 6517,
      "Ġnom": 6518,
      "Ġstable": 6519,
      "ĠPract": 6520,
      "Ġlooked": 6521,
      "Ġpreparation": 6522,
      "Ġinflamm": 6523,
      "Ġmissing": 6524,
      ";.": 6525,
      "Te": 6526,
      "iary": 6527,
      "olved": 6528,
      "Ġanc": 6529,
      "Ġphotograph": 6530,
      "Ġidentity": 6531,
      "Ġpleased": 6532,
      "Ġparameters": 6533,
      "osa": 6534,
      "ims": 6535,
      "ĠChief": 6536,
      "Ġlinked": 6537,
      "Ġbinding": 6538,
      "ums": 6539,
      "ĠOS": 6540,
      "Ġenables": 6541,
      "ĠPac": 6542,
      "Ġrough": 6543,
      "Ġposted": 6544,
      "Ġbrother": 6545,
      "Ġpercentage": 6546,
      "df": 6547,
      "Ġreform": 6548,
      "Ġ150": 6549,
      "ĠJeff": 6550,
      "Ġcy": 6551,
      "Ġinduced": 6552,
      "uries": 6553,
      "ifts": 6554,
      "ogue": 6555,
      "ĠJim": 6556,
      "kins": 6557,
      "requ": 6558,
      "Ġupdates": 6559,
      "********": 6560,
      "Ġopinion": 6561,
      "ĠPrior": 6562,
      "Ġ37": 6563,
      "Ġflight": 6564,
      "86": 6565,
      "Ġfell": 6566,
      "ĠNa": 6567,
      "ĠON": 6568,
      "Ġbutter": 6569,
      "Ġ65": 6570,
      "bra": 6571,
      "ĠRef": 6572,
      "Ġproperly": 6573,
      "Ġtut": 6574,
      "Ġupcoming": 6575,
      "poses": 6576,
      "Ġbridge": 6577,
      "Ġrig": 6578,
      "Ġsomew": 6579,
      "anda": 6580,
      "Ġads": 6581,
      "Ġsurgical": 6582,
      "##": 6583,
      "ĠBal": 6584,
      "ĠBlog": 6585,
      "ĠConsult": 6586,
      "Ġargu": 6587,
      "ĠChair": 6588,
      "lude": 6589,
      "stream": 6590,
      "Ġresponsibility": 6591,
      "Ġinvestigated": 6592,
      "Ġfrequently": 6593,
      "Ġearned": 6594,
      "arp": 6595,
      "ĠComple": 6596,
      "while": 6597,
      "Ġgrade": 6598,
      "Ġcontemporary": 6599,
      "Ġmodule": 6600,
      "Ġminute": 6601,
      "Ġdance": 6602,
      "uls": 6603,
      "Ġresidential": 6604,
      "Ġoperate": 6605,
      "ĠFestival": 6606,
      "Ġestimated": 6607,
      "Ġpig": 6608,
      "ĠCP": 6609,
      "Ġsequence": 6610,
      "ĠEp": 6611,
      "ĠUt": 6612,
      "Ġarter": 6613,
      "enced": 6614,
      "Ġfoundation": 6615,
      "Ġwriter": 6616,
      "ĠMarketing": 6617,
      "pack": 6618,
      "ĠSS": 6619,
      "ĠPage": 6620,
      "Ġmaintaining": 6621,
      "ĠVer": 6622,
      "Ġ2002": 6623,
      "VD": 6624,
      "Ġinterface": 6625,
      "Ġ33": 6626,
      "ĠPrint": 6627,
      "Ġregularly": 6628,
      "ĠPrem": 6629,
      "ĠKeep": 6630,
      "Ġfle": 6631,
      "ĠSystems": 6632,
      "Ġworkshop": 6633,
      "Ġproposal": 6634,
      "Ġwet": 6635,
      "ĠMD": 6636,
      "ĠWild": 6637,
      "Ġnegot": 6638,
      "Ġoxid": 6639,
      "97": 6640,
      "ĠEnt": 6641,
      "Ġnoise": 6642,
      "Ġcommonly": 6643,
      "ector": 6644,
      "ĠColumb": 6645,
      "Ġregistered": 6646,
      "da": 6647,
      "file": 6648,
      "Ġstret": 6649,
      "ĠBed": 6650,
      "ĠLink": 6651,
      "Ġtea": 6652,
      "Ġputting": 6653,
      "ersey": 6654,
      "Ġign": 6655,
      "ĠEst": 6656,
      "Ġmeant": 6657,
      "Ġperhaps": 6658,
      "Ġentreprene": 6659,
      "Ġdirected": 6660,
      "ĠPartners": 6661,
      "ĠFurthermore": 6662,
      "Ġreplacement": 6663,
      "Ġwireless": 6664,
      "Ġban": 6665,
      "ĠThree": 6666,
      "plant": 6667,
      "Ġevening": 6668,
      "ĠIL": 6669,
      "ĠMA": 6670,
      "Ġguy": 6671,
      "Ġscientists": 6672,
      "Ġalgorith": 6673,
      "Ġ?": 6674,
      "Ġbear": 6675,
      "Ġhumans": 6676,
      "arsh": 6677,
      "Ġelectricity": 6678,
      "Ġmist": 6679,
      "oding": 6680,
      "eller": 6681,
      "Ġcouldn": 6682,
      "Ġdescribes": 6683,
      "Ġincredible": 6684,
      "ĠCost": 6685,
      "ĠMaterial": 6686,
      "asts": 6687,
      "ĠCho": 6688,
      "ATE": 6689,
      "icial": 6690,
      "Ġobvious": 6691,
      "Ġawarded": 6692,
      "ĠTour": 6693,
      "ĠNOT": 6694,
      "Ġeveryday": 6695,
      "inar": 6696,
      "ĠEr": 6697,
      "Ġtalent": 6698,
      ">[": 6699,
      "Ġmine": 6700,
      "riers": 6701,
      "Ġtwice": 6702,
      "Ġgarage": 6703,
      "Ġcopper": 6704,
      "itle": 6705,
      "ĠOk": 6706,
      "ucky": 6707,
      "urse": 6708,
      "inton": 6709,
      "orters": 6710,
      "Ġlit": 6711,
      "Ġnine": 6712,
      "Ġstone": 6713,
      "Ġsuperior": 6714,
      "owntown": 6715,
      "igible": 6716,
      "Ġportfolio": 6717,
      "grade": 6718,
      "otes": 6719,
      "ĠMer": 6720,
      "cious": 6721,
      "oh": 6722,
      "Ġlens": 6723,
      "Ġcloser": 6724,
      "mun": 6725,
      "vas": 6726,
      "Ġpure": 6727,
      "Ġmini": 6728,
      "Ġexcess": 6729,
      "Ġcategory": 6730,
      "amics": 6731,
      "ERS": 6732,
      "51": 6733,
      "All": 6734,
      "gs": 6735,
      "Ġscene": 6736,
      "ĠPlace": 6737,
      "Ġgate": 6738,
      "Ġbike": 6739,
      "hand": 6740,
      "ns": 6741,
      "Ġrug": 6742,
      "Ġpurposes": 6743,
      "Ġaccurate": 6744,
      "Ġburn": 6745,
      "amine": 6746,
      "ĠOil": 6747,
      "ĠIsl": 6748,
      "esterday": 6749,
      "eta": 6750,
      "case": 6751,
      "gar": 6752,
      "ĠRest": 6753,
      "Ġended": 6754,
      "Ġprotected": 6755,
      "Ġhyd": 6756,
      "When": 6757,
      "ĠTerm": 6758,
      "ĠMade": 6759,
      "Ġproteins": 6760,
      "Ġfigures": 6761,
      "Ġcro": 6762,
      "ĠCS": 6763,
      "ĠEvent": 6764,
      "87": 6765,
      "Ġawards": 6766,
      "EST": 6767,
      "owned": 6768,
      "Ġplatforms": 6769,
      "Ġautomatically": 6770,
      "Ġsurvival": 6771,
      "Ġscheme": 6772,
      "Ġrubber": 6773,
      "Ġcomposition": 6774,
      "ĠJava": 6775,
      "Ġholding": 6776,
      "ĠProducts": 6777,
      "new": 6778,
      "chain": 6779,
      "Ġpros": 6780,
      "Ġalumin": 6781,
      "Ġzone": 6782,
      "Ġchannels": 6783,
      "ĠFrancisco": 6784,
      "can": 6785,
      "Ġpin": 6786,
      "uting": 6787,
      "ĠMic": 6788,
      "Ġresid": 6789,
      "Ġtruck": 6790,
      "Ġsatisfact": 6791,
      "FC": 6792,
      "irable": 6793,
      "ÃŃ": 6794,
      "ĠJun": 6795,
      "Ġexplain": 6796,
      "Ġobjective": 6797,
      "ĠAdvertise": 6798,
      "greg": 6799,
      "Ġsemiconductor": 6800,
      "itely": 6801,
      "Ġengagement": 6802,
      "Ġsan": 6803,
      "ĠCross": 6804,
      "Ġstars": 6805,
      "Ġsufficient": 6806,
      "Ġadop": 6807,
      "Ġdevelopers": 6808,
      "$,": 6809,
      "liament": 6810,
      "Ġcomparison": 6811,
      "ĠAwards": 6812,
      "Ġentertain": 6813,
      "Ġsurfaces": 6814,
      "Ġstyles": 6815,
      "merce": 6816,
      "Ġfee": 6817,
      "ĠGeorg": 6818,
      "Ġexecut": 6819,
      "'.": 6820,
      "Ġmur": 6821,
      "ady": 6822,
      "Ġcommission": 6823,
      "Ġremoval": 6824,
      "Ġfailed": 6825,
      "ĠSafety": 6826,
      "Americ": 6827,
      "iology": 6828,
      "Ġseed": 6829,
      "Ġages": 6830,
      "ĠColorado": 6831,
      "ĠMartin": 6832,
      "scribe": 6833,
      "atile": 6834,
      "ĠGame": 6835,
      "oking": 6836,
      "ensed": 6837,
      "Ġmatters": 6838,
      "ĠHotel": 6839,
      "ĠCult": 6840,
      "xi": 6841,
      "erts": 6842,
      "Ġdinner": 6843,
      "Ġchrom": 6844,
      "ĠâĤ¬": 6845,
      "Ġmold": 6846,
      "antly": 6847,
      "eech": 6848,
      "Ġpipe": 6849,
      "ĠMen": 6850,
      "rich": 6851,
      "astern": 6852,
      "Ġlung": 6853,
      "HT": 6854,
      "lock": 6855,
      "Ġdesire": 6856,
      "Ġequivalent": 6857,
      "Ġ_": 6858,
      "ether": 6859,
      "ĠGar": 6860,
      "Ġoutstanding": 6861,
      "Ġregulations": 6862,
      "Ġdiameter": 6863,
      "Ġfreedom": 6864,
      "Ġwealth": 6865,
      "Ġproven": 6866,
      "Ġwouldn": 6867,
      "CL": 6868,
      "utional": 6869,
      "ĠFederal": 6870,
      "Ġinstrument": 6871,
      "Ġrein": 6872,
      "ĠOhio": 6873,
      "Ġmit": 6874,
      "Ġtrained": 6875,
      "Ġcoast": 6876,
      "ĠYoung": 6877,
      "Ġlayers": 6878,
      "Ġcataly": 6879,
      "Ġoxygen": 6880,
      "Ġcounsel": 6881,
      "63": 6882,
      "Ġstyl": 6883,
      "ĠHD": 6884,
      "ĠOlymp": 6885,
      "Ġassets": 6886,
      "Ġapproval": 6887,
      "Ġsuggests": 6888,
      "Ġbrands": 6889,
      "Ġenhanced": 6890,
      "Ġcelebrate": 6891,
      "Ġtaught": 6892,
      "ĠLive": 6893,
      "Ġprinting": 6894,
      "Ġourselves": 6895,
      "formance": 6896,
      "Ġdiabetes": 6897,
      "Ġrecognition": 6898,
      "Ġroles": 6899,
      "vironments": 6900,
      "lishing": 6901,
      "ĠTen": 6902,
      "Ġgap": 6903,
      "Ġsecondary": 6904,
      "poration": 6905,
      "ĠVirginia": 6906,
      "lete": 6907,
      "Ġqualified": 6908,
      "Ġreferred": 6909,
      "Ġextended": 6910,
      "Ġdepart": 6911,
      "53": 6912,
      "Ġstake": 6913,
      "Ġdollars": 6914,
      "Ġterror": 6915,
      "Ġspeech": 6916,
      "Ġblocks": 6917,
      "Ġsections": 6918,
      "Ġbone": 6919,
      "Ġorganis": 6920,
      "Ġswim": 6921,
      "Ġfeatured": 6922,
      "utch": 6923,
      "Ġnursing": 6924,
      "inem": 6925,
      "Ġdrivers": 6926,
      "ban": 6927,
      "ĠSouthern": 6928,
      "uma": 6929,
      "Ġpublication": 6930,
      "utely": 6931,
      "Ġpresents": 6932,
      "Ġdemonstrate": 6933,
      "Ġrecipes": 6934,
      "RI": 6935,
      "Ġtape": 6936,
      "Ġcompl": 6937,
      "aked": 6938,
      "Ġveter": 6939,
      "ĠAccount": 6940,
      "Ġshoes": 6941,
      "ĠBit": 6942,
      "iox": 6943,
      "ĠBrazil": 6944,
      "Ġbegins": 6945,
      "Ġbelieves": 6946,
      "Ġwest": 6947,
      "ĠDub": 6948,
      "ĠModel": 6949,
      "rapeutic": 6950,
      "mes": 6951,
      "Ġgender": 6952,
      "Ġstack": 6953,
      "ĠPo": 6954,
      "Ġouter": 6955,
      "Ġpackages": 6956,
      "ĠSenior": 6957,
      "Ġwidth": 6958,
      "oto": 6959,
      "Ġshock": 6960,
      "pload": 6961,
      "Ġfees": 6962,
      "Res": 6963,
      "Ġcompounds": 6964,
      "rics": 6965,
      "Ġgoods": 6966,
      "Ġpackaging": 6967,
      "Ġaccounts": 6968,
      "ira": 6969,
      "ignment": 6970,
      "ĠKnow": 6971,
      "Ġspeaking": 6972,
      "Ġcas": 6973,
      "luding": 6974,
      "Ġsignals": 6975,
      "Ġdelicious": 6976,
      "Ġengage": 6977,
      "Ġaimed": 6978,
      "ython": 6979,
      "Ġmarked": 6980,
      "Ġguys": 6981,
      "Ġtemplate": 6982,
      "Ġjewelry": 6983,
      "ĠStock": 6984,
      "cover": 6985,
      "Ġpayments": 6986,
      "cin": 6987,
      "Ġfro": 6988,
      "Ġeating": 6989,
      "PC": 6990,
      "ĠMike": 6991,
      "Ġadopt": 6992,
      "Ġparticles": 6993,
      "Ġmembrane": 6994,
      "(\"": 6995,
      "itivity": 6996,
      "ĠCast": 6997,
      "eph": 6998,
      "Ġtransp": 6999,
      "Ġprotocol": 7000,
      "ĠSports": 7001,
      "ylv": 7002,
      "Ġintroduction": 7003,
      "ĠMembers": 7004,
      "ĠTru": 7005,
      "ĠIran": 7006,
      "ĠPoint": 7007,
      "ĠOR": 7008,
      "Ġtrig": 7009,
      "Ġrestrict": 7010,
      "Ġwheel": 7011,
      "Ġteach": 7012,
      "Ġwaiting": 7013,
      "elect": 7014,
      "Ġdesigner": 7015,
      "Ġwinning": 7016,
      "Ġpodcast": 7017,
      "Ġsuc": 7018,
      "Ġteeth": 7019,
      "Ġskill": 7020,
      "operative": 7021,
      "Âł": 7022,
      "Ġanywhere": 7023,
      "Ġrisks": 7024,
      "Ġasking": 7025,
      "Ġprinciples": 7026,
      "EX": 7027,
      "Ġremark": 7028,
      "va": 7029,
      "Ġstre": 7030,
      "Ġedition": 7031,
      "ĠCup": 7032,
      "Ġreceptor": 7033,
      "tle": 7034,
      "uana": 7035,
      "Ã¼": 7036,
      "rolog": 7037,
      "Ġrelief": 7038,
      "ĠScot": 7039,
      "ĠPlus": 7040,
      "ighter": 7041,
      "ĠKen": 7042,
      "Ġinsert": 7043,
      "Ġappeared": 7044,
      "icide": 7045,
      "Ġlymph": 7046,
      "ĠWord": 7047,
      "ĠFIG": 7048,
      "No": 7049,
      "ĠHor": 7050,
      "ĠNorthern": 7051,
      "Ġspin": 7052,
      "gers": 7053,
      "ĠLat": 7054,
      "Ġhonor": 7055,
      "Ġviolence": 7056,
      "56": 7057,
      "hop": 7058,
      "Ġpor": 7059,
      "Ġfif": 7060,
      "ĠLu": 7061,
      "Ġfitness": 7062,
      "ĠSales": 7063,
      "ĠBox": 7064,
      "Ġlect": 7065,
      "ĠVe": 7066,
      "Ġinitiative": 7067,
      "ĠHope": 7068,
      "Ġenvironments": 7069,
      "ostic": 7070,
      ".\"<": 7071,
      "ĠClean": 7072,
      "Ġwebs": 7073,
      "Ġwalking": 7074,
      "VID": 7075,
      "iest": 7076,
      "rings": 7077,
      "Ġaer": 7078,
      "Ġdeals": 7079,
      "idth": 7080,
      "Ġtrends": 7081,
      "96": 7082,
      "ocation": 7083,
      "Ġplenty": 7084,
      "ĠCON": 7085,
      "ĠPsych": 7086,
      "ĠHon": 7087,
      "Ġlessons": 7088,
      "ĠMeet": 7089,
      "which": 7090,
      "Ġexperiments": 7091,
      "ĠTable": 7092,
      "uses": 7093,
      "Ġfinance": 7094,
      "}\\": 7095,
      "Ġtight": 7096,
      "ĠCook": 7097,
      "Ġblend": 7098,
      "Ġdomestic": 7099,
      "ati": 7100,
      "Ġaccessories": 7101,
      "ĠAbstract": 7102,
      "With": 7103,
      "hire": 7104,
      "âĢ³": 7105,
      "ĠHard": 7106,
      "Ġcompens": 7107,
      "ĠProcess": 7108,
      "Ġloan": 7109,
      "Ġstored": 7110,
      "ĠMobile": 7111,
      "ĠName": 7112,
      "ĠGal": 7113,
      "ĠLocal": 7114,
      "test": 7115,
      "Ġtube": 7116,
      "appy": 7117,
      "yers": 7118,
      "ĠGames": 7119,
      "Ġotherwise": 7120,
      "ĠFilm": 7121,
      "Ġtough": 7122,
      "Ġchart": 7123,
      "Ġconsidering": 7124,
      "Ġbiological": 7125,
      "Ġmentioned": 7126,
      "person": 7127,
      "Ġbench": 7128,
      "asters": 7129,
      "Ġforget": 7130,
      "ĠMap": 7131,
      "Ġcompat": 7132,
      "Ġtasks": 7133,
      "ĠOx": 7134,
      "Description": 7135,
      "Le": 7136,
      "ĠStory": 7137,
      "Ġguess": 7138,
      "Ġperforming": 7139,
      "Ġactivation": 7140,
      "Ġfacing": 7141,
      "Ġexamined": 7142,
      "ĠTransport": 7143,
      "App": 7144,
      "ÑĤ": 7145,
      "Ġmeal": 7146,
      "Ġvisiting": 7147,
      "ĠTele": 7148,
      "Ġdelight": 7149,
      "ĠAp": 7150,
      "ĠSmall": 7151,
      "Ġconcentrations": 7152,
      "Sp": 7153,
      "Ġmixture": 7154,
      "lements": 7155,
      "Ġlived": 7156,
      "ĠThose": 7157,
      "Ġeventually": 7158,
      "Ġperspective": 7159,
      "front": 7160,
      "Ġshift": 7161,
      "Ġindepend": 7162,
      "ĠColl": 7163,
      "ĠLearning": 7164,
      "Ġluxury": 7165,
      "Ġcos": 7166,
      "Ġdraft": 7167,
      "Ġturns": 7168,
      "ĠRichard": 7169,
      "ĠMcC": 7170,
      "Ġoutcome": 7171,
      "Ġscreening": 7172,
      "ĠPH": 7173,
      "Ġ400": 7174,
      "Ġdriven": 7175,
      "Ġdang": 7176,
      "Ġstages": 7177,
      "ĠHaw": 7178,
      "Ġsymbol": 7179,
      "bin": 7180,
      "ĠJon": 7181,
      "holders": 7182,
      "Ġathlet": 7183,
      "ĠCR": 7184,
      "ĠImage": 7185,
      "Ġcorresponding": 7186,
      "Ġhook": 7187,
      "Ġthr": 7188,
      "idden": 7189,
      "Ġmachines": 7190,
      "ls": 7191,
      "ushed": 7192,
      "ĠCirc": 7193,
      "Ġdiscovered": 7194,
      "Ġcompliance": 7195,
      "Ġcream": 7196,
      "dered": 7197,
      "Ġstructural": 7198,
      "Ġmassive": 7199,
      "Ġrecyc": 7200,
      "ools": 7201,
      "Ġjustice": 7202,
      "Ġattrib": 7203,
      "Ġcenters": 7204,
      "ATION": 7205,
      "ĠMichigan": 7206,
      "Ġregistration": 7207,
      "Ġchicken": 7208,
      "izer": 7209,
      "Ġneuro": 7210,
      "Ġdispl": 7211,
      "Ġcoordin": 7212,
      "Ġcarefully": 7213,
      "iral": 7214,
      "Ġorient": 7215,
      "ĠNeed": 7216,
      "ĠSummer": 7217,
      "esome": 7218,
      "quality": 7219,
      "ĠCond": 7220,
      "obby": 7221,
      "Ġinvolving": 7222,
      "Ġmarriage": 7223,
      "Ġoccasion": 7224,
      "achelor": 7225,
      "hus": 7226,
      "Ġbodies": 7227,
      "ethod": 7228,
      "Ġterminal": 7229,
      "Ġmenu": 7230,
      "Ġcooling": 7231,
      "Ġtoler": 7232,
      "Ġconfirm": 7233,
      "Ġbasket": 7234,
      "Ġpanels": 7235,
      "Ġguidelines": 7236,
      "58": 7237,
      "Ġgast": 7238,
      "ĠBased": 7239,
      "Ġcompact": 7240,
      "RNA": 7241,
      "onal": 7242,
      "ĠPop": 7243,
      "ĠGarden": 7244,
      "sole": 7245,
      "Ġvalve": 7246,
      "Ġconcerned": 7247,
      "Ġhistoric": 7248,
      "Ġmeetings": 7249,
      "Ġdealing": 7250,
      "Ġrepresented": 7251,
      "ĠApplication": 7252,
      "sq": 7253,
      "Ġtip": 7254,
      "ĠAvenue": 7255,
      "ĠSelect": 7256,
      "Ġauthent": 7257,
      "Ġhappened": 7258,
      "ocument": 7259,
      "Ġguidance": 7260,
      "Col": 7261,
      "Ġreput": 7262,
      "Ġregulation": 7263,
      "Ġreporting": 7264,
      "Ġexplained": 7265,
      "host": 7266,
      "Ġdining": 7267,
      "Ġinteraction": 7268,
      "Ġgirls": 7269,
      "52": 7270,
      "OU": 7271,
      "pret": 7272,
      "Ġdiversity": 7273,
      "rogen": 7274,
      "Ġnor": 7275,
      "Ġ38": 7276,
      "Ġfeeling": 7277,
      "ijuana": 7278,
      "Ġplasma": 7279,
      "ĠSecretary": 7280,
      "uster": 7281,
      "etime": 7282,
      "ĠChampions": 7283,
      "Ġprevention": 7284,
      "Ġinstructions": 7285,
      "BI": 7286,
      "upp": 7287,
      "Ġtag": 7288,
      "ĠWal": 7289,
      "Ġbio": 7290,
      "ĠPass": 7291,
      "Ġguest": 7292,
      "Ġrapidly": 7293,
      "organ": 7294,
      "ulous": 7295,
      "Ġexperimental": 7296,
      "Ġepisode": 7297,
      "ĠFort": 7298,
      "Ġmessages": 7299,
      "Ġabuse": 7300,
      "ensus": 7301,
      "Ġinvolves": 7302,
      "ĠProfessional": 7303,
      "Ġmoist": 7304,
      "NS": 7305,
      "olve": 7306,
      "ĠWin": 7307,
      "endar": 7308,
      "Ġarrest": 7309,
      "Ġcausing": 7310,
      "Ġemotional": 7311,
      "oz": 7312,
      "acc": 7313,
      "Ġchallenging": 7314,
      "eding": 7315,
      "ĠWalk": 7316,
      "ardens": 7317,
      "Ġquiet": 7318,
      "Ġmonthly": 7319,
      "Ġcrypt": 7320,
      "Ġmirror": 7321,
      "ĠCoast": 7322,
      "Ġconvenient": 7323,
      "kes": 7324,
      "Ġaccessible": 7325,
      "iner": 7326,
      "ĠMur": 7327,
      "Ġdebt": 7328,
      "________________": 7329,
      "ref": 7330,
      "001": 7331,
      "anguages": 7332,
      "itud": 7333,
      "ĠSH": 7334,
      "ĠIde": 7335,
      "ĠBoy": 7336,
      "Ġchoices": 7337,
      "ĠStudy": 7338,
      "ĠCourse": 7339,
      "Ġaccepted": 7340,
      "Ġuniversities": 7341,
      "ĠLabor": 7342,
      "umes": 7343,
      "Ġcompare": 7344,
      "Ġgenes": 7345,
      "Ġhouses": 7346,
      "ĠVisit": 7347,
      "Ġrain": 7348,
      "ĠJustice": 7349,
      "Be": 7350,
      "Ġorganized": 7351,
      "ĠStrateg": 7352,
      "Ġtech": 7353,
      "rooms": 7354,
      "ĠMean": 7355,
      "osophy": 7356,
      "Ġtherap": 7357,
      "orld": 7358,
      "ormal": 7359,
      "Ġplanet": 7360,
      "ĠRepublican": 7361,
      "Ġadvertising": 7362,
      "words": 7363,
      "Ġease": 7364,
      "using": 7365,
      "ĠCT": 7366,
      "Ġisolated": 7367,
      "rint": 7368,
      "ĠConc": 7369,
      "iki": 7370,
      "ĠAgency": 7371,
      "Ġtemperatures": 7372,
      "Ġlicense": 7373,
      "oly": 7374,
      "Ġstunning": 7375,
      "ulator": 7376,
      "Ġ42": 7377,
      "Ġconfiguration": 7378,
      "mond": 7379,
      "berry": 7380,
      "Ġsupplies": 7381,
      "Ġcorrel": 7382,
      "Ġpolymer": 7383,
      "ĠBrook": 7384,
      "uzz": 7385,
      "Ġstations": 7386,
      "Ġinteract": 7387,
      "Ġfoods": 7388,
      "Ġimmune": 7389,
      "Ġbottle": 7390,
      "Ġregulatory": 7391,
      "Ġnuclear": 7392,
      "Ġfellow": 7393,
      "oted": 7394,
      "Ġbeta": 7395,
      "Ġthermal": 7396,
      "Ġwel": 7397,
      "ĠPak": 7398,
      "Ġevolution": 7399,
      "Ġriver": 7400,
      "ĠJe": 7401,
      "Ġkill": 7402,
      "cut": 7403,
      "Ġmob": 7404,
      "ĠEnjoy": 7405,
      "Ġcooking": 7406,
      "Ġcarrying": 7407,
      "ĠFour": 7408,
      "Ġvul": 7409,
      "Ġdescribe": 7410,
      "\">": 7411,
      "Don": 7412,
      "Ġlists": 7413,
      "ĠLow": 7414,
      "Ġdoctors": 7415,
      "Ġportable": 7416,
      "Ġhopes": 7417,
      "aft": 7418,
      "Ġ....": 7419,
      "Ġchapter": 7420,
      "Ġobst": 7421,
      "54": 7422,
      "ologist": 7423,
      "Ġinvestigate": 7424,
      "ĠCase": 7425,
      "ials": 7426,
      "Ġcann": 7427,
      "Ġemployee": 7428,
      "Ġreb": 7429,
      "ĠResources": 7430,
      "Ġsongs": 7431,
      "Ġtall": 7432,
      "ĠHIV": 7433,
      "ells": 7434,
      "Ġatmosphere": 7435,
      "Ġtrib": 7436,
      "icing": 7437,
      "Ġkin": 7438,
      "ĠExternal": 7439,
      "ĠLevel": 7440,
      "Ġfavour": 7441,
      "EA": 7442,
      "Ġpainting": 7443,
      "umni": 7444,
      "iot": 7445,
      "lywood": 7446,
      "oga": 7447,
      "Ġwilling": 7448,
      "Ġtrad": 7449,
      "ĠAsian": 7450,
      "being": 7451,
      "iler": 7452,
      "eck": 7453,
      "ĠArticle": 7454,
      "Ġtack": 7455,
      "Ġcake": 7456,
      "ĠIra": 7457,
      "ĠCancer": 7458,
      "uling": 7459,
      "Ġkick": 7460,
      "Ġmeasurement": 7461,
      "atics": 7462,
      "ĠFar": 7463,
      "Ġelected": 7464,
      "makers": 7465,
      "amental": 7466,
      "Ġcharged": 7467,
      "Ġexplains": 7468,
      "Ġofficer": 7469,
      "Ġlegisl": 7470,
      "ĠPacific": 7471,
      "ãģ": 7472,
      "isters": 7473,
      "Ġbrown": 7474,
      "ĠKar": 7475,
      "Ġmand": 7476,
      "rot": 7477,
      "Ġairport": 7478,
      "ĠSteve": 7479,
      "Ġbacteria": 7480,
      "oric": 7481,
      "Ġstainless": 7482,
      "Ġtruth": 7483,
      "Ġzero": 7484,
      "Ġprimarily": 7485,
      "Ġgenetic": 7486,
      "ba": 7487,
      "roke": 7488,
      "Ġarts": 7489,
      "Ġscan": 7490,
      "ĠCe": 7491,
      "Ġemployed": 7492,
      "Ġsavings": 7493,
      "lers": 7494,
      "mic": 7495,
      "Ġrural": 7496,
      "ĠĠĠĠĠ": 7497,
      "ĠMoreover": 7498,
      "Ġapartment": 7499,
      "Ġmillions": 7500,
      "Ġanten": 7501,
      "Ġimprovements": 7502,
      "Ġloves": 7503,
      "just": 7504,
      "race": 7505,
      "ĠDan": 7506,
      "ĠSea": 7507,
      "ĠPhone": 7508,
      "ĠResults": 7509,
      "}$": 7510,
      "Ġeast": 7511,
      "ĠRam": 7512,
      "Ġtrading": 7513,
      "Ġagreed": 7514,
      "Ġsounds": 7515,
      "Phone": 7516,
      "61": 7517,
      "ĠCat": 7518,
      "âĢĻ.": 7519,
      "earing": 7520,
      "iana": 7521,
      "Ġpurs": 7522,
      "LS": 7523,
      "lyn": 7524,
      "Ġcritic": 7525,
      "trans": 7526,
      "Ġcompos": 7527,
      "Ġensuring": 7528,
      "Ġpolitics": 7529,
      "Ġillness": 7530,
      "á»": 7531,
      "Ġcouncil": 7532,
      "Ġbrowser": 7533,
      "laim": 7534,
      "Ġcounty": 7535,
      "ĠDespite": 7536,
      "letter": 7537,
      "hab": 7538,
      "Ð¸": 7539,
      "Ġseeds": 7540,
      "ulpt": 7541,
      "ĠRev": 7542,
      "press": 7543,
      "Ġfounder": 7544,
      "Ġintegration": 7545,
      "Ġconstantly": 7546,
      "oret": 7547,
      "ership": 7548,
      "Ġsauce": 7549,
      "ĠBeaut": 7550,
      "ĠMedic": 7551,
      "Ġorders": 7552,
      "\")": 7553,
      "Ġink": 7554,
      "Ġthereby": 7555,
      "ERE": 7556,
      "ĠFed": 7557,
      "ĠJersey": 7558,
      "Ġangle": 7559,
      "fe": 7560,
      "isk": 7561,
      "Ġhole": 7562,
      "ansas": 7563,
      "300": 7564,
      "ĠDoes": 7565,
      "Ġbedrooms": 7566,
      "Ġdetected": 7567,
      "ĠJewish": 7568,
      "Ã¶": 7569,
      "ulin": 7570,
      "ĠJones": 7571,
      "rame": 7572,
      "Ġwhereas": 7573,
      "De": 7574,
      "Ġfer": 7575,
      "Ġexec": 7576,
      "Ġmeat": 7577,
      "onto": 7578,
      "allel": 7579,
      "hat": 7580,
      "ĠCredit": 7581,
      "urrent": 7582,
      "ĠNatural": 7583,
      "Ġdeveloper": 7584,
      "inent": 7585,
      "esis": 7586,
      "Ġproport": 7587,
      "ĠNAS": 7588,
      "Ġacute": 7589,
      "ĠiP": 7590,
      "Ġoccurs": 7591,
      "89": 7592,
      "Ġgrew": 7593,
      "Ġunion": 7594,
      "ĠAndrew": 7595,
      "ĠGovern": 7596,
      "Ġfulf": 7597,
      "eper": 7598,
      "Ã¤": 7599,
      "ĠUr": 7600,
      "ĠLee": 7601,
      "Ġcapabilities": 7602,
      "Ġrecommendations": 7603,
      "ĠÂ».": 7604,
      "Ġappreciate": 7605,
      "Ġvertical": 7606,
      "Ġdim": 7607,
      "ĠAmong": 7608,
      "Ġpurchased": 7609,
      "Ġvoters": 7610,
      "aniel": 7611,
      "79": 7612,
      "ĠTri": 7613,
      "ĠMatt": 7614,
      "Ġnewly": 7615,
      "Ġcontribution": 7616,
      "ĠFriend": 7617,
      "Ġdisorders": 7618,
      "haust": 7619,
      "Ġ00": 7620,
      "Ġoral": 7621,
      "riculum": 7622,
      "rowing": 7623,
      "Ġpotentially": 7624,
      "REE": 7625,
      "Ġattacks": 7626,
      "ĠSup": 7627,
      "Ġkit": 7628,
      "Ġkilled": 7629,
      "Ġclar": 7630,
      "ĠCountry": 7631,
      "ga": 7632,
      "ĠBall": 7633,
      "Ġ34": 7634,
      "Ġforming": 7635,
      "Ġpaying": 7636,
      "Ġspectrum": 7637,
      "Ġequipped": 7638,
      "Ġappearance": 7639,
      "(-": 7640,
      "missions": 7641,
      "ears": 7642,
      "iano": 7643,
      "Ġends": 7644,
      "Ġtickets": 7645,
      "Ġconflict": 7646,
      "rator": 7647,
      "oured": 7648,
      "Ġhun": 7649,
      "ificial": 7650,
      "Ġformula": 7651,
      "graduate": 7652,
      "Ġpregnancy": 7653,
      "UM": 7654,
      "angle": 7655,
      "Ġ95": 7656,
      "novation": 7657,
      "Ġacquis": 7658,
      "Ġsole": 7659,
      "iversary": 7660,
      "forcement": 7661,
      "ĠIraq": 7662,
      "Ġnone": 7663,
      "atern": 7664,
      "ipher": 7665,
      "Ġshell": 7666,
      "Ġprivacy": 7667,
      "Ġloop": 7668,
      "And": 7669,
      "Ġille": 7670,
      "link": 7671,
      "ĠRen": 7672,
      "Ġvast": 7673,
      "ĠWebsite": 7674,
      "Ġski": 7675,
      "ĠCharl": 7676,
      "alse": 7677,
      "Ġdrain": 7678,
      "aturally": 7679,
      "ĠPublished": 7680,
      "Ġsituations": 7681,
      "adium": 7682,
      "ifer": 7683,
      "Ġhealing": 7684,
      "riving": 7685,
      "ĠPrinc": 7686,
      "ĠStudent": 7687,
      "Ġexhibition": 7688,
      "Ġreplaced": 7689,
      "Ġinjection": 7690,
      "hell": 7691,
      "zer": 7692,
      "Ġfirms": 7693,
      "...<": 7694,
      "ifier": 7695,
      "Ġwhom": 7696,
      "Ġbigger": 7697,
      "Ġstrongly": 7698,
      "Ġevaluated": 7699,
      "atoes": 7700,
      "Ġseeking": 7701,
      "Ġpermanent": 7702,
      ">>": 7703,
      "anth": 7704,
      "ĠRun": 7705,
      "Ġweak": 7706,
      "ĠJohnson": 7707,
      "Ġholes": 7708,
      "ĠLittle": 7709,
      "ĠComment": 7710,
      "ĠAdditionally": 7711,
      "Ġwinner": 7712,
      "Ġlaboratory": 7713,
      "Ġvegetables": 7714,
      "ĠAdministration": 7715,
      "Ġwebsites": 7716,
      "Ġcommunicate": 7717,
      "ĠSciences": 7718,
      "Ġutility": 7719,
      "ĠQuality": 7720,
      "ylvania": 7721,
      "AF": 7722,
      "PD": 7723,
      "Ġhttps": 7724,
      "Ġstated": 7725,
      "aped": 7726,
      "Ġcolours": 7727,
      "Ġindicated": 7728,
      "Ġintervention": 7729,
      "Ġdebate": 7730,
      "MT": 7731,
      "Ġhall": 7732,
      "ĠNumber": 7733,
      "Ġcolon": 7734,
      "Ġboat": 7735,
      "ossible": 7736,
      "Ġhoriz": 7737,
      "Ġsouthern": 7738,
      "utical": 7739,
      "ĠPot": 7740,
      "Ġmanual": 7741,
      "tw": 7742,
      "eras": 7743,
      "Ġbelong": 7744,
      "Ġwooden": 7745,
      "Ġvolunteers": 7746,
      "ĠDaily": 7747,
      "Ġcrim": 7748,
      "Qu": 7749,
      "po": 7750,
      "iti": 7751,
      "umps": 7752,
      "Ġintra": 7753,
      "ĠVan": 7754,
      "Ġminimal": 7755,
      "Ġrear": 7756,
      "ogether": 7757,
      "Ġpeak": 7758,
      "Ġfunctions": 7759,
      "MC": 7760,
      "Ġoptimal": 7761,
      "ĠPolice": 7762,
      "ĠUpd": 7763,
      "itative": 7764,
      "Ġecho": 7765,
      "agen": 7766,
      "Ġbrew": 7767,
      "ĠPrime": 7768,
      "Ġanswers": 7769,
      "then": 7770,
      "ĠLic": 7771,
      "Ġultimate": 7772,
      "Ġma": 7773,
      "Ġspray": 7774,
      "Ġcheap": 7775,
      "ĠSn": 7776,
      "ĠCB": 7777,
      "erves": 7778,
      "Ġfeels": 7779,
      "Ġmultip": 7780,
      "Ġhybrid": 7781,
      "imensional": 7782,
      "Ġsynd": 7783,
      "Ġexport": 7784,
      "Ġinteractive": 7785,
      "rink": 7786,
      "ĠWelcome": 7787,
      "agues": 7788,
      "ĠConf": 7789,
      "ĠRecent": 7790,
      "inois": 7791,
      "bert": 7792,
      "2017": 7793,
      "night": 7794,
      "Ġbearing": 7795,
      "Ġexists": 7796,
      "Ġsuite": 7797,
      "apore": 7798,
      "ĠBroad": 7799,
      "ingly": 7800,
      "odium": 7801,
      "ferent": 7802,
      "ĠChristian": 7803,
      "Ġmeasurements": 7804,
      "62": 7805,
      "heast": 7806,
      "orph": 7807,
      "ican": 7808,
      "ĠPaper": 7809,
      "ĠEff": 7810,
      "Ġprotective": 7811,
      "ĠStudio": 7812,
      "ĠFinally": 7813,
      "ĠLooking": 7814,
      "iable": 7815,
      "real": 7816,
      "ivo": 7817,
      "Ġenthus": 7818,
      "Ġoperated": 7819,
      "Ġconfident": 7820,
      "mediate": 7821,
      "Ġusage": 7822,
      "ĠSwed": 7823,
      "stein": 7824,
      "Get": 7825,
      "ĠTax": 7826,
      "Ġformal": 7827,
      "Ġdivision": 7828,
      "Ġhospitals": 7829,
      "ĠAsh": 7830,
      "ĠOrder": 7831,
      "ĠPatent": 7832,
      "Ġmoments": 7833,
      "Ġnewsp": 7834,
      "Ġeleg": 7835,
      "Ġdistributed": 7836,
      "Ġcooperation": 7837,
      "Ġ;": 7838,
      "Ġbattle": 7839,
      "ĠForce": 7840,
      "ĠCapital": 7841,
      "Im": 7842,
      "Ġgrid": 7843,
      "rypt": 7844,
      "Ġoffices": 7845,
      "Ġconnections": 7846,
      "Ġnucle": 7847,
      "ĠTer": 7848,
      "ĠHa": 7849,
      "ĠNut": 7850,
      "Ġcarcin": 7851,
      "Ġhonest": 7852,
      "Ġacquired": 7853,
      "ĠCreate": 7854,
      "Ġcotton": 7855,
      "ĠCy": 7856,
      "ching": 7857,
      "unicip": 7858,
      "Ġvintage": 7859,
      "ĠUk": 7860,
      "Ġreligious": 7861,
      "Ġinsight": 7862,
      "ĠCollection": 7863,
      "annel": 7864,
      "Ġperfectly": 7865,
      "aska": 7866,
      "nesota": 7867,
      "Ġconversion": 7868,
      "cd": 7869,
      "ĠTotal": 7870,
      "str": 7871,
      "ĠSolutions": 7872,
      "ĠDivision": 7873,
      "Ind": 7874,
      "uction": 7875,
      "icit": 7876,
      "ĠMah": 7877,
      "Ġsaving": 7878,
      "Ġrecruit": 7879,
      "ateral": 7880,
      "Ġfeaturing": 7881,
      "ĠAdvis": 7882,
      "Ġemerging": 7883,
      "Ġbirthday": 7884,
      "SC": 7885,
      "Tr": 7886,
      "sl": 7887,
      "Ġgly": 7888,
      "Ġsimult": 7889,
      "Ġparticipation": 7890,
      "ĠInteg": 7891,
      "Ġexpectations": 7892,
      "ĠGallery": 7893,
      "Ġmetabol": 7894,
      "icular": 7895,
      "Ġproducer": 7896,
      "gage": 7897,
      "Ġec": 7898,
      "Ġrid": 7899,
      "Ġattach": 7900,
      "Ġbroken": 7901,
      "Ġ1999": 7902,
      "sylvania": 7903,
      "ĠðŁ": 7904,
      "omer": 7905,
      "ĠNav": 7906,
      "Ġadhes": 7907,
      "ĠKingdom": 7908,
      "DP": 7909,
      "FT": 7910,
      "Ġbeat": 7911,
      "Ġdeck": 7912,
      "Ġaddresses": 7913,
      "So": 7914,
      "from": 7915,
      "uracy": 7916,
      "Ġdepends": 7917,
      "Ġpossibility": 7918,
      "Ġappointment": 7919,
      "Us": 7920,
      "pes": 7921,
      "Ġrealize": 7922,
      "iverse": 7923,
      "Ġcriteria": 7924,
      "ĠExperience": 7925,
      "ĠPersonal": 7926,
      "One": 7927,
      "Ġshed": 7928,
      "ĠOnt": 7929,
      "ellite": 7930,
      "Ġpasseng": 7931,
      "Ġlinear": 7932,
      "AA": 7933,
      "Ġcyl": 7934,
      "Ġnode": 7935,
      "Ġyellow": 7936,
      "Ġ1990": 7937,
      "Ġ**": 7938,
      "Ġavailability": 7939,
      "By": 7940,
      "mat": 7941,
      "ĠAC": 7942,
      "ĠMu": 7943,
      "ifies": 7944,
      "Ġarms": 7945,
      "regon": 7946,
      "ĠBul": 7947,
      "ĠSmart": 7948,
      "Ġadvantages": 7949,
      "Ġspecialist": 7950,
      "aired": 7951,
      "Ġcats": 7952,
      "ĠHT": 7953,
      "ĠHen": 7954,
      "ĠInstead": 7955,
      "Ġdisclosed": 7956,
      "Ã¢": 7957,
      "ĠOl": 7958,
      "Ġaccum": 7959,
      "Ġoverview": 7960,
      "Ġcoat": 7961,
      "Ġwatching": 7962,
      "ĠLine": 7963,
      "Ġtargets": 7964,
      "irty": 7965,
      "umer": 7966,
      "Ġsurve": 7967,
      "ĠSilver": 7968,
      "abis": 7969,
      "Ġidentification": 7970,
      "ĠConstruction": 7971,
      "ĠCamb": 7972,
      "Ġinches": 7973,
      "Ġintroduce": 7974,
      "ĠDemocratic": 7975,
      "aceutical": 7976,
      "Ġcomplement": 7977,
      "Ġfourth": 7978,
      "Ġconcepts": 7979,
      "Ġentertainment": 7980,
      "Ġvice": 7981,
      "Ġemissions": 7982,
      "ĠReading": 7983,
      "Ġgraduated": 7984,
      "Ġconstructed": 7985,
      "Ġsister": 7986,
      "Ġcategories": 7987,
      "Ġstanding": 7988,
      "Ġamounts": 7989,
      "under": 7990,
      "athe": 7991,
      "alog": 7992,
      "Ġhaz": 7993,
      "400": 7994,
      "Ġrib": 7995,
      "oup": 7996,
      "Ġcompound": 7997,
      "Ġmanagers": 7998,
      "Ġhypot": 7999,
      "BO": 8000,
      "GF": 8001,
      "ĠTR": 8002,
      "Ġthorough": 8003,
      "Ġproof": 8004,
      "Ġvital": 8005,
      "Ġdecide": 8006,
      "Ġcalling": 8007,
      "Ġ1998": 8008,
      "Ġdestination": 8009,
      "ĠPennsylvania": 8010,
      "PL": 8011,
      "ensions": 8012,
      "Ġscrew": 8013,
      "Ġdirectory": 8014,
      "Tube": 8015,
      "Ġnic": 8016,
      "Ġalpha": 8017,
      "ĠRight": 8018,
      "Ġspokes": 8019,
      "inson": 8020,
      "Ġpreferred": 8021,
      "ĠStandard": 8022,
      "Ġmovies": 8023,
      "Ġachie": 8024,
      "hyd": 8025,
      "Ġod": 8026,
      "ĠPRO": 8027,
      "Ġsucceed": 8028,
      "Ġtherapeutic": 8029,
      "neys": 8030,
      "erman": 8031,
      "ĠBritain": 8032,
      "ĠIII": 8033,
      "ĠWorking": 8034,
      "ĠRights": 8035,
      "inds": 8036,
      "Ġapps": 8037,
      "Ġmodified": 8038,
      "Ġresistant": 8039,
      "Ġmaxim": 8040,
      "ĠSoftware": 8041,
      ".).": 8042,
      "making": 8043,
      "ĠRay": 8044,
      "acent": 8045,
      "ĠLiving": 8046,
      "Ġaccident": 8047,
      "Ġeligible": 8048,
      "ĠImpro": 8049,
      "rolled": 8050,
      "ĠHeart": 8051,
      "Ġtransactions": 8052,
      "Ġparking": 8053,
      "ĠQueen": 8054,
      "Ġfort": 8055,
      "ĠFall": 8056,
      "ĠNight": 8057,
      "Ġrating": 8058,
      "Ġkil": 8059,
      "Ġprofit": 8060,
      "ĠSat": 8061,
      "found": 8062,
      "ĠIC": 8063,
      "ĠMs": 8064,
      "ĠFOR": 8065,
      "Ġ39": 8066,
      "Ġvitro": 8067,
      "??": 8068,
      "Ġcheese": 8069,
      "ĠSus": 8070,
      "ĠPDF": 8071,
      "Ġvillage": 8072,
      "Ġentered": 8073,
      "American": 8074,
      "Ġlimits": 8075,
      "Ġdurable": 8076,
      "ĠTry": 8077,
      "awa": 8078,
      "http": 8079,
      "ĠEmer": 8080,
      "ĠStation": 8081,
      "ĠStaff": 8082,
      "Ġmatches": 8083,
      "ror": 8084,
      "Ġpapers": 8085,
      "ĠRh": 8086,
      "Ġadds": 8087,
      "RL": 8088,
      "Ġfed": 8089,
      "Ġmaintained": 8090,
      "Ġabsolutely": 8091,
      "Ġyounger": 8092,
      "Ġcapture": 8093,
      "Ġfacilitate": 8094,
      "VE": 8095,
      "ĠBath": 8096,
      "Ġchlor": 8097,
      "Ġcertified": 8098,
      "specific": 8099,
      "gent": 8100,
      "Ġretire": 8101,
      "Ġnarrow": 8102,
      "itan": 8103,
      "ĠSanta": 8104,
      "ĠKent": 8105,
      "scale": 8106,
      "Ġmatrix": 8107,
      "Ġelectrode": 8108,
      "gely": 8109,
      "itution": 8110,
      "ĠOak": 8111,
      "Ġresulted": 8112,
      "Ġversions": 8113,
      "Ġnormally": 8114,
      "Ġaccommodate": 8115,
      "Ġdefinitely": 8116,
      "Ġpilot": 8117,
      "At": 8118,
      "grad": 8119,
      "Ġwra": 8120,
      "ĠAriz": 8121,
      "Ġcoating": 8122,
      "Ġminister": 8123,
      "Ġcontained": 8124,
      "Ġrecognize": 8125,
      "Ġdrawing": 8126,
      "Ġorganisations": 8127,
      "nam": 8128,
      "ĠCN": 8129,
      "ĠRegister": 8130,
      "ĠInterest": 8131,
      "Ġterrit": 8132,
      "xiety": 8133,
      "rants": 8134,
      "vy": 8135,
      "Ġrecre": 8136,
      "Ġ01": 8137,
      "ĠDonald": 8138,
      "ĠForest": 8139,
      "ĠContinue": 8140,
      "Ġintelligence": 8141,
      "wan": 8142,
      "ĠAN": 8143,
      "Ġyesterday": 8144,
      "Ġsupplement": 8145,
      "ĠTech": 8146,
      "Ġkeeps": 8147,
      "Ġultra": 8148,
      "ĠLimited": 8149,
      "Ġsoul": 8150,
      "iser": 8151,
      "ĠBang": 8152,
      "Ġopposite": 8153,
      "proof": 8154,
      "Ġdeaths": 8155,
      "ĨĴ": 8156,
      "abs": 8157,
      "ĠVery": 8158,
      "Ġrack": 8159,
      "ĠMuslim": 8160,
      "Ġvaccine": 8161,
      "ocytes": 8162,
      "SE": 8163,
      "Ġexhaust": 8164,
      "ĠED": 8165,
      "Ġranging": 8166,
      "Ġtracks": 8167,
      "Ġundert": 8168,
      "Ġcompletion": 8169,
      "ĠToronto": 8170,
      "rovers": 8171,
      "ellect": 8172,
      "lder": 8173,
      "Ġindoor": 8174,
      "aneously": 8175,
      "Ġprompt": 8176,
      "Ġflexibility": 8177,
      "anol": 8178,
      "Ġneur": 8179,
      "Ġ55": 8180,
      "ĠJoe": 8181,
      "Ġgallery": 8182,
      "Ġceremon": 8183,
      "orry": 8184,
      "Ġseats": 8185,
      "Ġraw": 8186,
      "ĠGeorgia": 8187,
      "Ġ~": 8188,
      "++": 8189,
      "gi": 8190,
      "Ġdust": 8191,
      "ppers": 8192,
      "Ġhabit": 8193,
      "TER": 8194,
      "Ġsed": 8195,
      "Ġforced": 8196,
      "Ġalter": 8197,
      "Ġmarijuana": 8198,
      "ador": 8199,
      "oken": 8200,
      "Ġprime": 8201,
      "ĠAdditional": 8202,
      "aze": 8203,
      "Ġbanks": 8204,
      "etts": 8205,
      "Ġreson": 8206,
      "ournament": 8207,
      "Ġstrain": 8208,
      "vard": 8209,
      "ading": 8210,
      "Ġuniform": 8211,
      "Ġserum": 8212,
      "Ġvulner": 8213,
      "itled": 8214,
      "Ġhub": 8215,
      "ĠFlow": 8216,
      "Ġvend": 8217,
      "ĠMinnesota": 8218,
      "Ġsatisfaction": 8219,
      "ĠCL": 8220,
      "Ġinspiration": 8221,
      "Ġcontroller": 8222,
      "Ġcriminal": 8223,
      "ĠCoun": 8224,
      "oves": 8225,
      "Ġobserv": 8226,
      "py": 8227,
      "ĠNig": 8228,
      "ĠRegist": 8229,
      "Script": 8230,
      "left": 8231,
      "idity": 8232,
      "ĠFoot": 8233,
      "ĠWhich": 8234,
      "Ġinsights": 8235,
      "Ġcaps": 8236,
      "Ġaircraft": 8237,
      "Ġcontributions": 8238,
      "uct": 8239,
      "Ġchamber": 8240,
      "Ġlargely": 8241,
      "Ġaffil": 8242,
      "Se": 8243,
      "ĠYouTube": 8244,
      "ĠPrim": 8245,
      "('": 8246,
      "orb": 8247,
      "Ġprove": 8248,
      "ĠHaving": 8249,
      "ĠEstate": 8250,
      "ĠStore": 8251,
      "ĠKim": 8252,
      "ikes": 8253,
      "ĠInsurance": 8254,
      "Ġdivided": 8255,
      "Ġaccomplish": 8256,
      "nic": 8257,
      "otype": 8258,
      "istance": 8259,
      "ĠOregon": 8260,
      "cknow": 8261,
      "Ġsynthesis": 8262,
      "etics": 8263,
      "ĠFord": 8264,
      "ĠRoman": 8265,
      "Ġinteractions": 8266,
      "Ġexamination": 8267,
      "ĠIllinois": 8268,
      "ĠColumbia": 8269,
      "Ġreputation": 8270,
      "site": 8271,
      "Ġspoke": 8272,
      "Ġimpressive": 8273,
      "ĠUnf": 8274,
      "Ġradi": 8275,
      "Ġfarmers": 8276,
      "VA": 8277,
      "Ġweap": 8278,
      "ellular": 8279,
      "Ġunless": 8280,
      "Ġpersonnel": 8281,
      "Ġpassing": 8282,
      "Ġtrials": 8283,
      "Ġmanufacturers": 8284,
      "ĠText": 8285,
      "Ġrequirement": 8286,
      "Ġreleases": 8287,
      "ĠBuy": 8288,
      "alpha": 8289,
      "Ġreduces": 8290,
      "ĠHun": 8291,
      "Ġstudying": 8292,
      "Ġdoubt": 8293,
      "Ġphenomen": 8294,
      "Ġera": 8295,
      "Ġreject": 8296,
      "ĠUSB": 8297,
      "Ġexpanded": 8298,
      "ĠEnvironmental": 8299,
      "onym": 8300,
      "Ġhorse": 8301,
      "Ġdimensions": 8302,
      "ĠProm": 8303,
      "ĠDrive": 8304,
      "Ġcultiv": 8305,
      "Ġmountain": 8306,
      "Ġimmediate": 8307,
      "Ġempt": 8308,
      "Ġoccurred": 8309,
      "Ġdowntown": 8310,
      "Ġ250": 8311,
      "Ġmarine": 8312,
      "Ġrepresentative": 8313,
      "Ġmanufactured": 8314,
      "js": 8315,
      "Ġtap": 8316,
      "ĠDie": 8317,
      "Ġadequ": 8318,
      "Ġclothing": 8319,
      "ĠChange": 8320,
      "Ġcombine": 8321,
      "overty": 8322,
      "Ġguarantee": 8323,
      "friendly": 8324,
      "Ġturb": 8325,
      "uts": 8326,
      "otyp": 8327,
      "ĠLinux": 8328,
      "yard": 8329,
      "ori": 8330,
      "Ġ120": 8331,
      "ĠThough": 8332,
      "acks": 8333,
      "Ġaccuracy": 8334,
      "Ġreaders": 8335,
      "Ġpriority": 8336,
      "Ġcabinet": 8337,
      "Ġinvolvement": 8338,
      "Fe": 8339,
      "page": 8340,
      "ila": 8341,
      "omatic": 8342,
      "ĠBob": 8343,
      "Ġasset": 8344,
      "Ġ600": 8345,
      "Ġimplemented": 8346,
      "Ġfloors": 8347,
      "Pe": 8348,
      "bury": 8349,
      "Ġsac": 8350,
      "ĠiPhone": 8351,
      "onia": 8352,
      "Ġextend": 8353,
      "Ġcharges": 8354,
      "ali": 8355,
      "open": 8356,
      "Ġepid": 8357,
      "Ġinitiatives": 8358,
      "ĠJackson": 8359,
      "Ã¨": 8360,
      "Ġble": 8361,
      "asting": 8362,
      "Ġdesirable": 8363,
      "encing": 8364,
      "ĠClinton": 8365,
      "ĠFollowing": 8366,
      "Ġenzyme": 8367,
      "shire": 8368,
      "ĠAppro": 8369,
      "Ġcrime": 8370,
      "RS": 8371,
      "Ġarom": 8372,
      "ĠAction": 8373,
      "Ġproduces": 8374,
      "ĠHou": 8375,
      "ĠLuc": 8376,
      "Ġcontents": 8377,
      "Ġovercome": 8378,
      "ologic": 8379,
      "Ġsitting": 8380,
      "Ġlikes": 8381,
      "ĠMagazine": 8382,
      "lisher": 8383,
      "Ġram": 8384,
      "heim": 8385,
      "owa": 8386,
      "ĠRub": 8387,
      "emia": 8388,
      "Ġparallel": 8389,
      "cons": 8390,
      "Ġcoc": 8391,
      "ĠSC": 8392,
      "Ġconj": 8393,
      "Ġsubmit": 8394,
      "ĠAdvanced": 8395,
      "VER": 8396,
      "group": 8397,
      "Ġ!": 8398,
      "Ġmouth": 8399,
      "Ġexterior": 8400,
      "ontal": 8401,
      "ĠPolit": 8402,
      "ĠArizona": 8403,
      "ĠMerc": 8404,
      "ĠMethod": 8405,
      "Ġplur": 8406,
      "Ġsupposed": 8407,
      "Ġenjoyed": 8408,
      "Ġmaps": 8409,
      "Ġbehavi": 8410,
      "Ġdelivering": 8411,
      "Ġturning": 8412,
      "Ġforum": 8413,
      "Ġjoy": 8414,
      "Ġbuff": 8415,
      "Ġentirely": 8416,
      "Ġattended": 8417,
      "ĠCorporation": 8418,
      "Ġultimately": 8419,
      "ĠEvents": 8420,
      "Ġsurprise": 8421,
      "Ġerr": 8422,
      "Ġexceed": 8423,
      "Ġwash": 8424,
      "Ġdeploy": 8425,
      "Ġensures": 8426,
      "Ġpromoting": 8427,
      "Ġhydrogen": 8428,
      "Ġrepeated": 8429,
      "Ġadopted": 8430,
      "Co": 8431,
      "Ġbes": 8432,
      "ĠSher": 8433,
      "ĠRos": 8434,
      "Ġsculpt": 8435,
      "Ġcoron": 8436,
      "Ġcellular": 8437,
      "Ġengaged": 8438,
      "Ġpreval": 8439,
      "ternoon": 8440,
      "ĠCurrently": 8441,
      "72": 8442,
      "Ġmeets": 8443,
      "iscons": 8444,
      "ĠTel": 8445,
      "Ġ1000": 8446,
      "ĠRon": 8447,
      "ĠLLC": 8448,
      "Ġupload": 8449,
      "ologists": 8450,
      "Ġaspect": 8451,
      "Ġshooting": 8452,
      "ĠWilliams": 8453,
      "isconsin": 8454,
      "isa": 8455,
      "Ġforg": 8456,
      "ĠRail": 8457,
      "ĠEasy": 8458,
      "ĠSpain": 8459,
      "Ġstands": 8460,
      "Ġseconds": 8461,
      "''": 8462,
      "En": 8463,
      "rin": 8464,
      "ĠSO": 8465,
      "Ġcrack": 8466,
      "Ġcrystal": 8467,
      "ela": 8468,
      "Ġpossibly": 8469,
      "Ġbab": 8470,
      "ervative": 8471,
      "mercial": 8472,
      "Ġgreatly": 8473,
      "Ġsensitivity": 8474,
      "Ġbatteries": 8475,
      "Ġexceptional": 8476,
      "burgh": 8477,
      "Ġsubsequent": 8478,
      "Ġaluminum": 8479,
      "Ġsoph": 8480,
      "Ġnorthern": 8481,
      "iplin": 8482,
      "Ġdrawn": 8483,
      "ĠSingapore": 8484,
      "PE": 8485,
      "Ġbid": 8486,
      "ĠSom": 8487,
      "ĠEth": 8488,
      "Ġ52": 8489,
      "Ġ64": 8490,
      "ĠOntario": 8491,
      "Pl": 8492,
      "Ġbeam": 8493,
      "apor": 8494,
      "Ġattorney": 8495,
      "Ġ.<": 8496,
      "ĠFL": 8497,
      "ĠHR": 8498,
      "Ġvibr": 8499,
      "ĠCommon": 8500,
      "ocolate": 8501,
      "Ġsubstantial": 8502,
      "Data": 8503,
      "sec": 8504,
      "Ġlanguages": 8505,
      "ĠRa": 8506,
      "Ġ2022": 8507,
      "Ġinvas": 8508,
      "Ġgrass": 8509,
      "Ġpowder": 8510,
      "oir": 8511,
      "ÑĢ": 8512,
      "otive": 8513,
      "ĠMember": 8514,
      "Ġcontrovers": 8515,
      "Ġdonation": 8516,
      "Ġdocumentary": 8517,
      "76": 8518,
      "Ġyes": 8519,
      "Ġclock": 8520,
      "Ġdocumentation": 8521,
      "ĠBenef": 8522,
      "quar": 8523,
      "Ġexploring": 8524,
      "Ġheads": 8525,
      "ORE": 8526,
      "ĠIrish": 8527,
      "Ġhire": 8528,
      "ĠCra": 8529,
      "ĠVice": 8530,
      "ĠWeight": 8531,
      "Ġrelation": 8532,
      "Ġthickness": 8533,
      "Ġion": 8534,
      "Ġvel": 8535,
      "ĠStat": 8536,
      "Ġguitar": 8537,
      "Ġtaxes": 8538,
      "ĠProtection": 8539,
      "TV": 8540,
      "vity": 8541,
      "ĠIntro": 8542,
      "iplinary": 8543,
      "log": 8544,
      "quir": 8545,
      "Ġassigned": 8546,
      "Ġanticip": 8547,
      "ĠPrevious": 8548,
      "aters": 8549,
      "Ġfits": 8550,
      "ĠFre": 8551,
      "cket": 8552,
      "Ġtitles": 8553,
      "ĠModern": 8554,
      "acious": 8555,
      "Ġrecru": 8556,
      "Ġcarrier": 8557,
      "Ġchoosing": 8558,
      "Ġdomin": 8559,
      "Name": 8560,
      "ĠCore": 8561,
      "ĠCivil": 8562,
      "Ġshops": 8563,
      "Ġseasons": 8564,
      "Ġrequests": 8565,
      "Ġmoves": 8566,
      "ĠStill": 8567,
      "oven": 8568,
      "Ġbreath": 8569,
      "spe": 8570,
      "Ġcer": 8571,
      "Ġfasc": 8572,
      "Ġnaturally": 8573,
      "Ġbranch": 8574,
      "Ġbelieved": 8575,
      "ĠEmail": 8576,
      "month": 8577,
      "ĠUser": 8578,
      "Ġcertificate": 8579,
      "ĠSupreme": 8580,
      "range": 8581,
      "Ġ1980": 8582,
      "ĠMinistry": 8583,
      "ih": 8584,
      "sts": 8585,
      "Ġconvey": 8586,
      "achus": 8587,
      "Ġobl": 8588,
      "ĠScient": 8589,
      "ometimes": 8590,
      "Ġexception": 8591,
      "ints": 8592,
      "Ġprison": 8593,
      "ĠShop": 8594,
      "Ġlegs": 8595,
      "ĠMaybe": 8596,
      "ilation": 8597,
      "ĠPur": 8598,
      "ĠFox": 8599,
      "ĠGuard": 8600,
      "ellectual": 8601,
      "MI": 8602,
      "ĠSound": 8603,
      "Ġbreakfast": 8604,
      "Ġinch": 8605,
      "ĠTyp": 8606,
      "comp": 8607,
      "ĠPoly": 8608,
      "Ġtracking": 8609,
      "ĠDaniel": 8610,
      "Ġ($": 8611,
      "ĠInsp": 8612,
      "ĠJenn": 8613,
      "aph": 8614,
      "Ġdisk": 8615,
      "Ġacts": 8616,
      "Ġsky": 8617,
      "Ġorganisation": 8618,
      "Ġreviewed": 8619,
      "Ġtexture": 8620,
      "Ġcameras": 8621,
      "Ġacknow": 8622,
      "Ġproductivity": 8623,
      "Ġfaith": 8624,
      "uous": 8625,
      "Ġtor": 8626,
      "ĠFREE": 8627,
      "aste": 8628,
      "Ġtransist": 8629,
      "Ġversus": 8630,
      "Ġderived": 8631,
      "800": 8632,
      "](": 8633,
      "Ġbon": 8634,
      "Ġms": 8635,
      "Ġreward": 8636,
      "ĠNS": 8637,
      "Ġaged": 8638,
      "Ġdelivers": 8639,
      "Ġdestroy": 8640,
      "ĠCreative": 8641,
      "ĠScotland": 8642,
      "dney": 8643,
      "edge": 8644,
      "Ġduration": 8645,
      "Ġstem": 8646,
      "Ġstead": 8647,
      "elled": 8648,
      "Ġdates": 8649,
      "Ġdual": 8650,
      "raph": 8651,
      "Ġcreativity": 8652,
      "Ġexpanding": 8653,
      "Ġgraphic": 8654,
      "lined": 8655,
      "Ġbread": 8656,
      "Ġking": 8657,
      "ruption": 8658,
      "Ġbelief": 8659,
      "Ġsectors": 8660,
      "ĠTechnical": 8661,
      "ĠPhotos": 8662,
      "ogenic": 8663,
      "ĠPakistan": 8664,
      "achusetts": 8665,
      "etary": 8666,
      "ĠSite": 8667,
      "Ġanxiety": 8668,
      "ĠGirl": 8669,
      "iber": 8670,
      "ĠÂ±": 8671,
      "Ġhosted": 8672,
      "Ġbroadcast": 8673,
      "reated": 8674,
      "Ġoven": 8675,
      "ilst": 8676,
      "Ġtalks": 8677,
      "Ġrobust": 8678,
      "esy": 8679,
      "ĠRout": 8680,
      "abling": 8681,
      "Ġapplying": 8682,
      "Ġfishing": 8683,
      "Ġdisplays": 8684,
      "HA": 8685,
      "Ġok": 8686,
      "ĠSU": 8687,
      "ĠNick": 8688,
      "Ġru": 8689,
      "ĠInvention": 8690,
      "ventions": 8691,
      "Ġlayout": 8692,
      "ĠCOVID": 8693,
      "Me": 8694,
      "Ġlunch": 8695,
      "Ġgained": 8696,
      "Ġchildhood": 8697,
      "Ġwitness": 8698,
      "olis": 8699,
      "ayer": 8700,
      "ĠWant": 8701,
      "ĠNic": 8702,
      "ludes": 8703,
      "Ġinterpret": 8704,
      "Ġgran": 8705,
      "Ġinformed": 8706,
      "Ġjudge": 8707,
      "ĠHam": 8708,
      "ĠUnivers": 8709,
      "Ġweekly": 8710,
      "hydro": 8711,
      "Ġwarrant": 8712,
      "Ġcomplicated": 8713,
      "ĠCome": 8714,
      "ceived": 8715,
      "ĠMov": 8716,
      "ĠWisconsin": 8717,
      "Ġvo": 8718,
      "Ġ1997": 8719,
      "Ġopens": 8720,
      "ĠPlanning": 8721,
      "ĠNurs": 8722,
      "Ġspark": 8723,
      "Ġpermit": 8724,
      "Ġflash": 8725,
      "Ġbeds": 8726,
      "94": 8727,
      "run": 8728,
      "Ġpink": 8729,
      "Ġriding": 8730,
      "Ġoperator": 8731,
      "ĠEditor": 8732,
      "cal": 8733,
      "Ġbars": 8734,
      "ĠSelf": 8735,
      "Ġhero": 8736,
      "enda": 8737,
      "ryst": 8738,
      "Ġboxes": 8739,
      "Ġplurality": 8740,
      "Ġwider": 8741,
      "âĢĺ": 8742,
      "Ġtransformation": 8743,
      "Ġhappening": 8744,
      "Ġalongside": 8745,
      "Ġawesome": 8746,
      "ĠSD": 8747,
      "ĠAst": 8748,
      "Ġraising": 8749,
      "Ġvisible": 8750,
      "Ġancient": 8751,
      "rep": 8752,
      "Ġsubmitted": 8753,
      "Ġfolder": 8754,
      "Ġdangerous": 8755,
      "ja": 8756,
      "tic": 8757,
      "ĠMess": 8758,
      "ĠHold": 8759,
      "Ġchip": 8760,
      "Ġcurriculum": 8761,
      "Ġfundamental": 8762,
      "ĠFinance": 8763,
      "Bu": 8764,
      "RP": 8765,
      "long": 8766,
      "Ġmig": 8767,
      "ĠDE": 8768,
      "ĠFact": 8769,
      "ĠLi": 8770,
      "ĠTreatment": 8771,
      "una": 8772,
      "through": 8773,
      "Ġaggreg": 8774,
      "ĠTrack": 8775,
      "Ġgarlic": 8776,
      "foot": 8777,
      "Ġblow": 8778,
      "Ġmouse": 8779,
      "Ġdiscovery": 8780,
      "ennis": 8781,
      "ĠCharles": 8782,
      "MM": 8783,
      "Ġpill": 8784,
      "rog": 8785,
      "ĠSi": 8786,
      "Ġforth": 8787,
      "ĠVen": 8788,
      "Ġestimate": 8789,
      "hemistry": 8790,
      "ãĥ": 8791,
      "Ġrect": 8792,
      "ĠPen": 8793,
      "style": 8794,
      "ĠLarge": 8795,
      "Ġresume": 8796,
      "Ġgraphics": 8797,
      "Hz": 8798,
      "dependent": 8799,
      "step": 8800,
      "Ġkm": 8801,
      "anned": 8802,
      "Ġassistant": 8803,
      "Ġrom": 8804,
      "ĠSave": 8805,
      "ĠCand": 8806,
      "ĠEll": 8807,
      "Ġmarks": 8808,
      "ĠBelow": 8809,
      "Ġappointed": 8810,
      "73": 8811,
      "Man": 8812,
      "user": 8813,
      "igate": 8814,
      "Ġstamp": 8815,
      "ĠOwn": 8816,
      "anna": 8817,
      "Ġphysician": 8818,
      "Ġpreparing": 8819,
      "Ġhang": 8820,
      "Ġreverse": 8821,
      "ĠDVD": 8822,
      "Ġsurge": 8823,
      "Ġticket": 8824,
      "ĠIndustry": 8825,
      "Ġ:.": 8826,
      "etch": 8827,
      "Ġscope": 8828,
      "Ġefficacy": 8829,
      "Ġconsultation": 8830,
      "ĠKorea": 8831,
      "Ġhel": 8832,
      "Ġtransaction": 8833,
      "ĠContent": 8834,
      "Ġflower": 8835,
      "Go": 8836,
      "cence": 8837,
      "Ġherit": 8838,
      "ĠNO": 8839,
      "ĠKel": 8840,
      "Ġefficiently": 8841,
      "Ñģ": 8842,
      "ĠSA": 8843,
      "ĠPut": 8844,
      "Ġalk": 8845,
      "Ġextent": 8846,
      "Ġfocusing": 8847,
      "Ġcollections": 8848,
      "92": 8849,
      "ĠLatin": 8850,
      "aine": 8851,
      "Ġpopulations": 8852,
      "ĠTrade": 8853,
      "ĠInstagram": 8854,
      "ĠDemocrats": 8855,
      "Ġcrucial": 8856,
      "Ġeggs": 8857,
      "GA": 8858,
      "fold": 8859,
      "Ġinn": 8860,
      "ĠCopy": 8861,
      "Ġteen": 8862,
      "ĠAnaly": 8863,
      "ĠEarly": 8864,
      "ĠComb": 8865,
      "iking": 8866,
      "Ġneutral": 8867,
      "bles": 8868,
      "Ġpray": 8869,
      "Ġlibr": 8870,
      "ĠFuture": 8871,
      "Ġacids": 8872,
      "away": 8873,
      "Ġfiled": 8874,
      "Ġ=>": 8875,
      "gypt": 8876,
      "ESS": 8877,
      "Ġtomorrow": 8878,
      "Ġleague": 8879,
      "ĠKat": 8880,
      "Ġaccord": 8881,
      "Ġmounting": 8882,
      "Ġmicrosc": 8883,
      "Ġrenewable": 8884,
      "Ġafternoon": 8885,
      "ĠHouston": 8886,
      "Ġdemands": 8887,
      "Ġstronger": 8888,
      "Ġdiagnostic": 8889,
      "Ġnavigation": 8890,
      "Ġstreets": 8891,
      "sum": 8892,
      "Ġbrush": 8893,
      "Ġphotographer": 8894,
      "><": 8895,
      "rons": 8896,
      "Ġsought": 8897,
      "Ġocean": 8898,
      "Ġnutri": 8899,
      "Book": 8900,
      "FF": 8901,
      "een": 8902,
      "ĠKitchen": 8903,
      "Ġtransmit": 8904,
      "ĠPerformance": 8905,
      "Ġpassionate": 8906,
      "Ġdrinking": 8907,
      "Ġshapes": 8908,
      "Ġmortality": 8909,
      "TP": 8910,
      "ĠDO": 8911,
      "ĠLess": 8912,
      "Ġsupplied": 8913,
      "?âĢĿ": 8914,
      "ĠĠĠĠĠĠ": 8915,
      "ĠArmy": 8916,
      "Ġexamine": 8917,
      "Ġtargeted": 8918,
      "Ġauthority": 8919,
      "Ġmatching": 8920,
      "ĠRadio": 8921,
      "ĠMassachusetts": 8922,
      "Ġacquisition": 8923,
      "illy": 8924,
      "amination": 8925,
      "ĠKh": 8926,
      "Ġdepression": 8927,
      "ĠEconomic": 8928,
      "Ġstrict": 8929,
      "ĠBrad": 8930,
      "Ġscreens": 8931,
      "Ġsubstance": 8932,
      "you": 8933,
      "ĠDog": 8934,
      "ovascular": 8935,
      "Ġblank": 8936,
      "Ġmeasuring": 8937,
      "Ġoxide": 8938,
      "Ġinstitution": 8939,
      "Ġcompatible": 8940,
      "GE": 8941,
      "fig": 8942,
      "oned": 8943,
      "ĠDue": 8944,
      "Ġ44": 8945,
      "gressive": 8946,
      "Ġsew": 8947,
      "ĠBase": 8948,
      "ĠGolf": 8949,
      "Ġfacts": 8950,
      "Ġbarrel": 8951,
      "Ġcomprises": 8952,
      "dep": 8953,
      "habil": 8954,
      "vents": 8955,
      "Ġremained": 8956,
      "Ġpromise": 8957,
      "Ġroads": 8958,
      "Ġreveal": 8959,
      "ĠTurkey": 8960,
      "aria": 8961,
      "Ġgal": 8962,
      "ĠDid": 8963,
      "Ġvivo": 8964,
      "Ġtourism": 8965,
      "Ġroller": 8966,
      "Ġcontinuing": 8967,
      "Ġharvest": 8968,
      "BN": 8969,
      "Ð½": 8970,
      "Ġdiscrim": 8971,
      "Ġinvestments": 8972,
      "ometry": 8973,
      "Ġrental": 8974,
      "Ġjuice": 8975,
      "Ġphotographs": 8976,
      "Ġordered": 8977,
      "ĠYouth": 8978,
      "Ġceiling": 8979,
      "Ġphilosophy": 8980,
      "Ġeffectiveness": 8981,
      "ĠPlant": 8982,
      "Ġcertification": 8983,
      "Ġobjectives": 8984,
      "Ġnecessarily": 8985,
      "Int": 8986,
      "zing": 8987,
      "ĠManc": 8988,
      "essed": 8989,
      "Ġran": 8990,
      "ĠStan": 8991,
      "Ġunus": 8992,
      "')": 8993,
      "Ġpatent": 8994,
      "ĠPharm": 8995,
      "!!!": 8996,
      "Ġremoving": 8997,
      "Ġdiagnosed": 8998,
      "Ġsubsid": 8999,
      "oors": 9000,
      "rt": 9001,
      "isp": 9002,
      "ĠFile": 9003,
      "Ġperf": 9004,
      "Ġcrew": 9005,
      "ĠSydney": 9006,
      "habilitation": 9007,
      "ĠLA": 9008,
      "Ġmanip": 9009,
      "ROM": 9010,
      "ĠBa": 9011,
      "ĠEP": 9012,
      "ĠForum": 9013,
      "ĠProperty": 9014,
      "data": 9015,
      "Ġfru": 9016,
      "ĠAge": 9017,
      "ĠNever": 9018,
      "Ġrated": 9019,
      "Ġtrouble": 9020,
      "Ġsq": 9021,
      "Ġster": 9022,
      "star": 9023,
      "ĠEC": 9024,
      "ĠManufact": 9025,
      "Ġsensors": 9026,
      "Ġhosting": 9027,
      "Ġfeeding": 9028,
      "Ġheritage": 9029,
      "ĠTal": 9030,
      "ĠCut": 9031,
      "uters": 9032,
      "sex": 9033,
      "ĠUV": 9034,
      "ensing": 9035,
      "athan": 9036,
      "Ġtermin": 9037,
      "ĠImp": 9038,
      "Ġroutine": 9039,
      "Ġsurprising": 9040,
      "ĠMountain": 9041,
      "Ġpepper": 9042,
      "Ġboot": 9043,
      "Ġanniversary": 9044,
      "Ġvariables": 9045,
      "Ġannouncement": 9046,
      "Ġworkshops": 9047,
      "Ġcomplications": 9048,
      "74": 9049,
      "gression": 9050,
      "elle": 9051,
      "Ġorange": 9052,
      "Ġworse": 9053,
      "phones": 9054,
      "Ġassemb": 9055,
      "Ġoperational": 9056,
      "Ġvacation": 9057,
      "Ġvenue": 9058,
      "oes": 9059,
      "Ġpounds": 9060,
      "olving": 9061,
      "ĠPD": 9062,
      "advant": 9063,
      "ĠOm": 9064,
      "ĠAsk": 9065,
      "Ġpublications": 9066,
      "ĠUnfortunately": 9067,
      "gener": 9068,
      "orable": 9069,
      "ĠOK": 9070,
      "Ġscores": 9071,
      "Ġ09": 9072,
      "Ġskilled": 9073,
      "rability": 9074,
      "Ġdependent": 9075,
      "Ġagricultural": 9076,
      "rity": 9077,
      "ĠEric": 9078,
      "ĠEdition": 9079,
      "Ġhighlights": 9080,
      "Ġpride": 9081,
      "Ġkeys": 9082,
      "Ġboards": 9083,
      "Ġofficers": 9084,
      "Ġcircum": 9085,
      "Ġillegal": 9086,
      "Ġweld": 9087,
      "igma": 9088,
      "ĠEastern": 9089,
      "Ġplot": 9090,
      "Ġnoticed": 9091,
      "Ġunderst": 9092,
      "2016": 9093,
      "Ġartificial": 9094,
      "Ġelections": 9095,
      "ĠArchitect": 9096,
      "Ġhoping": 9097,
      "Ġalgorithm": 9098,
      "ĠpH": 9099,
      "ĠBern": 9100,
      "ĠPhD": 9101,
      "Ġvector": 9102,
      "Ġtou": 9103,
      "Ġabroad": 9104,
      "Ġunp": 9105,
      "Ġrose": 9106,
      "Ġinstant": 9107,
      "ĠRegional": 9108,
      "Ġcampaigns": 9109,
      "orgeous": 9110,
      "pi": 9111,
      "teen": 9112,
      "intend": 9113,
      "Ġpolym": 9114,
      "Ġentrance": 9115,
      "Ġbehalf": 9116,
      "Ġrising": 9117,
      "Ġassociate": 9118,
      "hyth": 9119,
      "ĠBooks": 9120,
      "ĠSem": 9121,
      "Ġproceed": 9122,
      "eping": 9123,
      "Ġauthorities": 9124,
      "html": 9125,
      "Ġantenna": 9126,
      "law": 9127,
      "Ġfilling": 9128,
      "Ġbags": 9129,
      "ampion": 9130,
      "They": 9131,
      "Ġentering": 9132,
      "Ġcorn": 9133,
      "Ġlegend": 9134,
      "Ġparticipating": 9135,
      "Ġattractive": 9136,
      "Ġwestern": 9137,
      "eties": 9138,
      "ĠDJ": 9139,
      "ĠRom": 9140,
      "ghan": 9141,
      "Ġcoaching": 9142,
      "Ġspecialized": 9143,
      "ĠJoseph": 9144,
      "Ġsyndrome": 9145,
      "93": 9146,
      "fil": 9147,
      "stic": 9148,
      "aka": 9149,
      "raction": 9150,
      "Ġdevelopments": 9151,
      "ĠĠĠĠĠĠĠ": 9152,
      "Ġpersonality": 9153,
      "Ġvoted": 9154,
      "Ġventure": 9155,
      "600": 9156,
      "ĠIowa": 9157,
      "ĠExcell": 9158,
      "Ġstrengthen": 9159,
      "ĠMonth": 9160,
      "Ġdiscloses": 9161,
      "Ġinfections": 9162,
      "Ġgam": 9163,
      "ĠPow": 9164,
      "ĠDrug": 9165,
      "ĠRs": 9166,
      "Ġshade": 9167,
      "Ġperipher": 9168,
      "Ġwrites": 9169,
      "Ġsplit": 9170,
      "Ġsegment": 9171,
      "Ġpad": 9172,
      "ĠHo": 9173,
      "Ġusual": 9174,
      "ĠCloud": 9175,
      "ports": 9176,
      "Ġengaging": 9177,
      "Ġwondering": 9178,
      "cosystem": 9179,
      "Ġemphas": 9180,
      "Up": 9181,
      "iro": 9182,
      "ĠEgypt": 9183,
      "Ġneu": 9184,
      "ĠChall": 9185,
      "Ġoverse": 9186,
      "Ġmemories": 9187,
      "ALL": 9188,
      "Ġscholarship": 9189,
      "91": 9190,
      "BP": 9191,
      "RC": 9192,
      "TO": 9193,
      "Ġfert": 9194,
      "rand": 9195,
      "ricts": 9196,
      "elfare": 9197,
      "Ġequity": 9198,
      "ĠSchools": 9199,
      "Ġtelephone": 9200,
      "Ġsad": 9201,
      "Ġroots": 9202,
      "Ġinvited": 9203,
      "Ġedges": 9204,
      "ĠPrivate": 9205,
      "Ġgiant": 9206,
      "isted": 9207,
      "Ġbelt": 9208,
      "Ed": 9209,
      "lass": 9210,
      "Ġbol": 9211,
      "ĠBon": 9212,
      "aven": 9213,
      "Ġprovision": 9214,
      "Ġ|.": 9215,
      "Ġdirections": 9216,
      "Ġmanufacture": 9217,
      "Ġdebut": 9218,
      "Ġconsideration": 9219,
      "ĠUpdated": 9220,
      "ho": 9221,
      "xy": 9222,
      "Ġconvert": 9223,
      "ĠEss": 9224,
      "Ġsharp": 9225,
      "rowse": 9226,
      "Ġportra": 9227,
      "Ġversatile": 9228,
      "Ġbarrier": 9229,
      "Ġinhibition": 9230,
      "ĠPhilipp": 9231,
      "Ġfraction": 9232,
      "Ġdisappoint": 9233,
      "Val": 9234,
      "https": 9235,
      "rell": 9236,
      "Ġbic": 9237,
      "ĠCorn": 9238,
      "asty": 9239,
      "Ġquote": 9240,
      "ordan": 9241,
      "Ġscr": 9242,
      "Ġlicensed": 9243,
      "Ġpharmac": 9244,
      "Ġadventure": 9245,
      ">\"": 9246,
      "VC": 9247,
      "bro": 9248,
      "chers": 9249,
      "di": 9250,
      "rus": 9251,
      "ationally": 9252,
      "agnetic": 9253,
      "ĠAssembly": 9254,
      "ĠSteel": 9255,
      "Ġnewest": 9256,
      "ervice": 9257,
      "Ġfaced": 9258,
      "Ġtraveling": 9259,
      "Ġembed": 9260,
      "Ġpitch": 9261,
      "ĠBand": 9262,
      "ĠBridge": 9263,
      "ixed": 9264,
      "Ġlistening": 9265,
      "Ġbreaking": 9266,
      "ĠOverview": 9267,
      "Ġswimming": 9268,
      "Ġsoci": 9269,
      "Ġshaft": 9270,
      "ĠThink": 9271,
      "Ġworkplace": 9272,
      "Ġcultures": 9273,
      "itches": 9274,
      "Ġcharacterized": 9275,
      "ĠStephen": 9276,
      "Ġempty": 9277,
      "iac": 9278,
      "Ġlocally": 9279,
[...]
